#version: 0.2
t h
i n
th e</w>
a n
t i
r e
e n
e r
o n
o n</w>
o f</w>
e d</w>
in g</w>
o r
a r
an d</w>
r o
e r</w>
t o</w>
s t
a t
ti on</w>
i n</w>
i t
a l
e s</w>
i s</w>
o u
e c
a l</w>
i c
o r</w>
a c
o m
p o
s i
e l
d i
a n</w>
u r
a t</w>
en t</w>
a s
p l
q u
i l
a tion</w>
e s
a s</w>
e m
p ro
T h
o t
v e</w>
r i
c on
d e
@ -
@- @</w>
o l
l y</w>
po s
t s</w>
s u
e n</w>
a m
c om
a b
u s
a g
l o
l i
f or</w>
w h
Th e</w>
u n
c h
qu ot
ti on
a pos
quot ;</w>
& quot;</w>
& apos
th at</w>
c e</w>
re s
e x
l e</w>
t r
a d
t er
b e</w>
s h
a p
&apos ;
a y</w>
f or
v i
p er
n o
l e
w it
i t</w>
u l
e t
u c
wit h</w>
ar e</w>
f i
m ent</w>
at e</w>
v er
it y</w>
i m
h a
c i
st r
o u</w>
i s
o p
m e
b y</w>
e re
n e
p ar
f f
ur e</w>
m o
ou n
g h
d ing</w>
p or
s e
th er</w>
a i
tion s</w>
s t</w>
c l
d e</w>
a r</w>
&apos; s</w>
s p
t ed</w>
er e</w>
y ou</w>
con t
c an</w>
t er</w>
com p
ro m</w>
on e</w>
b e
f rom</w>
er s</w>
th e
d s</w>
en ts</w>
w or
c o
a ti
at ed</w>
b u
for m
no t</w>
d uc
es s</w>
o w
c h</w>
b o
h i
ag e</w>
pl e</w>
s e</w>
c or
s o</w>
m e</w>
I n</w>
al l</w>
th is</w>
an g
a in
w as</w>
st e
ha ve</w>
al ly</w>
ou t</w>
ic e</w>
de v
il l</w>
a y
a k
l d</w>
ab le</w>
u m
o d</w>
p res
ti c
an ce</w>
re c
e t</w>
m ay</w>
h as</w>
si on</w>
t h</w>
or e</w>
re d</w>
w ill</w>
v er</w>
r a
ic h</w>
w e
ou r</w>
s ec
s y
t ing</w>
t e
in e</w>
p re
g h</w>
wh ich</w>
gh t</w>
an t</w>
C h
di s
i c</w>
f ac
ro u
2 0
en t
i z
an y</w>
e ar
as e</w>
d u
tion al</w>
m ore</w>
m in
g n
fi r
ou ld</w>
ar y</w>
a tions</w>
ec t</w>
in v
t u
d ed</w>
o ther</w>
em ent</w>
cl u
p e
g o
d er</w>
g i
t o
in g
es s
ic al</w>
ti ve</w>
ou r
e l</w>
el ec
s er
g r
c re
p u
a f
a in</w>
re n
it s</w>
b er</w>
e v
tr an
ste m</w>
us e</w>
om e</w>
al so</w>
h e
fir st</w>
com m
p h
on g</w>
o c
pro c
el y</w>
u s</w>
w i
as t</w>
t ec
in ter
at ing</w>
ti me</w>
g en
0 0</w>
ou s</w>
ere n
ai d</w>
a d</w>
in clu
I n
sy stem</w>
s o
am e</w>
si gn
u t
ti es</w>
ec i
e st
Ch in
ri s
c oun
en tion</w>
ic ation</w>
es t</w>
m an
d at
pro vi
qu i
cont ro
tran s
es e</w>
bu t</w>
bo di
f in
re l
f l
t w
el op
ar g
h e</w>
o w</w>
o per
su ch</w>
str uc
w e</w>
b et
m at
s aid</w>
u m</w>
o b
me th
re s</w>
p r
lo c
v ing</w>
i r</w>
ar d</w>
us ed</w>
us t</w>
en ce</w>
t y</w>
el l</w>
wor k</w>
o g
lo w
em bodi
on d</w>
ex am
u e</w>
ab out</w>
su b
po l
&apos; t</w>
at es</w>
ak e</w>
pro duc
form ation</w>
i r
d er
th an</w>
res p
a tional</w>
v al
s ur
dat a</w>
t en
t ure</w>
m ar
il e</w>
or s</w>
I t</w>
di ff
dev elop
e i
1 0</w>
s ti
il l
ac h</w>
po si
s ol
or y</w>
cor ding</w>
as ed</w>
su p
i d
por t</w>
c ur
be en</w>
e ff
ow n</w>
t ri
k s</w>
k ing</w>
c ri
m ents</w>
ver y</w>
the ir</w>
c u
on s</w>
a v
f e
w ere</w>
m on
ti v
su l
i es</w>
d es</w>
W h
o ple</w>
lo w</w>
t ur
y our</w>
d o
wh en</w>
i d</w>
we en</w>
dev ice</w>
tw o</w>
the y</w>
bet ween</w>
ap pl
b r
al s</w>
t or</w>
ti c</w>
i al</w>
Th is</w>
sec ond</w>
p ri
c ar
v ed</w>
k no
u p</w>
ch ang
re e</w>
e p
ac h
c ol
b le</w>
exam ple</w>
en c
C om
al l
en ti
Chin a</w>
ne w</w>
n ec
pres ent</w>
u d
ati ve</w>
ad e</w>
i g
en g
ar i
inv ention</w>
ol og
in to</w>
k e</w>
in formation</w>
h n
at er</w>
e ar</w>
pe ople</w>
as s
an d
th ere</w>
contro l</w>
e y</w>
s ome</w>
en s
b ec
a m</w>
it e</w>
d ay</w>
f r
f un
m em
U n
g u
y p
meth od</w>
gen er
t ro
il ity</w>
S t
a re
for m</w>
al y
an c
1 0
ci al</w>
le v
f u
fac e</w>
on ly</w>
l l</w>
it ed</w>
oun d</w>
en d</w>
diff eren
por t
al ity</w>
C on
i f</w>
po w
b l
el l
develop ment</w>
a u
ac k</w>
hi gh</w>
m y</w>
l ay
d o</w>
ay s</w>
di rec
ti m
sp eci
f er
c ap
ser v
ac t</w>
tic al</w>
ing s</w>
ac e</w>
A n
sh ould</w>
pu t</w>
d es
ter min
th rou
n ational</w>
g re
a il
& #
e w</w>
n ing</w>
r e</w>
2 0</w>
u p
h is</w>
wi th
m is
R e
w ay</w>
ac cording</w>
embodi ment</w>
ou t
e ach</w>
tec hn
s c
j ec
an s</w>
P ro
af ter</w>
f o
l in
ic i
ere in</w>
per i
ul ar</w>
i f
g rou
a st
ol d</w>
d ic
a use</w>
t em
ac c
k et</w>
f il
mat er
resp on
n um
on om
in cre
g ro
throu gh</w>
&# 9
for e</w>
i st
ic es</w>
com pl
re gi
li ke</w>
t ly</w>
n o</w>
ha d</w>
20 1
t re
e d
at ure</w>
th en</w>
g e</w>
posi tion</w>
po in
proc ess</w>
p en
m il
re sul
ear s</w>
m ul
pow er</w>
si de</w>
c er
y ear</w>
si st
I f</w>
ou s
v es</w>
m i
c lo
o l</w>
comm un
iz ation</w>
&apos ;</w>
ec onom
con nec
em s</w>
. .
lay er</w>
t yp
w ould</w>
se t</w>
us ing</w>
j ect</w>
s is</w>
cur ren
en tr
ur ther</w>
m it
ver n
man ag
p s</w>
l a
v ari
b i
A c
s ed</w>
wh o</w>
mo st</w>
vi r
ter s</w>
wh at</w>
g an
h el
des cri
v ol
proc ess
o ff
b ased</w>
F or</w>
st ri
ci r
s ure</w>
o se</w>
c ul
s ame</w>
l ine</w>
oper ation</w>
d ri
th er
f ol
F I
s el
rec ei
d y</w>
p i
o ver</w>
r u
y ing</w>
ur ing</w>
sh i
y ears</w>
20 0
ere d</w>
W e</w>
olog y</w>
e ver</w>
h y
num ber</w>
ab ility</w>
ch o
li c</w>
me di
an aly
m any</w>
b ed</w>
me as
th ing</w>
im pro
th ese</w>
m ain
1 9
st ud
an g</w>
pol y
A s</w>
k ed</w>
differen t</w>
u tion</w>
en er
un it</w>
f eren
l l
d el
b el
m a
li ght</w>
m ot
o k</w>
le ast</w>
re g
on g
re qui
the m</w>
im pl
in du
fun c
Y ou</w>
wh erein</w>
r ang
at or</w>
str y</w>
3 0</w>
per s
o ve</w>
1 2</w>
p er</w>
i ties</w>
ac tion</w>
per form
sign al</w>
c es</w>
im port
val ue</w>
f urther</w>
arg e</w>
iz ed</w>
in ce</w>
as s</w>
vi ew</w>
con fi
E x
kno w</w>
so ci
si ve</w>
ch ar
si ble</w>
B u
ai m</w>
grou p</w>
ris es</w>
w ater</w>
or gan
n et
un der
v e
re qu
tr y</w>
pl ay</w>
d ec
t ain
h o
or der</w>
f t</w>
go od</w>
chang e</w>
b ot
enc y</w>
res s</w>
m ade</w>
it al</w>
i ght</w>
ad di
in k</w>
d on</w>
on al</w>
fi c</w>
d ro
mar ket</w>
w ell</w>
wh ere</w>
pl o
sur face</w>
H e</w>
ag es</w>
su m
j ust</w>
5 0</w>
ex p
m ake</w>
ai r</w>
b us
ne ed</w>
us er</w>
f ul
par tic
an t
h ow</w>
h er</w>
at t
cont in
elec tr
in te
par t</w>
g y</w>
.. .</w>
h an
de si
b in
de termin
t ain</w>
o f
cl aim</w>
as es</w>
fu l</w>
in i
struc ture</w>
l ess</w>
j o
inclu ding</w>
0 .
mater ial</w>
manag ement</w>
m et
lev el</w>
ab ove</w>
ear ch</w>
th ree</w>
ex t</w>
fl u
E n
fi ed</w>
g et</w>
eff ec
st s</w>
an n
pu b
g n</w>
feren ce</w>
e f
u res</w>
et y</w>
s m
e ther</w>
k e
r y</w>
s s</w>
d ent</w>
bec ause</w>
an ti
go vern
ap pro
v en
A l
el s</w>
o ds</w>
m er
ab ly</w>
sh own</w>
ad v
in ess</w>
descri bed</w>
wor ld</w>
ow ever</w>
un der</w>
st o
v en</w>
tem per
embodi ments</w>
curren t</w>
sp e
st ar
im age</w>
li f
t e</w>
com e</w>
h ol
om e
FI G</w>
hi gh
import ant</w>
tic s</w>
inclu de</w>
struc tion</w>
comp any</w>
w ant</w>
at us</w>
ou gh</w>
r ate</w>
sh ow
no w</w>
provi de</w>
p ur
t ake</w>
u an</w>
Chin ese</w>
ak ing</w>
i a</w>
vir on
si ons</w>
shi p</w>
i de</w>
mis sion</w>
por tion</w>
re ad
net work</w>
con di
kno w
en ter
Un ited</w>
m s</w>
sti tu
l ong</w>
m ust</w>
st ate</w>
ic ally</w>
Wh en</w>
is su
fol low
th ere
c ould</w>
u ation</w>
se e</w>
par ti
elec tro
par t
our ce</w>
bu il
bo dy</w>
o ver
u str
sp ec
ap p
l es</w>
h um
an other</w>
ati c</w>
n er</w>
s elec
sti ll</w>
b ack</w>
i l</w>
sup port</w>
em ents</w>
char ac
ac k
ri ght</w>
T o</w>
st or
provi ded</w>
z e</w>
be ing</w>
ur ity</w>
appl ication</w>
c ase</w>
temper ature</w>
sup pl
ter n
el d</w>
d uring</w>
c entr
S h
cir cu
with in</w>
pr in
comp on
an k</w>
li m
d re
pre fer
inclu des</w>
s it
are a</w>
c a
qu ality</w>
lif e</w>
p at
ent al</w>
un i
s ing</w>
1 00</w>
t ors</w>
uc h</w>
ste p</w>
s en
1 2
o m</w>
d em
ch il
o x
is m</w>
serv ice</w>
sel f</w>
c ell
sh e</w>
p ul
c le
ev en</w>
w s</w>
at e
cont ain
wh ile</w>
en viron
1 1</w>
pub lic</w>
econom ic</w>
tec tion</w>
S ec
Bu t</w>
form ed</w>
A t</w>
a red</w>
tri es</w>
n ess</w>
s ens
comp u
ent ation</w>
d ra
ver s
li on</w>
typ e</w>
c r
m en
tre at
be fore</w>
1 4</w>
g o</w>
m ain</w>
In ter
g l
P ar
contro ll
ch em
ar ly</w>
ha ving</w>
an ts</w>
ic ul
1 5</w>
ec han
am oun
impl em
gh ts</w>
inv est
0 00</w>
ra m</w>
pres sure</w>
c al
te e</w>
ic ations</w>
poin t</w>
a si
en ing</w>
pro b
b ro
n ed</w>
gro w
p ati
hi m</w>
in st
techn ology</w>
li sh
1 ;</w>
&#9 1;</w>
coun tries</w>
3 ;</w>
&#9 3;</w>
di vi
a ve</w>
pro f
re duc
ai r
pos ed</w>
c y
h ere</w>
a x
tiv ely</w>
ac ti
re si
re por
4 0</w>
bot h</w>
con duc
th ink</w>
th ose</w>
an cial</w>
inter national</w>
loc k</w>
d r
de l</w>
w r
ne l</w>
D e
n on</w>
t en</w>
H owever</w>
p tion</w>
process ing</w>
R es
y uan</w>
coun try</w>
ill ustr
in d</w>
pro g
r ing</w>
m an</w>
treat ment</w>
s al
ec ted</w>
in t
s h</w>
A f
pl es</w>
b ers</w>
circu it</w>
m echan
indu stry</w>
le g
me ans</w>
un d</w>
com bin
dis play</w>
bus iness</w>
on ic</w>
A d
ra di
M o
govern ment</w>
l arge</w>
charac ter
e qui
1 6</w>
ap er</w>
ent ly</w>
h ic
mem ber</w>
pl ay
pos sible</w>
plo y
e ve</w>
ac coun
ac hi
st and
vari ous</w>
amoun t</w>
f ri
e .
de pen
in dic
commun ication</w>
analy sis</w>
est ab
gr ap
s k
i ed</w>
m ag
con struction</w>
cor d
produc ts</w>
il y</w>
resul ts</w>
ous ly</w>
An d</w>
w ays</w>
ai l</w>
if ic
ic k
s em
our ces</w>
v ely</w>
res t</w>
f low</w>
sm all</w>
tur al</w>
j u
ren g
se qu
pol ic
er ing</w>
e th
s es</w>
ic ro
h ar
pl ac
le t</w>
le ad
en ted</w>
et ing</w>
produc tion</w>
col l
tr ac
ne e
st ed</w>
g .</w>
en d
ap par
i str
vol t
t al
f am
a ff
s ome
id enti
1 .
out put</w>
pl an
St ates</w>
a ut
O n
fin ancial</w>
ir d</w>
e. g.</w>
sign ific
regi on</w>
is e</w>
with out</w>
Th ere</w>
con si
t ot
ti al</w>
O n</w>
al th</w>
gr am
mul ti
g g
de t
en ter</w>
s af
du ce</w>
n or
w ard</w>
re t
pro per
c our
ur al</w>
compl et
addi tion</w>
m uch</w>
ci p
st reng
e y
mo del</w>
follow ing</w>
c ent</w>
do es</w>
produc t</w>
ne t</w>
contin u
olog ical</w>
appar atus</w>
res earch</w>
a tion
ex c
N o
man u
ar ds</w>
in d
cont ent</w>
A r
desi gn</w>
t le</w>
Af ter</w>
peri od</w>
func tion</w>
mo b
ener gy</w>
eff ect</w>
ow n
&apos; m</w>
ro ss</w>
f ication</w>
l ast</w>
is t</w>
eff ici
p eci
a di
st om
m al</w>
d eci
y l
pl ace</w>
c ell</w>
hel p</w>
duc ation</w>
d own</w>
iz e</w>
or d
s ource</w>
in ation</w>
sh all</w>
t able</w>
s ci
b as
ve hic
&apos; re</w>
sec urity</w>
r an
hum an</w>
tim es</w>
tu al</w>
F ig
c an
Ac cording</w>
l and</w>
dre n</w>
sy st
al e</w>
fi eld</w>
incre ase</w>
d oc
e p</w>
re co
inte gr
mi x
all ed</w>
L i
car ri
direc tion</w>
pro mot
tiv ity</w>
stud y</w>
g as</w>
, 000</w>
at ely</w>
a ren
low er</w>
6 0</w>
ex peri
G o
perform ance</w>
de f
le ar
am p
volt age</w>
cho ol</w>
rang e</w>
k ey</w>
1 8</w>
p aper</w>
so cial</w>
le m</w>
b ly</w>
t ;</w>
re as
w om
b re
rel ated</w>
comp rises</w>
th ough</w>
determin ed</w>
f requ
t est</w>
grow th</w>
1 3</w>
di d</w>
Wh at</w>
re port</w>
m er</w>
b en
C oun
y l</w>
Th ey</w>
el ement</w>
n am
or i
c ou
hy dro
p ass
c us
equi p
go ing</w>
re pres
e ver
fil m</w>
su c
fo re
au th
lo b
prob lem</w>
s ing
a th
tri c</w>
ic k</w>
du le</w>
sec tion</w>
tot al</w>
sub str
x im
character is
bec ome</w>
de fin
reg ul
as p
m un
cor respon
o re
ac tive</w>
th ird</w>
in put</w>
t ak
z ed</w>
tain ed</w>
of f</w>
d om
di st
par ty</w>
m ach
s ay</w>
M ar
partic ular</w>
e qu
di ag
bet ter</w>
ma j
meth ods</w>
d ge</w>
et er</w>
cap ac
high er</w>
Un i
chil dren</w>
lo o
ris ing</w>
compu ter</w>
impro ve</w>
l it
connec ted</w>
A p
ex ten
s or
s wit
1 3
se par
as soci
sh or
con sum
op e</w>
meas u
es ti
ch ing</w>
G u
to o</w>
ig n</w>
speci fic</w>
ex pres
pr ice</w>
ac id</w>
Com mit
b ase</w>
to p</w>
re ference</w>
mem ory</w>
mob ile</w>
bl ems</w>
in al</w>
em ploy
bel i
gr ad
wh ether</w>
G ener
en s</w>
f ound</w>
al i
2 2</w>
ro t
i als</w>
st re
b ility</w>
acc ess</w>
z h
s ince</w>
ar m
cu stom
0 0
t arg
e very</w>
nec ess
ad d
resul t</w>
vers ity</w>
comp an
ac cord
n ot
s cre
spe ed</w>
com position</w>
Commit tee</w>
ic s</w>
in f
ur ation</w>
li qui
elec tric</w>
condi tions</w>
Fig ure</w>
si l
W or
serv ices</w>
min istr
sol ution</w>
b at
gre at</w>
si m
st an
manu fac
h al
a im
syst ems</w>
con ver
estab lish
ter m</w>
know n</w>
substr ate</w>
ain st</w>
confi g
du e</w>
tic le</w>
u ro
2 5</w>
sens or</w>
A s
h ear
fin d</w>
ut ure</w>
as k</w>
te ach
environ ment</w>
dev ices</w>
pro blems</w>
S er
f er</w>
suppl y</w>
jec ts</w>
p ing</w>
p rises</w>
si ze</w>
la w</w>
us es</w>
gi ve</w>
it h</w>
co st</w>
s et
no v
adv ant
suc c
o t</w>
j ing</w>
re al</w>
qu e</w>
ep t</w>
ag ainst</w>
it able</w>
m ental</w>
se ver
en e</w>
A b
show s</w>
ain ing</w>
we e
pro ject</w>
n ext</w>
ati vely</w>
t ou
ris k</w>
ou th</w>
provi des</w>
pro gram
dis cus
im p
re mo
i de
2 4</w>
sing le</w>
car b
D i
ro om</w>
ec ts</w>
ar t</w>
m icro
loc al</w>
l ed</w>
mo de</w>
ful ly</w>
pers on</w>
p an
o il</w>
d ate</w>
f uture</w>
di stri
wor ds</w>
distri bu
b il
in tro
b ri
a k</w>
ou se</w>
prefer ably</w>
f ree</w>
sist ance</w>
S u
e ducation</w>
wor king</w>
pati ents</w>
al low
cell s</w>
mater ials</w>
S y
aut om
cl es</w>
cer tain</w>
de tec
chang es</w>
we ight</w>
sit uation</w>
d n</w>
cont act</w>
s am
f oc
tur n</w>
ar ound</w>
t a
r ap
accord ance</w>
sp ace</w>
ex pl
am e
b est</w>
ar rang
invest ment</w>
ph one</w>
tu res</w>
he at</w>
resp ec
u es</w>
li sh</w>
f our</w>
sh ap
ever y
it ing</w>
ver age</w>
mil lion</w>
d ays</w>
part ment</w>
v ention</w>
t on</w>
met al</w>
m ess
g ation</w>
anc es</w>
an nel</w>
O b
h ome</w>
trans mission</w>
res ol
read y</w>
stor age</w>
g e
M an
mo dule</w>
ol e</w>
d ence</w>
p ed</w>
vehic le</w>
res ources</w>
g en</w>
equip ment</w>
ful l</w>
enter prises</w>
v ent</w>
l at
2 .
stud ents</w>
1 5
ati s
w ar
C o
em ber</w>
A mer
so f
19 9
re ments</w>
he ad</w>
he alth</w>
ad ju
an y
Amer ic
gu red</w>
sy n
N ew</w>
Th at</w>
str ate
in e
po li
lo t</w>
por ts</w>
ac y</w>
tw are</w>
vi ties</w>
b lock</w>
compon ent</w>
dis clo
frequ ency</w>
qu es
ic t</w>
ec tion</w>
ag ing</w>
s chool</w>
W ith</w>
indu stri
medi a</w>
op en</w>
diff icul
st ing</w>
comp rising</w>
b an
tion ed</w>
pl ur
selec ted</w>
confi gured</w>
m ol
lob al</w>
re lev
h u
s w
recei ved</w>
s ite</w>
N ations</w>
vi sion</w>
ad ded</w>
re ment</w>
2 1</w>
be g
h ous
mo d
are as</w>
nee ds</w>
av ail
re ally</w>
re li
8 0</w>
st and</w>
al ways</w>
re ad</w>
gener al</w>
B ei
er y</w>
fr on
ul es</w>
wom en</w>
correspon ding</w>
n ame</w>
polic y</w>
e as
si onal</w>
wor k
ser ver</w>
compan ies</w>
a o</w>
ch annel</w>
electro de</w>
Gener al</w>
liqui d</w>
plur ality</w>
loc ation</w>
necess ary</w>
v ement</w>
3 0
ass em
ter y</w>
ob ject</w>
c ases</w>
mon it
cor e</w>
del i
sign ed</w>
y s
th s</w>
l arg
termin al</w>
m or
ri se</w>
cal cul
pl ate</w>
effec tive</w>
or ing</w>
A n</w>
lo ok</w>
en ds</w>
d am
grou ps</w>
maj or</w>
g ate</w>
v al</w>
ri ghts</w>
uc le
lo ad</w>
sh ow</w>
mag ne
our s</w>
c ar</w>
an e</w>
L e
D ev
c y</w>
meas ures</w>
re fl
relev ant</w>
p e</w>
implem entation</w>
for ce</w>
gro und</w>
ut e</w>
con centr
ac e
il i
vi e
el e
h en
c at
con cer
mem bers</w>
econom y</w>
ou ght</w>
ph ot
vi de
compon ents</w>
characteris tics</w>
ro le</w>
parti cip
wor d</w>
Bei jing</w>
c ity</w>
connec tion</w>
20 0</w>
Th ere
sub st
di t</w>
&apos; ll</w>
h old</w>
1 4
intro duc
acti vities</w>
mon ey</w>
jo in
ag ain</w>
re le
c alled</w>
vi a</w>
is h</w>
pro tection</w>
wi d
u al</w>
as h</w>
as h
di se
ch arge</w>
P re
n al</w>
poin ts</w>
eng ine</w>
m ine</w>
achi ev
ci l</w>
o p</w>
ph ase</w>
f y</w>
lim ited</w>
p ic
op tical</w>
to g
te am</w>
ex ec
appl ied</w>
si a</w>
1 7</w>
eng th</w>
ev al
ic ial</w>
buil ding</w>
m p
in es</w>
ex ist
associ ated</w>
h and</w>
m aking</w>
incre ased</w>
con tr
tog ether</w>
speci al</w>
di g
re action</w>
at ures</w>
jec tive</w>
requi red</w>
pri se</w>
sof tware</w>
re al
con ven
c le</w>
pl as
me eting</w>
trans mit
hel d</w>
gi ven</w>
ch arg
divi du
ex per
co operation</w>
Th ese</w>
l u
lo g
asi c</w>
se ts</w>
S he</w>
fe w</w>
ben ef
respon se</w>
E uro
in ten
as si
ol s</w>
fam ily</w>
fo od</w>
en h
pl an</w>
r ati
P e
as ing</w>
S o</w>
bel ow</w>
st ory</w>
dri ve</w>
electr onic</w>
an ds</w>
ob tained</w>
b er
avail able</w>
m ary</w>
a w</w>
ch ed</w>
oper ating</w>
d own
mach ine</w>
Com p
me d
or ity</w>
T I
d ers</w>
de ter
controll er</w>
el ements</w>
saf ety</w>
prog ram</w>
su itable</w>
l y
co de</w>
le ft</w>
fron t</w>
fore ign</w>
cl aim
mechan ism</w>
f ile</w>
su ff
U S</w>
star t</w>
cor rec
am eter</w>
l ab
sever al</w>
at ors</w>
inv esti
fi x
comm on</w>
targ et</w>
ing ly</w>
hal f</w>
e ti
l ong
in dividu
config uration</w>
7 0</w>
si mil
or ig
T r
There fore</w>
H e
su per
vide o</w>
form ul
for ward</w>
re cor
F i
can not</w>
grap h
pl at
a w
En g
th ings</w>
b lo
experi ence</w>
ag re
h and
ach ed</w>
inter face</w>
ak es</w>
fr ame</w>
b al
ch i
re duce</w>
m oun
comm it
et c</w>
pos e</w>
ens ure</w>
fi ve</w>
cap ital</w>
partic ul
y st
ac tu
tur ing</w>
vi s
op tim
u ment</w>
Coun cil</w>
bo ard</w>
On e</w>
rel ation
er al</w>
g t;</w>
& gt;</w>
A ll</w>
de n</w>
t or
&apos; ve</w>
b ack
stan ding</w>
mo di
bas is</w>
in stitu
g lobal</w>
al ong</w>
ast er</w>
in s</w>
tak en</w>
R o
B o
n ucle
H ow</w>
requi rements</w>
e ous</w>
S tu
ef for
inte rest</w>
b it</w>
st ation</w>
St ate</w>
contin ue</w>
pro te
F or
c ent
par ts</w>
tr u
l ing</w>
direc tly</w>
c anc
I N
Dev elop
bu t
mul t
to day</w>
st u
ro w</w>
pri v
a p</w>
P l
tr aining</w>
lit tle</w>
m m</w>
1 6
ad ministr
tr ade</w>
anc ed</w>
pre ci
j i
a ther</w>
leg al</w>
v in
rel ess</w>
stand ard</w>
hous ing</w>
ord in
perform ed</w>
wh ole</w>
pl e
c am
J ap
A u
e e
ch ec
I s
ph ys
h erein</w>
c are</w>
tern al</w>
Res earch</w>
c ross</w>
inv ol
1 8
b asic</w>
g ame</w>
con c
poly mer</w>
p ay
fr ic
reco gn
3 2</w>
am ong</w>
ad ing</w>
val ues</w>
al ready</w>
es sion</w>
carb on</w>
organ ic</w>
poli tical</w>
in de
cou pl
ati c
p ast</w>
comp eti
gre ater</w>
U N
ab il
p ay</w>
peci ally</w>
cour se</w>
Uni versity</w>
ne ver</w>
k ind</w>
comp ound</w>
i um</w>
ch es</w>
d ru
es pecially</w>
d y
Go vern
trans fer</w>
cre ate</w>
op ening</w>
tr adi
th em
lo ve</w>
multi ple</w>
promot e</w>
enc es</w>
n at
um p</w>
phot o
r ay</w>
medi um</w>
ar ticle</w>
add ress</w>
h ard</w>
P er
m it</w>
Z h
po ten
ro r</w>
c li
ec hn
fer red</w>
shor t</w>
ro ad</w>
str ong</w>
of ten</w>
per cent</w>
ar s</w>
o th
centr al</w>
v o
ic on
pre vi
fac t</w>
ear ly</w>
ini ti
form s</w>
2 6</w>
ha i</w>
n s</w>
lev els</w>
de tection</w>
C l
duc tor</w>
ur y</w>
val ve</w>
t old</w>
on es</w>
li st</w>
st age</w>
s po
ri c</w>
ri bu
imp act</w>
h or
prin ci
O N</w>
N o</w>
Inter national</w>
assem bly</w>
in flu
ag ent</w>
h ours</w>
mess age</w>
in nov
ut es</w>
att ention</w>
F e
Ex am
v ince</w>
ke ts</w>
go t</w>
oc k</w>
F in
ar ing</w>
w a
nor mal</w>
fil ter</w>
1 9</w>
loc ated</w>
sup por
m u
N ational</w>
a verage</w>
5 0
w at
simil ar</w>
int ere
flu id</w>
w el
capac ity</w>
wor ks</w>
t ow
n it
port un
pl y</w>
2 3</w>
Develop ment</w>
vol u
at ory</w>
b ur
cl in
3 .
wi reless</w>
f ail
de red</w>
wh y</w>
particul arly</w>
rati o</w>
amp ;</w>
& amp;</w>
si bility</w>
J i
inter nal</w>
in ner</w>
ill ed</w>
c op
th us</w>
e f</w>
scre en</w>
S .</w>
form ing</w>
u ti
O r
c ed</w>
ac tivity</w>
comm er
sign als</w>
r .</w>
dig ital</w>
stre am</w>
T echn
i gh
addi tional</w>
re comm
effici ency</w>
col or</w>
ti l</w>
bi g</w>
h app
am es</w>
i ous</w>
issu es</w>
D is
C ol
it ary</w>
t ory</w>
en ed</w>
fu el</w>
K ey
re form</w>
magne tic</w>
om s</w>
ser ies</w>
i sh
di dn</w>
se e
G rou
sem icon
ul t</w>
med ical</w>
M e
appro pri
gener ally</w>
ox ide</w>
ag ed</w>
4 0
ch am
there of</w>
ac tions</w>
bat tery</w>
sil ic
organ iz
h er
prefer red</w>
sci enti
in sul
op portun
s chem
differen ce</w>
u ary</w>
mon ths</w>
s li
accoun t</w>
fac tors</w>
ar ti
ab les</w>
relation ship</w>
appl ications</w>
ang u
in depen
difficul t</w>
w all</w>
under stand</w>
us ers</w>
Inter net</w>
oun ds</w>
c all</w>
n a</w>
c ause</w>
c enter</w>
some thing</w>
exp ected</w>
um in
mot or</w>
i tion</w>
distribu tion</w>
posi tions</w>
resp ect</w>
Man ag
sec on
L E
er a</w>
Q u
I m
P ol
bo ok</w>
D ec
al ization</w>
2 8</w>
pr ac
r un
co ol
l ength</w>
cl ass</w>
al ing</w>
vi ol
proper ty</w>
st ain
con sist
contain ing</w>
tion ally</w>
semicon ductor</w>
en g</w>
rec ent</w>
Par ty</w>
N or
issu e</w>
ad op
mo tion</w>
a z
know le
dra w
at s</w>
signific ant</w>
typ es</w>
blo od</w>
pre p
mix ture</w>
deter mine</w>
zh ou</w>
d ou
h ap
ver s</w>
do m</w>
enter prise</w>
combin ation</w>
i or</w>
reduc ed</w>
W e
sur ance</w>
me et</w>
fe el</w>
dri ving</w>
Grou p</w>
U .
f lo
re main
po pul
oun d
un til</w>
det ail
mo der
resol ution</w>
defin ed</w>
a way</w>
sto red</w>
ad ap
3 1</w>
ex change</w>
re sistance</w>
d en
st er</w>
st at
cont ribu
S o
C O
ret ary</w>
b an</w>
techn i
R A
B y</w>
em pl
ex ternal</w>
complet e</w>
sc ale</w>
mon th</w>
fac il
X i
N e
y s</w>
lin es</w>
in come</w>
requ est</w>
b or
ill ing</w>
gi es</w>
ma xim
comp re
mi ght</w>
develop ed</w>
ar ri
u r</w>
y oun
at h</w>
enti al</w>
an tly</w>
re f
ap pe
v ered</w>
s on</w>
compre hen
ro w
B e
deci sion</w>
electr ical</w>
An aly
us e
b ank</w>
ac cur
stu di
H u
P r
dem and</w>
cr yst
all s</w>
comp ared</w>
beli eve</w>
achi eve</w>
soci ety</w>
commun ity</w>
diag ram</w>
jec tion</w>
play ed</w>
acti ce</w>
i ds</w>
pers on
on ce</w>
ame ters</w>
ph o
sub ject</w>
tradi tional</w>
impro ved</w>
h ouse</w>
ther ap
ter ms</w>
shap e</w>
l ater</w>
em er
establish ed</w>
w av
dise ase</w>
g ori
bo x</w>
gori th
sal es</w>
tr av
iz ing</w>
M y</w>
compl e
carri ed</w>
ti s
process or</w>
f ar</w>
t ell</w>
s ch
O ff
subst anti
asp ect</w>
volu me</w>
o d
Ob jective</w>
S peci
th ick
do or</w>
cul ture</w>
1 7
Th us</w>
anc ing</w>
grad u
cor por
poten tial</w>
posi tive</w>
se en</w>
jo b</w>
e .</w>
F ir
T H
sh are</w>
str ic
M on
pi x
techn ical</w>
gener ated</w>
j ud
b and</w>
g et
p ac
E l
ei ther</w>
mat ter</w>
ra in</w>
f low
oc cu
sh e
T o
cle ar</w>
b on
n er
R ec
fe atures</w>
l or
comp res
l s</w>
au di
proper ties</w>
chem ical</w>
A fric
chang ed</w>
al le
com par
un its</w>
effor ts</w>
sim ple</w>
rel atively</w>
A N
es tic</w>
9 0</w>
pat h</w>
clo se</w>
main ly</w>
d le</w>
pro jects</w>
swit ch</w>
phys ical</w>
man ner</w>
le ad</w>
har d
S e
streng th</w>
d one</w>
su gg
prof es
si gn</w>
gener ation</w>
plat form</w>
li k
cul tural</w>
l am
inclu ded</w>
res in</w>
wee k</w>
resi dent</w>
ta x</w>
plac ed</w>
ati ves</w>
Ser v
p ack
respec tively</w>
m en</w>
industri al</w>
on line</w>
pre par
comp rise</w>
al low</w>
1 10</w>
di men
w ind
al k
se ar
direc t</w>
bil lion</w>
r icul
m ing</w>
effec ts</w>
hi story</w>
co ver</w>
ag o</w>
- -</w>
I I</w>
appropri ate</w>
over all</w>
condi tion</w>
recei ve</w>
R us
ter n</w>
5 00</w>
s ent</w>
he ad
ax is</w>
M r.</w>
am s</w>
Govern ment</w>
sol id</w>
provi ding</w>
um ents</w>
recei ving</w>
men tioned</w>
sol u
lin k</w>
Ap pl
out side</w>
func tions</w>
ot s</w>
exp an
mol ec
o s</w>
priv ate</w>
ver se</w>
m a</w>
oth ers</w>
C ity</w>
nat ural</w>
manufac turing</w>
m akes</w>
er n</w>
wi de</w>
T V</w>
all eng
oper ations</w>
dist ance</w>
illustr ated</w>
l angu
canc er</w>
fix ed</w>
min im
B ased</w>
ot h</w>
up per</w>
S ince</w>
Sy stem</w>
ant i</w>
to ok</w>
de b
U. S.</w>
w are</w>
tic ally</w>
3 00</w>
dev el
4 .
en ded</w>
Wor ld</w>
re turn</w>
Pe ople</w>
cat aly
Th en</w>
P h
st atus</w>
u su
ic ate</w>
av o
develop ing</w>
Sh ang
pre dic
ev ent</w>
sam ple</w>
p age</w>
e asi
min utes</w>
hear t</w>
z ation</w>
en ough</w>
sequ ence</w>
ru n</w>
ang le</w>
par ameters</w>
1 20</w>
qu ar
O p
in ci
al tern
ul ation</w>
measu rement</w>
si an</w>
ste ps</w>
y et</w>
p aren
knowle dge</w>
pri mary</w>
c ard</w>
un e</w>
T i
S outh</w>
si t</w>
foc us</w>
mil itary</w>
ste el</w>
a ult</w>
in ning</w>
environ mental</w>
c ame</w>
d ents</w>
succ ess
pro tec
pi ec
rel ative</w>
individu al</w>
le ge</w>
pos ite</w>
ch r
desi red</w>
prog ress</w>
ti ce</w>
ci es</w>
F rom</w>
Al though</w>
w on</w>
th ought</w>
b it
ot e</w>
ex tr
al ized</w>
ho sp
ro ll
eas y</w>
up on</w>
w ise</w>
i .
dom estic</w>
al gorith
tion ing</w>
wh e
S ome</w>
t ren
pr actice</w>
ra is
lo ss</w>
ou ter</w>
monit oring</w>
regi ons</w>
bo o
ab sor
pers onal</w>
V i
sh af
dec re
d ens
bec om
ch alleng
dat ab
me an</w>
ke ep</w>
la un
acc ep
af f</w>
or ies</w>
pat tern</w>
h owever</w>
R E
to m</w>
it ation</w>
gu ide</w>
in a</w>
fun ds</w>
si tion</w>
if ication</w>
R i
Com mission</w>
auth or
ac qui
r up
mult i</w>
there fore</w>
ter r
consi der
s qu
n ight</w>
ex empl
C entr
o de</w>
st able</w>
dy nam
pur ch
s ession</w>
air s</w>
pre vent</w>
de p
P resident</w>
youn g</w>
st ore</w>
o s
mar k
t aking</w>
Shang hai</w>
w ent</w>
S T
sto p</w>
in king</w>
ch ain</w>
Sec urity</w>
J u
chil d</w>
wid th</w>
inde x</w>
id dle</w>
s ays</w>
no de</w>
s le
mo ve</w>
exist ing</w>
vie w
Eng lish</w>
cir c
ver sion</w>
uti li
thick ness</w>
consum ption</w>
N ow</w>
g ree</w>
b all</w>
ne g
0. 0
I C
co sts</w>
ain ed</w>
atic ally</w>
3 5</w>
regi onal</w>
i. e.</w>
In du
lear ning</w>
concentr ation</w>
ac tiv
fac es</w>
s l
suff ici
Analy sis</w>
an im
Americ an</w>
comprehen sive</w>
ha vi
B ec
el li
ne w
ine ering</w>
arrang ed</w>
pan el</w>
parti cles</w>
st ability</w>
el er
h ope</w>
clin ical</w>
the ory</w>
an ted</w>
in surance</w>
f re
3 4</w>
as ked</w>
em p
M eth
combin ed</w>
ac ross</w>
tur ned</w>
maxim um</w>
si des</w>
orig inal</w>
sen si
disclo sure</w>
eval uation</w>
ar m</w>
prote in</w>
in c
show ing</w>
buil d</w>
pro posed</w>
am pl
gen cy</w>
shaf t</w>
a ving</w>
do ing</w>
s mo
u b
ques tion</w>
r o</w>
expres sion</w>
gl ass</w>
N A</w>
fi er</w>
lay ers</w>
S C
g ing</w>
an ing</w>
pol ice</w>
10 2</w>
de gree</w>
C P
oc r
A R
5 .
asp ects</w>
C o</w>
claim s</w>
res er
as sets</w>
yl ene</w>
conduc tive</w>
M in
t ation</w>
an sw
ca used</w>
si c</w>
I D</w>
organiz ations</w>
every one</w>
reas on</w>
t ext</w>
T ran
Manag ement</w>
su sp
es tim
st ock</w>
De partment</w>
co ating</w>
produc ed</w>
li ve</w>
incre asing</w>
off ice</w>
fri ends</w>
vi l</w>
effici ent</w>
a u</w>
E N
diag no
teach ing</w>
R O
com es</w>
si x</w>
ow s</w>
st aff</w>
ic ity</w>
t ele
cy lin
b loc
O c
l t;</w>
& lt;</w>
em it
ex i
ill s</w>
qu anti
lead ing</w>
as er</w>
Fir st</w>
exempl ary</w>
ail y</w>
ain s</w>
pre si
D o</w>
F urther</w>
ast e</w>
de signed</w>
implem ented</w>
set t
ay ing</w>
cre dit</w>
cham ber</w>
pe an</w>
dru g</w>
we b
4 2</w>
repres ent
fir m
substanti ally</w>
res ource</w>
6 0
Sec retary</w>
pati ent</w>
e m</w>
str ation</w>
equ al</w>
k in
pur pose</w>
Comp any</w>
ag ricul
2 7</w>
signific antly</w>
wr it
g ed</w>
li gh
integr ated</w>
S te
H i
bot tom</w>
a i</w>
gi r
ol l
c are
exam ples</w>
speci f
G re
H ong</w>
or ation</w>
com ing</w>
oc cur
bu y</w>
pr ices</w>
g ent</w>
nee ded</w>
ad em
exec u
Bec ause</w>
be havi
gu ar
en se</w>
S tr
datab ase</w>
controll ed</w>
sc ope</w>
F r
our th</w>
Stu dy</w>
v ic
S up
er ror</w>
Euro pean</w>
ple ase</w>
S E
z ing</w>
long er</w>
strate gy</w>
at a</w>
us h</w>
profes sional</w>
institu tions</w>
polic ies</w>
custom ers</w>
el t</w>
d ary</w>
3 6</w>
a vi
st y
carri er</w>
measu red</w>
ell ing</w>
Techn ology</w>
w al
P o
J o
est s</w>
g er</w>
chec k</w>
c o</w>
consi dered</w>
devel op</w>
con stitu
per form</w>
ac ts</w>
e ts</w>
pre determined</w>
O F</w>
stand ards</w>
re pe
s atis
t al</w>
it er
Jap an</w>
previ ous</w>
spec tive</w>
to ol</w>
ac tual</w>
so ft</w>
langu age</w>
M ay</w>
allow s</w>
innov ation</w>
en ding</w>
f ast</w>
om ic</w>
b ac
repor ted</w>
rel ates</w>
cri min
scienti fic</w>
le t
i an</w>
der i
Gu ang
in spec
K ong</w>
E con
ed ge</w>
fac tor</w>
it or</w>
advant ages</w>
t un
tr af
A C
p air</w>
mo vement</w>
li ving</w>
str act</w>
lik ely</w>
S i
fl exi
coupl ed</w>
D uring</w>
streng then</w>
organ ization</w>
8 0
fin al</w>
par ties</w>
she et</w>
acc eler
impl ement</w>
co l</w>
effec tively</w>
tiv es</w>
p t</w>
m ass</w>
us h
ti f
r ural</w>
a res</w>
m y
re ly</w>
in ser
de sign
influ ence</w>
pres s</w>
im ages</w>
g ar
J une</w>
L o
G er
ann oun
sel ect</w>
he ating</w>
ad he
de st
neg ative</w>
A P
in side</w>
z z
off ici
issu ed</w>
car ry</w>
si on
sear ch</w>
fi g
L t
4 5</w>
set ting</w>
E m
prep ared</w>
di ameter</w>
ther mal</w>
min ist
ass es</w>
col um
algorith m</w>
ne ws</w>
K ore
pe ace</w>
c ement</w>
In di
achiev ed</w>
mo del
S ci
graph y</w>
pos t</w>
cli ent</w>
r ules</w>
T im
201 6</w>
selec tion</w>
loo king</w>
s er</w>
g es</w>
m om
lear n</w>
process es</w>
sp i
cy cle</w>
un c
sen se</w>
a h</w>
l ation</w>
introduc ed</w>
w o
un d
enti re</w>
tain ing</w>
sci ence</w>
bro ad
mo ther</w>
h om
J an
FI G
clu sion</w>
dri ver</w>
ph en
join t</w>
de partment</w>
reduc tion</w>
Com mun
popul ation</w>
radi o</w>
201 7</w>
an ten
repor ts</w>
ass ess
B ank</w>
el ds</w>
comple x</w>
doc ument</w>
ec tor</w>
appro ach</w>
sist or</w>
su stain
T ai
th y</w>
su e</w>
star ted</w>
di sp
est ed</w>
rele ase</w>
sy m
ol o
there by</w>
m es</w>
5 2</w>
proc e
ne ar</w>
curren tly</w>
z one</w>
inf ra
br ing</w>
usu ally</w>
princi ple</w>
im medi
E ach</w>
fil es</w>
E ff
6 .
Centr al</w>
moder n</w>
c ra
M ore</w>
th res
s at
wh ite</w>
cre ated</w>
re ferred</w>
beli ev
Pro duc
ste ad</w>
in o</w>
P C
re mot
ji ang</w>
respec tive</w>
custom er</w>
ob ser
ad s</w>
ar ch
comp ounds</w>
tu red</w>
traf fic</w>
TI ON</w>
mechan ical</w>
pu bl
Dec ember</w>
secon dary</w>
actu ally</w>
Wh ile</w>
Mar ch</w>
pro p
au ti
g er
rec ep
Off ice</w>
dis posed</w>
contr act</w>
Pro vince</w>
cho ose</w>
D C</w>
ob tain</w>
commer cial</w>
form er</w>
l aser</w>
plan e</w>
w ave</w>
ho t</w>
sel ves</w>
s end</w>
sto od</w>
employ e
C or
U S
P ri
ex er
A T
4 00</w>
at ten
pro duce</w>
ho st</w>
accoun ting</w>
w an</w>
al though</w>
main tain</w>
v ac
ris m</w>
I s</w>
p rec
h ot
it self</w>
v ill
g ic</w>
so on</w>
al most</w>
ci ties</w>
adju st
d oll
re view</w>
le ase</w>
es is</w>
fi ber</w>
S ep
Con tro
contain s</w>
e ding</w>
g s</w>
ro und</w>
Ju ly</w>
tem ber</w>
r ates</w>
con sul
f ourth</w>
an ese</w>
ur ban</w>
w ar</w>
discus sed</w>
c ut
exam ination</w>
nucle ar</w>
br an
indepen dent</w>
con struc
under standing</w>
plas tic</w>
si mul
continu ous</w>
th re
Hi gh</w>
t op
E C
de al</w>
N et
reg ar
B ri
st atis
Ab stract</w>
im mun
en ess</w>
201 5</w>
read ing</w>
3 3</w>
me dic
ou l
inst all
ser ious</w>
l ens</w>
he av
tou ch</w>
p ump</w>
Appl ication</w>
transmit ted</w>
cu t</w>
in str
L i</w>
sol ve</w>
deli very</w>
&apos; d</w>
resul ting</w>
tu be</w>
qu es</w>
advant age</w>
en co
gu id
ten ance</w>
Sep tember</w>
respon sible</w>
clo sed</w>
di um</w>
M ini
illustr ates</w>
wind ow</w>
p ath
plan ning</w>
T e
pl ant</w>
fun d</w>
W ell</w>
not ed</w>
ox y
bu s</w>
be am</w>
O ur</w>
suffici ent</w>
ad d</w>
ti de</w>
mi gr
cam era</w>
comp ens
en ting</w>
respon sibility</w>
pix el</w>
ph arm
c ro
rel ation</w>
B r
audi o</w>
pu ts</w>
El ec
gr ade</w>
tal k</w>
comm and</w>
ach ing</w>
Jan uary</w>
2 9</w>
se g
pri or</w>
201 8</w>
inst ance</w>
run ning</w>
su b</w>
I P</w>
s aw</w>
hap pen
wr ite</w>
guar an
conven tional</w>
d ly</w>
cool ing</w>
ou d</w>
rou ght</w>
poin ted</w>
cl ick</w>
l ack</w>
sh if
pr e</w>
thres hold</w>
ish ed</w>
ex pen
fe ature</w>
easi ly</w>
complet ed</w>
por tions</w>
en cies</w>
ess es</w>
t es</w>
rel ations</w>
sti c</w>
re ached</w>
ann els</w>
S uch</w>
bal ance</w>
Re gi
ang e</w>
w anted</w>
s ound</w>
part ments</w>
silic on</w>
person nel</w>
No v
poly mer
In formation</w>
work ers</w>
in duc
larg est</w>
lin ear</w>
tr a
T able</w>
s ity</w>
competi tion</w>
n an
le ave</w>
1 50</w>
S p
Mini stry</w>
el ing</w>
sp ac
gre at
fir e</w>
ur ther
A C</w>
es n</w>
stat ement</w>
Exam ple</w>
lim it</w>
estab lish</w>
A N</w>
b ar</w>
z es</w>
conc ept</w>
s cri
ici p
vin cial</w>
ar ies</w>
dem on
ed ure</w>
per spective</w>
200 8</w>
t ask</w>
me ters</w>
dynam ic</w>
regul ations</w>
vie ws</w>
ec h</w>
Al so</w>
remot e</w>
typ ically</w>
descri ption</w>
min d</w>
ch lor
Or gan
dou ble</w>
detec ted</w>
qu ick
b ar
Re public</w>
d on
h on
is sion</w>
ar ray</w>
sol vent</w>
t om
3 8</w>
urther more</w>
abil ities</w>
reg ard</w>
do esn</w>
E R
hol e</w>
sp ring</w>
As sem
4 4</w>
10 0
n on
n ature</w>
th in</w>
in struc
bu d
O S</w>
ch e
ex plo
ver si
radi ation</w>
a g</w>
go ods</w>
ban ks</w>
en jo
cap able</w>
7 .
divi ded</w>
t ent</w>
10 4</w>
gen ce</w>
chr on
pro t
ul ts</w>
op h
agre ement</w>
use ful</w>
fri end</w>
det ail</w>
2 5
ex cell
paren ts</w>
cl assi
happ y</w>
pri l</w>
re ac
star ting</w>
vir tual</w>
er ship</w>
in ter</w>
I D
li sted</w>
recor d</w>
cataly st</w>
re ach</w>
func tional</w>
ann ual</w>
A pril</w>
ec ting</w>
con fl
o gen
alle l</w>
for ces</w>
prac tical</w>
f av
oper ate</w>
W ind
7 0
to col</w>
mor ning</w>
po or</w>
Assem bly</w>
al lo
eval u
n ers</w>
sh o
20 10</w>
ini tial</w>
administr ation</w>
any thing</w>
import ance</w>
bu ff
aren t</w>
remo ved</w>
Serv ice</w>
R el
vari ety</w>
opportun ity</w>
LE D</w>
gre en</w>
j ac
ti z
pay ment</w>
appro xim
mo ving</w>
appl y</w>
exper im
i on</w>
u t</w>
therap y</w>
circ um
br ation</w>
b ul
fol low</w>
ri t</w>
rele ased</w>
int elli
Tran s
sm all
Wh y</w>
sk in</w>
tre ated</w>
bl ack</w>
olo gies</w>
reduc ing</w>
C ar
dis played</w>
ra ther</w>
tran sp
B us
hi stor
I S
separ ate</w>
dam age</w>
go al</w>
re cording</w>
intere sts</w>
hi c</w>
every thing</w>
pos es</w>
ace u
saf e</w>
larg er</w>
str ict</w>
m ic
g ress</w>
p aid</w>
F o
A m
In v
re stric
to ber</w>
co ordin
in hi
bi o
ex tre
ch annels</w>
C .</w>
M icro
par ameter</w>
speci fied</w>
S im
P lease</w>
rap id</w>
201 4</w>
off icial</w>
impro vement</w>
i fied</w>
s mar
po p
no ise</w>
b ad</w>
Di rec
impro ving</w>
he al
20 00</w>
show ed</w>
s or</w>
main tenance</w>
x i</w>
pe p
a qu
de partments</w>
enc our
dep th</w>
in jection</w>
buil t</w>
par allel</w>
ques tions</w>
quick ly</w>
re au</w>
in fl
er r
con st
gener ate</w>
st r</w>
lo se</w>
br and</w>
cryst al</w>
b ab
Ar ticle</w>
auti ful</w>
determin ation</w>
contain er</w>
lead ers</w>
Oc tober</w>
H um
4 1</w>
Ab str</w>
tu re
techni ques</w>
avo id</w>
P ow
vi sit</w>
lo st</w>
compu ting</w>
anten na</w>
piec e</w>
m iddle</w>
adv anced</w>
pub lish
squ are</w>
Ad ministr
is on</w>
shi ps</w>
de ath</w>
O ther</w>
pho sp
C enter</w>
M P
b ing</w>
ic h
employ ment</w>
al umin
ris is</w>
li mit
ep ing</w>
c able</w>
tak es</w>
conven i
Is ra
A S
e vi
F urthermore</w>
y i
O f</w>
ti fication</w>
as sistance</w>
TH E</w>
ch ro
jec ted</w>
ex hi
est er
proc edure</w>
l ate</w>
D es
u n</w>
hosp ital</w>
integr ation</w>
D E
beg inning</w>
fi elds</w>
z er
g ear</w>
fig ure</w>
m g</w>
dens ity</w>
requi res</w>
struc tures</w>
te sting</w>
prot ect</w>
ound ation</w>
ur ities</w>
n ect</w>
formul a</w>
sec tor</w>
it ems</w>
p ain
ame work</w>
complet ely</w>
w ash
ach es</w>
plac ement</w>
M S</w>
fail ure</w>
benef its</w>
tren d</w>
ide a</w>
s ources</w>
w in</w>
incre ases</w>
bre ak
mar kets</w>
Euro pe</w>
web site</w>
d ings</w>
pl ays</w>
r ich</w>
per f
st op
se as
tr ue</w>
del e
eng ineering</w>
col lege</w>
g ust</w>
Nov ember</w>
we b</w>
ast ing</w>
o k
ag ents</w>
direc tor</w>
p ass</w>
h op
excell ent</w>
pres ence</w>
i di
si zed</w>
Indu stry</w>
enh ance</w>
4 8</w>
continu ed</w>
correc t</w>
reas on
adjust ment</w>
arrang ement</w>
conver sion</w>
trans port</w>
ap preci
ev ents</w>
presi dent</w>
meas ure</w>
no thing</w>
invol ved</w>
Afric a</w>
exer ci
l ic
C an
ne y</w>
De sign</w>
Bus iness</w>
t um
s aying</w>
is ol
h ind</w>
swit ching</w>
throu gh
op ini
uni que</w>
ag rap
th inking</w>
it em</w>
tow ards</w>
cont ext</w>
b rought</w>
el im
M any</w>
under stood</w>
1 30</w>
ci v
trav el</w>
pl ans</w>
Econ omic</w>
ter ing</w>
g ri
Wind ows</w>
att ached</w>
streng th
detail s</w>
f ather</w>
li st
determin ing</w>
f ab
s .</w>
in ated</w>
In stitu
h our</w>
im aging</w>
pres sion</w>
D ata</w>
mit ted</w>
c risis</w>
model s</w>
h ere
bodi es</w>
colum n</w>
dat es</w>
7 5</w>
inspec tion</w>
inst alled</w>
Con vention</w>
be autiful</w>
t ered</w>
becom es</w>
appl ic
FIG S</w>
play ing</w>
ate g
inter medi
Ro ad</w>
al o
tiv eness</w>
ther wise</w>
Nor th</w>
suppor ted</w>
hard ware</w>
disclo sed</w>
b ir
plac es</w>
ex ha
est er</w>
mu sic</w>
W i
ob jects</w>
requi re</w>
m l</w>
Americ a</w>
establish ment</w>
8 .
201 2</w>
ist s</w>
Contro l</w>
ru le</w>
co vered</w>
Au gust</w>
p il
prepar ation</w>
icip al</w>
we ap
6 2</w>
c lim
invest ors</w>
prof it</w>
commun ications</w>
go ti
sur g
Key word</w>
rot ation</w>
com positions</w>
sh ares</w>
coll ection</w>
vari able</w>
ri x</w>
answ er</w>
al one</w>
f all</w>
whe el</w>
spi rit</w>
Ac cord
B i
b es</w>
some one</w>
offici als</w>
ma p</w>
as ks</w>
cre te</w>
M a
b ig
facil it
f ur
Accord ingly</w>
201 1</w>
ali gn
v it
emit ting</w>
al ed</w>
re over</w>
Lt d</w>
kin ds</w>
P al
immedi ately</w>
ox id
charg ing</w>
ne arly</w>
aff ect</w>
all ing</w>
200 9</w>
ti s</w>
ap ter</w>
vehic les</w>
behavi or</w>
agricul tural</w>
en able</w>
st ates</w>
deb t</w>
wom an</w>
e ously</w>
an ning</w>
solu tions</w>
i gn
cont ain</w>
tis sue</w>
h un
I P
const ant</w>
tran sistor</w>
Key words</w>
is ms</w>
f ine</w>
doc uments</w>
be hind</w>
sensi tive</w>
d aily</w>
par agrap
manag er</w>
consi der</w>
to ols</w>
ob vi
ther n</w>
reco very</w>
studi es</w>
ec tive</w>
indic ated</w>
prin t</w>
beg an</w>
c lock</w>
col d</w>
Th e
pic ture</w>
12 4
6 4</w>
L aw</w>
high ly</w>
L et</w>
T yp
op ened</w>
U E</w>
rec ently</w>
200 7</w>
Con ference</w>
small er</w>
du res</w>
5 1</w>
con ference</w>
W ang</w>
201 3</w>
adop ted</w>
sty le</w>
am ent</w>
super vision</w>
wr ong</w>
chang ing</w>
gen e</w>
ob ile</w>
ac ks</w>
r ad
port ation</w>
dra ft</w>
aff ected</w>
5 5</w>
pre vention</w>
add res
g ra
4 6</w>
A sia</w>
er o
in stead</w>
illustr ating</w>
e u
H is</w>
ne goti
allow ed</w>
industri es</w>
wi re</w>
th esis</w>
C re
cho ice</w>
autom atically</w>
is tic</w>
g ain</w>
flo or</w>
in j
strate gic</w>
modi fied</w>
c ash</w>
tr ading</w>
Su b
but ton</w>
est ate</w>
as set</w>
fre e
et ed</w>
pro mis
po st
H ar
rou gh</w>
am a</w>
get ting</w>
repor ter</w>
la ws</w>
C ha
Fi g</w>
pharm aceu
anc y</w>
expres sed</w>
as tic</w>
moun ted</w>
writ ten</w>
flexi ble</w>
hol ders</w>
terr or
serv ation</w>
controll ing</w>
sens ors</w>
tem por
chi p</w>
promot ing</w>
re ar</w>
them selves</w>
pre ven
bi tion</w>
g ave</w>
me t</w>
D istr
trac ted</w>
v ey</w>
es day</w>
6 5</w>
ref ers</w>
9 .
suppor ting</w>
employe es</w>
ad ed</w>
fin ancing</w>
s ely</w>
calcul ated</w>
th ous
s ou
char t</w>
gradu ally</w>
U R
C an</w>
ro un
com for
5 4</w>
As soci
P C</w>
adhe sive</w>
st ay</w>
200 5</w>
t an
Distr ict</w>
analy zed</w>
No .</w>
st ress</w>
ul tr
techn ologies</w>
si vely</w>
purch ase</w>
r s</w>
o graphy</w>
autom atic</w>
124 ;</w>
&# 124;</w>
v ot
Jap anese</w>
grap hic</w>
k er</w>
f ying</w>
commit tee</w>
fir m</w>
et ary</w>
ic ated</w>
con nect</w>
ent ary</w>
aqu eous</w>
ordin ary</w>
recei ver</w>
fe ed
minim um</w>
tr ying</w>
is tics</w>
Tai wan</w>
approxim ately</w>
g ap</w>
reas ons</w>
pow der</w>
G od</w>
opportun ities</w>
S chool</w>
ar di
E ducation</w>
vo ice</w>
trans formation</w>
benef it</w>
E ast</w>
1 ,
s cho
identi fied</w>
electro des</w>
f em
ag ue</w>
wr iting</w>
mo sp
proce dures</w>
H ere</w>
sp ir
back ground</w>
alo g</w>
ar ity</w>
he ight</w>
de ep</w>
al ia</w>
T w
Pro c
dom ain</w>
pi pe</w>
em o
el i
cri tical</w>
c ateg
C our
detail ed</w>
ca uses</w>
ei ght</w>
hol ding</w>
Mo reover</w>
sal t</w>
en z
A ustr
administr ative</w>
. .</w>
specif ically</w>
partic le</w>
Net work</w>
sec tional</w>
syn chron
spec tr
au gh
ac ci
10 6</w>
prin ting</w>
p ris
g old</w>
bec ame</w>
200 6</w>
cylin der</w>
wee ks</w>
c ast</w>
e at</w>
I T
b ine</w>
al og
recomm end
manufac ture
fi f
sub sequ
ver tical</w>
mat rix</w>
concer ned</w>
signific ance</w>
at tri
ac tively</w>
ci vil</w>
enc ed</w>
oxy gen</w>
ar ily</w>
success ful</w>
mix ed</w>
Sh en
om a</w>
uc k</w>
succ ess</w>
ad ver
ac et
sustain able</w>
facil ities</w>
A no
assess ment</w>
5 6</w>
we ar</w>
pass ed</w>
al ist</w>
pol l
demon str
3 7</w>
be aring</w>
A L
O h</w>
provi sions</w>
expan sion</w>
princi ples</w>
sk ills</w>
D em
Speci al</w>
val ent</w>
heav y</w>
pul se</w>
Y es</w>
p ped</w>
mar k</w>
S ha
b s</w>
dis charge</w>
Y our</w>
program me</w>
corpor ate</w>
investi gation</w>
qu ite</w>
tou rism</w>
po ver
vac u
connec ting</w>
deci ded</w>
on to</w>
en tic
ch ina</w>
D P</w>
install ation</w>
gener ator</w>
P S</w>
t on
hydro gen</w>
pack age</w>
Ano ther</w>
Bu reau</w>
H o
li ves</w>
e tic</w>
contain ed</w>
real ize</w>
d ry</w>
at mosp
w ind</w>
instruc tions</w>
vi su
C ap
fr amework</w>
m ir
dimen sional</w>
nor m
M at
lat est</w>
tur ns</w>
connec tor</w>
or k</w>
sam ples</w>
y our
shap ed</w>
infra structure</w>
follow s</w>
cour t</w>
P ub
rais ed</w>
li er</w>
ens es</w>
su n
ist an</w>
P L
jac ent</w>
C D</w>
a o
high est</w>
off er</w>
dec o
cut ting</w>
grow ing</w>
claim ed</w>
gener ating</w>
op tion</w>
sub stitu
X in
n m</w>
q ing</w>
struc tural</w>
teach er</w>
com posite</w>
fac tory</w>
can di
c k</w>
m ers</w>
I ra
D on</w>
sit es</w>
m ac
techni que</w>
M E
m aster</w>
announ ced</w>
T ur
st ered</w>
ak er</w>
p sy
fri end
t ol
teach ers</w>
conduc ted</w>
cle an</w>
buff er</w>
n i
spe ech</w>
as c
coun t</w>
altern ative</w>
ad jacent</w>
al li
p ping</w>
r ying</w>
app ing</w>
bo x
Hum an</w>
Un der</w>
evi dence</w>
sur faces</w>
trans action</w>
identi fication</w>
bre ak</w>
not e</w>
Rus sia</w>
alumin um</w>
k en</w>
hor iz
er ous</w>
Kore a</w>
fin ally</w>
br ane</w>
mom ent</w>
ec ture</w>
lit er
pover ty</w>
No t</w>
charg ed</w>
insul ating</w>
pro vince</w>
Institu te</w>
res ear
mat ch</w>
form at</w>
du al</w>
ho od</w>
investi g
C H
employ ed</w>
particip ate</w>
7 2</w>
ay be</w>
A P</w>
pro motion</w>
expl ore</w>
oper ative</w>
F u
Indi a</w>
remo ve</w>
trans mit</w>
r an</w>
co h
sti mul
ey es</w>
ru b
o therwise</w>
t ex
ne igh
gl y
19 8
6 00</w>
wav el
identi fy</w>
re main</w>
lear ned</w>
10 1</w>
op s</w>
k g</w>
reg ular</w>
pres ented</w>
regi stration</w>
E ven</w>
characteris tic</w>
ti ci
g ames</w>
n ur
Ne ws</w>
cle arly</w>
mar ri
in ate</w>
bud get</w>
b its</w>
mo ved</w>
medic ine</w>
di e</w>
ven ue</w>
previ ously</w>
sec u
c ere
accur acy</w>
sist ant</w>
cer tain
v able</w>
author ities</w>
s ave</w>
exper ts</w>
br uary</w>
your self</w>
N ote</w>
N ext</w>
wa it</w>
So cial</w>
J in
ar ms</w>
I ts</w>
tr ack</w>
heal thy</w>
cer tif
remain s</w>
pers ons</w>
at tem
arti cles</w>
w aste</w>
dise ases</w>
cont ents</w>
tran sition</w>
exha ust</w>
ris ks</w>
Ch ar
Min ist
Al tern
hum an
d ang
depen ding</w>
represent ative</w>
calcul ation</w>
differen ces</w>
z o
prof ile</w>
I C</w>
d ated</w>
molec ular</w>
l un
ob li
pac ket</w>
fun dam
meas uring</w>
gre es</w>
S O
diagno sis</w>
w ish</w>
monit or</w>
ad ding</w>
c m</w>
F ri
ow ned</w>
j our
Zh ang</w>
4 3</w>
mem brane</w>
D NA</w>
scho ols</w>
m in</w>
investi gate</w>
wid ely</w>
seas on</w>
Y ork</w>
coun ter</w>
leg is
lab or</w>
pop ular</w>
Fe bruary</w>
log ic</w>
ser ve</w>
it es</w>
En ter
bro w
se ems</w>
b ol
al ism</w>
pro pos
adju sted</w>
de ploy
t ax
hand le</w>
sc op
re member</w>
om atic</w>
br ary</w>
sur vi
arch it
C ur
dis k</w>
exc ee
Con gress</w>
str ong
prac tic
so dium</w>
t ant</w>
sol ved</w>
tr ust</w>
occu r</w>
s ports</w>
ou se
trans portation</w>
dis per
emer gency</w>
follow ed</w>
C D
pri ority</w>
challeng es</w>
li ghts</w>
stud ent</w>
ver ing</w>
wh ose</w>
A ut
200 4</w>
de pos
produc ing</w>
vir us</w>
dri ven</w>
cir cul
simul ation</w>
contro ls</w>
ne ur
wi f
Organ ization</w>
de grees</w>
fri ger
ac r
200 3</w>
con firm
et e</w>
bac ter
doll ars</w>
paragrap h</w>
confl ict</w>
a ur
F ore
agre ed</w>
bin ding</w>
con trac
suppl ied</w>
or g
posi tioned</w>
ar k</w>
num bers</w>
1 12</w>
auth entic
quar ter</w>
ti sh</w>
acc um
hear d</w>
st ly</w>
sh are
P or
reason able</w>
ord ers</w>
sim ply</w>
oc y
net works</w>
I S</w>
us tice</w>
perform ing</w>
fi es</w>
cro s
schem atic</w>
Uni on</w>
Associ ation</w>
fe ed</w>
mo vi
co il</w>
hydro x
Ad di
cent ury</w>
repres ents</w>
Exam ples</w>
en n
A t
plas ma</w>
m L</w>
1 40</w>
sequ ences</w>
tor que</w>
op tions</w>
ci tiz
great ly</w>
y er</w>
compens ation</w>
Meth ods</w>
consum ers</w>
tu de</w>
fo ot
tiv al</w>
ro gen</w>
resp ond</w>
Tw o</w>
consum er</w>
determin es</w>
pl u
histor ical</w>
the ore
la w
ann ed</w>
intermedi ate</w>
dru gs</w>
n ation
publish ed</w>
ev ol
l ity</w>
car s</w>
2 10</w>
b rain</w>
ocr atic</w>
C u
character ized</w>
st atic</w>
n ation</w>
Rus sian</w>
off ic
p p
f elt</w>
se a</w>
ad es</w>
s av
u de</w>
es tival</w>
O per
We b</w>
f oundation</w>
del ay</w>
To day</w>
Mo st</w>
ly mp
peri ph
app ear
recogn ition</w>
I V</w>
through out</w>
program s</w>
appe ar</w>
pow er
s pl
ed ul
C ul
r yp
up date</w>
cle aning</w>
coupl ing</w>
cl oud</w>
l and
v ector</w>
6 1</w>
P D
G e
horiz on
detec tor</w>
dra u
Wh ere</w>
hu ge</w>
Pre fer
com bus
feed back</w>
Con clusion</w>
t asks</w>
qu al
ci pl
fac ing</w>
f f</w>
att ack</w>
U se</w>
hot el</w>
cra ft</w>
transp arent</w>
Pow er</w>
exerci se</w>
drau lic</w>
vacu um</w>
ab or
inten ded</w>
ke eping</w>
Con struction</w>
Prefer ably</w>
c amp
He alth</w>
yi eld</w>
t ations</w>
in t</w>
9 0
5 8</w>
b one</w>
uni versity</w>
indic ates</w>
w ants</w>
er t</w>
Micro soft</w>
sim pl
3 D</w>
pu ty</w>
con clu
S ol
laun ched</w>
se at</w>
ac ting</w>
T re
In te
ca th
coun ter
Sci ence</w>
pe ace
adv ance</w>
pro tocol</w>
se as</w>
tri gg
sub si
boo ks</w>
k il
en sion</w>
for ced</w>
ell s</w>
met er</w>
p on
9 5</w>
ester day</w>
m al
se ven</w>
ey e</w>
def ault</w>
ex clu
studi ed</w>
b ond</w>
co al</w>
el se</w>
ir on</w>
i ance</w>
f arm
eth ylene</w>
X i</w>
e ah</w>
le ts</w>
ri es</w>
f it
zh en</w>
smar t</w>
e duc
cre ating</w>
ari an</w>
M B</w>
zer o</w>
entr y</w>
O R
Afric an</w>
occu p
repor ting</w>
ax ial</w>
dro p</w>
t ab
c ad
Administr ation</w>
recei ves</w>
Th rough</w>
elec tion</w>
tain s</w>
lo s
ut ri
wor th</w>
separ ation</w>
sy mp
Pro ject</w>
Ch ang
p H</w>
C C
am ino</w>
an ch
sh ared</w>
On ce</w>
ear lier</w>
weap ons</w>
fr ag
T u
J ust</w>
de pic
En viron
s co
charac ter</w>
pat tern
re friger
allo y</w>
conver ter</w>
Altern atively</w>
concer n</w>
Ac c
5 3</w>
af ter
tim ing</w>
t ance</w>
ent ered</w>
compar ison</w>
Ser ver</w>
en ab
distribu ted</w>
ex port</w>
A B
e e</w>
wif e</w>
some times</w>
gir l</w>
fu sion</w>
0.0 5</w>
fin ance</w>
pu t
con sol
n ar
F ac
for cement</w>
man ent</w>
accoun ts</w>
ren ch</w>
de ep
continu ously</w>
g al</w>
if y</w>
guaran tee</w>
or al</w>
as sum
6 6</w>
el low</w>
bl ue</w>
fl at</w>
electr ically</w>
ren t</w>
con ve
am ing</w>
ex tent</w>
expl ained</w>
lead ership</w>
E T</w>
st abil
han ds</w>
ess ential</w>
t own</w>
re ve
ex pos
clim ate</w>
ra ise</w>
shif t</w>
detec ting</w>
unc tion</w>
repres ented</w>
a x</w>
am ine</w>
indic ate</w>
h ouse
lin ked</w>
perf ect</w>
pre gn
d ential</w>
M ul
2 8
d ance</w>
il s</w>
f ing
t ons</w>
ap s</w>
10 8</w>
w on
y ang</w>
in corpor
sle ep</w>
mess ages</w>
wor ked</w>
b arri
di es</w>
anti body</w>
wh ere
s we
der ly</w>
combus tion</w>
ac adem
r ac
c ing</w>
ch ers</w>
inf ection</w>
m el
S um
techn ological</w>
di electric</w>
the tic</w>
tr ain</w>
schem e</w>
Pub lic</w>
der ing</w>
C lin
m us
mon y</w>
op posite</w>
tr act</w>
re in
el ine</w>
capac itor</w>
pep tide</w>
Ri ghts</w>
enjo y</w>
det ect</w>
Fin ally</w>
an ol</w>
obser ved</w>
play ers</w>
mechan isms</w>
k illed</w>
m ed</w>
Pal est
S el
sc en
exp ec
Coun ty</w>
recogn ized</w>
pur poses</w>
inten sity</w>
an k
f air</w>
ligh ting</w>
Res ults</w>
introduc tion</w>
transmit ting</w>
gh tly</w>
viol ence</w>
pro portion</w>
t ank</w>
se al</w>
l ess
s n
Tim e</w>
bri dge</w>
Ji ang
Ap ple</w>
Ger many</w>
decre ase</w>
Bu il
Fe der
ra w</w>
confi dence</w>
extre m
c in
mark eting</w>
pe ak</w>
se l</w>
200 1</w>
h im
On ly</w>
fi ght</w>
sti r
sc ene</w>
remain ing</w>
sch edul
so il</w>
view ed</w>
appro ved</w>
li es</w>
il ies</w>
long it
consider ation</w>
psy ch
p ite</w>
ord ination</w>
Bri tish</w>
t rou
tum or</w>
C E
sec re
cl ass
bor n</w>
trans ferred</w>
tele vision</w>
bel t</w>
I M
vill age</w>
0. 5</w>
wat ch</w>
iz es</w>
fr u
cop per</w>
c av
H z</w>
pass eng
sh an</w>
Inv est
k y</w>
estim ated</w>
let ter</w>
tow ard</w>
h ur
el ev
main tained</w>
accep table</w>
hy draulic</w>
guid ance</w>
su s</w>
S ur
sto res</w>
mis sions</w>
ti n</w>
occur s</w>
curren cy</w>
ag encies</w>
bloc ks</w>
D et
p ain</w>
exten d</w>
Cour t</w>
recor ded</w>
1 1
f res
bon ds</w>
I N</w>
advant ag
ad a</w>
vol un
hol der</w>
sens ing</w>
ad just</w>
AN D</w>
res on
ap p</w>
Re g
sur roun
bus in
car rying</w>
C A
sen ior</w>
hy per
g on
y m
il ization</w>
separ ated</w>
vol ati
om en
ob jective</w>
sh op</w>
l ar
regi stered</w>
200 2</w>
flu or
x i
m its</w>
lead er</w>
3 9</w>
P at
fer ring</w>
fi gh
believ es</w>
equ ity</w>
ph ones</w>
oc ks</w>
F und</w>
desi r
my self</w>
b ound</w>
secon ds</w>
mod ul
s low
go als</w>
H y
horizon tal</w>
acc ess
accur ate</w>
publ ic
prob ably</w>
t a</w>
U p
w as
b y
O N
sol ar</w>
ampl i
V al
gi ving</w>
mic ro</w>
D o
ultr as
maj ority</w>
h it</w>
dis cipl
Minist er</w>
u ally</w>
play er</w>
ro oms</w>
c ru
neigh b
s en</w>
strength ening</w>
.. ..
ide as</w>
s ent
sh aring</w>
equip ped</w>
versi ties</w>
br ake</w>
depen dent</w>
20 2</w>
Fr ance</w>
an ks</w>
ex posed</w>
pro xim
conduc t</w>
f ast
gi ves</w>
discus sion</w>
success fully</w>
appro val</w>
om er</w>
ph il
id ly</w>
experim ental</w>
oper ational</w>
A ff
A M
carb on
analy ze</w>
per cent
I T</w>
exc ept</w>
tur ning</w>
M ed
a de
M un
pres sed</w>
ori ented</w>
spo t</w>
G r
S P
Meth od</w>
recomm ended</w>
poll ution</w>
b order</w>
continu es</w>
W est</w>
l ands</w>
longit ud
con crete</w>
he ar</w>
ay ed</w>
off ers</w>
theore tical</w>
O lymp
g est</w>
atmosp here</w>
E R</w>
grap h</w>
U sing</w>
fam ilies</w>
Pl an</w>
si mult
simult an
ti tle</w>
por ted</w>
contr ast</w>
wav e
M i
cul tiv
sol d</w>
as hi
ak ers</w>
it ory</w>
happen ed</w>
t ment</w>
lat eral</w>
mil li
allow ing</w>
res c
rub ber</w>
F rench</w>
sup ports</w>
vi ation</w>
as ingly</w>
re st
ad minist
ob s</w>
re ality</w>
S un
exp and</w>
any one</w>
re pl
s ell</w>
no on</w>
f ill</w>
him self</w>
pl us</w>
s core</w>
I tal
tal king</w>
f oun
u re
it ch
S al
nit rogen</w>
poly mers</w>
ther mo
te sts</w>
g ations</w>
sum mer</w>
inter view</w>
mod ules</w>
ex ist</w>
be d
R em
k new</w>
d it
deri ved</w>
v es
st ations</w>
Ste p</w>
sit u
str ai
sur vey</w>
ac ids</w>
f illed</w>
Shen zhen</w>
commer ce</w>
susp ension</w>
Ch il
optim ization</w>
sett ings</w>
circum st
re turned</w>
st ated</w>
pl ants</w>
b ought</w>
s aving</w>
conveni ent</w>
L on
ab sol
l ement</w>
instr ument</w>
phen omen
str u
b and
2 20</w>
ch ance</w>
discus s</w>
8 5</w>
8 00</w>
sec ure</w>
p ist
ag ency</w>
quanti ty</w>
c ot
O ut
Ch en</w>
ear th</w>
dri ed</w>
e ed</w>
coll ected</w>
y ed</w>
o red</w>
y lic</w>
real ized</w>
og le</w>
pi p
do se</w>
E ver
incre asingly</w>
Ch ong
ec ological</w>
n utri
inci dent</w>
fem ale</w>
y n
W est
g el</w>
regul ation</w>
particip ation</w>
sp read</w>
Isra el</w>
com mod
b ag</w>
en ters</w>
K ey</w>
C N
program mes</w>
w in
bab y</w>
Li u</w>
E ar
d ong</w>
id ity</w>
Re port</w>
gu i
se aling</w>
compres sion</w>
we ather</w>
anim al</w>
camp ai
depen ds</w>
equi valent</w>
inv ent
in ing</w>
6 8</w>
correc tion</w>
extrem ely</w>
go es</w>
hol es</w>
posi tioning</w>
inter ference</w>
ep tion</w>
resi dents</w>
c e
acc ept</w>
clo sely</w>
he ated</w>
alog ue</w>
no zz
inter pre
d .</w>
9 9</w>
10 00</w>
par k</w>
bi ological</w>
Sec ond</w>
loc ations</w>
Be fore</w>
L u
o v
fav or
A ir
therap eu
Bo ard</w>
gh t
th ank</w>
am bi
Col lege</w>
C S
becom ing</w>
fr ac
me aning</w>
t in
v ity</w>
am p</w>
bil ities</w>
regar ding</w>
reli able</w>
in let</w>
Y ear</w>
Ira q</w>
reli gi
ag s</w>
fundam ental</w>
di ab
at eral</w>
reac tor</w>
6 3</w>
g one</w>
S ing
speci es</w>
facilit ate</w>
li th
typ ical</w>
et ings</w>
we st
ri de</w>
hy bri
Elec tr
comp ati
commun icate</w>
hol ds</w>
w est</w>
pro vincial</w>
over seas</w>
ro tor</w>
hu a</w>
out let</w>
coun ty</w>
2 4
air craft</w>
H ouse</w>
loo p</w>
deci sions</w>
pharmaceu tical</w>
seg ment</w>
draw ing</w>
u le</w>
appl ying</w>
Fore ign</w>
indic ating</w>
oper ator</w>
gro w</w>
de ad</w>
cr iter
consist ent</w>
ten sion</w>
organ ized</w>
S hi
tri ed</w>
ess or</w>
exten ded</w>
eren t</w>
an ding</w>
ap er
loo ked</w>
ser i
dou b
hand ling</w>
lo an</w>
M al
wo od</w>
st ro
val u
le y</w>
f ell</w>
E U</w>
Austr alia</w>
tr ation</w>
percent age</w>
si bilities</w>
2 7
ade qu
pix els</w>
appear ance</w>
or row</w>
2 50</w>
m ist
no des</w>
Th ree</w>
gon na</w>
recor ds</w>
adap ted</w>
10 5</w>
inst all</w>
Fin ancial</w>
l ying</w>
visu al</w>
be i</w>
inj ury</w>
fif th</w>
em ission</w>
applic able</w>
moun ting</w>
D ay</w>
C T
tele phone</w>
st ac
x y</w>
I II</w>
re venue</w>
A L</w>
v ul
remo val</w>
cri ption</w>
process ed</w>
fi bers</w>
w illing</w>
v oc
val uation</w>
ed ly</w>
R F</w>
Ti an
man age</w>
enti ally</w>
Y eah</w>
Go ogle</w>
ell ite</w>
ha ir</w>
ab road</w>
ang ular</w>
wavel ength</w>
flow s</w>
mor t
c alls</w>
L in
protec tive</w>
crimin al</w>
rup tion</w>
O R</w>
ra z
power ful</w>
ad y</w>
sec urities</w>
Chong qing</w>
deri v
govern ance</w>
actu ator</w>
ob jec
A re</w>
t i</w>
s u</w>
- -
ab ol
im ag
inter action</w>
L oc
exten ding</w>
sk illed</w>
pil ot</w>
cop y</w>
Am ong</w>
fam ous</w>
individu als</w>
thous ands</w>
am ic</w>
los ses</w>
shor t
mo l</w>
acqui sition</w>
emp ha
h ab
M L</w>
Tr ade</w>
f ault</w>
Mo del</w>
recommend ations</w>
ke y
execu ted</w>
i er</w>
cur ve</w>
difficul ties</w>
in ed</w>
effor t</w>
k ept</w>
tri al</w>
expos ure</w>
t ap
Palest ini
attri bu
exec ution</w>
d a</w>
roll er</w>
decre ased</w>
doc tor</w>
Tre at
coh ol</w>
S en
challeng e</w>
sp on
app ed</w>
W om
gu n</w>
Pro f
refl ected</w>
pur su
st res
mat es</w>
achiev ements</w>
desir able</w>
pl ates</w>
cav ity</w>
subsequ ent</w>
Eff ect</w>
er gy</w>
sever e</w>
augh ter</w>
exten sion</w>
longitud inal</w>
fil ms</w>
li brary</w>
el ess</w>
ing u
opini on</w>
f an</w>
enh anced</w>
cre ation</w>
oul dn</w>
obvi ous</w>
circumst ances</w>
S S
vers al</w>
func tion
sec tions</w>
dra w</w>
ran dom</w>
if e</w>
am m
big gest</w>
et h</w>
b ound
fi sh</w>
as is</w>
B ar
alk yl</w>
v el
h em
St and
lo ading</w>
ent re
m ail</w>
is ed</w>
201 9</w>
bas ically</w>
ing ton</w>
Ex change</w>
il legal</w>
su me</w>
F il
auth or</w>
ev ap
sugg es
sub scri
Ex per
S at
prin ted</w>
west ern</w>
pre neur
v ents</w>
al ities</w>
v ap
W ater</w>
certif icate</w>
mix ing</w>
electro ly
cap e</w>
rap idly</w>
sh ot</w>
confirm ed</w>
wa iting</w>
N um
n e</w>
C i
a ud
4 7</w>
bran ch</w>
statis tics</w>
differen tial</w>
activ ated</w>
gen der</w>
n avi
and a</w>
phosp h
cal i
z er</w>
St re
om et
surg ery</w>
predic tion</w>
eng aged</w>
op ping</w>
Lon don</w>
ori entation</w>
ti tude</w>
CP U</w>
1. 5</w>
vi sible</w>
Com mer
co efficient</w>
indic ator</w>
e an</w>
reli ability</w>
identi ty</w>
su d
feren ces</w>
M A</w>
strate gies</w>
j obs</w>
si x
in after</w>
piec es</w>
men u</w>
bit r
Serv ices</w>
enti ty</w>
tim ate</w>
expen sive</w>
k et
r ain
dec line</w>
periph eral</w>
West ern</w>
IN G</w>
syst em
H ol
ac he</w>
V ol
sub mitted</w>
appe ared</w>
ro ll</w>
dele gation</w>
concentr ated</w>
ca using</w>
enc ryp
be y
Em bodi
T S</w>
lin ks</w>
Pro gram
s low</w>
ha ven</w>
enc ing</w>
uni versities</w>
part ners</w>
enz y
1 60</w>
no tice</w>
sequ ently</w>
di ed</w>
pattern s</w>
ro p
requ ested</w>
bo t</w>
bey ond</w>
S af
pol ar
0. 1</w>
sh ar
ex ac
A sian</w>
de grad
amoun ts</w>
ain t</w>
au dit</w>
h us
1 14</w>
al cohol</w>
ent y</w>
4 9</w>
ves sel</w>
al location</w>
com posed</w>
P ac
app ears</w>
loc king</w>
pist on</w>
cri me</w>
re fer</w>
vi bration</w>
ampli fier</w>
G i
top ic</w>
li ver</w>
on ing</w>
co ding</w>
direc ted</w>
represent atives</w>
port able</w>
tur bine</w>
s ex
st er
Ad v
di strict</w>
friend ly</w>
wal k</w>
sul f
termin als</w>
plu g</w>
lo ans</w>
Ph one</w>
chlor ide</w>
hap s</w>
fab r
B l
b o</w>
effec tiveness</w>
arm ed</w>
b un
7 4</w>
Tr ump</w>
D oc
mon o
w alls</w>
to x
m arg
co ordination</w>
t ree</w>
t oms</w>
M eas
expres s</w>
chi ef</w>
down load</w>
authentic ation</w>
M il
f are</w>
ge o
et es</w>
an ci
sal e</w>
Pro vincial</w>
N an
is sions</w>
lo aded</w>
fail ed</w>
k ers</w>
fin ished</w>
7 1</w>
f icial</w>
ob servation</w>
pack aging</w>
recep tion</w>
Y u
fe eling</w>
y esterday</w>
lam p</w>
cou ple</w>
T ri
ro d</w>
deli vered</w>
s tic
ve get
5 7</w>
electr icity</w>
R MB</w>
me etings</w>
con str
pos sibility</w>
care er</w>
tou ri
aren ess</w>
Ri ver</w>
consist ing</w>
b ent</w>
experi ment</w>
min ute</w>
cad res</w>
sli ghtly</w>
ch apter</w>
I E
ch air
pass age</w>
govern ments</w>
i tive</w>
sc anning</w>
ong s</w>
en ables</w>
citiz ens</w>
mu tual</w>
Mun icipal</w>
main taining</w>
dis crimin
sp end</w>
dre am</w>
F estival</w>
them e</w>
b ath
re present</w>
d ress</w>
w ards</w>
oper ated</w>
intere sted</w>
ot ing</w>
repor ters</w>
parti ally</w>
bro ad</w>
loo ks</w>
broad cast</w>
commit ted</w>
s ac
free dom</w>
bl ed</w>
ur s
requ ests</w>
d op
te sted</w>
Ever y
u d</w>
no w
car di
co ated</w>
multi pl
enco ding</w>
et ro
Typ e</w>
h a</w>
defin ition</w>
cor relation</w>
lo g</w>
po ol</w>
ic it</w>
7 8</w>
Fri day</w>
A ir</w>
p in</w>
foc used</w>
p y
re turns</w>
N O
R NA</w>
tre ating</w>
implem enting</w>
em ail</w>
tri p</w>
beg in</w>
s elling</w>
in struction</w>
Wom en</w>
it arian</w>
fr ames</w>
occur red</w>
farm ers</w>
as sive</w>
correspon ds</w>
per manent</w>
H un
a c</w>
ic ing</w>
parti al</w>
laun ch</w>
a head</w>
solu ble</w>
intelli gent</w>
practic es</w>
spectr um</w>
is n</w>
inter ior</w>
M ac
comple tion</w>
ser ving</w>
intelli gence</w>
sum mar
An y</w>
anim als</w>
co m</w>
pro be</w>
cou l
ur ated</w>
share holders</w>
contribu tion</w>
L O
posi t</w>
busin esses</w>
sp ent</w>
archit ecture</w>
S to
er ial</w>
G en
M ember</w>
tom orrow</w>
2 ,
Indu stri
in ver
gri d</w>
tre at</w>
def ense</w>
war m</w>
exp ect</w>
temper atures</w>
fo rec
m ask</w>
l ac
A D
C am
S I
f aster</w>
m es
tol er
man if
gr an
nur sing</w>
8 2</w>
g ar</w>
10 3</w>
concer ns</w>
Direc tor</w>
rest aur
sam pl
pho to</w>
G lobal</w>
as signed</w>
T O</w>
ic ating</w>
we ak</w>
de puty</w>
7 6</w>
du ty</w>
Commun ist</w>
b att
for th</w>
U K</w>
Addi tionally</w>
a it</w>
extr action</w>
Xi a
st ocks</w>
migr ation</w>
Invest ment</w>
af r
Mon day</w>
d u</w>
g or
rou te</w>
refl ect</w>
re di
transmit ter</w>
indic ators</w>
j in</w>
ap ar
Di ff
spe ak</w>
op tionally</w>
Sim il
l er</w>
N ame</w>
electr on</w>
sh ell</w>
op en
stop ped</w>
ati n</w>
Wh o</w>
F l
ac ute</w>
V er
st ers</w>
trans actions</w>
C T</w>
ent ations</w>
Can ada</w>
s per
aw areness</w>
strai ght</w>
tec h</w>
ast ern</w>
m ic</w>
at oms</w>
A S</w>
ing redi
requi rement</w>
M r</w>
em entary</w>
A re
def ine</w>
p ig
regi ster</w>
formul ation</w>
R C</w>
T est</w>
coul dn</w>
nam ed</w>
f light</w>
12 2</w>
re pair</w>
cap abilities</w>
fres h</w>
re place</w>
rel ating</w>
ent ally</w>
form al</w>
happ en</w>
th ro
resear chers</w>
sp ati
Mar ket</w>
Pro tection</w>
S S</w>
gir ls</w>
prep are</w>
ari at</w>
know s</w>
expl ain</w>
g ol
l umin
vi sed</w>
asc ular</w>
in ks</w>
tempor ary</w>
th or
Ac adem
pres er
ir e</w>
E very</w>
1 80</w>
evalu ate</w>
trac king</w>
provi sion</w>
Re pres
log ical</w>
believ ed</w>
le aving</w>
Eng ineering</w>
2 9
lar ation</w>
circu its</w>
m asses</w>
p ad</w>
ain ts</w>
o di
M iddle</w>
k es
barri er</w>
onom ous</w>
S Q
jo in</w>
immun e</w>
log istics</w>
initi ative</w>
sur ing</w>
el ines</w>
off set</w>
Im pl
nucle ic</w>
ne u
v ation</w>
20 20</w>
Ger man</w>
M O
accum ul
ge ts</w>
st ar</w>
ro te</w>
Co de</w>
R S</w>
Guang zhou</w>
dest ination</w>
pi on
f it</w>
Produc t</w>
buil dings</w>
in take</w>
auth ority</w>
ar bitr
enter ing</w>
join tly</w>
S ome
H T
cont acts</w>
dis aster</w>
gu res</w>
res sion</w>
at trac
c ele
exten ds</w>
w w
for d</w>
cu sto
C ri
ang i
wee k
m ut
D aily</w>
after noon</w>
Q ing
conc ep
symp toms</w>
disp ens
induc ed</w>
Ho sp
ro ot</w>
ex changes</w>
j unction</w>
B oth</w>
6 7</w>
w rote</w>
academ ic</w>
P E
dra in</w>
con dens
bro ther</w>
20 4</w>
el derly</w>
In st
therapeu tic</w>
innov ative</w>
dest ro
o king</w>
num er
condi tioning</w>
wel ding</w>
bl ade</w>
n ic</w>
el astic</w>
ph y
s can</w>
part ner
rec ru
te ams</w>
att acks</w>
W ar</w>
tru th</w>
mat ters</w>
ar my</w>
di pl
c ei
up dated</w>
j ustice</w>
absor ption</w>
Af gh
pu s</w>
su res</w>
p ush</w>
inter net</w>
A R</w>
i ti
cor ro
de e
polymer ization</w>
adju sting</w>
B ro
terror ism</w>
program ming</w>
ret ariat</w>
7 00</w>
sat urated</w>
ic acy</w>
entre preneur
W u
Com par
A D</w>
re placed</w>
quar ters</w>
pl anned</w>
pro of</w>
ra il
wel come</w>
associ ation</w>
out puts</w>
instr uments</w>
In t
re verse</w>
2 3
inser ted</w>
sp r
sol di
g as
di ode</w>
H ot
st one</w>
P an
i stry</w>
A T</w>
perform s</w>
car ds</w>
S am
dis plays</w>
govern mental</w>
simultan eously</w>
ali an</w>
nozz le</w>
t ative</w>
ili ary</w>
for get</w>
commit ment</w>
ci um</w>
v ere
W ash
0 1</w>
em ul
wash ed</w>
Str ate
ti le</w>
stre et</w>
bo l</w>
acci dent</w>
ome ters</w>
E M
d uration</w>
qu ery</w>
E r
de position</w>
v ote</w>
re tri
vis co
em bed
eth yl</w>
D el
dic ated</w>
pic tures</w>
uni form</w>
campai gn</w>
competi tive</w>
es sive</w>
construc ted</w>
contribu te</w>
f ashi
smo oth</w>
I ran</w>
S pr
li fer
compl ex
ro se</w>
au ght</w>
co verage</w>
i ers</w>
intere sting</w>
w ing</w>
war ning</w>
we alth</w>
compu ters</w>
ac compl
up grad
stat ements</w>
In de
mat ching</w>
out standing</w>
Ch ri
5 9</w>
au x
s la
p ush
chair man</w>
p ages</w>
it ely</w>
in tr
comfor table</w>
exp enses</w>
M em
con sci
har mon
wat er
w il
ag ree</w>
si le</w>
Buil ding</w>
gener ates</w>
h n</w>
al ty</w>
A gr
f a
ag gre
d ently</w>
nam es</w>
En ergy</w>
spe aking</w>
R ed</w>
en do
ste ering</w>
Qu ality</w>
capac it
en forcement</w>
ex plan
Aff airs</w>
ell o</w>
m old</w>
C er
c row
Se e</w>
mach ines</w>
compres sor</w>
optim al</w>
hol id
regul atory</w>
hel ps</w>
bo y</w>
on y</w>
W ed
conduc tor</w>
ag ement</w>
or ial</w>
est ing</w>
sor ry</w>
S ou
t led</w>
sugg ested</w>
limit ing</w>
seri ously</w>
assi st</w>
phenomen on</w>
k itch
descri bes</w>
0 2</w>
chr onic</w>
cle an
F ree</w>
situ ations</w>
v ements</w>
ail s</w>
aff airs</w>
str ing</w>
in ery</w>
A gency</w>
manu al</w>
we igh
7 3</w>
cap ability</w>
c ab
lith ium</w>
ne ed
stand ardi
ec h
sen ding</w>
Cha ir
identi fier</w>
in ary</w>
thre at</w>
inter val</w>
st ages</w>
preven ting</w>
liter ature</w>
f al
Ob ama</w>
fe e</w>
m .</w>
divi sion</w>
com b
d aughter</w>
v ice</w>
Wor king</w>
afr aid</w>
F D
arrang ements</w>
dis c</w>
subst ance</w>
d enti
rot ating</w>
Pro per
S il
tim ely</w>
ul l</w>
pro tru
vi sit
he ter
H ome</w>
proper ly</w>
u sion</w>
tw ice</w>
ill er</w>
B el
S U
ac ted</w>
ell ec
Le ague</w>
lead s</w>
use um</w>
T P</w>
tu ally</w>
preci sion</w>
fi gures</w>
v acc
draw ings</w>
me an
H C
emer ging</w>
cap it
fe der
tal ks</w>
agricul ture</w>
consist s</w>
aw are</w>
D ef
intro duce</w>
f ically</w>
see m</w>
Med ical</w>
se x</w>
o sc
n om
neu tr
sym bol</w>
on ics</w>
M et
9 2</w>
lu br
hus band</w>
An dro
charac ters</w>
ag end
mat ure</w>
lin ed</w>
co ff
legis lation</w>
ell er</w>
dre ds</w>
E L
e ase</w>
th i
Guang dong</w>
mir ror</w>
ma them
b om
el ed</w>
scre w</w>
measu rements</w>
mar ks</w>
f at
im pe
activ ation</w>
part ner</w>
classi fication</w>
te a</w>
min ing</w>
bat ch</w>
su m</w>
ti sing</w>
il ing</w>
conver ted</w>
Manag er</w>
flu o
em ed</w>
care fully</w>
inhi bit
th ers</w>
meth yl</w>
sat ellite</w>
new sp
i fic</w>
i m</w>
leg es</w>
mon etary</w>
ex ic
A ma
pro mp
stor ing</w>
n ings</w>
criter ia</w>
um s</w>
m id</w>
wor ry</w>
th u
utili zed</w>
ol es
circu it
g lob
M ic
B C</w>
Hosp ital</w>
C hi
fun ding</w>
O ver
w af
U r
N on</w>
Agr icul
mil k</w>
por ting</w>
8 8</w>
ic king</w>
m ale</w>
d ity</w>
sec retary</w>
in k
gl uc
reduc es</w>
Wh ite</w>
qu e
P i
g ated</w>
electro magnetic</w>
vari ation</w>
not es</w>
ast s</w>
movi e</w>
molec ules</w>
sensi tivity</w>
prop ag
B S</w>
v ary</w>
n or</w>
F ol
199 9</w>
co vering</w>
norm ally</w>
e di
hybri d</w>
in ch</w>
deploy ment</w>
p ment</w>
encour age</w>
connec tions</w>
bir th</w>
exac tly</w>
config ur
hosp it
k ill</w>
Tu esday</w>
f at</w>
ac compan
lic ense</w>
M obile</w>
sett lement</w>
de posit</w>
manufacture rs</w>
see k</w>
Palestini an</w>
list en</w>
gen etic</w>
SQ L</w>
consol id
ide al</w>
cap ture</w>
wi ring</w>
ch in
categ ory</w>
mi um</w>
Andro id</w>
circuit ry</w>
Industri al</w>
draw n</w>
ow ner</w>
Op en</w>
tim s</w>
br ac
prote ins</w>
fac tion</w>
D ue</w>
Th ank</w>
spati al</w>
contribu tions</w>
sh opping</w>
Stre et</w>
te es</w>
fam ili
m aybe</w>
volati le</w>
stan tly</w>
in organic</w>
n esday</w>
tion ary</w>
ca p</w>
m id
3 10</w>
exist ence</w>
clu ster</w>
2. 5</w>
mo ves</w>
star ts</w>
ti des</w>
un less</w>
clu t
photo s</w>
har m
8 6</w>
here inafter</w>
d ark</w>
r ail</w>
exper t</w>
inter vention</w>
urs day</w>
hous es</w>
th es</w>
Wash ington</w>
surroun ding</w>
gradu ate</w>
analy zes</w>
spo kes
protec ted</w>
reser vo
cell ular</w>
M ach
2 2
Kore an</w>
8 4</w>
lay out</w>
educ ational</w>
ex chang
vul ner
di alogue</w>
ro ots</w>
doll ar</w>
we ak
im port</w>
agend a</w>
ex tracted</w>
c .</w>
cho sen</w>
val id</w>
Pro vi
pres sing</w>
Enter prise</w>
E S
q i</w>
alk al
mun icipal</w>
anci ent</w>
ell ed</w>
T E</w>
pro per</w>
objec tives</w>
av es</w>
aux iliary</w>
Repres ent
manag ed</w>
il li
provi der</w>
human itarian</w>
C y
band width</w>
r ul
chro mat
u rement</w>
ser um</w>
Reg ul
y ers</w>
soci alist</w>
su n</w>
figh ting</w>
L ab
gu ard</w>
re sistant</w>
9 8</w>
1 st</w>
fo rest</w>
graph ical</w>
wash ing</w>
om er
circ ular</w>
an a</w>
particip ants</w>
t y
syn thesis</w>
adequ ate</w>
easi er</w>
combin ations</w>
con stantly</w>
e ast</w>
en suring</w>
A l</w>
design ated</w>
Sec urities</w>
A gre
ser ved</w>
p ure</w>
y outh</w>
th ly</w>
dr ical</w>
ach ment</w>
ind ication</w>
m entation</w>
Th ose</w>
nucle o
cer amic</w>
sil ver</w>
entr ance</w>
sign s</w>
exist s</w>
p ts</w>
w t</w>
cl asses</w>
cal cium</w>
Olymp ic</w>
di a</w>
prin cip
selec ting</w>
molec ule</w>
Wor k</w>
ing ing</w>
acet ate</w>
E S</w>
M c
M exic
incorpor ated</w>
Gre at</w>
appreci ated</w>
Br it
lab or
r are</w>
1 16</w>
v ent
am mon
st ack</w>
in si
dr ying</w>
si zes</w>
P P
v o</w>
c asting</w>
T C
. m.</w>
Wed nesday</w>
Ama z
eng ine
w inter</w>
s outh</w>
experi enced</w>
recogn ize</w>
ap ers</w>
Th ursday</w>
dist al</w>
pass ing</w>
t ac
advantag eous</w>
ti re</w>
L ast</w>
spec ts</w>
Pac ific</w>
de dicated</w>
join ed</w>
Saf ety</w>
μ m</w>
suppl ies</w>
por ous</w>
function ality</w>
propos al</w>
ex trac
y ellow</w>
dist inc
offic ers</w>
N a
T ra
B raz
insul ation</w>
10 .
uni sh
ar d
Sec tion</w>
eff icacy</w>
P O
sem i</w>
ste am</w>
O ver</w>
b ill</w>
sugges tions</w>
sal ary</w>
statis tical</w>
ic a</w>
acqui red</w>
s lot</w>
pre cip
isol ated</w>
differen ti
tal ents</w>
prec eding</w>
jud g
li ber
opini ons</w>
ser vers</w>
Go od</w>
i e</w>
T F
pass word</w>
P ak
Ex c
Com pu
respon sibilities</w>
ar re
us age</w>
cylin drical</w>
le ak
ici ous</w>
li min
p al
n ine</w>
H IV</w>
Sy ri
vic tims</w>
V ir
en tive</w>
ban king</w>
nov el</w>
manufacture r</w>
amp ing</w>
ri gi
direc tions</w>
eth nic</w>
embed ded</w>
C L
bro ken</w>
osc ill
2 6
di oxide</w>
civ ili
but es</w>
indepen dently</w>
expan ded</w>
Ar t</w>
gro ove</w>
M M
utili zation</w>
i o</w>
fo ot</w>
u tions</w>
fu n</w>
arti ficial</w>
iz er</w>
re fu
Isra el
ti tan
ID S</w>
compl icated</w>
A ra
in ity</w>
fab ric</w>
es sions</w>
visco sity</w>
b le
fe es</w>
candi date</w>
speci fication</w>
D S</w>
an alog</w>
e able</w>
prepar ing</w>
diab etes</w>
pro lifer
is ing</w>
repe ated</w>
ev ening</w>
r ace</w>
is s</w>
ec u
2 30</w>
Impl em
repres entation</w>
f illing</w>
introduc es</w>
was n</w>
T em
9 6</w>
reli ef</w>
hun dreds</w>
o id</w>
mathem atic
G ames</w>
cli ents</w>
carbon ate</w>
C al
coff ee</w>
dr ink</w>
f ra
comm only</w>
oc ity</w>
charg es</w>
Su per
exhi bition</w>
gg ing</w>
Per s
bl ing</w>
fir ms</w>
Y ang</w>
Amaz on</w>
is land</w>
den ly</w>
i ons</w>
execu tive</w>
m all</w>
orig in
po t
Par k</w>
h an</w>
compl iance</w>
duc tion</w>
nor th</w>
manufac ture</w>
te dly</w>
Fi eld</w>
U N</w>
US B</w>
Y uan</w>
qu ali
V e
Cu stom
certain ly</w>
fric tion</w>
circul ation</w>
tem plate</w>
defin itely</w>
Fo od</w>
fl ash</w>
I L</w>
silic a</w>
vis ory</w>
M er
V D</w>
ic on</w>
coordin ate</w>
for tun
b ra
Sel ect</w>
adi ly</w>
sch e
ti fied</w>
The ir</w>
vol ution</w>
fil tered</w>
H er
am ed</w>
main land</w>
wor l
at titude</w>
kitch en</w>
ro b
p it
dimen sions</w>
Sun day</w>
ellec tual</w>
integr ity</w>
view ing</w>
read s</w>
aim ed</w>
comm ents</w>
prefer able</w>
ri ver</w>
ti ll
commun ities</w>
famili ar</w>
sec tors</w>
stro ke</w>
exc eed</w>
sche dule</w>
sum mary</w>
gl and</w>
H igh
Ac tion</w>
Academ y</w>
sch ol
Are a</w>
reg im
n ia</w>
O k
V ari
deli ver</w>
M echan
navi gation</w>
is o
7 7</w>
ri d</w>
T er
br al</w>
r ice</w>
Par t</w>
par king</w>
fe et</w>
lun g</w>
resi st</w>
g ent
chin ese</w>
clo sing</w>
rais ing</w>
ter ies</w>
refl ection</w>
clo thes</w>
Clin ical</w>
mod ulation</w>
re ci
h ex
gu y</w>
Chil dren</w>
Un it</w>
pro ve</w>
sampl ing</w>
Lo ok</w>
as king</w>
un able</w>
T ou
Pol ic
ti p</w>
k ids</w>
Ch eng
be half</w>
v ar
low ing</w>
foc using</w>
dang erous</w>
fi sh
feren tial</w>
Program me</w>
the ast</w>
et ching</w>
val s</w>
at ch</w>
k m</w>
cryst all
Agre ement</w>
prof its</w>
M or
Speci fically</w>
direc tors</w>
pro jection</w>
be ar</w>
loc ked</w>
A li
dis pos
is ation</w>
negoti ations</w>
org ans</w>
trans lation</w>
Sup port</w>
cu b
foot ball</w>
S of
ev ent
cell u
dec om
tain ment</w>
B er
im possible</w>
tu m</w>
i pul
hel ped</w>
sle eve</w>
ti red</w>
Fin ance</w>
bound ary</w>
Str uc
ro bot</w>
vel ocity</w>
Jo hn</w>
compres sed</w>
g ast
eng age</w>
S pe
ear th
20 1</w>
mo ist
8 1</w>
stir red</w>
30 2</w>
we i</w>
So ci
H en
g yp
oxid ation</w>
accep ted</w>
trans form</w>
ing e</w>
recep tor</w>
establish ing</w>
am ide</w>
expec tations</w>
concer ning</w>
cool ed</w>
cri tici
rou t
car tri
i i</w>
dee ply</w>
stain less</w>
pro ved</w>
Cl ick</w>
ro c
p unish
speci fy</w>
I L
extr a</w>
ta g</w>
ic ates</w>
ar r
bri ef
M u
cros s
modi fication</w>
targ ets</w>
sur fac
swit ches</w>
cath ode</w>
M y
arri ved</w>
Brit ain</w>
dis placement</w>
volun te
mo des</w>
G DP</w>
per me
M S
jud icial</w>
prin ter</w>
A IDS</w>
anc ement</w>
S ch
ag g
adv ice</w>
clu b</w>
cor ruption</w>
sur ve
evol ution</w>
syn thetic</w>
sex ual</w>
em issions</w>
enzy me</w>
evap or
om ers</w>
and om
obli gations</w>
bus y</w>
sp ending</w>
p ick</w>
str ain</w>
inci dence</w>
pro jec
id es</w>
ti an</w>
waf er</w>
m 2</w>
S et
oc ca
re new
put ting</w>
oc curren
b ass
Sat ur
speci ally</w>
qu ick</w>
and ong</w>
n y</w>
H ave</w>
e po
err ors</w>
al lic</w>
uc tu
scop ic</w>
P S
k id
ch er</w>
new ly</w>
ap poin
trigg er</w>
ol i
co vers</w>
corro sion</w>
cir cle</w>
hy po
ha z
ke ys</w>
D C
re placement</w>
rou s</w>
Ch apter</w>
do g</w>
. 1</w>
L a
aut y</w>
expen dit
dis solved</w>
b ic
adver tising</w>
th ane</w>
he jiang</w>
Spr ing</w>
n ice</w>
reve aled</w>
dimen sion</w>
con clusion</w>
cour ses</w>
clut ch</w>
Num ber</w>
dis covered</w>
d less</w>
P A</w>
scen ari
f ans</w>
bon ding</w>
mag net</w>
Chair man</w>
absol ute</w>
li p
For um</w>
p um
si um</w>
ec tions</w>
P res
L og
promot ed</w>
mo vable</w>
calcul ate</w>
man ipul
disper sion</w>
L ear
trans mits</w>
Ac t</w>
rel ay</w>
elim inate</w>
ess ing</w>
RA M</w>
align ment</w>
substitu ted</w>
scienti sts</w>
invol ving</w>
necess arily</w>
ad sor
rou gh
id em
sh ut
ro ws</w>
psych ological</w>
1 11</w>
inst ances</w>
rot ational</w>
as sist
quali fied</w>
Par ties</w>
E M</w>
H ey</w>
marri age</w>
Ge or
Americ ans</w>
trans l
promis e</w>
pro sper
brow ser</w>
acr yl
compati ble</w>
li ability</w>
pre t
usu al</w>
m apping</w>
eng agement</w>
obser ve</w>
Techn ical</w>
des pite</w>
w age</w>
invent ory</w>
clo ser</w>
D S
car box
fashi on</w>
20 6</w>
su gar</w>
Dem ocratic</w>
sk ill</w>
ich uan</w>
B ack
marri ed</w>
down stream</w>
autom obile</w>
col ors</w>
s ong</w>
e ties</w>
infra red</w>
10 ,000</w>
an ne
Ear th</w>
doc um
conduc tivity</w>
L ist
depos ited</w>
vin ces</w>
institu tional</w>
9 4</w>
ut ely</w>
thu si
mis sing</w>
conduc ting</w>
Inte gr
Ch am
agre ements</w>
Ara b</w>
satis fied</w>
u pl
id en
mac ro
W el
gen ous</w>
C R
cin oma</w>
dec ades</w>
implem entations</w>
C up</w>
passeng er</w>
targ eted</w>
Simil arly</w>
w ine</w>
reservo ir</w>
bre ast</w>
candi dates</w>
m ouse</w>
survi val</w>
E qui
col le
centr e</w>
invol ves</w>
deci de</w>
bacter ia</w>
tal ent</w>
princip al</w>
por ter</w>
kil ometers</w>
de al
mon omer</w>
Des cription</w>
Q i
t own
su red</w>
ic als</w>
Tian jin</w>
seg ments</w>
prop ylene</w>
soldi ers</w>
r andom
Z hejiang</w>
stud ying</w>
col li
see ing</w>
V EN
resi due</w>
descri be</w>
F ace
stri ve</w>
Ro om</w>
ti li
ing dom</w>
N E
flow chart</w>
br ands</w>
co ol</w>
stres sed</w>
r on</w>
qu ake</w>
estim ate</w>
en thusi
d ust</w>
Pro tocol</w>
Au th
in c</w>
separ ately</w>
be t</w>
ac ter
U V</w>
199 8</w>
d ency</w>
depic ted</w>
infl ation</w>
ak e
bu ying</w>
an ode</w>
H el
M aybe</w>
off ered</w>
2 A</w>
Th ird</w>
sub jected</w>
l an
L ife</w>
coll ect</w>
exchang er</w>
dro me</w>
j et</w>
s ence</w>
remo ving</w>
sist ors</w>
ec k</w>
hel ping</w>
bl es</w>
G B</w>
R et
synchron ization</w>
J av
T ake</w>
identi fying</w>
cor ner</w>
P ur
sen sus</w>
Pat ent</w>
B as
a e</w>
al arm</w>
wi sh
tru ly</w>
fl uctu
sol ving</w>
attem pt</w>
surg ical</w>
ok ay</w>
Mul ti
al leg
discipl ine</w>
re ver
met abol
administ ered</w>
ocr acy</w>
su peri
M ag
manag ers</w>
r ats</w>
her it
Implem entation</w>
at ever</w>
enab led</w>
gg le</w>
termin ation</w>
fi sc
satis faction</w>
fe ar</w>
bil ateral</w>
Ex ecu
bath room</w>
Israel i</w>
M s.</w>
D ist
Proc ess</w>
W he
fru it</w>
CO N
Re al</w>
el ong
hu i</w>
R adi
y a</w>
ar c
F C</w>
On line</w>
sh ock</w>
omet ric</w>
pret ty</w>
subst ances</w>
i Phone</w>
Ital y</w>
hear ing</w>
Face book</w>
fu r</w>
os oph
met ric</w>
proc ee
Cor por
D own
six th</w>
sc r
pul l</w>
tro ops</w>
b in</w>
ex tru
. com</w>
O r</w>
oun ded</w>
C ali
in jec
k es</w>
sub mit</w>
at ings</w>
ret ail</w>
aff ecting</w>
pat ent</w>
sist er</w>
thre at
p ack</w>
stric tly</w>
v an
Pol i
Environ mental</w>
Fig ures</w>
dem ocratic</w>
ver ification</w>
iden tical</w>
adver tis
air port</w>
audi ence</w>
C a
occurren ce</w>
fisc al</w>
ed ges</w>
b id
5 00
benef icial</w>
sud denly</w>
cont am
rec t
q i
Si gn
it ude</w>
li e</w>
3 00
adop t</w>
trou ble</w>
frequ ently</w>
O K</w>
L E</w>
Ch em
3 20</w>
he ater</w>
w ouldn</w>
b right</w>
nam ely</w>
mol ding</w>
Li ke</w>
w er</w>
12 4</w>
cere mony</w>
slow ly</w>
econom ies</w>
S wit
h ong</w>
f ications</w>
c lic</w>
al ize</w>
house hold</w>
g rain</w>
great est</w>
pro vinces</w>
Jiang su</w>
rec y
ten d</w>
accur ately</w>
spe aker</w>
D ong
wat ching</w>
ne uro
e ating</w>
re actions</w>
n an</w>
Res ources</w>
relation ships</w>
ha o</w>
prob ability</w>
no tification</w>
j e
experi ences</w>
cap tured</w>
z y</w>
N O</w>
D ig
feder al</w>
head s</w>
cru de</w>
plo y</w>
repe at
sh el
C M
Y un
nov ation</w>
t elec
titan ium</w>
minist er</w>
plat forms</w>
lab el</w>
gro un
flexi bility</w>
re aching</w>
en th</w>
ob taining</w>
mon thly</w>
lat ter</w>
poten ti
particip ated</w>
ad verse</w>
u i</w>
E G
k er
m ur
ol der</w>
B en
valu able</w>
Me an
enti ties</w>
custo m</w>
sp ect</w>
configur ations</w>
L C</w>
or th
E valuation</w>
sent ence</w>
B ur
di versity</w>
tap e</w>
acceler ation</w>
d ur
N i
n ick
fi x</w>
electroly te</w>
spec tro
th ir
ess ed</w>
d den</w>
re r</w>
O ri
fil tration</w>
orig in</w>
indepen dence</w>
consider ing</w>
H ist
over come</w>
2 40</w>
mach inery</w>
for um</w>
ag e
6 9</w>
attribu te</w>
religi ous</w>
pac kets</w>
be an</w>
Sy n
For mul
fix ing</w>
civ ilization</w>
uni versal</w>
addres sed</w>
fin ding</w>
cor respond</w>
pro hi
ess entially</w>
p ace</w>
c alling</w>
un g</w>
z en</w>
milli ons</w>
Cl ass</w>
Gener ally</w>
sk y</w>
Eff ects</w>
ti l
vap or</w>
Stand ard</w>
sti pul
am in</w>
Satur day</w>
su es</w>
Comp ared</w>
op tional</w>
gr and
ast ers</w>
experim ents</w>
tran si
achiev ing</w>
Treat ment</w>
form ance</w>
cr uc
m ice</w>
pen e
Sh andong</w>
peace ful</w>
co polymer</w>
secre t</w>
3 ,
b id</w>
Jin ping</w>
ot tery</w>
ab sence</w>
R is
re active</w>
categ ories</w>
lim its</w>
K e
elec ted</w>
St ation</w>
correc tly</w>
C r
ap ore</w>
inser t</w>
di lu
met als</w>
Sup pl
f ly</w>
tic ul
roll ing</w>
dis co
need le</w>
cartri dge</w>
Produc ts</w>
re aches</w>
enn ium</w>
comb at</w>
concep ts</w>
in ev
chromat ography</w>
subsi di
E D</w>
comfor t</w>
P M
resc ue</w>
sor t</w>
obvi ously</w>
fur n
dom in
c ache</w>
9 1</w>
prolifer ation</w>
I G
refl ects</w>
event ually</w>
Pol y
pen dic
vi gor
mar ine</w>
gram s</w>
an istan</w>
Pak istan</w>
y es</w>
u k
c as
M us
Mean while</w>
ei gh
An g
anti bodies</w>
S ichuan</w>
serv es</w>
per s</w>
comp are</w>
s y</w>
sign ing</w>
excee ds</w>
refu ge
sugg est</w>
au to</w>
1 18</w>
cali bration</w>
author ized</w>
en em
inv est</w>
w inning</w>
es tion</w>
th erein</w>
sub jects</w>
protec ting</w>
discrimin ation</w>
dic tion</w>
E d
Ch ange</w>
s in
partner ship</w>
illustr ate</w>
rail way</w>
ang zhou</w>
exc ess</w>
int ellectual</w>
fo am</w>
M ain
produc tive</w>
En gland</w>
strong er</w>
Econ om
gen es</w>
coun ting</w>
m outh</w>
fil tering</w>
B re
stri p</w>
ur ch</w>
Execu tive</w>
S ever
avo i
gui ding</w>
st ret
il ed</w>
H ello</w>
pass es</w>
VEN TION</w>
sen ds</w>
fac ed</w>
G l
ter ior</w>
fal se</w>
per haps</w>
e zo
vari ables</w>
restric ted</w>
0 5</w>
w et</w>
equ ation</w>
Te aching</w>
Fi ve</w>
repres enting</w>
tr action</w>
bi om
con secu
Represent ative</w>
cri mes</w>
ne um
crystall ine</w>
W u</w>
peri ods</w>
o tive</w>
saf e
remain ed</w>
carri ers</w>
happ iness</w>
low est</w>
off ices</w>
Feder ation</w>
1 70</w>
rout ine</w>
investig ated</w>
po ly</w>
ou stic</w>
ti ll</w>
Sof tware</w>
emp ty</w>
Hot el</w>
Re public
Ok ay</w>
met allic</w>
H er</w>
wel fare</w>
Mexic o</w>
run s</w>
consul tation</w>
L AN</w>
30 4</w>
Pre par
or ities</w>
li v
Embodi ment</w>
resi dual</w>
grow n</w>
Pr ice</w>
Y outh</w>
A G
ome try</w>
rot ary</w>
comp et
8 3</w>
fol der</w>
per pendic
Tim es</w>
d wide</w>
see king</w>
2 12</w>
deco ding</w>
A I
ap h
CP C</w>
lin king</w>
produc tivity</w>
ri ed</w>
Afgh anistan</w>
F am
manufac tured</w>
plac ing</w>
paren t</w>
13 2</w>
le gi
diff usion</w>
1 15</w>
Cul tural</w>
d inner</w>
Sing apore</w>
7 9</w>
moist ure</w>
u a</w>
inv ited</w>
cl ari
isol ation</w>
jud ge</w>
g ram</w>
Acc ess</w>
IN VENTION</w>
col leges</w>
dist ingu
t ants</w>
deter i
sup er</w>
flu x</w>
s anc
schedul ed</w>
Cap ital</w>
g am
Lt d.</w>
Su n</w>
dri vers</w>
be auty</w>
hic s</w>
cre ative</w>
Polic y</w>
extr act</w>
D r
cellu lose</w>
B A</w>
restaur ant</w>
contrac ts</w>
de formation</w>
fe el
offici ally</w>
fe eding</w>
con sensus</w>
jour n
pre mis
ex it</w>
no sis</w>
enti tled</w>
hop es</w>
E gyp
con sequences</w>
upl ink</w>
o graphic</w>
0.0 1</w>
Per formance</w>
th ick</w>
Se a</w>
phosp hor
gluc ose</w>
bu b
ur ally</w>
mar ked</w>
ambi ent</w>
nit ride</w>
B ud
oper ates</w>
own ership</w>
happen s</w>
adv oc
tu b
zz y</w>
U ser</w>
or d</w>
pur ity</w>
clo thing</w>
fil ters</w>
S D
substanti al</w>
out come</w>
me tr
fin ish</w>
it ably</w>
ampl itude</w>
Pol ice</w>
org an</w>
I F
es el</w>
re p
ap pointed</w>
con f
fu tures</w>
bi a</w>
appl ies</w>
1. 2</w>
f le
Re form</w>
re d
pl eas
P RO
Ab out</w>
retri ev
fat ty</w>
inde ed</w>
f ro
mor ph
sli de</w>
ti ous</w>
whe els</w>
eli hood</w>
P H
ant ation</w>
am or
Braz il</w>
me ant</w>
dam aged</w>
if ying</w>
mor al</w>
1 A</w>
f ed</w>
radi al</w>
competi tiveness</w>
sp ray</w>
re fr
l a</w>
Pri v
particip ating</w>
Stu dents</w>
s lo
att achment</w>
recomm end</w>
R ap
po sts</w>
n esses</w>
mon ary</w>
spo ke</w>
y nam
sh oul
p m</w>
ish ing</w>
al located</w>
12 5</w>
co operate</w>
moder n
Co operation</w>
ot ed</w>
de hy
there to</w>
diagno stic</w>
s cape</w>
exten sive</w>
L im
th read</w>
flow ing</w>
Re view</w>
T R
ap art</w>
th ou
atten ded</w>
holid ay</w>
Par is</w>
inter rup
dep end</w>
te eth</w>
0 4</w>
enh ancing</w>
anti gen</w>
ji an</w>
at er
D id</w>
3 60</w>
sav ed</w>
certain ty</w>
m as</w>
l in</w>
feel ings</w>
bat teries</w>
magne sium</w>
addres ses</w>
b ited</w>
on ed</w>
reser ve</w>
continu ing</w>
ous ness</w>
ate way</w>
Chri st
z inc</w>
ur gent</w>
K u
own ers</w>
H D
fac ts</w>
9 00</w>
uni fied</w>
v ast</w>
ti ble</w>
f air
B O
poli tics</w>
mil es</w>
mis s</w>
ac commod
L CD</w>
ail ed</w>
al ists</w>
over l
vers ary</w>
D om
se ed</w>
th al
ur ies</w>
confl ic
pre limin
Rec ently</w>
strong ly</w>
cam pus</w>
A I</w>
inte st
si bly</w>
Sto ck</w>
impe dance</w>
n ations</w>
und red</w>
oper s</w>
Environ ment</w>
pri mar
hi dden</w>
bal anced</w>
Vi ew</w>
acceler ate</w>
c enters</w>
t ability</w>
fi re
vis ited</w>
G ol
consecu tive</w>
V E</w>
arm ament</w>
coll ap
Equi pment</w>
discus ses</w>
ex ports</w>
estim ation</w>
dr um</w>
ir ical</w>
S mar
phy si
acc es
lo ads</w>
aut onomous</w>
a ther
L ong</w>
om eter</w>
g ot
scop y</w>
avail ability</w>
deb ate</w>
mo stly</w>
4 10</w>
read able</w>
ta b</w>
sign aling</w>
ol ine</w>
D at
ton er</w>
G P
li ved</w>
in qui
aper ture</w>
direc tory</w>
electr onics</w>
et te</w>
combin ing</w>
ad h
labor atory</w>
Z one</w>
b ols</w>
con du
ann i
Res pon
lish ing</w>
re min
I B
er ies</w>
ac oustic</w>
t our</w>
m mol</w>
ag on</w>
di stor
selec tively</w>
ee ts</w>
ad or</w>
bo ss</w>
s age</w>
enab ling</w>
B et
le aves</w>
A M</w>
cy clo
micro wave</w>
dr inking</w>
en coun
O H</w>
cor on
touri sts</w>
i ther</w>
employe e</w>
odi c</w>
ag ues</w>
for nia</w>
d ating</w>
f alling</w>
degrad ation</w>
appro aches</w>
1 ,000</w>
F i</w>
favor ite</w>
T ex
Me dic
tren ds</w>
dro pped</w>
oper ators</w>
to il
Is lam
elec tions</w>
or t</w>
C ome</w>
p tions</w>
resol ve</w>
Ph ili
it ual</w>
guid elines</w>
worl dwide</w>
S we
re construction</w>
L ev
G et</w>
gu ys</w>
re fin
Govern ments</w>
cele br
Xi ao</w>
vin yl</w>
coll ective</w>
per sist
profes sion
me at</w>
pos ing</w>
t ings</w>
th el
nar row</w>
concentr ations</w>
aff ects</w>
d ad</w>
dem ocracy</w>
sc al
o ples</w>
syn drome</w>
conveni ence</w>
ast ed</w>
ght ness</w>
0 3</w>
enc lo
pay ing</w>
decre ases</w>
g ates</w>
a h
bor row
newsp aper</w>
fl ag</w>
su it</w>
initi ally</w>
del ete</w>
ide ological</w>
un k</w>
bur den</w>
polymer ic</w>
Com m
M oun
ro ck</w>
K o
om mun
duc t</w>
L ist</w>
thous and</w>
tic ket</w>
J e
port fol
sal ts</w>
Feder al</w>
enco ded</w>
pol ar</w>
institu tion</w>
or dered</w>
B al
re forms</w>
knowle d
dem ands</w>
pur ified</w>
T ot
in formed</w>
An n
Produc tion</w>
war ded</w>
Sp ain</w>
wav es</w>
bin der</w>
exec ute</w>
ann er</w>
poly peptide</w>
ob stac
H ai
wh om</w>
20 8</w>
ec tors</w>
Con t
a f</w>
sym bols</w>
complex ity</w>
hur t</w>
resol utions</w>
K ingdom</w>
199 7</w>
S k
back up</w>
s essions</w>
con vers
O 2</w>
primar ily</w>
C le
ri d
comm ands</w>
j ur
leak age</w>
sh eets</w>
PL C</w>
Commer ce</w>
Z e
num erous</w>
in ating</w>
phil osoph
3 50</w>
stru ggle</w>
yp e</w>
ser ial</w>
Dig ital</w>
o therapy</w>
Cali fornia</w>
explan ation</w>
evalu ated</w>
Aut om
exc essive</w>
meth yl
P R
f ts</w>
W al
Ci vil</w>
movi es</w>
expan ding</w>
um ination</w>
analy zing</w>
ab led</w>
He bei</w>
in et</w>
forec ast</w>
offic er</w>
langu ages</w>
adop tion</w>
ne ural</w>
read er</w>
perpendic ular</w>
Ex p
Ad d</w>
m elt</w>
UR E</w>
pr icing</w>
Ad dress</w>
manag ing</w>
inver ter</w>
e ds</w>
difficul ty</w>
s oc
re volution</w>
Pri me</w>
inv a
r h
Poli tical</w>
il ized</w>
invest ments</w>
ur ry</w>
9 3</w>
refl ective</w>
up grade</w>
l ative</w>
ultras onic</w>
d um
th r
terr itory</w>
s m</w>
C op
et c.</w>
Sy st
z ones</w>
conver t</w>
under lying</w>
y al</w>
Wi th
Man u
modi fy</w>
earth quake</w>
cu p</w>
r ich
app arent</w>
ac king</w>
sou thern</w>
1. 1</w>
specif ications</w>
Im age</w>
fortun ately</w>
refriger ant</w>
hen g</w>
T a
ast y</w>
dist ur
af ore
h undred</w>
win ding</w>
don e
nick el</w>
fl ange</w>
Indi an</w>
liqui dity</w>
con firm</w>
val ves</w>
p neum
resi dential</w>
ici an</w>
cur ing</w>
li ft</w>
ste ady</w>
restric tions</w>
repeat edly</w>
invest ed</w>
regar ded</w>
M A
ep idem
hu b</w>
b on</w>
4 ,
be at</w>
C C</w>
epo xy</w>
R om
as p</w>
P E</w>
bir th
Sec retariat</w>
a ero
uti lity</w>
pe ti
U I</w>
D r.</w>
afore mentioned</w>
doc tors</w>
bi as</w>
trans cei
y o</w>
sh r
mix tures</w>
com ment</w>
a ward</w>
P V
moun tain</w>
vari ations</w>
y i</w>
G a
S an</w>
3 5
fi ers</w>
di alog</w>
d res
V ide
L ow</w>
Exper im
shi eld</w>
numer ical</w>
M ot
grap hics</w>
impro ves</w>
fin ite</w>
D on
quanti tative</w>
are n</w>
var ying</w>
formul ated</w>
In done
g ases</w>
direc tional</w>
br aking</w>
AP I</w>
strength ened</w>
le ver</w>
Sci ences</w>
flo ating</w>
P ress</w>
ingredi ents</w>
br inging</w>
mat ory</w>
des er
Zh ou</w>
co des</w>
suffici ently</w>
J our
voc ational</w>
ad er</w>
mag nit
produc es</w>
adap t</w>
ar omatic</w>
wind ows</w>
substr ates</w>
12 .
ag on
si de
fi br
judg ment</w>
i onic</w>
12 1</w>
EN T</w>
ra ft</w>
propos als</w>
config ure</w>
t les</w>
c el
for cing</w>
resp ir
Whe ther</w>
terror ist</w>
no tic
ro ads</w>
Ris k</w>
ill umination</w>
Elec tric</w>
mort g
secu red</w>
gr ass</w>
hol low</w>
c asing</w>
deco der</w>
sh ops</w>
f ail</w>
S mall</w>
effici ently</w>
z e
t one</w>
40 2</w>
spokes man</w>
cor d</w>
rang es</w>
pregn ancy</w>
br ings</w>
ju red</w>
ver ify</w>
Every one</w>
t ables</w>
G PS</w>
subsequ ently</w>
immedi ate</w>
reson ance</w>
ici de</w>
up stream</w>
um n</w>
R en
susp ended</w>
lo gy</w>
B e</w>
hy s
pres ents</w>
Char acter
S c
ren e</w>
ad here</w>
pip eline</w>
acr ylic</w>
expl oration</w>
mo tiv
T C</w>
recy cl
ultras ound</w>
Dec laration</w>
Rel ated</w>
sli ding</w>
head er</w>
stitu tion</w>
open ings</w>
In stead</w>
R ob
re pu
regar dless</w>
cre ates</w>
am matory</w>
adhe sion</w>
align ed</w>
marg in</w>
inser tion</w>
stor ies</w>
disco very</w>
S et</w>
Sever al</w>
gu ests</w>
G ar
pay ments</w>
off ering</w>
Op tim
St ar
e uro
i ve</w>
C I
rel ax
so vere
priv acy</w>
ail ing</w>
M ake</w>
re sistor</w>
e quality</w>
assi um</w>
In flu
mac ro</w>
wor se</w>
de ad
dec ade</w>
gu ess</w>
t aste</w>
B R
R ight</w>
ti mat
suff ering</w>
ann ular</w>
recommend ation</w>
C ir
batt le</w>
b uc
j i</w>
spl it</w>
Val ue</w>
ver sions</w>
J ud
environ ments</w>
Mo der
st ation
down link</w>
nat urally</w>
di sh
se emed</w>
rang ing</w>
di am
boo st</w>
ick en</w>
pain ting</w>
vic tory</w>
M P</w>
extre me</w>
viol ations</w>
optim ize</w>
wal king</w>
o sis</w>
si ght</w>
preven ted</w>
ab oration</w>
eth anol</w>
pur ification</w>
prelimin ary</w>
superi or</w>
D I
on t</w>
shap es</w>
anc er</w>
on going</w>
der ful</w>
ten ing</w>
1. 0</w>
in jured</w>
pres cri
S ud
co gn
V ill
ici ency</w>
il er</w>
ear nings</w>
car cinoma</w>
doub t</w>
2 B</w>
D ri
de par
pi ezo
th anks</w>
Po int</w>
Cul ture</w>
hydro carbon</w>
pow ers</w>
in puts</w>
mel ting</w>
mi x</w>
cy cles</w>
k top</w>
g gl
X ML</w>
res sive</w>
re l</w>
ill ary</w>
we d
clo sure</w>
D s</w>
toler ance</w>
st ere
ai red</w>
Ar ab
bat h</w>
v enti
it ment</w>
C E</w>
invol ve</w>
rigi d</w>
Regi on</w>
adi um</w>
emit ted</w>
pro sec
Cl oud</w>
res et</w>
poly ethylene</w>
Cheng du</w>
se ven
cy cl
aim s</w>
demonstr ated</w>
For ce</w>
0. 2</w>
er as</w>
care ful</w>
We b
y le</w>
Sec on
Des pite</w>
optim ized</w>
upgrad ing</w>
sur pris
B asic</w>
d in
enter tainment</w>
do ors</w>
inter faces</w>
contr ad
S T</w>
where by</w>
pris on</w>
oles ale</w>
man date</w>
fl av
fin dings</w>
larg ely</w>
devel opers</w>
9 7</w>
stic k</w>
&apos; an</w>
colle agues</w>
algorith ms</w>
defin es</w>
l uc
passeng ers</w>
G o</w>
pres entation</w>
Regi stration</w>
W ill</w>
di esel</w>
bot tle</w>
un ited</w>
8 7</w>
wave form</w>
hom es</w>
12 8</w>
anni versary</w>
conduc ive</w>
eng ines</w>
dis till
min ent</w>
Com pl
Manu fac
se aled</w>
199 5</w>
it ted</w>
Di vision</w>
ow er</w>
rec ur
foc uses</w>
our selves</w>
star s</w>
def ects</w>
pi ed</w>
gar den</w>
199 6</w>
10 7</w>
capacit ance</w>
Ch ris
trans duc
tre es</w>
be dro
sulf ate</w>
iz h
Tr aining</w>
ai c</w>
P ati
divi d
C H</w>
dis playing</w>
timat ely</w>
attri butes</w>
E qu
phosph ate</w>
ob ic</w>
fr action</w>
U l
min eral</w>
ad der</w>
sho es</w>
ch ol
hum ans</w>
ra tional</w>
P lat
un ity</w>
N at
d able</w>
compar ative</w>
atten d</w>
Vi et
il lion</w>
B ush</w>
re viewed</w>
dis count</w>
magnit ude</w>
Centr e</w>
integr ate</w>
poly ester</w>
em ia</w>
row n</w>
pharmaceu tically</w>
tax es</w>
swit ched</w>
g est
conflic ts</w>
mus cle</w>
ac le</w>
conclu ded</w>
te en</w>
min al</w>
S pan
w ound</w>
list ening</w>
dri ves</w>
c am</w>
l um
wor ried</w>
assum ed</w>
Formul a</w>
im ported</w>
g y
men d
fing er</w>
F oundation</w>
ay er</w>
rect angular</w>
im posed</w>
apar tment</w>
n d</w>
thou ghts</w>
discus sions</w>
T O
me try</w>
2 D</w>
Un der
Y ang
gi ft</w>
R 2</w>
Cur rent</w>
real ization</w>
nucleo tide</w>
at om</w>
out door</w>
B ran
bon ded</w>
Compu ter</w>
initi atives</w>
res cent</w>
az ine</w>
X u</w>
P u
Th er
sign ature</w>
h abil
Christ mas</w>
con junction</w>
12 6</w>
M a</w>
in sufficient</w>
aren cy</w>
With out</w>
m ent
li ament</w>
pen sion</w>
ten s</w>
l ap
Te ach
custom s</w>
tal ked</w>
chec ked</w>
sit ting</w>
de pression</w>
path s</w>
cruc ial</w>
cr yp
cre d
bloc king</w>
piezo electric</w>
cu red</w>
bel ongs</w>
wh atever</w>
lo ved</w>
requi ring</w>
0 6</w>
di et</w>
proc urement</w>
nit ure</w>
pe oples</w>
per mit</w>
cath eter</w>
D ou
v el</w>
firm ly</w>
E st
Strate gy</w>
2. 0</w>
r ating</w>
prec ur
portfol io</w>
li ent</w>
Air port</w>
wi res</w>
W ei
D ru
Smar t</w>
Xin jiang</w>
precur sor</w>
Some times</w>
enti rely</w>
Zh ong
al bu
k ong</w>
ar row</w>
ti er</w>
frequ encies</w>
ab use</w>
Re porter</w>
infl ammatory</w>
won derful</w>
Le gal</w>
col s</w>
U L
ti fy</w>
calcul ating</w>
organ ize</w>
w arm
H on
0. 00
accord ingly</w>
regul arly</w>
accep tance</w>
deriv atives</w>
4 A</w>
trans former</w>
detec ts</w>
t elling</w>
jur is
R u
esti mates</w>
adap ter</w>
Sp ace</w>
desi re</w>
origin ally</w>
reco vered</w>
v or
en er</w>
uni on</w>
ab normal</w>
nan op
Nan jing</w>
le g</w>
predic ted</w>
al izing</w>
fac ility</w>
Agricul tural</w>
E X
do sage</w>
syn the
trans f
Ch at</w>
val id
sho oting</w>
ai re</w>
pri me</w>
ben z
Diff erent</w>
Commun ity</w>
A SE
ass ess</w>
sav ings</w>
vir tu
expendit ure</w>
contrad ic
de aling</w>
k a</w>
hospit als</w>
0 8</w>
tub ular</w>
comp ut
week end</w>
big ger</w>
bacter ial</w>
moun t</w>
limit ation</w>
g radi
radi us</w>
co operative</w>
In vention</w>
angi ble</w>
hom ogen
mi er</w>
a po
key board</w>
meth anol</w>
5 ,
cat ch</w>
nor thern</w>
har m</w>
struc tured</w>
random ly</w>
beg ins</w>
smar t
Dis cus
Mal ay
schedul ing</w>
eng ths</w>
sion er</w>
Vide o</w>
er arch
D u
In spec
og en</w>
ti ght</w>
in ches</w>
arre sted</w>
tran sistors</w>
S i</w>
sanc tions</w>
pro por
Con nec
fe wer</w>
speci alized</w>
Gre en</w>
Int elli
as m</w>
C O</w>
be gun</w>
pot assium</w>
SC R
T A</w>
sol vents</w>
illustr ation</w>
achiev ement</w>
Li ber
up dates</w>
lab our</w>
id al</w>
vir al</w>
an eous</w>
G A</w>
tab let</w>
commod ity</w>
v ital</w>
pos sibly</w>
de fl
ha m</w>
St atis
Tot al</w>
e k</w>
procee ds</w>
In iti
pain t</w>
acces sible</w>
at tracted</w>
colum ns</w>
pit ch</w>
deploy ed</w>
acc o</w>
ne ar
p etro
addi tive</w>
s me
D ynam
dis h</w>
m akers</w>
suff ered</w>
Ar my</w>
W all</w>
op position</w>
di tion</w>
gr asp</w>
L ine</w>
Me dia</w>
cer tification</w>
pre hen
pe d
ap sul
An ti</w>
s an
com bine</w>
ad ult</w>
S han
sh ad
on e
consider able</w>
inter nation
Y u</w>
con serv
W H
el ast
Ma j
proxim al</w>
Me eting</w>
l aid</w>
3 A</w>
tor al</w>
fore going</w>
20 3</w>
hum idity</w>
coordin ated</w>
addi tives</w>
st on</w>
volun t
por ary</w>
b ial</w>
Struc ture</w>
regim e</w>
A TION</w>
f uc
constr aints</w>
ri fu
integr al</w>
bro ke</w>
8 9</w>
silic one</w>
hy d
accum ulation</w>
Inde x</w>
vot ing</w>
T al
a uc
rot ate</w>
arg o</w>
st ator</w>
construc t</w>
v ascular</w>
ash ed</w>
dis abled</w>
ol ig
W en
l em
appe al</w>
Pl anning</w>
lu x
T ele
re ply</w>
pan els</w>
in di
an tum</w>
Ex peri
di versi
M useum</w>
Mach ine</w>
wor st</w>
cam eras</w>
condu it</w>
Sup ply</w>
smo king</w>
appoin tment</w>
ris ed</w>
re store</w>
Ste el</w>
glob alization</w>
schem atically</w>
uni form
e ing</w>
ure thane</w>
plan et</w>
Ch eck</w>
col or
Tou rism</w>
re vised</w>
H u</w>
bre aking</w>
Compar ative</w>
Oper ation</w>
Tur key</w>
at tract</w>
thermo plastic</w>
tr aff
Con tin
shar p</w>
hel p
St atus</w>
g ateway</w>
Res er
announ cement</w>
U k
ang er</w>
et o
de struction</w>
Cre ate</w>
ag ers</w>
am az
demon stration</w>
Hu ang</w>
inter active</w>
sl urry</w>
guaran te
As s
po le</w>
on ia</w>
conve y
Cl aim</w>
en larg
chi ps</w>
dr am
respon ses</w>
box es</w>
illustr ative</w>
pow ered</w>
S M
spir itual</w>
im ming</w>
ad ults</w>
mes h</w>
chil d
enc apsul
W ar
jour ney</w>
SCR IP
B elt</w>
F our</w>
cont em
A .</w>
ac knowled
comp act</w>
tw enty</w>
appreci ate</w>
ail and</w>
w are
autom ation</w>
S H
r ic
lo sing</w>
transp arency</w>
process ors</w>
un known</w>
Cur ren
ren al</w>
av y</w>
gradu ates</w>
es sively</w>
Con sum
inter ven
selec tive</w>
enco der</w>
issu ance</w>
M ission</w>
ass ay</w>
S A</w>
Loc al</w>
deli ber
O il</w>
li sting</w>
prosper ity</w>
P D</w>
Wh ich</w>
ol e
M ain</w>
dang er</w>
ag en</w>
s and
nec k</w>
soci alism</w>
199 4</w>
excee ded</w>
scri pt</w>
C S</w>
migr ant</w>
mis sed</w>
E C</w>
comp rised</w>
encryp tion</w>
po c
H ong
vi se</w>
li p</w>
monit ored</w>
S ports</w>
g ue</w>
Islam ic</w>
rou ting</w>
adap tive</w>
S A
spo ts</w>
top ics</w>
DE SCRIP
in ations</w>
manu ally</w>
th west</w>
suc tion</w>
ang les</w>
co c
are r</w>
B est</w>
k illing</w>
Span ish</w>
near by</w>
F ran
stan ds</w>
Jav a</w>
t ari
compar ing</w>
ak s</w>
pul monary</w>
T err
DESCRIP TION</w>
Ph ot
s now</w>
hydrox ide</w>
Austr alian</w>
Pan el</w>
encoun tered</w>
bri ghtness</w>
E L</w>
constitu te</w>
gui ded</w>
develop er</w>
Uk rain
h ate</w>
Mat er
potenti ally</w>
tu bes</w>
S or
mat ches</w>
Rec o
in ding</w>
disclo ses</w>
Sum mit</w>
down ward</w>
M R
habil itation</w>
wil d</w>
y cle</w>
ti zation</w>
transcei ver</w>
assem bled</w>
Ur ban</w>
te ach</w>
coll aboration</w>
ricul um</w>
au to
om itted</w>
F P</w>
dec la
cataly tic</w>
dipl omatic</w>
ur o</w>
loc ate</w>
dr illing</w>
g al
minim ize</w>
organiz ational</w>
m ar</w>
Prepar ation</w>
to cols</w>
dis order</w>
suppl iers</w>
design s</w>
r d</w>
la p</w>
vulner able</w>
flow ers</w>
M AC</w>
el ding</w>
G row
occu pied</w>
reser ves</w>
B lu
b ow
n ative</w>
Electr onic</w>
sco res</w>
al and</w>
Ch o
Com bin
y o
de fe
preci se</w>
model ing</w>
head quarters</w>
R 1</w>
tic kets</w>
rad ical</w>
Y et</w>
bo ys</w>
re adily</w>
inde x
develop ments</w>
chem istry</w>
em br
cere bral</w>
L D
ten ed</w>
D ep
Experim ental</w>
rec ess</w>
t ai
help ful</w>
depos its</w>
pre me</w>
O pen
In surance</w>
20 5</w>
S cot
ran king</w>
bloc k
let ters</w>
sum mit</w>
f alls</w>
ti se</w>
Dist ribu
In novation</w>
ari a</w>
accumul ated</w>
Typ ically</w>
k it</w>
Bi g</w>
K now
empha sized</w>
D avi
N ot
mo on</w>
intest inal</w>
plan ar</w>
C ro
G O
wor thy</w>
un certainty</w>
at able</w>
f eng</w>
Con sequently</w>
pregn ant</w>
cur ved</w>
F re
provi ders</w>
B lack</w>
Down load</w>
mer ch
S D</w>
l ay</w>
ec e</w>
Hen an</w>
cot ton</w>
D O
ph ases</w>
tor ies</w>
l t
Sci enti
connec ts</w>
3 6
exam ined</w>
Meas ures</w>
comm ission</w>
Th ailand</w>
r ings</w>
The ory</w>
terr it
repu tation</w>
h all</w>
5 10</w>
X X</w>
at o
where as</w>
oc ardi
PC R</w>
et ch</w>
lin k
L in</w>
s and</w>
chem icals</w>
telec ommun
fing er
b ags</w>
comprehen sively</w>
m atic</w>
sol e</w>
thel ial</w>
birth day</w>
B ai
Ji ang</w>
se ats</w>
M ong
du ties</w>
L and</w>
ton ight</w>
induc tion</w>
prec ed
ad ata</w>
insul in</w>
deriv ative</w>
F OR</w>
meth od
Priv ate</w>
tun nel</w>
ar ts</w>
ro of</w>
00 0
lin ing</w>
de viation</w>
inten sive</w>
an ia</w>
p airs</w>
ti gh
publ icity</w>
web sites</w>
y u</w>
coll ecting</w>
ne ither</w>
I R</w>
refl ecting</w>
multipl ex
o ven</w>
li g
re gre
fl ame</w>
em bar
Con sul
is ot
spec ted</w>
demonstr ate</w>
Soci ety</w>
as sume</w>
in jected</w>
St or
al d</w>
Stu dies</w>
C lu
int ention</w>
ke ep
N B</w>
Phili pp
econom ics</w>
vacc ine</w>
H all</w>
dec or
me al</w>
mic r
i on
Do es</w>
b iting</w>
ben ding</w>
sustain ed</w>
exc eption</w>
3 30</w>
V en
pro spects</w>
izh ou</w>
hop ed</w>
altern atively</w>
ab and
li sts</w>
spac ed</w>
H angzhou</w>
ro les</w>
interpre tation</w>
An y
M ad
separ ator</w>
N et</w>
con g
defin ing</w>
ec o
3 4
tr illion</w>
cent rifu
har v
il e
re tro
1 13</w>
5 ,000</w>
pep tides</w>
join ing</w>
u plo
be ams</w>
sh ut</w>
parti tion</w>
bul k</w>
sugg ests</w>
ly m
initi ated</w>
Sal es</w>
prof essor</w>
op posed</w>
M D
T aking</w>
cu ts</w>
me ets</w>
ath s</w>
Xin hua</w>
um es</w>
St at
hi erarch
Back ground</w>
p assive</w>
vit amin</w>
m assive</w>
Em ploy
Ze aland</w>
in door</w>
Sum mary</w>
men ted</w>
p ill
modi fications</w>
.. ..</w>
emul sion</w>
pro ud</w>
inter n
friend ship</w>
We i</w>
smo ke</w>
&apos; clock</w>
Chem ical</w>
uni or</w>
philosoph y</w>
Mon it
Ser ies</w>
L atin</w>
E F</w>
g un
promis ed</w>
k ne
W r
mom ent
3. 5</w>
ar c</w>
seven th</w>
gradi ent</w>
J ustice</w>
we aring</w>
H a
wo ven</w>
C A</w>
ep i
Col l
appreci ation</w>
b ases</w>
resi dence</w>
e x</w>
J er
h ome
w ash</w>
dr yer</w>
Ne w
C 1</w>
pos s
tr ace</w>
ogen ic</w>
b ore</w>
tr uck</w>
Fam ily</w>
ob serv
T own</w>
resc ence</w>
Syst ems</w>
furn ace</w>
coll ector</w>
J es
dis charged</w>
stre ams</w>
por te
compl y</w>
ev en
land scape</w>
inhibit or</w>
mathematic al</w>
foun ded</w>
ter ri
1. 3</w>
K ing</w>
af ford</w>
c aught</w>
ocy an
t el
is s
Com prehen
sac ri
ar tery</w>
surfac tant</w>
ad mitted</w>
Z hao</w>
ch eng</w>
th inks</w>
eto oth</w>
foc al</w>
reci pi
en ary</w>
co in</w>
cle ar
multi media</w>
Hun an</w>
blo g</w>
coron ary</w>
Corpor ation</w>
purch ased</w>
encour aged</w>
consul tations</w>
idi c</w>
a b</w>
Ti bet</w>
br ush</w>
ac tor</w>
ab ra
rel ate</w>
ak ed</w>
tis sues</w>
k n
Commun ication</w>
mob ility</w>
emo tional</w>
p un
acci dents</w>
fail s</w>
st ering</w>
u x</w>
hot els</w>
y an</w>
Mong ol
smo oth
depen dence</w>
in h
Chi ef</w>
Regi onal</w>
2 14</w>
con servation</w>
reg ression</w>
S earch</w>
30 1</w>
es sional</w>
H am
peace keeping</w>
com partment</w>
ban ds</w>
brac ket</w>
n am</w>
di o</w>
answ ers</w>
nutri tion</w>
fa ith</w>
appropri ately</w>
Up on</w>
B M
respir atory</w>
cultiv ation</w>
co at</w>
n in
classi fied</w>
. 2</w>
weap on</w>
in sist
In cre
f iller</w>
F A
re turning</w>
des k</w>
14 2</w>
s ounds</w>
plo ying</w>
l i</w>
suppl ier</w>
af for
w is
in er
ol ef
w .
su spected</w>
L ight</w>
polar ization</w>
shor ter</w>
l ots</w>
ol ic</w>
Enter prises</w>
tre as
Administr ative</w>
schol ars</w>
Y i
ici ans</w>
gg ed</w>
recru itment</w>
V ice</w>
scre ening</w>
r ated</w>
execu ting</w>
spac es</w>
break fast</w>
S E</w>
reco ver</w>
compl ications</w>
N G</w>
b i</w>
inten si
4 20</w>
precip it
ber ship</w>
fur niture</w>
her ic</w>
A g
legi timate</w>
vent ure</w>
veget ables</w>
bran ches</w>
ac ked</w>
profession als</w>
tion er</w>
Re gar
an ded</w>
Fu jian</w>
ad ers</w>
fer tili
T or
su le</w>
n one</w>
Commer cial</w>
asi bility</w>
favor able</w>
G RO
alkal i</w>
Proper ties</w>
acryl ate</w>
bel ong</w>
ou red</w>
M aster</w>
exc ited</w>
str ange</w>
Egyp t</w>
at om
h am
dop ed</w>
Ital ian</w>
i ances</w>
g ains</w>
introduc ing</w>
a er
L u</w>
tow er</w>
thre ats</w>
e astern</w>
tradi tion</w>
cho o
en der</w>
RO M</w>
re mark
ph asis</w>
c um
S I</w>
coll abor
ign ition</w>
pre ad</w>
accoun ted</w>
we i
stu ff</w>
ammon ium</w>
s s
prof ound</w>
it ting</w>
con ju
li fe
v ous</w>
bri ef</w>
treat y</w>
refr active</w>
spectr al</w>
re volu
13 4</w>
in form</w>
ban ization</w>
Monit oring</w>
mo ther
autom ated</w>
F lo
regul ator</w>
Com mis
del eted</w>
40 4</w>
al ph
p aste</w>
arri val</w>
hy dr
h as
neutr al</w>
Cre dit</w>
dis orders</w>
pro minent</w>
p el
qual ification</w>
Pati ents</w>
D N
shoul der</w>
cont acting</w>
dispos al</w>
emp irical</w>
predic t</w>
tr ained</w>
bo ards</w>
b ered</w>
Indone sia</w>
P hys
p apers</w>
al ties</w>
system atic</w>
p ick
po t</w>
K en
St reng
house holds</w>
W o
tempor arily</w>
frac ture</w>
l ottery</w>
x ia</w>
as sign
depic ts</w>
S ource</w>
T radi
E P</w>
fu zzy</w>
d og
met adata</w>
4 50</w>
30 6</w>
en v
contem porary</w>
50 2</w>
b yp
H ence</w>
olef in</w>
L ater</w>
modern ization</w>
frequ ent</w>
standardi zed</w>
ret ention</w>
stir ring</w>
wi der</w>
ww w.
Vari ous</w>
S F
C at
vigor ously</w>
att ach</w>
wed ding</w>
bl ind</w>
resul ted</w>
B AC
disp ute</w>
decla red</w>
h s</w>
le um</w>
Wu han</w>
Mo de</w>
Lear ning</w>
R ail
bo at</w>
Bran ch</w>
Re ferring</w>
fit ting</w>
gh ua</w>
contain ers</w>
absol utely</w>
ex terior</w>
dis si
amaz ing</w>
f all
0. 00</w>
un employment</w>
scenari o</w>
Fol lowing</w>
vis or</w>
suff er</w>
vill ages</w>
peri odic</w>
A ward</w>
th ri
qu antum</w>
ligh t
O x
ti m</w>
z a</w>
gre w</w>
ic ed</w>
rot ated</w>
ess els</w>
del ayed</w>
10 9</w>
civili an</w>
A W
Con fig
harmon ious</w>
per c
U T</w>
L ove</w>
FI D</w>
Con stitution</w>
limit ations</w>
an o</w>
i ally</w>
Le ban
6 ,
CO 2</w>
100 ,000</w>
fe els</w>
under taken</w>
addi tionally</w>
absor bent</w>
put ted</w>
gr ant</w>
Guang xi</w>
n ut</w>
inv o
writ er</w>
S an
mortg age</w>
impro vements</w>
enthusi asm</w>
p et</w>
t une</w>
any where</w>
D ell</w>
tr ay</w>
Davi d</w>
S w
refuge es</w>
R ural</w>
ner ve</w>
S till</w>
i P
proxim ity</w>
Clin ton</w>
gr ass
0 9</w>
me rely</w>
bel ong
ultr a</w>
ac tors</w>
Prof essor</w>
so l</w>
attem pts</w>
al dehy
accompl ished</w>
Medic ine</w>
vide os</w>
simpl ified</w>
advantag eously</w>
lic ens
che ap</w>
frag ment</w>
y ro
ess ence</w>
Di ag
co oking</w>
i p</w>
b ars</w>
F ile</w>
absor bing</w>
m ention</w>
viol ation</w>
sun g</w>
j um
mark er</w>
mot or
es c
Comprehen sive</w>
utili ze</w>
p .m.</w>
traff icking</w>
Inte l</w>
compl ementary</w>
We Chat</w>
Con si
an xi</w>
li abilities</w>
A B</w>
s ers</w>
V R</w>
re combin
50 ,000</w>
photo graph
Par t
Jour nal</w>
ain an</w>
commit ments</w>
utili zing</w>
R ac
conver ting</w>
Yun nan</w>
charg er</w>
il in</w>
L .
N ing
Po st</w>
autom otive</w>
heal th
as sistant</w>
eng aging</w>
tim er</w>
resol ved</w>
ul timately</w>
ill ennium</w>
cab inet</w>
UN D</w>
fun ded</w>
re ferring</w>
dec oration</w>
en rich
wh olesale</w>
ag er</w>
ati gue</w>
coun ts</w>
an xi
199 3</w>
pl ating</w>
vi br
og onal</w>
moment um</w>
disp utes</w>
vari ant</w>
Syri a</w>
porte ur</w>
legis lative</w>
cho ices</w>
Regul ations</w>
circum ferential</w>
un t</w>
ch urch</w>
t ail</w>
satis factory</w>
dis armament</w>
mol ded</w>
ir t</w>
ly sis</w>
cri pt</w>
E N</w>
am end
push ed</w>
Vi su
accompan ied</w>
herit age</w>
ket ball</w>
mi ti
Ang el
Inspec tion</w>
V I</w>
eren ce</w>
viol et</w>
deep ening</w>
slo pe</w>
adju stable</w>
appl iance</w>
Grow th</w>
migr ants</w>
pro tocols</w>
trans formed</w>
Bo ok</w>
person ality</w>
in spir
C ross</w>
nan o
mist ake</w>
roll ed</w>
access ories</w>
colli sion</w>
work er</w>
pl un
w ake</w>
commun icating</w>
attrac tive</w>
fo ods</w>
anten n
wal ked</w>
Sim ulation</w>
g ath
und ant</w>
str ait</w>
gra vity</w>
ed y</w>
ox idi
B ang
et ting</w>
Pre vention</w>
stre ets</w>
vit ro</w>
bun al</w>
Plat form</w>
em phasis</w>
pul ses</w>
sul fur</w>
inf ected</w>
Inv esti
s inc
mo vements</w>
gly col</w>
2 ,000</w>
Mus li
per mission</w>
au l</w>
s wi
H or
des ktop</w>
gan g</w>
rel and</w>
Pr actice</w>
Te am</w>
tai wan</w>
invest or</w>
ou gh
W il
an der</w>
ar ization</w>
pur sue</w>
Mat erial</w>
imag ine</w>
v essels</w>
mon omers</w>
obli gation</w>
es the
def ect</w>
S how</w>
gr anted</w>
elev ator</w>
D R
d ao</w>
cour age</w>
enh ancement</w>
exam ine</w>
shi pping</w>
com ed</w>
N ig
US A</w>
at ri
cy clic</w>
micro phone</w>
guarante ed</w>
L ake</w>
class room</w>
F A</w>
es cape</w>
vis its</w>
ke wise</w>
di r
U p</w>
li d</w>
bu m
struc turing</w>
rul ing</w>
enem y</w>
inv entive</w>
Hu a
0 7</w>
Viet nam</w>
en ever</w>
disper sed</w>
ban k
al ert</w>
Be sides</w>
fit ted</w>
0. 3</w>
D en
es h</w>
Fil m</w>
In tro
ear n</w>
Mar k
mem bership</w>
loc k
Xi ao
G as</w>
m able</w>
R FID</w>
et al</w>
in cub
h t
high way</w>
sm ile</w>
M B
P ay
Auth ority</w>
ill umin
vers ely</w>
vari ed</w>
re ti
min or</w>
gro ss</w>
wel comed</w>
Moder n</w>
Radi o</w>
15 2</w>
Elec tro
fluo rescent</w>
aud i</w>
multi lateral</w>
purch asing</w>
mar king</w>
H an</w>
amor ph
ber g</w>
es cent</w>
occur ring</w>
less ons</w>
ush ed</w>
P en
M Hz</w>
S ino</w>
St ar</w>
sup posed</w>
epidem ic</w>
Ve hic
dis crete</w>
Mul ti</w>
up ward</w>
Rap porteur</w>
hy dri
publ ication</w>
L TE</w>
3 8
f arm</w>
J ing
mean ing
h ence</w>
are t
Y O
Gu ide</w>
wi des
Mater ials</w>
ren tal</w>
qui et</w>
harm ful</w>
Malay sia</w>
to b
prescri bed</w>
vic tim</w>
recei pt</w>
fo il</w>
du m</w>
on a</w>
B lo
Blu etooth</w>
Is land</w>
T op</w>
jo y</w>
hon est</w>
ed itor</w>
f estival</w>
ap ps</w>
re habilitation</w>
equ ally</w>
leg s</w>
acc used</w>
alle viation</w>
ali ve</w>
al co
re feren
fra ud</w>
exc iting</w>
W TO</w>
Sh u
Proper ty</w>
ang ry</w>
L angu
acqui re</w>
Discus sion</w>
du pl
v ectors</w>
clear ance</w>
ul ative</w>
diff r
convers ation</w>
rad ar</w>
be ar
ac com
lo ves</w>
tox ic</w>
contr ary</w>
iz ations</w>
Ji an
sou l</w>
e dit</w>
to po
Dev ice</w>
presi dential</w>
addres sing</w>
sw imming</w>
bin ary</w>
preci sely</w>
confi dent</w>
op ens</w>
chec king</w>
Sel f</w>
summar ized</w>
pig ment</w>
Pro gram</w>
tob acco</w>
trav eling</w>
S he
satis fy</w>
gro o
o dic
M E</w>
y e</w>
touri st</w>
accompan ying</w>
Ex pl
is chem
UR L</w>
stri ke</w>
F if
restric tion</w>
sc at
5 A</w>
inv al
ner vous</w>
ex act</w>
met ast
amorph ous</w>
transduc er</w>
go ver
P P</w>
dre ams</w>
analy sts</w>
Treat y</w>
low s</w>
groun ds</w>
indi genous</w>
jud ges</w>
encryp ted</w>
punish ment</w>
destro yed</w>
se p
it ability</w>
extr a
D an
bloc ked</w>
in form
Jes us</w>
mist akes</w>
I reland</w>
formul ations</w>
b lies</w>
ver ified</w>
sh ear</w>
statis tically</w>
eth yl
P op
fi b
Est ab
classi c</w>
Lev el</w>
mo m</w>
n as
Ap p</w>
dilu ted</w>
Z hu
Wi thin</w>
at omic</w>
Jo int</w>
Com pan
sh ore</w>
P M</w>
SE Q</w>
fi red</w>
ch ose</w>
X u
t aught</w>
d ental</w>
don or</w>
exclu sive</w>
tr y
F un
Zh eng
end ar</w>
cap sule</w>
ad ds</w>
S M</w>
accom mo
cr ack</w>
exper tise</w>
vi et</w>
Ch annel</w>
P A
equ ili
e gg
De puty</w>
ch air</w>
dissi p
o des</w>
T RA
inter vals</w>
Character istics</w>
Por t</w>
ic ks</w>
volt ages</w>
consol e</w>
wides pread</w>
2 22</w>
Embodi ments</w>
distinc t</w>
ti e</w>
que ue</w>
Zh u</w>
appl iances</w>
dec lined</w>
hard ness</w>
cra zy</w>
it ative</w>
p ads</w>
gu est</w>
ot a</w>
ASE AN</w>
ul tra
s .
pres sur
m ally</w>
Li brary</w>
2 60</w>
real istic</w>
Commis sioner</w>
S P</w>
c it
unc ture</w>
ten sile</w>
certif icates</w>
cy to
Qu e
res ins</w>
ai ry</w>
elim inated</w>
our ing</w>
Re ference</w>
selec ts</w>
r a</w>
antenn as</w>
pul led</w>
sl ots</w>
dynam ics</w>
acceler ated</w>
ed ings</w>
An ti
consci ousness</w>
2 a</w>
cogn itive</w>
lik es</w>
re production</w>
il le</w>
H P</w>
recombin ant</w>
ran ked</w>
ple x</w>
def end
t ells</w>
g ers</w>
venti lation</w>
hi bition</w>
fe asibility</w>
constitu tion</w>
S audi</w>
co ach</w>
ingredi ent</w>
volt aic</w>
ch ains</w>
youn ger</w>
lif ting</w>
administ ering</w>
gr ay</w>
S N
leg ally</w>
3 3
contribu ted</w>
Su itable</w>
d ar
coordin ates</w>
neighb oring</w>
p assi
s ick</w>
fl ying</w>
ur banization</w>
20 ,000</w>
Y an</w>
swe et</w>
hydro gen
ph r
plan es</w>
ig no
ep it
prepar ations</w>
To k
S C</w>
Proc essing</w>
cool ant</w>
a sible</w>
ill ness</w>
2 1st</w>
c ables</w>
b age</w>
H ainan</w>
activ ate</w>
Hist ory</w>
ta p</w>
c ure</w>
AR Y</w>
stor m</w>
G S</w>
dec laration</w>
chec ks</w>
diag r
ref used</w>
hop ing</w>
mo od</w>
or ate</w>
ci g
be verage</w>
treat ments</w>
sh eng</w>
a str
gas oline</w>
M R</w>
id a</w>
is es</w>
F ind</w>
particul ate</w>
st ake
bor ne</w>
Por tu
D .</w>
m ate</w>
carri es</w>
C P</w>
assem blies</w>
s ongs</w>
co sme
199 2</w>
Sub sequently</w>
visit ors</w>
ati vity</w>
lun ch</w>
ur ged</w>
bl ank</w>
Doc ument</w>
immun o
avi ation</w>
1 B</w>
inter act</w>
fe asible</w>
fluo rescence</w>
lux ury</w>
ff s</w>
bre a
commit tees</w>
Su preme</w>
cardi ac</w>
effici ents</w>
Ch r
Maj or</w>
organ isms</w>
F F</w>
adsor ption</w>
di ble</w>
fil ed</w>
cour ts</w>
f lower</w>
ren ce</w>
pri orities</w>
diam ond</w>
St anding</w>
19 th</w>
att le</w>
gen ic</w>
Ar gent
orth ogonal</w>
E astern</w>
won der</w>
stre aming</w>
ell ular</w>
Ori g
um b
confirm ation</w>
aldehy de</w>
ti lity</w>
d or
v ical</w>
ge ometry</w>
manif old</w>
fish ing</w>
entrepreneur s</w>
bass ador</w>
cop ies</w>
ques tion
volunte ers</w>
s ink</w>
g ained</w>
pe er</w>
in clin
ann a</w>
E mer
cur riculum</w>
inst ant</w>
id le</w>
hi de</w>
town s</w>
regul ated</w>
E D
bar rel</w>
ucle ar</w>
attem p
bid ding</w>
x in</w>
wave guide</w>
co atings</w>
Mechan ism</w>
D VD</w>
moder ate</w>
Hy dro
juris diction</w>
est ers</w>
s ad</w>
G al
B P</w>
dis advantages</w>
wish es</w>
inj uries</w>
ha el</w>
gath ered</w>
exhi bit</w>
Prof essional</w>
Par ti
ill ance</w>
coun ties</w>
ampl ification</w>
ben ch
ar chi
R est
CE O</w>
M I
c at</w>
h i</w>
I denti
luc ky</w>
ou tw
u sted</w>
show er</w>
brief ly</w>
bri um</w>
Lin ux</w>
min ority</w>
bu reau</w>
B ase</w>
a .m.</w>
c er</w>
GRO UND</w>
ef s</w>
physi ological</w>
BAC K
rein forced</w>
t ough</w>
pri ze</w>
kid ney</w>
phil ic</w>
S ens
differenti ation</w>
pene tr
G ame</w>
Cont act</w>
N i</w>
E specially</w>
rais al</w>
hab its</w>
gi ant</w>
v aries</w>
e g
vern ight</w>
dre w</w>
star ch</w>
every where</w>
Z hi
P N</w>
A V</w>
S em
Per i
Col or</w>
cryst alli
d are</w>
co efficients</w>
cont empl
An hui</w>
volunt ary</w>
ed iting</w>
regul ating</w>
S W
l anding</w>
eigh th</w>
tot ally</w>
rou ter</w>
re sum
reas ing</w>
u ed</w>
B I</w>
pp m</w>
got ten</w>
alco hol
In ternal</w>
pharm ac
tab lets</w>
ath y</w>
mit ting</w>
Olymp ics</w>
s in</w>
s ought</w>
rup t</w>
ar range</w>
B a
13 1</w>
19 0</w>
. 5</w>
be l</w>
gu il
C ub
Con tent</w>
modi ties</w>
S Y
f atigue</w>
po lishing</w>
groo ves</w>
sem in
main stream</w>
oc ean</w>
Ira qi</w>
Re si
y right</w>
Compan ies</w>
Sor ry</w>
m 3</w>
2 nd</w>
de aths</w>
Curren tly</w>
arc tion</w>
en sures</w>
3 12</w>
was her</w>
ocardi al</w>
h inge</w>
f ar
Con trac
So viet</w>
suppl ying</w>
Sha anxi</w>
12 3</w>
D eci
Op tionally</w>
sty rene</w>
Ad visory</w>
co ast
compati bility</w>
E mp
hand led</w>
gi a</w>
L ord</w>
t ack
AC K</w>
with draw
Mar x
Influ ence</w>
distor tion</w>
wis dom</w>
anne x</w>
mat ched</w>
fre ely</w>
Per haps</w>
m entally</w>
carbox ylic</w>
ne tiz
o ste
ili ation</w>
pre vents</w>
arri ve</w>
counter measures</w>
iz able</w>
micr ons</w>
oper able</w>
beli ef</w>
p ins</w>
mort ality</w>
station ary</w>
199 0</w>
I mp
le uk
St ore</w>
administr ator</w>
E A</w>
mis sile</w>
atmosp heric</w>
os ity</w>
fac ial</w>
mag n
Th anks</w>
ul timate</w>
cig aret
gly cer
l enses</w>
Com peti
Mongol ia</w>
hydro ph
Nat ural</w>
lym ph
Pre mier</w>
m useum</w>
ev a</w>
u ts</w>
Ukrain e</w>
Cri minal</w>
over lap</w>
Geor ge</w>
Vill age</w>
j ump</w>
pro poses</w>
le af</w>
repe at</w>
Al gorith
M ol
V M</w>
histor ic</w>
B ay</w>
play back</w>
u ang</w>
inf ections</w>
commer ci
explo sion</w>
tex tile</w>
pip es</w>
ax es</w>
her self</w>
Def ense</w>
hear ts</w>
v a</w>
author ization</w>
om ing</w>
con vic
sti ff
Stor age</w>
I A</w>
BACK GROUND</w>
Mu sic</w>
th rot
dr ill</w>
im ports</w>
M ess
under ground</w>
deep en</w>
b ad
F eng</w>
regul ate</w>
conclu sions</w>
pion ship</w>
Tradi tional</w>
Ali bab
o vernight</w>
Lo oking</w>
peri odic
tum ors</w>
un necessary</w>
g ently</w>
dec reasing</w>
.... ....
cont acted</w>
L ong
un saturated</w>
bu yers</w>
di an</w>
plo t</w>
j us
af firm
happen ing</w>
gast ric</w>
sp are</w>
ch it
premis e</w>
V o
m yst
Su stain
D ar
Dru g</w>
ti me
13 5</w>
subsi dies</w>
visit ing</w>
j ap
path way</w>
net working</w>
inev itable</w>
e or
Ac counting</w>
stimul ation</w>
re taining</w>
E T
A A</w>
Re qui
fall en</w>
surpris ed</w>
pursu it</w>
anti bio
adi an</w>
13 6</w>
impl ant</w>
w ages</w>
de m</w>
bri d
ex am</w>
Pr o</w>
re views</w>
sp her
enlarg ed</w>
to oth</w>
4 00
Un fortunately</w>
ha ir
por e</w>
Republic an</w>
Comp ound</w>
R ic
C F
adjust ments</w>
env elop
Y ou
shad ow</w>
cam p</w>
tr ag
t z</w>
R ules</w>
W illi
ven ues</w>
geo graphical</w>
Tem per
LE Ds</w>
M ao</w>
cre w</w>
f ting</w>
re str
Sen ate</w>
S 1</w>
ap pen
Rail way</w>
but tons</w>
UN DP</w>
B ul
Re qu
hyper tension</w>
Dem ocr
civili ans</w>
subscri ber</w>
pi v
rou tes</w>
pen alty</w>
L arge</w>
st airs</w>
em a</w>
Adv ant
dipl om
any more</w>
r i</w>
indic ative</w>
rec tification</w>
de bu
Contro ll
Pe ace</w>
W en</w>
SC O</w>
r ab
co ok
photo sensitive</w>
cor n</w>
du es</w>
2 16</w>
ste water</w>
notic ed</w>
a warded</w>
am en</w>
D M
work shop</w>
in ert</w>
M illennium</w>
analy ses</w>
par tly</w>
war ned</w>
te x</w>
Sud an</w>
sh ed</w>
Visu al</w>
compet ent</w>
gr inding</w>
qu ad
arti sts</w>
sur prise</w>
poly urethane</w>
han ded</w>
law yer</w>
concentr ate</w>
spac ing</w>
ch at</w>
anti cip
po sted</w>
G az
influ encing</w>
proce edings</w>
spec im
1 1.
low ered</w>
r ack</w>
nar row
tex ture</w>
gl asses</w>
liv elihood</w>
z ens</w>
set up</w>
synchron ous</w>
Har d
sub frame</w>
c ents</w>
accommo date</w>
sh a</w>
C ase</w>
byp ass</w>
ad en
Sing le</w>
sion ing</w>
d i</w>
here s</w>
r ade</w>
fi bro
tra um
domin ant</w>
Super vision</w>
Pri mary</w>
dis sem
up s</w>
br on
r ag
Off ic
re iter
ggl ing</w>
C ent
non linear</w>
struc tive</w>
H D</w>
Statis tics</w>
Adv anced</w>
less on</w>
ir radiation</w>
p en</w>
C u</w>
sol ids</w>
Addi tional</w>
6 A</w>
g au
High er</w>
no ver</w>
ear ing</w>
atic s</w>
3 7
end or
ammon ia</w>
rel atives</w>
is ocyan
I g
le dge</w>
mo i
vac ation</w>
to sis</w>
lumin ance</w>
bedro om</w>
an king</w>
L iter
Al li
inclin ed</w>
G an
mag azine</w>
Ch art</w>
re ferences</w>
optim um</w>
im mer
boo k
whe at</w>
f old</w>
ju n</w>
fore ver</w>
H O
Gre ece</w>
zer land</w>
Y an
s om
Dynam ic</w>
De termination</w>
connec tors</w>
bur n</w>
obstac les</w>
religi on</w>
e try</w>
occup ation</w>
C ar</w>
Sam sung</w>
Ma c</w>
Y oun
bol t</w>
P aul</w>
Im pro
ax ially</w>
Ret ur
anch or</w>
18 th</w>
Inde ed</w>
func tioning</w>
ay or</w>
re tain</w>
rac ing</w>
pat ch</w>
decom position</w>
ch icken</w>
gi ble</w>
S a
Exam ination</w>
B .</w>
bu yer</w>
x ing</w>
g all
avoi ded</w>
ather ing</w>
oxid es</w>
cultiv ate</w>
su sc
pic ked</w>
the ories</w>
Philipp ines</w>
6 10</w>
con vin
P y
correc ted</w>
Mic hael</w>
F low</w>
constitu ted</w>
Langu age</w>
is ure</w>
susp ect</w>
rob ust</w>
Rel ation
F ourth</w>
G old</w>
imp air
bac ks</w>
Li a
han do
le ague</w>
D ate</w>
bl ades</w>
Syri an</w>
descri bing</w>
di verse</w>
h ang
lat ch</w>
pres sures</w>
lin er</w>
ware house</w>
ph al
photo voltaic</w>
S L
de duc
program mable</w>
2. 2</w>
real izing</w>
equili brium</w>
m ast
ac u
ther net</w>
dis asters</w>
lubr ic
20 th</w>
Dou ble</w>
mot ors</w>
spac er</w>
o scopic</w>
poli tici
pack ages</w>
influ enced</w>
.... ..</w>
expen se</w>
Y esterday</w>
wat ched</w>
4. 5</w>
hor se</w>
co ils</w>
ic op
remark able</w>
A V
th eless</w>
a ver
Swit zerland</w>
ush ing</w>
hydrox y
N H
dis placed</w>
sud den</w>
precip itation</w>
r at</w>
is mic</w>
short age</w>
capit a</w>
stac ked</w>
ov ascular</w>
Secon dly</w>
F T</w>
W i</w>
subsidi ary</w>
schem es</w>
b a</w>
Exp o</w>
Sou thern</w>
dy e</w>
ultra violet</w>
pre mium</w>
fru its</w>
re structuring</w>
h u</w>
ign ty</w>
di m
no se</w>
program med</w>
R N
ack er</w>
el as
tri als</w>
individu ally</w>
f u</w>
c ake</w>
p ha
alkal ine</w>
work piece</w>
FIG URE</w>
at en</w>
rati os</w>
coun try
pre defined</w>
d est</w>
flo od</w>
ther lands</w>
centr alized</w>
30 8</w>
propor tional</w>
sec retariat</w>
radi ally</w>
spe akers</w>
but yl</w>
di ver
nanop articles</w>
frag ments</w>
re tained</w>
par ks</w>
coun cil</w>
survi ve</w>
docum entation</w>
at uses</w>
hon or</w>
life time</w>
2. 1</w>
her o
V oc
14 4</w>
egg s</w>
preci ous</w>
Tex as</w>
inte ger</w>
L abor
di l
C lo
ju ven
withdraw al</w>
E V
d ol
ad mission</w>
og ram</w>
diffr action</w>
b low</w>
stimul ate</w>
moun tains</w>
answ ered</w>
ar rest</w>
convey or</w>
Hu bei</w>
proce ed</w>
dem od
respon sive</w>
op pon
arti stic</w>
th row</w>
F er
install ing</w>
Tur k
un preced
le ather</w>
St art</w>
j unior</w>
comp ete</w>
succ essively</w>
read ers</w>
engine ers</w>
it ors</w>
W ee
H aving</w>
e z
on ym
be ach</w>
4 5
vi vo</w>
Bl ue</w>
cal m</w>
out look</w>
let es</w>
ca ve</w>
T N
tri bu
sub set</w>
as y</w>
olog ically</w>
adop ts</w>
M an</w>
as sion</w>
Shan xi</w>
pro files</w>
inf arction</w>
separ ating</w>
every body</w>
Nor thern</w>
exc ep
exc itation</w>
Config uration</w>
soc ket</w>
S om
Gu izhou</w>
surve illance</w>
er ce</w>
An im
com modities</w>
renew able</w>
h ang</w>
anim ation</w>
S 2</w>
analy tical</w>
Char ter</w>
stop s</w>
col our</w>
vi c</w>
col on
vari eties</w>
go od
5 20</w>
out comes</w>
curren cies</w>
g aps</w>
barri ers</w>
sho ot</w>
arbitr ary</w>
mob il
Det ection</w>
U L</w>
integr ating</w>
ate ful</w>
appar atuses</w>
3 rd</w>
m align
b al</w>
sovere ignty</w>
tran sit</w>
s port</w>
dis cover</w>
Coun ter
s ory</w>
dog s</w>
Wor k
negoti ation</w>
s car
pro pri
def icit</w>
ow ing</w>
4 B</w>
si ves</w>
cham pi
2 11</w>
there on</w>
thro m
R ate</w>
spe eds</w>
mach ining</w>
refriger ator</w>
tic ity</w>
inf ec
Ne therlands</w>
pres et</w>
controll ers</w>
an i</w>
collap se</w>
high light</w>
li br
pac king</w>
F ull</w>
popul ations</w>
hy th
pat ri
L os</w>
sear ching</w>
restaur ants</w>
cul tures</w>
veget able</w>
tro p
Dat ab
bo y
cataly sts</w>
ex t
inc entive</w>
cli p</w>
he pati
pr acti
Nig er
gr at
l ending</w>
Ex pression</w>
m ass
Alibab a</w>
3 B</w>
te enth</w>
trans verse</w>
P ho
s eller</w>
impl ications</w>
col og
shi elding</w>
l asting</w>
R T</w>
as ym
broad er</w>
IS O</w>
choo sing</w>
m u</w>
anxi ety</w>
Tok yo</w>
P W
bur g</w>
all er
pl antation</w>
bur ning</w>
Sha re
T reas
emer ged</w>
par a</w>
b is
entrepreneur ship</w>
T ell</w>
e uro</w>
sli p</w>
15 0
rein forcing</w>
cal endar</w>
la b</w>
dra g</w>
Y i</w>
PC C</w>
ass is</w>
optim istic</w>
auth ors</w>
pro xy</w>
fin ds</w>
ul ated</w>
E thernet</w>
bub ble</w>
se where</w>
datab ases</w>
V ic
P age</w>
Ph ase</w>
pre fer</w>
re agent</w>
au g
A 1</w>
hepati tis</w>
nan o</w>
Agricul ture</w>
tr adem
lip id</w>
altern ate</w>
U s</w>
T om
3 40</w>
lo x
flu ids</w>
. 3</w>
stric ts</w>
amm ation</w>
read ed</w>
Temper ature</w>
di vor
He ad
consul ting</w>
S it
expl aining</w>
child hood</w>
ref res
dis pers
P R</w>
t ail
ligh ted</w>
Aut onomous</w>
igno red</w>
prog nosis</w>
Re ad</w>
sh ouldn</w>
Con tract</w>
att ered</w>
U D
publish ing</w>
u h</w>
5 G</w>
invol vement</w>
cer vical</w>
b ird</w>
in um</w>
person ally</w>
fabr icated</w>
en sive</w>
connec tivity</w>
con sent</w>
in fr
lam inated</w>
advertis ement</w>
assess ed</w>
80 s</w>
re act</w>
chec k
ell ation</w>
inv ite</w>
ren dering</w>
Cub a</w>
op ing</w>
wit ter</w>
Fr amework</w>
T it
ti les</w>
paragrap hs</w>
U .</w>
inclu sion</w>
smart phone</w>
gol den</w>
op tic</w>
J ames</w>
bur st</w>
Gen eva</w>
loc ally</w>
H and
3. 0</w>
vi ously</w>
Pro blems</w>
pan cre
formul ate</w>
priv ile
fif ty</w>
cr ank
inhi bit</w>
mu tually</w>
b our
in sec
mar i
expl ains</w>
bas e
compar able</w>
sco red</w>
L 1</w>
mix er</w>
push ing</w>
unpreced ented</w>
cham bers</w>
chem otherapy</w>
so red</w>
gl ut
In f
re jected</w>
per cei
in y</w>
dic h
A z
Or acle</w>
mathematic s</w>
inter fer
reser vation</w>
Mil itary</w>
sur plus</w>
en counter</w>
sy r
investig ations</w>
over view</w>
excee ding</w>
E E</w>
60 2</w>
inqui ry</w>
accommod ation</w>
MP a</w>
f ake</w>
Per manent</w>
3 ,000</w>
Ko so
post operative</w>
elev ated</w>
trans ferring</w>
pro spect</w>
O FD
x ed</w>
up dating</w>
N .</w>
3 000</w>
For m</w>
Y ong
u red</w>
see ds</w>
Lim ited</w>
o h</w>
M OS</w>
critici sm</w>
F unction</w>
cl amp</w>
resi dues</w>
bas ketball</w>
in coming</w>
7 ,
trigg ered</w>
cr ash</w>
evap oration</w>
gener ations</w>
telecommun ications</w>
TF T</w>
50 4</w>
F lor
pur ities</w>
carb ons</w>
app raisal</w>
ch ari
T ang</w>
off line</w>
has n</w>
ax le</w>
comp ul
u ph
behavi our</w>
c argo</w>
gest ure</w>
D L</w>
UN IC
form ats</w>
5 5
40 1</w>
o tic</w>
cryp to
ir ation</w>
s at</w>
O ld</w>
ve ter
Jiang xi</w>
e vil</w>
di stricts</w>
s si
Qing dao</w>
guaran tees</w>
B or
deep er</w>
smooth ly</w>
6 00
ven d
Algorith m</w>
HT TP</w>
u ous</w>
Bet ween</w>
poc ket</w>
inter f
u l</w>
sco w</w>
Pro gress</w>
en comp
F L
ou ri
s mil
adv ances</w>
st ayed</w>
inter actions</w>
entr ic
r ays</w>
fro zen</w>
volati lity</w>
encour aging</w>
et ric</w>
Aut omatic</w>
vot es</w>
piv ot</w>
pr o</w>
Comp on
S qu
wi red</w>
tom y</w>
ho sted</w>
heav ily</w>
Labor atory</w>
dro ps</w>
P ack
sol der</w>
4 8
Cal cul
IB M</w>
Exper ts</w>
ace tic</w>
C I</w>
Youn g</w>
P V</w>
vit ality</w>
stan tive</w>
p an</w>
am id</w>
compens ate</w>
1. 4</w>
aph rag
archit ec
is ite</w>
stake holders</w>
dynam ically</w>
se es</w>
U E
ou ts</w>
fit ness</w>
cl amping</w>
x x</w>
ti zed</w>
re stor
vol umes</w>
cir cles</w>
V ery</w>
Q Q</w>
respon ded</w>
m uc
se ud
dele gations</w>
Ac tive</w>
em ploy</w>
be ings</w>
Ass ess
Pr inci
sacri f
destro y</w>
bl end</w>
le verage</w>
t less</w>
in her
ut able</w>
co ded</w>
trac ks</w>
fav our
multi layer</w>
H ous
D a
C ell</w>
Angel es</w>
share holder</w>
rein forcement</w>
3 2
sequ entially</w>
1 200</w>
Rem ove</w>
sh ine</w>
custom ized</w>
pro jected</w>
ath letes</w>
Reser ve</w>
mem ories</w>
compl aints</w>
Mac ao</w>
pre ference</w>
imp acts</w>
Jo hn
40 6</w>
p ile</w>
pro pose</w>
m ang
phosphor us</w>
arg ument</w>
coast al</w>
pres sive</w>
consist ency</w>
Pr in
S ong</w>
wal ks</w>
M ari
Res ource</w>
ash es</w>
ten ds</w>
Can adian</w>
alph a</w>
succ eed</w>
si zing</w>
4 th</w>
main tains</w>
Bo x</w>
p per</w>
asi a</w>
t l
cent res</w>
Gi ve</w>
D re
public ly</w>
t ze</w>
foun ding</w>
. 4</w>
ic it
spher ical</w>
re conc
K ar
mil it
Wi reless</w>
Trans port</w>
Ex plo
O B
my ocardial</w>
stom ach</w>
Distribu tion</w>
Vehic le</w>
si r</w>
199 1</w>
fast ening</w>
absor b</w>
design ing</w>
t ags</w>
assign ment</w>
ini um</w>
Koso vo</w>
fin s</w>
tur nover</w>
sup pressed</w>
mur der</w>
any way</w>
edi tion</w>
throt tle</w>
plan ting</w>
el et</w>
L S</w>
im pression</w>
safe guard</w>
omer ic</w>
ough ly</w>
per mits</w>
it tle</w>
10 00
ant a</w>
su icide</w>
it i</w>
ret ard
yi elds</w>
conver ts</w>
or rh
ili ated</w>
2 32</w>
k id</w>
par ity</w>
fluctu ations</w>
ce iling</w>
fer mentation</w>
B T</w>
Gi ven</w>
rop ic</w>
Con ven
pris on
phys ics</w>
tru sted</w>
allo ys</w>
mark ers</w>
fe i</w>
En ter</w>
simil arly</w>
d ys
Compar ison</w>
O therwise</w>
N uclear</w>
ple ased</w>
en or
im purities</w>
C ore</w>
val idity</w>
m aps</w>
ocy tes</w>
transf ers</w>
on ate</w>
meaning ful</w>
B ill</w>
bear ings</w>
tis m</w>
P ot
promot er</w>
F lu
in direct</w>
T ax</w>
den ied</w>
Ar ti
L an
em ploying</w>
us able</w>
E dition</w>
assist ed</w>
Mo scow</w>
Con go</w>
inclu sive</w>
re sume</w>
some what</w>
neigh bor
in formal</w>
M ing</w>
om as</w>
op posing</w>
recipi ent</w>
toil et</w>
Relation ship</w>
import antly</w>
cor related</w>
C s</w>
arti st</w>
im migration</w>
ven ess</w>
shar ply</w>
access ed</w>
infl ammation</w>
Dep ending</w>
contribu ting</w>
minim al</w>
lab eled</w>
T un
inhi bition</w>
promot es</w>
finger print</w>
val ence</w>
Custom er</w>
Know ledge</w>
P T
di al</w>
aly sis</w>
ac ity</w>
lo sis</w>
Bri dge</w>
al um
fair ly</w>
r he
Sustain able</w>
Chang es</w>
cap turing</w>
es thetic</w>
el sewhere</w>
suppl em
ab dom
consi st</w>
N AT
de als</w>
con dem
alle vi
phen yl</w>
broad casting</w>
Nor mal</w>
electro chemical</w>
recomm ends</w>
No tice</w>
onom y</w>
e es</w>
Hua wei</w>
quanti ties</w>
te m</w>
Regar ding</w>
exclu ding</w>
Rec om
pan e</w>
Tri bunal</w>
gl ad</w>
4 30</w>
propag ation</w>
T ren
com ings</w>
hydroph obic</w>
Trans fer</w>
C ard</w>
I O
Assess ment</w>
W ould</w>
if ications</w>
D M</w>
bi an</w>
oscill ator</w>
Au to</w>
know ing</w>
dr ain
ped al</w>
lay ered</w>
absor bed</w>
th readed</w>
hydri de</w>
war ding</w>
S ession</w>
he p
it r
gu ards</w>
impair ment</w>
Optim ization</w>
ar yl</w>
a pop
engine er</w>
sett led</w>
di aphrag
al a</w>
Datab ase</w>
ch a
elim ination</w>
aggre gate</w>
dispens ing</w>
guid es</w>
brow n</w>
adap tation</w>
maxim ize</w>
s ake</w>
har mony</w>
question n
B at
necess ity</w>
poly propylene</w>
f lights</w>
aut umn</w>
Integr ated</w>
h ell</w>
in spi
promis ing</w>
diff er</w>
ol ate</w>
mag ic</w>
un likely</w>
diagno sed</w>
Yang tze</w>
s our
deli vering</w>
inci dents</w>
o v</w>
cre am</w>
compar ator</w>
trans missions</w>
per mitted</w>
alle y</w>
lo on</w>
el a</w>
w ell
pl enty</w>
gir l
ten dency</w>
ch er
Inst all
cur v
keep s</w>
9 9
M iss</w>
Pl ay</w>
Vir tual</w>
igh t
war dly</w>
sub stantive</w>
Cl assi
oun ding</w>
P RE
expres sing</w>
deteri oration</w>
Mem bers</w>
Pro mot
pick up</w>
In clu
targ eting</w>
reac ted</w>
rough ly</w>
ch assis</w>
F ed</w>
J in</w>
ren der</w>
B it
Wel come</w>
M I</w>
2 70</w>
sp an</w>
metabol ism</w>
subscri ption</w>
hard ly</w>
M s</w>
Ex hibition</w>
min es</w>
diab etic</w>
short comings</w>
def ence</w>
de ploy</w>
popul arity</w>
icit ly</w>
inva sive</w>
industri alization</w>
lam ps</w>
suppl ement</w>
drain age</w>
D ra
An sw
phys ically</w>
Con di
P ass
un changed</w>
am in
Co st</w>
Bud d
ad vis
belong ing</w>
oc k
p ent
elong ated</w>
m aker</w>
viol ent</w>
M el
crow d</w>
s ors</w>
Pow er
Gre ek</w>
Th ough</w>
r in
N ET</w>
T ER
p es</w>
T witter</w>
0. 8</w>
evapor ated</w>
C ancer</w>
alumin a</w>
cardi ovascular</w>
M ax
o ks</w>
break through</w>
albu m</w>
wa stewater</w>
terri ble</w>
extru sion</w>
Multi ple</w>
rec ited</w>
com pos
Don ald</w>
ble eding</w>
ow ed</w>
7. 5</w>
Argent ina</w>
mat urity</w>
bot s</w>
det ention</w>
TC P</w>
def iciency</w>
m one</w>
not ation</w>
hom et
ch est</w>
lay ing</w>
ex changed</w>
bur ied</w>
manif est
L et
min istry</w>
contempl ated</w>
promp t</w>
ul a</w>
modul ated</w>
gen u
sp here</w>
not e
injec tor</w>
C 2</w>
Is lands</w>
ic ked</w>
Sp ec
vill agers</w>
st en</w>
clean er</w>
uni verse</w>
lam inate</w>
Reco gn
d am</w>
diagr ams</w>
sol v
T I</w>
surroun ded</w>
H PLC</w>
P U
P 1</w>
down loaded</w>
s par
re b
E arly</w>
spon sored</w>
0. 4</w>
aw ards</w>
netiz ens</w>
bet a</w>
A E</w>
out line</w>
Voc ational</w>
high lighted</w>
Mo di
li ked</w>
st an</w>
acceler ating</w>
CC H</w>
C M</w>
it er</w>
in no
enh ouse</w>
chol ester
through put</w>
e NB</w>
Rel i
lif est
Gu o</w>
vot ers</w>
S chem
O D</w>
bac ked</w>
gast ro
eco system</w>
qi ang</w>
micro processor</w>
15 1</w>
S cal
shel f</w>
sion ed</w>
k in</w>
w ill
arr ays</w>
di odes</w>
some body</w>
susc ep
Bel gi
sp in</w>
po p</w>
coll ec
fabr ication</w>
ogen esis</w>
nin th</w>
l ou
re mind</w>
Meas urement</w>
cur able</w>
bic ycle</w>
con fron
emer gence</w>
ste pped</w>
T ong
gr and</w>
as th
H B
At t
bir ds</w>
t esti
sh i</w>
grass roots</w>
15 00</w>
eth ics</w>
wat ers</w>
M ap</w>
sc anner</w>
d entally</w>
oxid ant</w>
Rac ing</w>
ol ing</w>
0 s</w>
index es</w>
Sup er</w>
co ast</w>
Coun tries</w>
inter pol
ing ent</w>
identi fies</w>
f ant
gl omer
ell a</w>
pum ps</w>
TI VE</w>
mother land</w>
Pers onal</w>
esti ci
Experi ence</w>
sub system</w>
E .</w>
evalu ating</w>
ati tude</w>
Hel p</w>
Ch ic
por ters</w>
requ esting</w>
perme ability</w>
kn ife</w>
I o
min i</w>
T 1</w>
P harm
Bo sn
log s</w>
st en
Chil d</w>
enjo yed</w>
electro static</w>
l augh
g a</w>
HT ML</w>
divid end</w>
G E</w>
design er</w>
scat tering</w>
te en
fe ver</w>
tren ch</w>
constitu tes</w>
to ken</w>
8 8
Appl ic
el abor
cent ric</w>
UNIC EF</w>
ar ising</w>
thor oughly</w>
L ou
sp reading</w>
k ar
cryst als</w>
1. 6</w>
under take</w>
weigh ted</w>
an mar</w>
Intro duction</w>
bi de</w>
pursu ant</w>
be er</w>
gr ateful</w>
Po st
do zens</w>
enz a</w>
D eng</w>
B 2</w>
o ils</w>
se vere
st up
f ate</w>
PC B</w>
an es</w>
D B</w>
Leban on</w>
i x</w>
Pro b
internation ally</w>
jour nal</w>
law yers</w>
rot ates</w>
Flor ida</w>
affor dable</w>
y ar
Z heng</w>
Sh ould</w>
g athering</w>
capacit ors</w>
Lia oning</w>
cur ves</w>
K un
Swe den</w>
challeng ing</w>
reson ant</w>
gover ning</w>
Chris tian</w>
Manufac turing</w>
spir al</w>
med ication</w>
pill ar</w>
Investi gation</w>
ap ple</w>
periph ery</w>
re generation</w>
mem or
f ted</w>
col ored</w>
radi o
bro thers</w>
se ismic</w>
lo ose</w>
bo w</w>
roll ment</w>
avoi ding</w>
restor ation</w>
vis a</w>
har der</w>
l on
2 24</w>
N on
16 2</w>
ti ps</w>
In ner</w>
Eng ine</w>
issu ing</w>
reti rement</w>
P etro
su itably</w>
revolu tionary</w>
2 O</w>
biom ass</w>
Pers on
re ward</w>
Pres sure</w>
S ar
cros sing</w>
Pro te
3 9
propag anda</w>
initi ate</w>
py r
country side</w>
protru sion</w>
mit h</w>
PD F</w>
pattern ed</w>
Regul atory</w>
ht t
Gaz a</w>
bl adder</w>
eg g</w>
ste adily</w>
enzy mes</w>
T arg
bre eding</w>
method ology</w>
EC U</w>
conduc tors</w>
organiz ing</w>
bound aries</w>
y .</w>
bo ot</w>
scenari os</w>
sh ots</w>
tu ber
se wage</w>
13 8</w>
shif ting</w>
reci proc
th yro
low ering</w>
home work</w>
over head</w>
ob ao</w>
severe ly</w>
gen e
organ ism</w>
MR I</w>
p ounds</w>
SU MM
deal t</w>
Scienti fic</w>
Suppl iers</w>
fin ed</w>
Fac tors</w>
der gar
recycl ing</w>
accoun tability</w>
de vi
H ere
Ann ual</w>
AP P</w>
shif ted</w>
elim inating</w>
inh erent</w>
C el
break s</w>
capac itive</w>
g ather</w>
bal ancing</w>
exerci ses</w>
st ain</w>
ma x</w>
ent ure</w>
Fac tory</w>
behavi ors</w>
de emed</w>
enclo sure</w>
reser ved</w>
petro leum</w>
out break</w>
expres sions</w>
agon ist</w>
homet own</w>
My anmar</w>
ent ries</w>
fing ers</w>
S in
invest ing</w>
sp inal</w>
ari b
hi p</w>
consi ders</w>
micro scope</w>
sp ut
le isure</w>
Pl ant</w>
bench mark</w>
perf ec
SUMM ARY</w>
H an
wh enever</w>
Dis play</w>
back ward</w>
er als</w>
P ic
Teach er</w>
Tr ust</w>
ind le</w>
fav or</w>
fe at
diaphrag m</w>
Alli ance</w>
rec tal</w>
ther mally</w>
E state</w>
bass y</w>
E F
emit ter</w>
Moun tain</w>
Commun ications</w>
distill ation</w>
ati zation</w>
G M</w>
coun ted</w>
lap top</w>
D yn
class ical</w>
ag ging</w>
observ ations</w>
vic inity</w>
fi erce</w>
liter ary</w>
inv itation</w>
consum ed</w>
Democr ats</w>
co ag
l ane</w>
perform ances</w>
T om</w>
libr aries</w>
ur ine</w>
5 th</w>
en oid</w>
tax i</w>
D A
Xi amen</w>
D A</w>
repe ti
citiz en</w>
reve al</w>
bin d</w>
es .</w>
cus hi
g ear
I r
5 000</w>
mol ar</w>
Ul tr
Br and</w>
b ills</w>
plas tics</w>
In dic
gi sts</w>
bom b</w>
cur y</w>
te ars</w>
M T
J ack</w>
w anna</w>
initi ator</w>
fil tr
dom ains</w>
F O
pre ferential</w>
gar bage</w>
Lab or</w>
Sen ior</w>
poin ter</w>
po is
lo be</w>
h in
free ze</w>
combin es</w>
prop yl</w>
se y</w>
compu ted</w>
ver tically</w>
associ ate</w>
tion ers</w>
il es</w>
C ould</w>
calcul ates</w>
tou ched</w>
roll ers</w>
enor m
condi tioner</w>
TI ON
psych ology</w>
ag ged</w>
Chic ago</w>
L 2</w>
Ex cell
simul ated</w>
star tu
Rem ote</w>
equ ations</w>
Lab our</w>
15 4</w>
pha tic</w>
L A</w>
fluor o
L uc
ra rely</w>
c ry</w>
om i</w>
in directly</w>
I R
tol u
hydro philic</w>
grad ual</w>
F R</w>
B lock</w>
1 20
bas eline</w>
th reads</w>
eor ological</w>
Parti cip
O w
associ ations</w>
c s</w>
r ant</w>
fol ded</w>
er ad
n ail</w>
volunte er</w>
T en</w>
in ductor</w>
solu bility</w>
fast est</w>
Par liament</w>
12 th</w>
Mot or</w>
comm is
M om</w>
co de
Hous ing</w>
bu st
abra sive</w>
ign ore</w>
distingu ish</w>
n ic
hydrox yl</w>
p a
bil li
emo tions</w>
sw ing</w>
cre ativity</w>
Comm on</w>
serv o</w>
Col om
pro ven</w>
ra p</w>
qu en
sty les</w>
d ying</w>
13 th</w>
Appl ications</w>
D am
nan ot
G ul
D D</w>
a side</w>
ar able</w>
Out look</w>
n is</w>
zh ong</w>
am ps</w>
p it</w>
c ann
hi re</w>
Le e</w>
NAT O</w>
t age</w>
P sy
sla ve</w>
Oper ations</w>
l au
2 18</w>
inval id</w>
phen ol</w>
exhi bits</w>
re vi
cool er</w>
Th ings</w>
isocyan ate</w>
in cur
I ran
hor mone</w>
Con clu
hyd rate</w>
stipul ated</w>
compul sory</w>
J ord
R 3</w>
cl ero
nom inal</w>
sup press</w>
H E
E th
ul ty</w>
cr acking</w>
malign ant</w>
2. 4</w>
vir uses</w>
oc ar
im ide</w>
Oper ating</w>
motiv ation</w>
head ed</w>
P I</w>
cop yright</w>
2 C</w>
loc ks</w>
cum ulative</w>
l ake</w>
in fer
y en</w>
m ill</w>
g an</w>
pene tration</w>
R am
mol ten</w>
l uck</w>
bran ched</w>
ho ok</w>
bo iling</w>
calcul ations</w>
clu sters</w>
tempor al</w>
di gn
p in
modi fying</w>
St .</w>
B on
exc av
nor ms</w>
2. 3</w>
occa sion</w>
fil ing</w>
scre ws</w>
l ec
I M</w>
g ears</w>
Au stri
monit ors</w>
C arib
grat ul
F requ
doub tedly</w>
iP ad</w>
Cho ose</w>
gi fts</w>
minist ers</w>
differen tly</w>
ali phatic</w>
F an</w>
1 17</w>
ph thal
Arab ia</w>
Intelli gent</w>
sul fi
mul tic
I de
pi g</w>
Every thing</w>
F e</w>
Econom ics</w>
Dis ease</w>
W atch</w>
S cre
1. 8</w>
3 14</w>
im um</w>
ar ise</w>
prog res
s cor
C l</w>
issu er</w>
human ity</w>
30 5</w>
YO U</w>
Carib bean</w>
A v
C B
Fir e</w>
14 1</w>
deb ts</w>
repl ied</w>
v entric
alli ance</w>
13 .
man ned</w>
b ance</w>
I F</w>
conve ying</w>
S ho
intr a</w>
quot ed</w>
ro bots</w>
ox y</w>
Ex press</w>
canc el</w>
10 th</w>
health care</w>
ic an</w>
A 2</w>
Stu dio</w>
ear ned</w>
constitu tional</w>
I OS</w>
embar r
yl ation</w>
hel icop
exec utes</w>
Tra f
in trav
ur ge</w>
li am
demonstr ates</w>
Direc t</w>
simultan eous</w>
consolid ated</w>
modul us</w>
Republic ans</w>
5 50</w>
R ome</w>
magne ts</w>
l ady</w>
per oxide</w>
hando ver</w>
Log istics</w>
cut aneous</w>
n a
pen ding</w>
T D</w>
3. 2</w>
olog ic</w>
persist ent</w>
OFD M</w>
Hard ware</w>
H ear
T E
sup pression</w>
saf ely</w>
ro ad
be ac
or derly</w>
link age</w>
Fo ot
H al
trans plantation</w>
carri age</w>
un expected</w>
altern ating</w>
bo iler</w>
R P</w>
do ses</w>
C lim
an alog
extra ordinary</w>
rel ax</w>
fibr e</w>
R emo
P T</w>
rop y</w>
del icious</w>
I tem</w>
Ar ts</w>
Ti bet
Imp act</w>
celebr ate</w>
c ast
exec utable</w>
bi ology</w>
gre enhouse</w>
mat h</w>
Or din
A ud
subsi dy</w>
circum ference</w>
b all
tou gh
m RNA</w>
5. 5</w>
Exc el</w>
U sers</w>
sing ing</w>
I V
ti vities</w>
discipl inary</w>
d amping</w>
J ilin</w>
Gu id
Ro yal</w>
t ress</w>
N ur
explo itation</w>
ir radi
pre ferences</w>
bac king</w>
D ut
Pro motion</w>
ot ted</w>
zo om</w>
prof itability</w>
wit ness</w>
Xi ang
her o</w>
Ver sion</w>
Le g
Niger ia</w>
i tions</w>
lt d</w>
0. 6</w>
ul in</w>
Up date</w>
min i
st amp</w>
inter section</w>
r um
fun ny</w>
4 12</w>
st al
wor n</w>
heter o
remo vable</w>
em atic</w>
nutri tional</w>
T i</w>
dis charging</w>
pion e
ax y</w>
ine a</w>
G rap
2 80</w>
Con ver
re placing</w>
contam ination</w>
He at</w>
ri gation</w>
overl apping</w>
Over all</w>
prohi bited</w>
A gent</w>
girl friend</w>
Bro ad
warm ing</w>
flo ors</w>
pub lish</w>
preven tive</w>
es ity</w>
Res ol
V is
s a</w>
dur ability</w>
z i</w>
ra tion
ad ays</w>
S 3</w>
v ag
curv ature</w>
clari fy</w>
o ked</w>
wei ghts</w>
E colog
prosec ut
scen ic</w>
apop tosis</w>
sm ell</w>
p ir
mem bran
CS I</w>
execu tives</w>
m at</w>
st uck</w>
h ing</w>
inten se</w>
og lob
g od</w>
B ab
iz ard</w>
Er ror</w>
cl ou
graph ite</w>
y ours</w>
sat uration</w>
w ings</w>
Rec ei
bon us</w>
periodic ally</w>
aggre gation</w>
con vention</w>
produc ers</w>
gr y</w>
circul ating</w>
or ange</w>
plun ger</w>
im purity</w>
per fusion</w>
consum ing</w>
guil ty</w>
et ched</w>
scre ens</w>
don ors</w>
ji e</w>
a que</w>
stop ping</w>
s oph
dres sing</w>
5 B</w>
er ic</w>
ge ological</w>
dr ama</w>
L at
geo graphic</w>
Pol and</w>
p a</w>
A h</w>
4. 0</w>
7 10</w>
rec ession</w>
scen es</w>
it ter</w>
so y
reason ably</w>
p rising</w>
Musli m</w>
ver sus</w>
en ers</w>
commun icated</w>
Co al</w>
c in</w>
Mechan ical</w>
fix ation</w>
form ally</w>
hem orrh
threat ened</w>
cub ic</w>
M r
ucle o
M e</w>
Gr and</w>
ti ed</w>
Mark eting</w>
int angible</w>
Initi ative</w>
ris en</w>
cl oth</w>
cro ps</w>
su ited</w>
Ad d
refl ector</w>
an th
pl er</w>
fac tories</w>
partner ships</w>
Sur face</w>
in trac
y ard</w>
S ize</w>
divi de</w>
cap sul
199 0s</w>
Io T</w>
y un</w>
poll ut
30 3</w>
hydro carbons</w>
kne e</w>
acqui ring</w>
sle eping</w>
aff inity</w>
Li by
perfec tly</w>
inev itably</w>
vari an</w>
ch ase</w>
dich lor
dispens able</w>
poin ting</w>
ch ester</w>
synthe sized</w>
uniform ly</w>
tan ks</w>
conserv ative</w>
Electr ical</w>
system ic</w>
per missions</w>
ali tion</w>
op ia</w>
modul ator</w>
sh oc
produc er</w>
P a
N ic
our nam
Star ting</w>
s a
C ath
C z
M D</w>
broad band</w>
5 12</w>
6 6
k o</w>
til t</w>
P ul
w an
depar ting</w>
Si x</w>
ex ci
cylin ders</w>
sand w
Li qui
gol f</w>
p seud
envelop e</w>
bl ame</w>
shut ter</w>
i OS</w>
Fig s</w>
5. 0</w>
Ar chit
for got</w>
newsp apers</w>
d ay
brea thing</w>
resul tant</w>
AW S</w>
un stable</w>
car bide</w>
T 2</w>
Squ are</w>
stiff ness</w>
ir s</w>
Sil k</w>
P eter</w>
s light</w>
WH O</w>
il ateral</w>
conve x</w>
applic ant</w>
I ron</w>
he aling</w>
m ail
recei vable</w>
transl ated</w>
cholester ol</w>
co polymers</w>
with draw</w>
inva sion</w>
mari time</w>
a .</w>
Phys ical</w>
in hal
lubric ant</w>
A gain</w>
tac le</w>
sur ge</w>
Det ailed</w>
c and
F P
con ferences</w>
CN N</w>
dec ryp
Install ation</w>
P aper</w>
in corporate</w>
vot ed</w>
T elec
Gar den</w>
I mag
stup id</w>
repl ication</w>
do zen</w>
pleas ure</w>
pneum atic</w>
Fif th</w>
uc ks</w>
gr ating</w>
condens er</w>
F S</w>
pr on
coll ar</w>
side wall</w>
Turk ish</w>
S lo
inhibit ors</w>
alleg ed</w>
set tle</w>
DE T
k ine
G F</w>
in ally</w>
C lient</w>
re stored</w>
ME TH
30 ,000</w>
Ph il
ad mit</w>
Com rade</w>
rele asing</w>
loc ating</w>
termin ated</w>
CC TV</w>
Gu i
vari ance</w>
l ad
ar ter
spo ken</w>
un usual</w>
Combin ed</w>
le ep</w>
Mem ory</w>
lab els</w>
Pe ace
prob es</w>
b alls</w>
stimul us</w>
70 2</w>
vis ors</w>
G rad
in tu
gau ge</w>
infec tious</w>
s i</w>
sh irt</w>
some where</w>
There after</w>
D ad</w>
dr inks</w>
lu gg
sc attered</w>
conver gence</w>
diversi fied</w>
manipul ation</w>
cou ples</w>
br illi
w ere
M T</w>
Mar k</w>
00 1</w>
sk el
join ts</w>
in dispensable</w>
ol y
journ alists</w>
in gn
To il
Bai du</w>
oc olate</w>
pac ked</w>
t an</w>
bus es</w>
Gol den</w>
class mates</w>
ell ers</w>
inter ing</w>
sec uring</w>
Ordin ance</w>
2 b</w>
tun ing</w>
Stand ards</w>
50 1</w>
access ing</w>
thri tis</w>
p estici
sub mission</w>
jac ket</w>
ner ship</w>
holid ays</w>
convin ced</w>
Acc ess
su ite</w>
Q U
deco ded</w>
purch ases</w>
H app
tur bo
c ep
dis cre
ot ation</w>
grad uation</w>
f ang</w>
ash ing</w>
ren dered</w>
embodi ed</w>
M C
evapor ator</w>
rel ying</w>
str ains</w>
ste in</w>
mut ation</w>
S .
Mo del
Met al</w>
u g
2 15</w>
le ak</w>
firm ware</w>
ran ks</w>
condens ation</w>
F unc
P uti
consci ous</w>
comm it</w>
R a
respon ding</w>
s tive</w>
Pl us</w>
3. 1</w>
C as
vo id</w>
ju ice</w>
eas ing</w>
4 4
plat inum</w>
fol ding</w>
preser vation</w>
Econom y</w>
An ne
d ining</w>
sul ph
le gen
def end</w>
ro pe</w>
L ic
fore ign
speci fies</w>
en na</w>
sc o</w>
cro p</w>
EL D</w>
C la
W at
govern or</w>
cu losis</w>
valid ation</w>
Li ve</w>
re mem
cross linking</w>
In dependent</w>
un doubtedly</w>
hab it
G N
compl eting</w>
de x
J un
pleas ant</w>
b loo
ch un</w>
Sou theast</w>
arbitr ation</w>
block chain</w>
dec l
bl es
fol k</w>
retriev al</w>
br ine</w>
cur ative</w>
y eah</w>
7 A</w>
valu ed</w>
Cer tif
chro mo
B 1</w>
fr ustr
war ran
vi ous</w>
l engths</w>
ast es</w>
d ness</w>
Pharm aceu
re strict</w>
criter ion</w>
dat ory</w>
13 3</w>
Out put</w>
view er</w>
g sten</w>
posi tively</w>
par all
tra jec
w inner</w>
photo electric</w>
al i</w>
CA D</w>
ro ph
in verse</w>
Ap pro
X X
ati tis</w>
im per
ass ed</w>
as ser
gu an</w>
Sol ution</w>
Phot o
ten nis</w>
sh ake</w>
Speci fic</w>
acceler ator</w>
bl ack
S ave</w>
Z i
Del ta</w>
Pre ferred</w>
S ite</w>
tolu ene</w>
sion ally</w>
electr o</w>
G ir
retri eve</w>
not ing</w>
S cript</w>
c all
conduc tion</w>
pro tot
enorm ous</w>
am er
Un like</w>
regre t</w>
be i
us al</w>
li est</w>
6. 5</w>
t ong
ful fill</w>
wavel engths</w>
fair ness</w>
S mith</w>
b low
50 6</w>
ab norm
s ine</w>
ac idic</w>
tem p
Sh i</w>
vulner ability</w>
en rollment</w>
premis es</w>
Toil et</w>
port al</w>
g in</w>
electr ons</w>
Strate gic</w>
per for
i us</w>
Nor way</w>
mod ular</w>
inter connect</w>
G Hz</w>
er ical</w>
Traf fic</w>
bre ath</w>
rec all</w>
14 5</w>
extrac ts</w>
ing er</w>
curren ts</w>
em ic</w>
ass ing</w>
M en</w>
ot yp
thir ty</w>
lo go</w>
assi gn</w>
hal ogen</w>
Clu b</w>
no body</w>
el u
E t
6 20</w>
Gr ade</w>
un like</w>
Cri me</w>
foun der</w>
yl on</w>
14 6</w>
del ays</w>
eng er</w>
tex t
hi st
mun icip
6 8
pri mer</w>
itr ile</w>
j ury</w>
Lear n</w>
ti gation</w>
ess ly</w>
r ank</w>
wh el
explo ded</w>
de ar</w>
Or der</w>
w et
ari ties</w>
sent enced</w>
Ch ro
g ating</w>
conc e
Sur vey</w>
esc ence</w>
lifest yle</w>
Gan su</w>
Mag ne
O 3</w>
Counter measures</w>
H i</w>
st aying</w>
s enti
L and
membran es</w>
intermedi ary</w>
de preci
insul ator</w>
Treas ury</w>
B ack</w>
hex ane</w>
sol enoid</w>
constitu ting</w>
Set tings</w>
s park</w>
S ir</w>
w u</w>
rot atable</w>
licens ed</w>
t ments</w>
con sequence</w>
re start</w>
M is
Blo od</w>
h ose</w>
crank shaft</w>
ti tu
W E
co bal
influ enza</w>
alli es</w>
Oc ean</w>
invent ors</w>
Liter ature</w>
disclo se</w>
ot es</w>
ver te
ad o</w>
an onym
ex pi
xi ang</w>
pos itory</w>
sustain ability</w>
territ orial</w>
od d</w>
Iran ian</w>
log in</w>
aren tly</w>
by tes</w>
L P</w>
ari th
ard ous</w>
y alty</w>
ven ant</w>
sl ice</w>
F oc
Ex port</w>
reg ards</w>
att acked</w>
back bone</w>
p ays</w>
T A
actu ation</w>
week ly</w>
she ath</w>
C is
lik elihood</w>
Offic er</w>
3 16</w>
qu or</w>
ong jiang</w>
11 th</w>
insul a</w>
campai gn
Rem ember</w>
Emer gency</w>
expl oring</w>
laun ching</w>
Par ticul
B ao
leg acy</w>
clean ed</w>
pe di
gas eous</w>
Op ini
on au
res is</w>
asth ma</w>
ol en</w>
upgrad ed</w>
design ers</w>
expl icitly</w>
u ter
Inter face</w>
re bel
impl antation</w>
G or
consider ations</w>
auc tion</w>
7 th</w>
uc c
Go als</w>
serv ants</w>
resear cher</w>
k ou</w>
po res</w>
intern ally</w>
CO MP
influ ences</w>
m am
bre ad</w>
ho sts</w>
7 50</w>
cl ause</w>
lubr icating</w>
Su zhou</w>
every day</w>
CP PCC</w>
mono poly</w>
h es
analy zer</w>
man kind</w>
g ant</w>
fre ight</w>
Geor gia</w>
stabil ize</w>
pay able</w>
Pri or</w>
Xia omi</w>
sens ed</w>
Dri ve</w>
comp ares</w>
B rown</w>
P ay</w>
60 4</w>
3. 3</w>
40 8</w>
Sit uation</w>
si lox
Le i</w>
pol arity</w>
consolid ation</w>
15 .
Sh are</w>
ret ail
constr aint</w>
T s</w>
busin ess
mom ents</w>
relax ed</w>
D E</w>
dom inated</w>
activ ating</w>
hab it</w>
B ut
6 B</w>
es tions</w>
m ation</w>
Tu be</w>
in complete</w>
champi on</w>
indu ce</w>
y ou
p av
compl aint</w>
hydro lysis</w>
imp ris
wo o
Spe ed</w>
moi ety</w>
al tered</w>
c ited</w>
expec tation</w>
PW M</w>
es cal
lo gging</w>
En d</w>
Afgh an</w>
h ad
Re ading</w>
N T</w>
Cam bodi
air ing</w>
plan etary</w>
chari de</w>
fer r
P G</w>
mer ger</w>
A F</w>
In str
facilit ating</w>
is lands</w>
clo s
phenomen a</w>
19 80s</w>
qual ifications</w>
ti res</w>
Inst all</w>
Dyn asty</w>
ear l</w>
r ho
Con nect</w>
advertis ements</w>
P ing</w>
evi dent</w>
ain e</w>
emul si
perc eption</w>
c ope</w>
re medi
elli p
interf ere</w>
g aming</w>
t lement</w>
ati es</w>
PV C</w>
m apped</w>
C are</w>
htt p</w>
pos sibilities</w>
M ath
Car bon</w>
go sla
Tibet an</w>
D ear</w>
comput ation</w>
or if
bal loon</w>
genu ine</w>
Wor d</w>
euro s</w>
refriger ation</w>
em en</w>
selec tor</w>
d rought</w>
nation wide</w>
stand by</w>
elas ticity</w>
anne aling</w>
bl ast</w>
facilit ates</w>
over whel
S n
ge ometric</w>
par liament</w>
G ao</w>
P ER
14 .
ez u
N ever
W IN
refin ed</w>
tradem ark</w>
L a</w>
eli gible</w>
civ ilized</w>
H A</w>
FI ELD</w>
im pose</w>
projec tions</w>
V alley</w>
sulfi de</w>
rad es</w>
absor ber</w>
Zheng zhou</w>
f ellow</w>
tox icity</w>
surfac tants</w>
resi lient</w>
T ru
p raise</w>
deteri or
grad es</w>
st aining</w>
trans ported</w>
im eter</w>
7 5
ple ts</w>
Ta obao</w>
uplo ad</w>
B L
at ric</w>
Su b</w>
c ular</w>
under going</w>
f loo
tri angle</w>
divi ding</w>
cali br
Ter m</w>
bot tles</w>
Li kewise</w>
ili an</w>
it us</w>
e i</w>
Vi e
dur able</w>
mil d</w>
p assion</w>
commerci ally</w>
re vision</w>
distribu te</w>
ti tles</w>
k i
B ot
su rely</w>
St aff</w>
ocy te</w>
impl ements</w>
adop ting</w>
ide ology</w>
sil ane</w>
affirm ed</w>
sever ity</w>
ch ances</w>
ob esity</w>
E G</w>
no tify</w>
al es</w>
K az
m amm
Competi tion</w>
6 50</w>
D U
In come</w>
cobal t</w>
ill ers</w>
Mr s.</w>
6 th</w>
ici ary</w>
H T</w>
sugges tion</w>
G O</w>
dis appeared</w>
optim izing</w>
er ation</w>
Palestini ans</w>
N ep
kin dergar
D 1</w>
Portu gal</w>
work flow</w>
n t</w>
squ ee
ack ers</w>
elev ation</w>
15 6</w>
Jord an</w>
rul ed</w>
Ad ju
lish ed</w>
back light</w>
fertili zer</w>
dis advantage</w>
UN CT
P ET</w>
Un til</w>
defe at</w>
sinc ere</w>
che aper</w>
studi o</w>
H AR
8 ,
actu ators</w>
dis rup
az ole</w>
z ir
r ush</w>
transi ent</w>
v an</w>
Det ails</w>
b orders</w>
Simil ar</w>
IC AL</w>
be ads</w>
Diag nosis</w>
ref use</w>
standardi zation</w>
Cha in</w>
fir ming</w>
w en</w>
denti als</w>
W ait</w>
re productive</w>
tr ap</w>
it ate</w>
H as</w>
W LAN</w>
bub bles</w>
fin als</w>
co inci
recogn izes</w>
se ize</w>
controll able</w>
tw el
descri p
N ature</w>
L ittle</w>
min ds</w>
lumin escent</w>
discus sing</w>
Anne x</w>
Im port</w>
Tra vel</w>
atten ding</w>
detec tors</w>
P 2</w>
boy friend</w>
Si x
dead line</w>
Hum an
ri b
tre mend
rec alled</w>
ori ous</w>
6 5
vari ants</w>
el and</w>
cl onal</w>
herit ance</w>
gradu ated</w>
P s</w>
ud ge</w>
questionn aire</w>
Clim ate</w>
mo dem</w>
exp ects</w>
ra tions</w>
ingn ess</w>
high lights</w>
C all</w>
cent ered</w>
with stand</w>
m M</w>
ach el
medi ated</w>
cont ri
inter s</w>
free zing</w>
ure a</w>
mo thers</w>
prog ressive</w>
Ke ep</w>
establish es</w>
K im</w>
oscill ation</w>
c k
ber ry</w>
t wi
Never theless</w>
mis si
Main tenance</w>
ar thritis</w>
re tired</w>
neighb or</w>
9 ,
1 10
un ification</w>
investig ating</w>
con cave</w>
st ones</w>
gen ome</w>
Ven ezu
h ash</w>
DN S</w>
amend ment</w>
empha size</w>
adh ered</w>
were n</w>
Trans portation</w>
Li ang</w>
pro long
z ers</w>
resi stive</w>
Im port
divid ends</w>
trans form
inspi red</w>
am a
competi tors</w>
mess aging</w>
interpre ted</w>
th an
Coun try</w>
nozz les</w>
commun icates</w>
bl u
S R
perme able</w>
break down</w>
Integr ation</w>
zh i</w>
h at
pum ping</w>
4 40</w>
do t</w>
ne stly</w>
rec ti
trans porting</w>
nucleo tides</w>
inf ant</w>
reson ator</w>
T ry</w>
car bo
vir tually</w>
Cent ury</w>
C ab
Vi enna</w>
c us</w>
adv ancement</w>
ob tains</w>
Ob ject</w>
lo vely</w>
sput tering</w>
Wi Fi</w>
In fra
or a</w>
nation ality</w>
ri ding</w>
fail ures</w>
view point</w>
Teach ers</w>
Gul f</w>
T ext</w>
on ment</w>
sol id
Mo vement</w>
phr ase</w>
IM O</w>
on itrile</w>
Al ong</w>
Uni versal</w>
st y</w>
Puti n</w>
Ac tivity</w>
summar izes</w>
per su
8 A</w>
R ep
UNCT AD</w>
sh ui</w>
Conclu sions</w>
S us
adv ancing</w>
be ds</w>
sub way</w>
amp ed</w>
Sat ellite</w>
re marks</w>
fu els</w>
bei jing</w>
pain ful</w>
alum inium</w>
be sides</w>
P ut</w>
capac ities</w>
Ac count</w>
Cz ech</w>
inter im</w>
encour ages</w>
insist ed</w>
ch uan</w>
gly co
d a
dist ances</w>
bi ennium</w>
apo log
ir rigation</w>
Fr ont</w>
endo thelial</w>
elast omer</w>
f use</w>
I A
emo tion</w>
Yu gosla
cl arity</w>
no tif
in fusion</w>
le sions</w>
bu re
P a</w>
construc tive</w>
M IN
politici ans</w>
crystalli zation</w>
contradic tions</w>
writ es</w>
succ ee
T el</w>
person alized</w>
olo gists</w>
80 2</w>
regul ators</w>
sp indle</w>
is tic
co res</w>
we arable</w>
IT Y</w>
chlor ine</w>
H ot</w>
O LED</w>
abdom inal</w>
A ri
ed ong</w>
con form</w>
liqui ds</w>
aper tures</w>
figh ters</w>
sc aling</w>
K in
stabil izing</w>
t .</w>
macro economic</w>
A ci
M g
2 25</w>
tong ue</w>
pro state</w>
pul ling</w>
obstac le</w>
T ask</w>
deter gent</w>
t all</w>
te tra
no tified</w>
preser ve</w>
aband oned</w>
tor ture</w>
interrup t</w>
hang ing</w>
Am bassador</w>
rup t
sc ared</w>
M ary</w>
tr ain
j an</w>
inhi biting</w>
R un
4 a</w>
List en</w>
Q ing</w>
institu te</w>
mar ry</w>
un clear</w>
he ading</w>
pu zz
Bosn ia</w>
M ur
stipul ates</w>
wel ry</w>
town ship</w>
com b</w>
inter views</w>
ic tion</w>
lig and</w>
den se</w>
metabol ic</w>
L en
As sistant</w>
3 22</w>
pressur ized</w>
Psy ch
V C</w>
explo sive</w>
neighbor hood</w>
p raised</w>
compl ement</w>
olog ist</w>
5 30</w>
w ells</w>
consul t</w>
s intering</w>
photo resist</w>
Cis co</w>
for gotten</w>
S top</w>
analy st</w>
tun gsten</w>
u me</w>
wel comes</w>
N AS
ris h</w>
Access ories</w>
fluor ine</w>
Com position</w>
silic ate</w>
S pi
Advant ag
TI C</w>
Belgi um</w>
R w
path ological</w>
Qing hai</w>
recep tors</w>
metast asis</w>
pre v
Fil ter</w>
pl enary</w>
cer tified</w>
Eng ine
M M</w>
ear nestly</w>
Answ er</w>
es oph
H S</w>
S election</w>
att or
deci sive</w>
t ournam
fun g
dis abilities</w>
P 2
es tive</w>
water proof</w>
depar ture</w>
photo graphy</w>
def ici
Particul arly</w>
cham pionship</w>
heter ogen
topo logy</w>
en tives</w>
defend ant</w>
coh erent</w>
F ast</w>
contin ent</w>
us al
dam ages</w>
reli ably</w>
employ ers</w>
sit u</w>
assum ption</w>
fir ing</w>
a esthetic</w>
dir ty</w>
sol ely</w>
cl icking</w>
ener y</w>
pe aks</w>
consolid ate</w>
ot ype</w>
hun gry</w>
chem ically</w>
wel ded</w>
an tic</w>
ten der</w>
consider ably</w>
tain er</w>
refl ec
at ar</w>
comm em
15 5</w>
pneum onia</w>
0. 7</w>
U T
C r</w>
ev es</w>
writ ers</w>
2 21</w>
G C</w>
shi p
pl ain</w>
k i</w>
inter layer</w>
IS A</w>
J EC
terror ists</w>
agg ressive</w>
tu s</w>
startu p</w>
r pm</w>
cap illary</w>
F uture</w>
pan ic</w>
AB S</w>
D RA
Op tional</w>
usal em</w>
ph ere</w>
in cl
beac on</w>
clos est</w>
As set</w>
Pe king</w>
si tions</w>
chro mium</w>
dish es</w>
N am
com promise</w>
f in</w>
canc elled</w>
V O
app arently</w>
at al</w>
y r
si st</w>
16 .
gro und
under graduate</w>
immun ity</w>
De fin
clin ic</w>
b .</w>
cl ay</w>
con notation</w>
o be
alleg ations</w>
capsul es</w>
spr ings</w>
reconc iliation</w>
15 th</w>
up coming</w>
R ol
bra tions</w>
Be havi
sequ ential</w>
re cip
bi ke</w>
S R</w>
m o</w>
p c</w>
ch ocolate</w>
Diff eren
pat ents</w>
con e</w>
st olen</w>
2 26</w>
Shen yang</w>
M en
AI LED</w>
T og
construc ting</w>
dign ity</w>
tax ation</w>
br is</w>
situ ated</w>
qu eries</w>
accompl ish</w>
out lets</w>
in sic</w>
hy gi
incur red</w>
co ok</w>
si ded</w>
con vey</w>
Co venant</w>
predic table</w>
n i</w>
A gen
stres ses</w>
mus ical</w>
i ii</w>
hydro chlor
Fran ci
Y ellow</w>
C able</w>
L ayer</w>
Un less</w>
ou pl
refuge e</w>
ab stract</w>
harmon ic</w>
chron ous</w>
end ers</w>
Dom estic</w>
sk i</w>
B ir
char ity</w>
S MS</w>
at ers</w>
prin ts</w>
u ters</w>
IM F</w>
Syn thesis</w>
A g</w>
Ap p
lor d</w>
b ery</w>
Foot ball</w>
gun s</w>
198 9</w>
UN O
borrow ing</w>
Frequ ency</w>
ful ness</w>
collec tively</w>
F ET</w>
en sured</w>
ampl ified</w>
soph istic
R ele
wa x</w>
dis solution</w>
Ac tivities</w>
Flo or</w>
dic t
com rades</w>
cri p
sur prising</w>
thr ust</w>
suppor ters</w>
Az ure</w>
pr one</w>
a rest</w>
im pregn
laun dry</w>
gri p</w>
Sw iss</w>
c lock
r hyth
environ mentally</w>
Consum er</w>
al thy</w>
olog ous</w>
m ayor</w>
zh uang</w>
ro bo
gastro intestinal</w>
prison ers</w>
re bound</w>
Fe atures</w>
om y
out lined</w>
6 4
C ash</w>
D op
esthe sia</w>
ne o
divor ce</w>
d B</w>
inst ability</w>
ak h
as surance</w>
Wor ks</w>
T esting</w>
Fi re
V PN</w>
commun ic
r ors</w>
di bility</w>
se al
Ch urch</w>
continu ity</w>
err a</w>
rel uc
ch ap
mer cury</w>
zir con
off ence</w>
DET AILED</w>
synchron ized</w>
avo id
I B</w>
tr ains</w>
comp iled</w>
analy te</w>
Pr ince</w>
Man chester</w>
inter viewed</w>
Direc tors</w>
Mo vi
Bo ston</w>
L D</w>
recep tacle</w>
la g</w>
un certain</w>
will ingness</w>
Regi stered</w>
o zone</w>
con gratul
Cir cu
to oth
recycl ed</w>
Jer usalem</w>
inspec tions</w>
Pu bl
7 20</w>
pro mul
beli efs</w>
c enti
Sens or</w>
homogen eous</w>
tu b</w>
vi sibility</w>
9 th</w>
Chri st</w>
Bang lad
pre view</w>
ec ology</w>
cigaret te</w>
Identi fication</w>
ker nel</w>
Sign al</w>
ad oles
Fre e
TI NG</w>
L ottery</w>
Res ear
achel or</w>
consci ously</w>
bow l</w>
C old</w>
assum ing</w>
re vit
sci ences</w>
influ ential</w>
4. 2</w>
n ight
ST A</w>
ome thane</w>
c ass
dissip ation</w>
Gu inea</w>
semin ar</w>
si ties</w>
Har ry</w>
rupt cy</w>
R ev
kin ase</w>
exist ed</w>
in putted</w>
wit n
con form
small est</w>
bo s
gear box</w>
ex ported</w>
g ang
arg ue</w>
tuber culosis</w>
t am
al ge
IE F</w>
lat er
me tic</w>
8 th</w>
R A</w>
Hist or
bur ned</w>
poly nucleotide</w>
extrac ting</w>
tin y</w>
interrup ted</w>
En h
cor ners</w>
dem anding</w>
haz ardous</w>
Sy m
fluor ide</w>
intrav en
dispos able</w>
W inter</w>
inno cent</w>
F M</w>
Mo d
dev oted</w>
rever sible</w>
de tained</w>
Ob viously</w>
Air lines</w>
T ali
Som alia</w>
U su
antibio tics</w>
simil arity</w>
Ed itor</w>
u o</w>
se di
con sume</w>
p aging</w>
tr apped</w>
B row
appro aching</w>
Tran sl
gen s</w>
Direc tory</w>
tic es</w>
succ essive</w>
im migrants</w>
ho sti
substitu tion</w>
on set</w>
canc ellation</w>
Requi rements</w>
o ti
defin itions</w>
S ee
il ongjiang</w>
stret ch</w>
uniform ity</w>
H aw
rel ics</w>
simpl ify</w>
them es</w>
Mon etary</w>
descri ptions</w>
inc entives</w>
cyto k
territ ories</w>
A do
repe ating</w>
pay load</w>
stri ps</w>
ro man
develop s</w>
se ized</w>
1 19</w>
Ro bot</w>
w eld</w>
exc it
b lowing</w>
seg mentation</w>
pres enting</w>
ist er</w>
man datory</w>
em it</w>
posi tional</w>
neighb ors</w>
cong estion</w>
medi an</w>
occup y</w>
meth ane</w>
re y</w>
b ai
pr ud
explo red</w>
form at
Franci sco</w>
incorpor ating</w>
Z hen
Cro ati
Op tical</w>
Q o
fore sts</w>
poly sac
Certif icate</w>
sil ent</w>
T an
E thi
Th ir
DS P</w>
own s</w>
gly c
off shore</w>
ath le
ro l</w>
Je wish</w>
b ell</w>
bre ach</w>
en ic</w>
get ary</w>
E l</w>
le x</w>
li quor</w>
shap ing</w>
Fo rec
alcohol s</w>
Mad rid</w>
trajec tory</w>
flav or</w>
Pharmaceu tical</w>
d ney</w>
Deci sion</w>
con y</w>
conf used</w>
employ er</w>
ten sions</w>
des c
re venues</w>
di alysis</w>
am i</w>
D alian</w>
G ra
spr aying</w>
al ter</w>
benz ene</w>
fast ener</w>
an tim
s on
harv est</w>
Tren d</w>
Loc ation</w>
Hear t</w>
sour cing</w>
lau gh</w>
John son</w>
J ack
Tali ban</w>
bor on</w>
par liam
tem plates</w>
per man
tremend ous</w>
by e</w>
16 4</w>
aero sol</w>
hemorrh age</w>
R 4</w>
Stu dent</w>
arg ued</w>
10 A</w>
oli th
Leg is
entr usted</w>
For d</w>
ol ly</w>
se am
Tele vision</w>
str ap</w>
b ones</w>
med al</w>
contro versi
th on</w>
architec tural</w>
R S
prosper ous</w>
sho e</w>
20 7</w>
stabil ization</w>
17 2</w>
mer ged</w>
i ans</w>
Pr ac
cre dentials</w>
Ken ya</w>
appro ve</w>
No de</w>
u ing</w>
Targ et</w>
Hun g
guar ding</w>
pres ses</w>
ad visory</w>
occa sions</w>
tol l</w>
p oured</w>
Im mun
m ole</w>
C R</w>
40 5</w>
fres h
pi vot
under go</w>
S and
o od</w>
integr ally</w>
config uring</w>
tap ered</w>
ri bs</w>
AB C</w>
st a</w>
ho sting</w>
To ols</w>
et us</w>
roc ket</w>
condi tional</w>
I X</w>
ti ary</w>
Ecolog ical</w>
clu bs</w>
Ado be</w>
suppl ementary</w>
un desirable</w>
se c</w>
Cour se</w>
Cham ber</w>
constitu ent</w>
ischem ia</w>
Rec or
im er</w>
syr inge</w>
regi sters</w>
S ri</w>
Ch ile</w>
L ank
dro ve</w>
consist ently</w>
virtu e</w>
promis es</w>
H a</w>
acknowled ged</w>
Rob ert</w>
He ating</w>
tre aties</w>
a .
st ent</w>
su spects</w>
1 100</w>
E lev
k le</w>
plan ted</w>
phot oc
res ort</w>
v ine</w>
d airy</w>
As sets</w>
ini a</w>
hierarch y</w>
est y</w>
chlor o
Man ual</w>
f ound
p et
pl ural</w>
S aid</w>
resp ected</w>
Controll er</w>
Contrac tor</w>
dop ing</w>
silox ane</w>
L aser</w>
enjo y
Mic ro</w>
12 7</w>
cre dibility</w>
any body</w>
US D</w>
Sh ort</w>
is ode</w>
atten uation</w>
Math em
9 9.
T enc
PE G</w>
negoti ate</w>
tari ffs</w>
Usu ally</w>
sett l
w ounded</w>
to ys</w>
mar row</w>
B s</w>
in sured</w>
se als</w>
morph ology</w>
C VD</w>
rac ial</w>
Here inafter</w>
spon tan
hi a</w>
He ilongjiang</w>
O A
bol ts</w>
to ol
vi able</w>
clock wise</w>
lum en</w>
v ille</w>
al titude</w>
al locate</w>
sent ences</w>
T our</w>
wil d
glob ally</w>
pro test</w>
Si erra</w>
R T
no ble</w>
ear liest</w>
stabil ized</w>
on ucleo
conc ei
B us</w>
80 2.
CD MA</w>
expendit ures</w>
M other</w>
contri butes</w>
Au dit</w>
doc king</w>
i fies</w>
Trans mission</w>
s ement</w>
Har v
micro bial</w>
h at</w>
resol utely</w>
outw ard</w>
mang anese</w>
qual ities</w>
List ing</w>
hear t
des per
O FF</w>
fer ro
U R</w>
No thing</w>
dem ol
UN E
missi les</w>
access ory</w>
exclu sively</w>
lat ency</w>
fl u</w>
Col um
ill a</w>
Ac tually</w>
provi sional</w>
SO 4</w>
th ening</w>
f lip</w>
system atically</w>
rap e</w>
F OR
attrac ting</w>
o h
L L</w>
fin ishing</w>
tax pay
ell ites</w>
Spe aking</w>
cre dit
percei ved</w>
Marx ism</w>
pr ag
su its</w>
electroly tic</w>
14 8</w>
et ly</w>
buc ket</w>
M o</w>
qual itative</w>
woo den</w>
co alition</w>
f c</w>
Y ao</w>
ill icit</w>
V s</w>
Mo dule</w>
in ates</w>
hierarch ical</w>
o varian</w>
str ings</w>
H R</w>
haz ard</w>
o ch
for warding</w>
punish ed</w>
ed ged</w>
ir r
ly wood</w>
concer t</w>
Scot land</w>
Th ink</w>
A th
Que en</w>
as sured</w>
gr ains</w>
Intelli gence</w>
in i</w>
bi op
att aches</w>
the ft</w>
dist ant</w>
in soluble</w>
ar sen
trou bles
ti a</w>
2 -</w>
d ication</w>
fluctu ation</w>
bo om</w>
poly amide</w>
25 6</w>
phosph or</w>
Ann oun
t ang
sol idi
bab ies</w>
olig onucleo
3 G</w>
Tenc ent</w>
sn ap
ve in</w>
sp heres</w>
sor ting</w>
tor ial</w>
R U
de pressed</w>
gener ative</w>
1. 7</w>
projec tor</w>
hydrochlor ic</w>
gener ic</w>
Cap acity</w>
Q in</w>
regi stry</w>
Con cer
17 th</w>
O ut</w>
sovere ign</w>
predic tive</w>
organ is
C ells</w>
ne gl
col i</w>
protru ding</w>
ist ing</w>
c en
Y ears</w>
Part nership</w>
interpol ation</w>
s lower</w>
Advantag eously</w>
compl i
4. 1</w>
g el
work place</w>
de bris</w>
accep ting</w>
Be ing</w>
poss ess</w>
anticip ated</w>
li tigation</w>
F u</w>
relev ance</w>
ventric ular</w>
metr ical</w>
E p
ak en</w>
Sh en</w>
inter connection</w>
sub section</w>
in heritance</w>
Techn i
syn tax</w>
Fo rest</w>
me als</w>
cu p
m illing</w>
J ones</w>
et ries</w>
collabor ative</w>
char ts</w>
ag glomer
Co ordin
clero sis</w>
foreign ers</w>
embr y
prosec ution</w>
pl ain
Au to
work shops</w>
at orial</w>
ar i</w>
mechan ically</w>
F air</w>
8 10</w>
im s</w>
D 2</w>
M n</w>
tr o</w>
N avy</w>
Chang sha</w>
tr ucks</w>
si veness</w>
pack aged</w>
al ised</w>
L ink</w>
li able</w>
3 65</w>
metr ics</w>
dis ks</w>
dro plets</w>
ey e
re juven
re agents</w>
ab undant</w>
hur ry</w>
d ging</w>
mater nal</w>
K er
D im
te ar</w>
jud ged</w>
sequ encing</w>
exclu ded</w>
centrifu gal</w>
gra ft</w>
retriev ed</w>
brilli ant</w>
lan tic</w>
diff ers</w>
hon our</w>
ell itus</w>
Develop ing</w>
UNE SCO</w>
M ass
scor ing</w>
ze ol
Re sistance</w>
rever sed</w>
M L
PP T</w>
an atom
lif ted</w>
D ong</w>
got ta</w>
trans late</w>
elong ate</w>
n uts</w>
Ju n</w>
ter ly</w>
coupl er</w>
pre f
fo res
sli der</w>
ab lation</w>
en de
r ushed</w>
summar ize</w>
Ga N</w>
out putted</w>
attemp ted</w>
treas ure</w>
inter sec
f ought</w>
50 8</w>
Sc ope</w>
M 2</w>
L I
color ful</w>
thyro id</w>
aw n</w>
compos ites</w>
enem ies</w>
hyd rous</w>
econom ical</w>
BR IEF</w>
soy bean</w>
experi encing</w>
trac es</w>
to y</w>
sym bol
R ot
om al
weak ness</w>
stru ggling</w>
X ing
recur rence</w>
Tr ading</w>
assess ments</w>
Pl ace</w>
atten u
streng ths</w>
medic ines</w>
et on</w>
Re uters</w>
an isot
br a</w>
AP K</w>
K i
Po si
Mar tin</w>
sc enery</w>
thor ough</w>
vi al</w>
py ro
p ast
el der</w>
Mon ey</w>
ci se</w>
correspon dence</w>
acti vi
ex emp
cosme tic</w>
2 1
con scienti
200 ,000</w>
D eli
toil etries</w>
top s</w>
ob server</w>
Off icial</w>
ri st</w>
R un</w>
He ad</w>
Colom bia</w>
Ku wait</w>
incre dible</w>
as phal
Chris ti
a e
cou p
V EG
struc k</w>
note book</w>
ex pose</w>
or i</w>
perman ently</w>
spec ulation</w>
min orities</w>
un ch</w>
fuc king</w>
ab ide</w>
V it
lo ver</w>
roun ds</w>
ec tomy</w>
Sum mer</w>
Qu anti
Is sues</w>
ten ded</w>
see ks</w>
Reg ulation</w>
announ ce</w>
F eng
as yn
conclu de</w>
ass ure</w>
3 11</w>
E dit</w>
P ath</w>
Austri a</w>
Mach inery</w>
80 1</w>
soldi er</w>
l ys
c auti
ol f</w>
T ax
comm ander</w>
Bu y</w>
ou l</w>
inter governmental</w>
b end</w>
V A</w>
com a</w>
dispens er</w>
aut onomy</w>
D raft</w>
E li
S O</w>
disp at
qu it</w>
Head quarters</w>
infr ing
Corpor ate</w>
Liqui d</w>
Banglad esh</w>
conve yed</w>
appen ded</w>
ai ds</w>
UE s</w>
min us</w>
P .
w ed</w>
tou ching</w>
am ble</w>
enclo sed</w>
S oil</w>
work load</w>
on ically</w>
an ium</w>
qu an</w>
2 13</w>
sem ester</w>
gam ma</w>
Ex ternal</w>
us her</w>
ur iti
spectro scopy</w>
distingu ished</w>
A U
Nor theast</w>
ca tion
0. 25</w>
dar k
id ation</w>
ni ghts</w>
spe ech
respon dents</w>
70 s</w>
Custom s</w>
dish washer</w>
san itation</w>
trans cription</w>
complex es</w>
mob ilization</w>
M C</w>
sm an</w>
Pop ulation</w>
am ics</w>
Ning bo</w>
sat ellites</w>
Schem e</w>
dissem ination</w>
2 42</w>
H F</w>
brid ges</w>
t s
k ind
coun sel
dev ast
gra ve</w>
U h</w>
al izes</w>
co ins</w>
wh it
Rest aur
4 7
Respon se</w>
D R</w>
Bi o
ber t</w>
16 th</w>
specim en</w>
Fir stly</w>
break er</w>
g li
int ered</w>
Dut ch</w>
insul ated</w>
17 5</w>
Ther mal</w>
dram atic</w>
imag ination</w>
ro ds</w>
bank ruptcy</w>
I I
pro s
ar a</w>
there after</w>
super visors</w>
ic ons</w>
Arti cles</w>
publ ications</w>
AT E</w>
crow n</w>
polar ized</w>
Sy dney</w>
hydrox y</w>
X P</w>
occup ational</w>
di min
Y a
ter tiary</w>
row ing</w>
re sist
trop ical</w>
hybri di
S ucc
CO M</w>
tr aders</w>
Stat ement</w>
eth ical</w>
subsidi aries</w>
CM OS</w>
198 8</w>
Vol ume</w>
Sign ific
smil ed</w>
5 7
ad mir
Con fuc
car to
Bo dy</w>
al g
correc ting</w>
icro bial</w>
enrich ed</w>
ket tle</w>
Al ex
Hu ang
protru sions</w>
tribu te</w>
Bit coin</w>
sophistic ated</w>
At l
fib res</w>
vap or
il st</w>
Fin land</w>
shif ts</w>
cushi on</w>
tou ch
HC R</w>
Th ai</w>
at ories</w>
long est</w>
pass ages</w>
Tim or</w>
Lu o</w>
R D</w>
pig ments</w>
U g
Ear lier</w>
prog ression</w>
im pressive</w>
viol ated</w>
hep atic</w>
on er</w>
fundam entally</w>
C ru
reac ting</w>
Col leges</w>
haz ards</w>
f ears</w>
Eff ective</w>
b a
min erals</w>
contrac tor</w>
am bo
ur gently</w>
B ag
t ally</w>
Budd h
Co ordination</w>
Ad ap
she ep</w>
P eng</w>
poly carbonate</w>
war s</w>
Gener ation</w>
micro controller</w>
comm issions</w>
g a
20 .
aim ing</w>
70 4</w>
c m2</w>
pos session</w>
G UI</w>
in adequate</w>
f ax</w>
cas u
Har bin</w>
critici zed</w>
ro und
clu stering</w>
D O</w>
pe as
threat ening</w>
am ents</w>
S ul
C ases</w>
re novation</w>
plas tici
ot echn
Mar ine</w>
requ isite</w>
L Y</w>
insi st</w>
g ay</w>
graph ene</w>
W ater
hon ey</w>
As k</w>
sil k</w>
4 G</w>
T EC
deci des</w>
comput ational</w>
sc roll</w>
es cap
60 1</w>
b anned</w>
z y
ti d
wit nesses</w>
st a
Princi ples</w>
pe i</w>
mut ations</w>
promp tly</w>
col lo
traum a</w>
Nur sing</w>
W ind</w>
cr acks</w>
Mar s</w>
b oring</w>
mobil ize</w>
T ow
Ber lin</w>
iz ers</w>
Ji a
40 3</w>
air flow</w>
remot ely</w>
z i
UN HCR</w>
Explo rer</w>
dis ability</w>
15 8</w>
end less</w>
st ake</w>
ten th</w>
titu des</w>
brief ing</w>
ch im
R evolution</w>
h emo
gen ital</w>
Autom obile</w>
mult in
per or</w>
F 1</w>
P ID</w>
dri ft</w>
allevi ate</w>
se ed
un comfortable</w>
Fi sh
de form
ti te</w>
wor m</w>
vi g
res cu
S H</w>
stre am
reli es</w>
sy l
m ould</w>
y b
warran ty</w>
depreci ation</w>
cha os</w>
Co ast</w>
muc os
Comm and</w>
I ON</w>
dis appointed</w>
R ole</w>
Pal ace</w>
Rel ations</w>
ri m</w>
N avi
l es
bas ket</w>
micro computer</w>
A ll
Let ter</w>
obser vers</w>
5 8
er b
ant ine</w>
Ch ang</w>
indic es</w>
N FC</w>
he pat
medi ate</w>
AT A</w>
corpor ations</w>
Over view</w>
shor tly</w>
pion ships</w>
Dre am</w>
to se</w>
yar n</w>
comp ute</w>
micro structure</w>
re frac
rais es</w>
pe tr
discipl ines</w>
Resol ution</w>
alk yl
a to</w>
agg ression</w>
innov ate</w>
throm bo
Ac tiv
dram atically</w>
syn c</w>
t ness</w>
fi able</w>
Peri od</w>
deal ers</w>
6 7
uni ons</w>
sun der
S u</w>
f ont</w>
reve als</w>
employ s</w>
gener ators</w>
comb ating</w>
Hu a</w>
contam in
NO x</w>
ha ul</w>
dem anded</w>
attribu ted</w>
l am</w>
D I</w>
18 2</w>
H C</w>
ere ly</w>
inten ds</w>
sil ence</w>
Pl as
SC H</w>
Min ing</w>
oper atively</w>
gent lem
c af
Qo S</w>
inf ants</w>
c age</w>
bi ased</w>
sh ire</w>
exci pi
entrepreneur ial</w>
pri de</w>
dec k</w>
Qu al
int ent</w>
s way</w>
y u
Mor oc
ne ph
ech o</w>
cop ied</w>
defl ection</w>
In dividu
op tically</w>
fl ap</w>
Qu estion</w>
re producing</w>
custo dy</w>
in correct</w>
Den mark</w>
innov ations</w>
fail ing</w>
UN ID
IP O</w>
l apar
gre y</w>
0. 9</w>
Hy per
bi o</w>
ir regular</w>
Palest ine</w>
poly vinyl</w>
il ation</w>
dichlor omethane</w>
by te</w>
strong est</w>
repor tedly</w>
vi vi
MO SF
inspir ation</w>
tournam ent</w>
nutri ents</w>
er ts</w>
promp ted</w>
ar t
mu d</w>
spectr a</w>
lat tice</w>
ate au</w>
stri kes</w>
In put</w>
ol a</w>
kid n
Fin ancing</w>
. The</w>
trans forming</w>
ch i</w>
pursu ing</w>
N A
mus cles</w>
vacu o</w>
rele ases</w>
M AT
Cambodi a</w>
bor row</w>
controversi al</w>
jud ging</w>
solv ency</w>
rigi dity</w>
analy sed</w>
rec re
In ter</w>
16 8</w>
merch ants</w>
billi ons</w>
B ay
red undant</w>
den um</w>
stabil izer</w>
tigh tening</w>
I .</w>
differenti ated</w>
mo s
co axial</w>
cation ic</w>
o rectal</w>
heav en</w>
dang ers</w>
dis able</w>
intr insic</w>
coll agen</w>
jap an</w>
un even</w>
3 80</w>
ji a
ann ually</w>
multic ast</w>
graph s</w>
W a
re pository</w>
ay a</w>
end point</w>
IT H</w>
R E</w>
fav our</w>
A ge</w>
ex tern
dis appear</w>
I ll
or dering</w>
att aching</w>
Condi tions</w>
secre ts</w>
qui etly</w>
Sim ple</w>
inter connected</w>
N C</w>
Consi dering</w>
I E</w>
cap tain</w>
im balance</w>
S AP</w>
ab ul
oun ce</w>
e der</w>
Per spective</w>
Agen da</w>
even ly</w>
char m</w>
Circu it</w>
16 5</w>
per imeter</w>
OB JEC
medic ament</w>
x ian</w>
Vol un
Ho st</w>
schol ar
cul tured</w>
y east</w>
compens ated</w>
sh it</w>
ol dest</w>
soci eties</w>
Terr or
altern atives</w>
precipit ate</w>
had n</w>
pul p</w>
F ul
Dop pler</w>
el ly</w>
C AN</w>
nas al</w>
resi sti
Proc edure</w>
s intered</w>
AR T</w>
D r</w>
y in</w>
ish es</w>
L am
n es
oc ular</w>
Provi de</w>
rough ness</w>
sk i
be ans</w>
ato es</w>
Mi ke</w>
li po
substitu te</w>
cab in</w>
he dge</w>
conven tions</w>
W in
pre valence</w>
an hydride</w>
for ty</w>
Streng thening</w>
Manufac ture
ol ds</w>
A ST
arg uments</w>
pl et</w>
3 a</w>
termin ate</w>
ac company</w>
c ation</w>
Venezu ela</w>
pro spec
sugg esting</w>
lo ving</w>
je welry</w>
In ci
G IS</w>
s ons</w>
lt d.</w>
fore stry</w>
4 14</w>
flu idic</w>
us eless</w>
gl ue</w>
di methyl
scre en
c a</w>
decor ative</w>
ari um</w>
Bu ff
assum ptions</w>
A MP
equi val
1 .</w>
ri b</w>
Sh ower</w>
Expl oration</w>
4 ,000</w>
lubr ication</w>
ener g
use ums</w>
bal ances</w>
N ever</w>
un fair</w>
sing er</w>
Fl ash</w>
ec ular</w>
High way</w>
specif icity</w>
Xia oping</w>
L y
f its</w>
ake up</w>
contradic tion</w>
Te a</w>
g um</w>
am ines</w>
M ing
dic tionary</w>
Op tions</w>
bas in</w>
ess ors</w>
Q i</w>
proc ur
characteris ed</w>
Pre vious</w>
Coll ection</w>
poly peptides</w>
k Hz</w>
sal ine</w>
dec entr
por osity</w>
roll s</w>
dra ws</w>
We ap
sm u
l eng
dr unk</w>
Web site</w>
U M
circul ated</w>
lugg age</w>
f li
Vol tage</w>
EM C</w>
cru ise</w>
cat ering</w>
Z edong</w>
Scal e</w>
qi ao</w>
ero sion</w>
applic ants</w>
cont our</w>
pro pan
em an</w>
k iller</w>
st ag
6 30</w>
Ri o</w>
ep isode</w>
NE W</w>
adju v
pollut ants</w>
filtr ate</w>
age al</w>
Me dium</w>
Ma x</w>
list ened</w>
En tre
polymer izable</w>
mass age</w>
5. 1</w>
Aci d</w>
ac up
corpor ation</w>
prof itable</w>
ar rows</w>
fib rous</w>
pol l</w>
16 1</w>
an hydrous</w>
m oul
re n</w>
ev ed</w>
p h</w>
exp iration</w>
recti fier</w>
marg inal</w>
under ing</w>
T es
19 80</w>
ele gant</w>
loc alization</w>
remain der</w>
wor ries</w>
in tru
2 34</w>
18 .
S B
mal icious</w>
al ter
de stri
8 00
selec tivity</w>
gr ants</w>
w ins</w>
charg eable</w>
let ting</w>
4 000</w>
60 6</w>
it ated</w>
coordin ating</w>
17 .
c c</w>
sub jective</w>
To y
cur sor</w>
tra it</w>
ter ror</w>
acet one</w>
ambo o</w>
j ia</w>
em in</w>
mi sunder
manag es</w>
with drawn</w>
ste pping</w>
nur ses</w>
H 2</w>
explan atory</w>
M IMO</w>
inser ting</w>
Pers ons</w>
bi tions</w>
chap ters</w>
N 2</w>
Opini ons</w>
op athy</w>
FP GA</w>
in tra
Tele phone</w>
4 9
J ing</w>
su stain</w>
ben ign</w>
hon ey
refres h</w>
Par ts</w>
m as
a ws</w>
G SM</w>
si us</w>
ischem ic</w>
simpl icity</w>
U sed</w>
B BC</w>
jec ting</w>
bus h</w>
Re d
co he
. I</w>
E duc
impris onment</w>
radi ator</w>
pr us</w>
s now
incl ination</w>
ur inary</w>
prof ession</w>
IP v
dec lining</w>
ne arest</w>
m r</w>
quot a</w>
am y
Jin an</w>
500 ,000</w>
specif ying</w>
abor tion</w>
Al i</w>
air line</w>
Uni fied</w>
l asted</w>
m ellitus</w>
Le one</w>
am ended</w>
Pro tec
econom ically</w>
n es</w>
spec tives</w>
L IN
re viewing</w>
rain fall</w>
e aten</w>
poly g
Hol lywood</w>
Fri ends</w>
d ens</w>
Fi xed</w>
int ao</w>
r atings</w>
orif ice</w>
b old</w>
inter mit
ass ment</w>
or bit</w>
Rec on
less ly</w>
er g
im bur
assist ing</w>
comp eting</w>
m ating</w>
acup uncture</w>
remem bered</w>
H K</w>
Bri ef</w>
akh stan</w>
re jection</w>
un cle</w>
2 52</w>
motor cycle</w>
antim icrobial</w>
survi v
un available</w>
R ice</w>
C AR
un limited</w>
pri ori
Wee k</w>
intraven ous</w>
Employ ment</w>
epi thelial</w>
tur bul
path y</w>
lac tic</w>
F lights</w>
Ch eng</w>
Fac tor</w>
Pl astic</w>
3 15</w>
ri vers</w>
roman tic</w>
open ness</w>
gr atitude</w>
el ded</w>
T B</w>
form aldehyde</w>
M id
assess ing</w>
0 5
st ero
gh o
ub es</w>
view ers</w>
Se par
Cy prus</w>
popul arization</w>
pic king</w>
cultiv ated</w>
J ia</w>
deser ve</w>
op e
Pro sec
mi a</w>
8. 5</w>
micro organisms</w>
cle aring</w>
f ai
qu o</w>
F ur
appear ing</w>
O H
Y e</w>
farm ing</w>
non -</w>
sp inning</w>
recei vers</w>
pul ley</w>
Al umin
credit ors</w>
mail box</w>
ul ous</w>
14 th</w>
direc ting</w>
decl are</w>
tr aded</w>
restr aint</w>
c au
There by</w>
In c</w>
shi pment</w>
2. 6</w>
c ute</w>
exhi bited</w>
neur ons</w>
W as</w>
saf er</w>
5 40</w>
dat as
U. N.</w>
p ine</w>
acqui sitions</w>
bo ar
k o
BM W</w>
an esthesia</w>
Jo b</w>
B E
Z n</w>
Rel ev
F ather</w>
pain ted</w>
M ENT</w>
O thers</w>
mob ilized</w>
B anking</w>
To ol</w>
projec ting</w>
Rw anda</w>
A verage</w>
ol er
oppon ent</w>
ben ch</w>
medi ation</w>
D er
remin ded</w>
asphal t</w>
super market</w>
mark et
At lantic</w>
o yang</w>
identi fiers</w>
Cer tain</w>
SY ST
dr agon</w>
be ef</w>
M 1</w>
ec raft</w>
Re as
L ao</w>
pl ated</w>
amend ments</w>
SI M</w>
shaf ts</w>
under gone</w>
16 6</w>
el ementary</w>
Lo ad</w>
oun ced</w>
six ty</w>
k istan</w>
t ere
T ER</w>
ch ang</w>
AC E</w>
Sur g
per petr
m on</w>
witn essed</w>
utili zes</w>
concep tual</w>
uni qu
An gol
recogn izing</w>
thir ds</w>
Ch e
par adi
ran ean</w>
Al lo
Willi am</w>
m A</w>
competi tions</w>
Estab lish
m ile</w>
evol u
F ail
there between</w>
Di ab
V II</w>
den otes</w>
re payment</w>
c rises</w>
dec eler
prote sts</w>
av ed</w>
i ble</w>
Nep al</w>
H ep
all adium</w>
seas ons</w>
Compl ete</w>
str anded</w>
municip alities</w>
nur se</w>
protot ype</w>
St an
G e</w>
G rid</w>
pow ders</w>
aller gic</w>
met h</w>
st aff
E limin
d ingly</w>
as ers</w>
AL L</w>
ligh ter</w>
ai ded</w>
D MA</w>
Fol low</w>
C 3</w>
R ather</w>
ate x</w>
neg atively</w>
inver ted</w>
Ther ap
exp ounds</w>
Not es</w>
sh ou
wa ist</w>
integr ates</w>
sl udge</w>
ME MS</w>
enjo ying</w>
sear ched</w>
P an</w>
3 C</w>
l ot
tl en
as leep</w>
vo ices</w>
M ir
n ity</w>
c ept</w>
approxim ate</w>
allow ance</w>
resp ects</w>
om es</w>
eng ages</w>
tr a</w>
off ensive</w>
Fl at</w>
p ink</w>
SE M</w>
s al</w>
gro ws</w>
sli t</w>
expl icit</w>
rab bit</w>
i od
Swit ch</w>
c em
re pay</w>
Electr onics</w>
IC E</w>
econom ists</w>
ar se</w>
Al most</w>
A venue</w>
evol ved</w>
soci o</w>
w ang</w>
Happ y</w>
Inte rest</w>
den y</w>
Pri ze</w>
1. 5
Th omas</w>
des ert</w>
Sam ple</w>
3 70</w>
gas ket</w>
W ITH</w>
canc ers</w>
gr asp
cong res
prolong ed</w>
I l
N ow
relax ation</w>
6 ,000</w>
hygi ene</w>
Fran k
re flux</w>
st un
S N</w>
diplom acy</w>
buff ers</w>
sul fur
initi alization</w>
dec ent</w>
PC I</w>
bun dle</w>
Organ ic</w>
Orig inal</w>
initi ation</w>
Rec ord</w>
id ine</w>
resol ving</w>
en ium</w>
ster ile</w>
sc anned</w>
fi l</w>
Sh ell</w>
pro ves</w>
light weight</w>
quanti zation</w>
P ing
pro mo
sear ches</w>
quot ation</w>
gra v
fil ament</w>
Toy ota</w>
S impl
Vi ol
The ore
co stly</w>
NO T</w>
passi vation</w>
therapeu tically</w>
f a</w>
T H</w>
sou p</w>
Represent atives</w>
B ar</w>
j ail</w>
re v
an omal
wh olly</w>
X in</w>
ben e
13 0
en vis
op or
hi red</w>
bal cony</w>
in ine</w>
red und
F ine</w>
har ness</w>
ques tioned</w>
empha sizes</w>
As sistance</w>
M ine</w>
po etry</w>
helicop ter</w>
ful filled</w>
campaign s</w>
hor ri
em bol
pre mi
wavel et</w>
tari ff</w>
particip ant</w>
hi ding</w>
Sh ar
compet ence</w>
h ill</w>
T ab
myst er
vin a</w>
EG R</w>
stimul ating</w>
Fi ber</w>
surve ys</w>
A DC</w>
str and</w>
7 B</w>
crimin als</w>
UN F
he a</w>
inspec ted</w>
no d
F E
B each</w>
Kun ming</w>
Kaz akhstan</w>
ten sive</w>
9 A</w>
attor ney</w>
elast omeric</w>
post ure</w>
15 3</w>
sli des</w>
practi tioners</w>
al ign</w>
Ha iti</w>
are ly</w>
Rec ent</w>
F inal</w>
dou bled</w>
P re</w>
weigh ing</w>
vacc ines</w>
super vise</w>
J i</w>
bi asing</w>
Com posite</w>
con fusion</w>
star ter</w>
er y
cont ex
nor theast</w>
all ur
con gress</w>
pl ex
Y ing
attemp ting</w>
IE EE</w>
detec table</w>
B anks</w>
Gu o
r ative</w>
reiter ated</w>
pass age
GO s</w>
up set</w>
inten d</w>
dum my</w>
D un
prepar atory</w>
distinc tion</w>
t angible</w>
l o</w>
tack le</w>
Gl ass</w>
f used</w>
doub ts</w>
ine quality</w>
De ep</w>
Rele ase</w>
sof a</w>
4. 3</w>
photo graph</w>
Bat tery</w>
ta i</w>
i fier</w>
Wor ds</w>
dys function</w>
emer ge</w>
rebel s</w>
fol ders</w>
Connec tion</w>
B E</w>
estim ating</w>
2 28</w>
C CD</w>
rel essly</w>
ink jet</w>
Fac il
ch at
Lank a</w>
condi tioned</w>
cam ps</w>
elec toral</w>
14 3</w>
tri ple</w>
ish ment</w>
scr atch</w>
Establish ment</w>
scienti st</w>
fabr ics</w>
P aren
ar bon
law suit</w>
Dem and</w>
Reco very</w>
le an</w>
the ater</w>
n ylon</w>
e ager</w>
est ock</w>
2. 8</w>
retard ant</w>
de structive</w>
Govern or</w>
ass ault</w>
Pay ment</w>
Jav a
assem bling</w>
impl anted</w>
aero space</w>
Prob lem</w>
hydrogen ation</w>
F ault</w>
cur tain</w>
3. 4</w>
ev acu
vi sc
F BI</w>
N GOs</w>
0.00 1</w>
&apos; S</w>
super visor</w>
ES T</w>
enh ances</w>
rel la</w>
Hu i</w>
NAS A</w>
e jection</w>
hop e
no stic</w>
ri p
pr iced</w>
h ob
for tune</w>
re imbur
der mal</w>
sub ordin
acknowled g
ende av
surpris ingly</w>
L aw
th rown</w>
B ra
kno c
gar age</w>
Sim ul
A viation</w>
yb denum</w>
am big
fl ex
ouri er</w>
0. 0</w>
p u</w>
reli eve</w>
EN TS</w>
non woven</w>
photo graphic</w>
effec ted</w>
Num erical</w>
sur ge
m p</w>
F ab
cle ared</w>
in spect</w>
asp ir
adh ering</w>
constr ained</w>
T ao</w>
pres cription</w>
Mess age</w>
Dis crimin
E vent</w>
re fund</w>
adequ ately</w>
T ob
pi ano</w>
Po sition</w>
di etary</w>
rec esses</w>
trigg ering</w>
O u
P F</w>
t ar</w>
Cel sius</w>
N anch
Cr yst
S G
interven tions</w>
ep il
con sequently</w>
collap sed</w>
cut ter</w>
Qu estions</w>
av al</w>
frag ile</w>
C ao</w>
il legally</w>
d ancing</w>
compres sive</w>
n est</w>
bi polar</w>
Dis cipl
protec ts</w>
he imer</w>
insi ght</w>
dam per</w>
sist ers</w>
k ick</w>
cr ying</w>
L A
referen ced</w>
contrac ting</w>
ni e</w>
O f
ame works</w>
De b
defe ated</w>
F L</w>
trag edy</w>
here in
re organization</w>
arith metic</w>
shor ten</w>
clou ds</w>
IS O
I d
anti oxidant</w>
um entation</w>
F em
advoc ate</w>
frac tures</w>
m ere</w>
broad c
en ch
19 .
at traction</w>
198 6</w>
d ots</w>
tr ail
Ch alleng
C ateg
fix ture</w>
cont est</w>
GP U</w>
un g
Str ait</w>
sol ves</w>
sh aking</w>
li kewise</w>
6. 0</w>
shut down</w>
0 7
horizon tally</w>
u ity</w>
fri dge</w>
Dis armament</w>
F ang</w>
reco vering</w>
har sh</w>
aff iliated</w>
Secon dary</w>
tw in</w>
pl edge</w>
UN EP</w>
transmit tance</w>
en rich</w>
tur n
Requ est</w>
vers a</w>
rel s</w>
distribu tor</w>
Compon ent</w>
W an
pig s</w>
lic enses</w>
M it
sinc erely</w>
D a</w>
under taking</w>
coc k
educ ated</w>
d ation</w>
am ins</w>
H ab
exac erb
ann y</w>
ut ting</w>
loo k
go vina</w>
compli ant</w>
spectro metry</w>
0. 5
ti ghtly</w>
H ou
rot at
shr ink
N a</w>
coh erence</w>
r us
mer ge</w>
actu ated</w>
che dule</w>
visu alization</w>
T L
hand held</w>
lymp h</w>
speci alty</w>
Ad ver
N it
D av
dig it</w>
pancre atic</w>
inter ro
For ces</w>
ur able</w>
Gre en
er ly</w>
12 A</w>
198 5</w>
4 6
k V</w>
Sol utions</w>
VEG F</w>
wa ited</w>
suscep tible</w>
cel ona</w>
ach able</w>
gh ting</w>
en ix</w>
met res</w>
di str
cele bration</w>
roun ded</w>
St ability</w>
Xi e</w>
C .
ut ory</w>
ide als</w>
tra its</w>
P earl</w>
hypo thesis</w>
x ious</w>
Harv ard</w>
Vir g
T op
dele tion</w>
hum idi
Croati a</w>
preser ved</w>
hydro chloride</w>
Classi fication</w>
lin ker</w>
OBJEC TIVE</w>
r amp</w>
fo ssi
ad vised</w>
ar ous
base band</w>
S ON</w>
tri angular</w>
la h</w>
h ello</w>
un wanted</w>
Pol l
di arr
heter ocy
w a</w>
pen alties</w>
Ser bia</w>
reser v
visu ally</w>
contr action</w>
multin ational</w>
dy es</w>
G E
ai res</w>
FD A</w>
zeol ite</w>
poly ol</w>
jum ped</w>
Anim al</w>
t ancy</w>
2 50
s an</w>
ed a</w>
c al</w>
lo yalty</w>
rhyth m</w>
Wh atever</w>
renew ed</w>
dee ds</w>
M g</w>
sc ul
Au thor
8 5
A .
distur bance</w>
aer obic</w>
shoc ked</w>
at re</w>
Emp irical</w>
Si O2</w>
im ing</w>
ze govina</w>
he y</w>
av a</w>
per spectives</w>
H S
car ing</w>
de dication</w>
Col or
8 9
Char les</w>
hun ger</w>
ong side</w>
Re ally</w>
Ric hard</w>
M aking</w>
Resear chers</w>
con ical</w>
p alladium</w>
pre mature</w>
reac tors</w>
yl ated</w>
don ation</w>
speech es</w>
pe destri
st yl
ca vities</w>
dop ant</w>
cosme tics</w>
stere o</w>
Retur n</w>
l or</w>
depos iting</w>
cr ane</w>
un acceptable</w>
V an
negoti ating</w>
ear ning</w>
ak a</w>
Per u</w>
5. 2</w>
198 7</w>
por k</w>
tem ple</w>
indic ations</w>
Prote in</w>
Now adays</w>
bu g</w>
Some one</w>
AG E</w>
at r
Open ing</w>
cad re</w>
RA L</w>
o thing</w>
exc use</w>
proxim ate</w>
qu in
distill ed</w>
Impro vement</w>
Bar celona</w>
br ick</w>
b arg
simul ate</w>
sampl ed</w>
G ene</w>
em b
Ac ute</w>
Lu x
l ecture</w>
evolu tionary</w>
zh u</w>
TION S</w>
dro p
Her zegovina</w>
twel ve</w>
restric ting</w>
Fu zhou</w>
Y ing</w>
viol ate</w>
asyn chronous</w>
N MR</w>
str ang
Com ments</w>
wh is
speci alist</w>
bur ner</w>
rotat ably</w>
pres ently</w>
abul ary</w>
D B
P B
f etal</w>
bot tlen
l oud</w>
Pho to</w>
40 ,000</w>
Exc ept</w>
Tit le</w>
blow n</w>
asym metric</w>
mean while</w>
arg on</w>
D 2D</w>
debu gging</w>
character ization</w>
cer amics</w>
n g</w>
3. 6</w>
imp eller</w>
y og
over time</w>
You Tube</w>
enc e
Int ere
re plac
B ol
cat alog</w>
P U</w>
expos ing</w>
tun n
fr anch
not ably</w>
Pur chase</w>
de formed</w>
Jo e</w>
bul b</w>
tradi tions</w>
Z n
clim b</w>
quar tz</w>
aw a
renew al</w>
S AR</w>
Minist ers</w>
in visible</w>
Pl enary</w>
hol dings</w>
sin ghua</w>
deli vers</w>
heterogen eous</w>
re rs</w>
oxidi zing</w>
Share Point</w>
radio active</w>
WIN GS</w>
M ail</w>
Sil icon</w>
figh ter</w>
counter fe
90 2</w>
ar ch</w>
conscienti ously</w>
op pose</w>
def ective</w>
W O</w>
Magne tic</w>
referen dum</w>
Ex empl
spac ious</w>
ar an
encapsul ated</w>
C N</w>
gran ules</w>
endo genous</w>
fi g</w>
wr apped</w>
T ang
sen der</w>
2. 7</w>
Ch annels</w>
equival ents</w>
Max imum</w>
ID s</w>
d d
CN C</w>
casu alties</w>
Vo ice</w>
ad versely</w>
Par ameters</w>
be side</w>
re produced</w>
yl ate</w>
J ac
pois oning</w>
H em
attribu table</w>
l atex</w>
senti ment</w>
R an
f urthermore</w>
acqui res</w>
Ethi opia</w>
analy tics</w>
fl ag
F res
3 24</w>
cal li
g lobe</w>
ER P</w>
sup pressing</w>
cass ette</w>
st ment</w>
jo ke</w>
av en</w>
sw elling</w>
T M</w>
cor rid
si ans</w>
W A</w>
prec au
p ants</w>
ST UD
there from</w>
2 20
rec essed</w>
W OR
dehy dr
Wei bo</w>
it one
W eight</w>
Uni versities</w>
distinc tive</w>
sav es</w>
multiplex ing</w>
DRA WINGS</w>
19 2</w>
hor mon
arter ial</w>
S even</w>
Ultr as
Q in
notif ications</w>
re ar
E dge</w>
as i</w>
fl ask</w>
lu ent</w>
Relev ant</w>
Forec ast</w>
cauti ous</w>
3 18</w>
agre es</w>
adhe sives</w>
l ing
poly silicon</w>
Archit ecture</w>
bin ds</w>
F ashi
Calcul ation</w>
vend or</w>
safe guarding</w>
un fortunately</w>
bi e</w>
ir ts</w>
Q ian</w>
claim ing</w>
pain tings</w>
2 O3</w>
D .
phys ician</w>
F al
Ch un
stret ched</w>
s ells</w>
hal t</w>
exten sively</w>
injec ting</w>
cor ne
contam inated</w>
cent uries</w>
air lines</w>
Dr agon</w>
HC l</w>
Ben ef
fr ameworks</w>
elong ation</w>
spo t
micro scopy</w>
C F</w>
ol ina</w>
E sti
AB LE</w>
Virg inia</w>
Cla ims</w>
conform ity</w>
ogen s</w>
For tun
B in
quad r
Tog ether</w>
col on</w>
sh ang
un ite</w>
forec asting</w>
im pressed</w>
dra fting</w>
Re fl
di x</w>
Al z
EL ISA</w>
neg li
P2 P</w>
contin uation</w>
Sol id</w>
organis ations</w>
U C</w>
an di
H ope</w>
infer ior</w>
rejuven ation</w>
P il
met ro
ang es</w>
in finite</w>
hand les</w>
or ph
sacrif ice</w>
kindergar ten</w>
G 1</w>
resum ed</w>
re sistors</w>
C amp
R RC</w>
esoph ageal</w>
ere c
b ps</w>
Wor kers</w>
con v
sc ar</w>
hel ical</w>
Jud ging</w>
M ass</w>
Qu ery</w>
grap her</w>
ne ur</w>
cast le</w>
fl our</w>
out putting</w>
o ids</w>
coag ulation</w>
interpre t</w>
stret ching</w>
Discrimin ation</w>
practic ing</w>
G 2</w>
F 2</w>
fo ster</w>
He fei</w>
dec ode</w>
Yugosla via</w>
at titudes</w>
No .
pseud o</w>
Alumin um</w>
T ower</w>
sym metric</w>
Py thon</w>
ur ges</w>
W TR
pro bl
organ isation</w>
fossi l</w>
induc tive</w>
d ant</w>
conju gate</w>
wor th
lac king</w>
Dong guan</w>
run time</w>
refrac tory</w>
bra ve</w>
No bel</w>
ad dic
for give</w>
TN F</w>
H eng
Sub ject</w>
accumul ate</w>
ob iles</w>
Import ant</w>
epil ep
oul try</w>
epit axial</w>
Ti an</w>
thro at</w>
sol ic
sc and
tif f</w>
8 B</w>
par asi
not ch</w>
merch ant</w>
prag matic</w>
te tr
A zer
S cho
coun tless</w>
un anim
sulfur ic</w>
Pro jects</w>
post er
IC S</w>
re ject</w>
T singhua</w>
He avy</w>
construc ts</w>
p ag
sel s</w>
be ad</w>
K E</w>
bat ches</w>
fore front</w>
dam aging</w>
U tili
Is su
ed oms</w>
Braz ilian</w>
D al
nit rate</w>
9 10</w>
min g
incre mental</w>
rib bon</w>
leuk emia</w>
roc ks</w>
ho c</w>
Av ail
myster ious</w>
D F</w>
vigor ous</w>
sup pose</w>
Au dio</w>
schem a</w>
Sh eng
diversi fication</w>
exha usted</w>
ent ropy</w>
il i</w>
law ful</w>
U M</w>
extru der</w>
Weap ons</w>
sc aff
ri dge</w>
kine tic</w>
fir stly</w>
on able</w>
it an</w>
fl ue</w>
i tis</w>
S end</w>
R ule</w>
7 7
2 64</w>
fle et</w>
Excell ent</w>
incub ation</w>
om y</w>
S chedule</w>
tu bing</w>
air bag</w>
Bl ack
50 5</w>
gl ory</w>
20 9</w>
sh allow</w>
op hy
D ub
light ning</w>
Ug anda</w>
br ush
pre neur</w>
un ilateral</w>
licens ing</w>
flo at</w>
liter acy</w>
irradi ated</w>
teach ings</w>
Ci v
Xi ang</w>
ra ils</w>
2 35</w>
conver tible</w>
mis t</w>
el ite</w>
al isation</w>
bl ind
pre sum
19 78</w>
Tur n</w>
redund ancy</w>
m ad</w>
gar ment</w>
b lower</w>
col oring</w>
bl ended</w>
adi ene</w>
F ar
tr unk</w>
M uch</w>
tri m</w>
Dar fur</w>
slow down</w>
win ners</w>
actu ating</w>
lon ely</w>
S IP</w>
exten sions</w>
O PE
Fun ds</w>
for ums</w>
Bag h
bene ath</w>
Rec ru
oppon ents</w>
1 C</w>
dil ution</w>
RE S</w>
For ms</w>
it a</w>
en a</w>
pe ts</w>
Alz heimer</w>
fa ults</w>
miti gate</w>
Fu el</w>
bad ly</w>
Cor rec
ple tion</w>
hydro ly
pass port</w>
Bud get</w>
occa sionally</w>
80 4</w>
wal let</w>
ass ays</w>
resi li
C lose</w>
convic ted</w>
dro pping</w>
ne ys</w>
5 6
In sul
smart phones</w>
Fortun ately</w>
scul p
be ars</w>
Tai pei</w>
conver ters</w>
t ling</w>
C ere
vill a</w>
psy cho
Her it
remo ves</w>
4 22</w>
internation alization</w>
fi res</w>
appe tite</w>
Lan zhou</w>
Bi ological</w>
dir t</w>
dig estion</w>
OA c</w>
S mo
Fail ure</w>
di ameters</w>
n ull</w>
dres sed</w>
ti ally</w>
ent als</w>
PD CCH</w>
pol lu
categ or
an terior</w>
conju gated</w>
ac knowledge</w>
Gol d
A G</w>
13 00</w>
sun shine</w>
Terror ism</w>
mono clonal</w>
Hen ry</w>
4 60</w>
mir rors</w>
Typ ical</w>
St yle</w>
thre w</w>
2 31</w>
minist ries</w>
F ourier</w>
Re ports</w>
N 1</w>
60 s</w>
oph thal
B ow
gene tically</w>
in tim
trav elling</w>
S anta</w>
che ese</w>
17 4</w>
M W</w>
bedro oms</w>
stri ving</w>
f asc
incub ated</w>
ta to</w>
investig ators</w>
oxid ative</w>
Al ger
Behavi or</w>
ful fil</w>
uc k
em an
po tato</w>
pur ple</w>
l acks</w>
ad dy</w>
met eorological</w>
Le ft</w>
minim izing</w>
Rom an</w>
a .com</w>
cred itor</w>
vend ors</w>
Bel ar
re chargeable</w>
py rid
key word</w>
Speci fication</w>
extru ded</w>
st ock
Herit age</w>
Bab y</w>
Bro ther</w>
4 80</w>
ation ally</w>
Exempl ary</w>
C 4</w>
V III</w>
at orate</w>
Scienti sts</w>
IA EA</w>
ment ality</w>
m asters</w>
v ables</w>
acc ession</w>
h ing
simpl er</w>
tu torial</w>
gen cies</w>
pos al</w>
k iss</w>
el e</w>
minim ized</w>
I O</w>
C L</w>
econom ist</w>
down turn</w>
di li
Car olina</w>
w izard</w>
Liby a</w>
equ als</w>
H us
k ang</w>
Engine er</w>
ul ate</w>
R s</w>
ast ly</w>
fo aming</w>
poly imide</w>
mol ybdenum</w>
fibro sis</w>
dis gu
cy ber
chro me</w>
Un ic
C K</w>
settl ements</w>
Educ ational</w>
scal es</w>
in ts</w>
pi ds</w>
μ g</w>
er o</w>
specim ens</w>
h r</w>
ligh ten
where ver</w>
el le</w>
em ails</w>
ri val</w>
polar izing</w>
G ran
Incre ase</w>
Mo z
N P</w>
C arri
intu itive</w>
isol ate</w>
predic ting</w>
B en</w>
n aked</w>
compl ain</w>
Ag ainst</w>
separ able</w>
pol is</w>
ti um</w>
vit amins</w>
deliber ately</w>
Sol ar</w>
G B
broad ly</w>
cri tics</w>
behavi oral</w>
Azer bai
Guid elines</w>
S ony</w>
fortun ate</w>
1 a</w>
Liber ia</w>
Aut umn</w>
mechan ics</w>
sub regional</w>
lin ear
here by</w>
mater i
am us
19 70s</w>
S IS</w>
yl um</w>
over sight</w>
en sions</w>
hun g</w>
retail ers</w>
me tering</w>
l asts</w>
tic ular</w>
lit er</w>
C K
ome tr
air ports</w>
k ins</w>
dor mit
Moroc co</w>
En sure</w>
M and
expec tedly</w>
oxidi zed</w>
Bul g
ambi tious</w>
K ur
ho ods</w>
un reasonable</w>
par am
off s</w>
cr ank</w>
mil est
crow ded</w>
hun ting</w>
acci dentally</w>
under tak
H ill</w>
300 ,000</w>
4. 4</w>
f illers</w>
no od
presi dency</w>
Ob jec
adju sts</w>
au ce</w>
conveni ently</w>
H .
dest iny</w>
fo g</w>
exam ining</w>
co arse</w>
N one</w>
confi dential</w>
P O</w>
nanot ubes</w>
M ON
ini on</w>
con currently</w>
den oted</w>
Ob servation</w>
feren tially</w>
man dates</w>
Im prove</w>
transi tions</w>
sn ap</w>
ri gor
Cu sto
depen dency</w>
al ongside</w>
av age</w>
bl an
perc ep
Vol k
Cath olic</w>
manifest ations</w>
far mer</w>
tab s</w>
hero es</w>
induc tance</w>
cat ast
A d</w>
arm ing</w>
endor sed</w>
ap e</w>
ur gency</w>
Ji e</w>
shor tened</w>
dro plet</w>
Mo on</w>
ec o</w>
cop ying</w>
an no
accoun table</w>
un de
col orectal</w>
inv ented</w>
through s</w>
feed stock</w>
........ ........
consul tant</w>
seas onal</w>
m useums</w>
Any way</w>
D V
pu rely</w>
MOSF ET</w>
Requ ests</w>
stat utory</w>
batt le
exam inations</w>
Car di
13 7</w>
hap tic</w>
pre dec
sun light</w>
Exper t</w>
Z o
Pub lishing</w>
L ower</w>
re use</w>
uni vers
o grams</w>
H V
re unification</w>
swe et
I rish</w>
Recogn ition</w>
Zh ang
poly olefin</w>
gh ted</w>
r ally</w>
an o
m akeup</w>
le asing</w>
mam mal</w>
pri mi
Z im
FA O</w>
di gi
be aten</w>
commun ist</w>
poly morph
Ning xia</w>
remin der</w>
ud ong</w>
robo tic</w>
Recor ds</w>
squ ares</w>
re mun
m ess</w>
Por t
T enn
win ds</w>
dro be</w>
N BA</w>
198 4</w>
ext ingu
ir ates</w>
h its</w>
key words</w>
B .
ro m
B ah
p ec
inst ant
Re duction</w>
Cham pi
if t</w>
s word</w>
Prosec ut
li ps</w>
exp on
70 6</w>
v ou
en force</w>
60 ,000</w>
p and
audi ences</w>
Gen der</w>
ar ises</w>
Tem plate</w>
b anner</w>
Fashi on</w>
ole fins</w>
A chi
cat ching</w>
myst ery</w>
milit ants</w>
it ories</w>
docum ented</w>
trav els</w>
ic ket</w>
wh ilst</w>
60 8</w>
impl ies</w>
wind ings</w>
F O</w>
P over
Con serv
excell ence</w>
R 5</w>
M AN
down loading</w>
abnorm ality</w>
ke en</w>
bl ending</w>
car d
spokes person</w>
Mexic an</w>
tu ition</w>
hon ored</w>
Pover ty</w>
po i
op tics</w>
f arms</w>
Tes la</w>
ang led</w>
repl en
R GB</w>
Ter minal</w>
SS L</w>
cy ber</w>
ac ter</w>
S F</w>
sw agen</w>
Y un</w>
Mar x</w>
Marx ist</w>
stop per</w>
bud gets</w>
SYST EM</w>
th ful</w>
nutri ent</w>
8 7
fer tility</w>
Re duc
25 4</w>
il a</w>
plat elet</w>
Des cri
swe at</w>
gi an</w>
inter chang
expres ses</w>
De sign
st adium</w>
men ded</w>
g ade</w>
ag u
res em
exp and
autom obiles</w>
In jection</w>
tex ts</w>
Hung ary</w>
Bagh dad</w>
T T</w>
am bassador</w>
Chang chun</w>
defici encies</w>
real izes</w>
b amboo</w>
happ ily</w>
flu idi
l ings</w>
sym metrical</w>
condens ed</w>
lan ded</w>
don ated</w>
cur b</w>
Java Script</w>
scri pts</w>
Cat aly
4 16</w>
ab sent</w>
mor ality</w>
succee ded</w>
Transl ation</w>
forec asts</w>
T um
Ar c
in appropriate</w>
ce ase</w>
12 9</w>
us sels</w>
K an
RA N
HAR Q</w>
Th ous
insi ders</w>
oper a</w>
st ance</w>
Ch el
exer ted</w>
le y
b ao</w>
ce des</w>
phen yl
susp ici
or ly</w>
parasi tic</w>
F it
s wear</w>
v is</w>
6 40</w>
it ating</w>
pl edged</w>
b aff
Con crete</w>
configur able</w>
Set up</w>
insi ghts</w>
re vol
Del ete</w>
Eff iciency</w>
cross linked</w>
lo ops</w>
po tent</w>
pil ots</w>
s log
an ionic</w>
photograph s</w>
path ways</w>
Cre ating</w>
rep aired</w>
R out
8 20</w>
gu ese</w>
N anning</w>
un lock</w>
2 36</w>
S K
Dan i
weak ened</w>
dead ly</w>
Experi ment</w>
mo tive</w>
bri gh
transi tional</w>
pill ars</w>
do x</w>
Hal f</w>
mar ke
pol es</w>
achiev es</w>
ow e</w>
M as
b or</w>
res ection</w>
Egyp tian</w>
st at</w>
reserv ations</w>
en ship</w>
Hot els</w>
N early</w>
posi um</w>
ici ent</w>
Sha res</w>
degrad able</w>
cigaret tes</w>
fre edoms</w>
any ang</w>
bio chemical</w>
facilit ated</w>
inhi bited</w>
P lay
rad icals</w>
in active</w>
exclu de</w>
secre tion</w>
im pulse</w>
Trans formation</w>
trav el
be arer</w>
e -</w>
trac ked</w>
ster ilization</w>
6 a</w>
Al ban
convic tion</w>
W S</w>
p rism</w>
sal aries</w>
Qu ar
Et OAc</w>
E ight</w>
20 30</w>
cros sed</w>
Sh opping</w>
aggre gated</w>
contrac tors</w>
C Q
ven ous</w>
minist erial</w>
Buil d</w>
pal m</w>
Scre en</w>
precipit ated</w>
comp atri
El ement</w>
H om
Associ ated</w>
th um
prosecut ors</w>
ME s</w>
as ylum</w>
N az
dum ping</w>
engine ered</w>
Person nel</w>
ar ized</w>
dele gates</w>
iter ranean</w>
To o</w>
l ingu
astr onau
li pos
ag ram</w>
found ations</w>
la undering</w>
Volk swagen</w>
mat or</w>
lo yal</w>
di al
Pr inc
50 3</w>
S equ
Doc tor</w>
weigh ting</w>
C ai</w>
lapar oscopic</w>
Z ha
Equ ity</w>
resisti vity</w>
g in
Th inking</w>
Net works</w>
In ser
Foc us</w>
6 12</w>
ID E</w>
ob s
se ating</w>
ne on
spon sors</w>
slow ed</w>
T 3</w>
fe eder</w>
bul l</w>
be am
int act</w>
lighten ment</w>
und i</w>
susp end</w>
clari fied</w>
enjoy ment</w>
Ji an</w>
ex clusion</w>
pl asia</w>
spac ecraft</w>
hap pi
Over seas</w>
Li ver
Consum ption</w>
recru it</w>
Cha ir</w>
distribu ting</w>
TEC H
recor der</w>
x en
8 50</w>
char ides</w>
el f</w>
re af
Liber ation</w>
bo ats</w>
J ama
2 .</w>
for warded</w>
induc ing</w>
docum entary</w>
ag ger
mag net
2 90</w>
numer als</w>
con tracted</w>
arbon ate</w>
authentic ity</w>
K yo
17 1</w>
D IM
liv estock</w>
N utri
miti gation</w>
S t</w>
soc cer</w>
gam bling</w>
im al</w>
g em
edi ble</w>
arri ving</w>
70 1</w>
Y ong</w>
Ar tif
P ath
sym metry</w>
pati ence</w>
mi de</w>
Bi ble</w>
p es
invo ice</w>
R ub
UNF PA</w>
S aint</w>
cat s</w>
later ally</w>
obser ving</w>
sem antic</w>
qu et</w>
them atic</w>
Le ading</w>
wish ed</w>
biom ar
198 2</w>
custom ize</w>
interfer ing</w>
Compon ents</w>
feat ured</w>
K itch
in consistent</w>
IC C</w>
p se</w>
fibr ill
an xious</w>
ob structive</w>
Bas in</w>
D ing</w>
IC T</w>
M .</w>
Impro ving</w>
snap shot</w>
pre jud
el ap
E asy</w>
Dev el
as pi
4 b</w>
gener ous</w>
h itting</w>
be ating</w>
fabr icating</w>
hor ses</w>
Recom mend
W O
in version</w>
at or
Ac qui
re wards</w>
Musli ms</w>
ch op
ac tic</w>
1. 9</w>
th es
G 20</w>
tak e
shor test</w>
rec k
Th rough
ampli fiers</w>
Announ cement</w>
M O</w>
6 9
bel ts</w>
ann ers</w>
mon oxide</w>
pe ers</w>
Gu aran
em ption</w>
J intao</w>
won dering</w>
fant astic</w>
Jack son</w>
undertak ings</w>
alk ylene</w>
gg er</w>
Cl ass
dilu ent</w>
ug ly</w>
Dub ai</w>
tre ad</w>
Cul tiv
Bo b</w>
oper atives</w>
Lo g</w>
mod al</w>
in ject</w>
dupl icate</w>
v as
Re porting</w>
cultiv ating</w>
pul sed</w>
practic ed</w>
keep er</w>
Im proved</w>
dis car
Ste ve</w>
solid arity</w>
Br ussels</w>
Angol a</w>
ver ages</w>
pre amble</w>
op aque</w>
em ent
C RC</w>
j unc
li que
p oultry</w>
plac e
represent ations</w>
otechn ology</w>
tri ps</w>
re ty</w>
fer rous</w>
dis connected</w>
m ou
S am</w>
O s
bro ker
Je ws</w>
A qu
t .
susp icious</w>
ap point</w>
pro of
per sist</w>
liber alization</w>
gi ous</w>
plas mid</w>
Promot ing</w>
e ased</w>
administr ators</w>
w etting</w>
en tic</w>
sec ret
Portu guese</w>
gal van
cl am
A part</w>
Cop y</w>
liber al</w>
comm ented</w>
ace ous</w>
lu g</w>
TC M</w>
v s.</w>
num eral</w>
w ai
to k
loc alized</w>
D e</w>
Mer ch
norm alized</w>
sc ans</w>
v om
L is
ad o
Sa har
encapsul ation</w>
c attle</w>
seam less</w>
boo king</w>
T ro
p aper
shut tle</w>
dispers ing</w>
6. 1</w>
t ably</w>
d ges</w>
constitu ents</w>
ter ning</w>
Wal es</w>
clim bing</w>
Enter tainment</w>
D an</w>
w all
O P
assum es</w>
mic ron</w>
iod ine</w>
recru ited</w>
Artif icial</w>
ci de</w>
aband on</w>
WTR U</w>
Dis ney</w>
C off
Co sta</w>
ver ies</w>
S L</w>
brow se</w>
deci ding</w>
meth ylene</w>
pal ace</w>
ethyl en
0 C</w>
k ok</w>
rec r
Bal ance</w>
trav eled</w>
symp tom</w>
sub frames</w>
anti gens</w>
expi red</w>
Rec alling</w>
bun ch</w>
deb tor</w>
trans genic</w>
cycl ing</w>
Mer cedes</w>
d ll</w>
Ar chi
dest inations</w>
wo ol</w>
lic ence</w>
contamin ants</w>
exhi bitions</w>
T R</w>
he al</w>
contrac tual</w>
3 32</w>
on ds</w>
enz ym
Tur ning</w>
therap ies</w>
re m
bid den</w>
oti d</w>
Mari time</w>
buil ds</w>
off ences</w>
multiplex er</w>
benef ited</w>
Applic able</w>
Pre ci
T ig
ex agger
Acc eler
Invest ors</w>
re perfusion</w>
groun ding</w>
et e
loc alities</w>
P reli
shel ter</w>
under stands</w>
exer t</w>
j a</w>
Willi ams</w>
H ao</w>
fat al</w>
omet ri
I sol
H air
8 ,000</w>
antibio tic</w>
ed ited</w>
reduc tions</w>
break throughs</w>
side walls</w>
occup ying</w>
Med iterranean</w>
comp ilation</w>
Sil ver</w>
Preli min
cook ies</w>
p ap
ro sis</w>
Spi rit</w>
n ish</w>
cri ed</w>
quar terly</w>
super visory</w>
br akes</w>
che str
pu ties</w>
tal ented</w>
kno ck</w>
Petro leum</w>
lec tures</w>
ac es</w>
wr ong
on in</w>
can al</w>
quot e</w>
adjuv ant</w>
MP EG</w>
3 21</w>
ch en</w>
ath ers</w>
vi brations</w>
Em bassy</w>
UNID O</w>
telecommun ication</w>
r is</w>
R ing</w>
6. 2</w>
extern ally</w>
st ably</w>
parliam entary</w>
lum bar</w>
Struc tural</w>
s cap
G ong</w>
en code</w>
defin ite</w>
oc e
mo reover</w>
doc toral</w>
vo y</w>
Statis tical</w>
f on
b ite</w>
excep tional</w>
Of ten</w>
Set ting</w>
c eas
S elec
repeti tion</w>
25 5</w>
co oked</w>
Grad u
analy se</w>
bit ter</w>
m ad
sur round</w>
f th</w>
po ols</w>
in dium</w>
an dum</w>
sal es
P .</w>
polysac charide</w>
Rom ania</w>
St age</w>
bic y
imp aired</w>
Dru gs</w>
shang hai</w>
S ev
em bassy</w>
conven ed</w>
equ itable</w>
my el
P K
civ il
Liver pool</w>
borrow ed</w>
u ted</w>
incorpor ation</w>
grou ping</w>
hi sto
standardi ze</w>
Hy bri
Q atar</w>
[...]
