#version: 0.2
可 以</w>
一 个</w>
我 们</w>
所 述</w>
2 0
包 括</w>
通 过</w>
使 用</w>
进 行</w>
系 统</w>
方 法</w>
实 施</w>
提 供</w>
0 0</w>
他 们</w>
根 据</w>
具 有</w>
1 0</w>
如 果</w>
问 题</w>
用 于</w>
例 如</w>
发 明</w>
部 分</w>
没 有</w>
数 据</w>
可 能</w>
公 司</w>
本 发明</w>
要 求</w>
装 置</w>
这 些</w>
以 及</w>
设 备</w>
工 作</w>
研 究</w>
1 0
一 种</w>
发 展</w>
信 息</w>
需 要</w>
其 中</w>
中 国</w>
时 间</w>
第 一</w>
并 且</w>
情 况</w>
控 制</w>
技 术</w>
方 式</w>
国 家</w>
其 他</w>
之 间</w>
一 些</w>
2 0</w>
第 二</w>
什 么</w>
处 理</w>
这 个</w>
因 此</w>
1 2</w>
方 面</w>
所 有</w>
作 为</w>
影 响</w>
权 利</w>
因 为</w>
信 号</w>
已 经</w>
形 成</w>
分 析</w>
任 何</w>
不 同</w>
合 物</w>
自 己</w>
20 1
材 料</w>
但 是</w>
多 个</w>
结 构</w>
服 务</w>
显 示</w>
用 户</w>
选 择</w>
能 够</w>
表 示</w>
经 济</w>
20 0
应 用</w>
方 案</w>
企 业</w>
重 要</w>
单 元</w>
管 理</w>
连 接</w>
知 道</w>
美 国</w>
组 织</w>
这 种</w>
政 府</w>
1 9
实 现</w>
至 少</w>
不 是</w>
基 于</w>
区 域</w>
执 行</w>
位 置</w>
产 品</w>
3 0</w>
安 全</w>
主 要</w>
确 定</w>
过 程</w>
这 样</w>
设 计</w>
市 场</w>
表 面</w>
操 作</w>
现 在</w>
产 生</w>
. .
认 为</w>
必 须</w>
或 者</w>
开 始</w>
1 1</w>
两 个</w>
网 络</w>
组 合</w>
0 .
程 序</w>
存 在</w>
对 于</w>
图 像</w>
获 得</w>
步 骤</w>
然 后</w>
社 会</w>
5 0</w>
每 个</w>
国 际</w>
相 关</w>
由 于</w>
项 目</w>
结 果</w>
支 持</w>
关 于</w>
设 置</w>
同 时</w>
人 员</w>
优 选</w>
增 加</w>
机 构</w>
包 含</w>
功 能</w>
发 生</w>
特 别</w>
细 胞</w>
活 动</w>
例 中</w>
所 示</w>
报 告</w>
世 界</w>
检 测</w>
作 用</w>
一 步</w>
关 系</w>
提 高</w>
治 疗</w>
有 关</w>
控 制
目 标</w>
配 置</w>
环 境</w>
1 4</w>
范 围</w>
就 是</w>
移 动</w>
成 为</w>
会 议</w>
内 容</w>
它 们</w>
特 征</w>
委 员
i n
委员 会</w>
数 据
计 划</w>
模 式</w>
文 件</w>
得 到</w>
接 收</w>
目 的</w>
状 态</w>
非 常</w>
能 力</w>
1 5</w>
利 用</w>
为 了</w>
时 候</w>
这 是</w>
1 00</w>
电 路</w>
通 信</w>
变 化</w>
中 心</w>
领 域</w>
进 一步</w>
服 务
描 述</w>
输 入</w>
所 以</w>
水 平</w>
发 现</w>
1 6</w>
应 该</w>
.. .</w>
有 效</w>
如 何</w>
4 0</w>
输 出</w>
感 器</w>
元 件</w>
保 护</w>
不 能</w>
不 会</w>
希 望</w>
e r
反 应</w>
提 出</w>
1 2
资 源</w>
质 量</w>
患 者</w>
生 活</w>
温 度</w>
地 区</w>
传 感器</w>
方 向</w>
安 装</w>
相 对</w>
投 资</w>
条 件</w>
类 型</w>
建 立</w>
通 常</w>
正 在</w>
示 例</w>
保 持</w>
是 否</w>
来 自</w>
许 多</w>
此 外</w>
说 明</w>
合 作</w>
之 后</w>
3 0
计 算</w>
生 产</w>
存 储</w>
计 算
教 育</w>
标 准</w>
联 合
本 文</w>
目 前</w>
政 策</w>
从 而</w>
改 变</w>
之 前</w>
1 8</w>
测 量</w>
1 3</w>
5 0
一 次</w>
采 用</w>
期 间</w>
各 种</w>
模 型</w>
上 述</w>
帮 助</w>
电 压</w>
模 块</w>
1 .
压 力</w>
出 现</w>
而 且</w>
以 下</w>
建 设</w>
其 它</w>
完 成</w>
很 多</w>
风 险</w>
相 同</w>
一 起</w>
化 合物</w>
继 续</w>
存 储
比 较</w>
6 0</w>
导 致</w>
看 到</w>
减 少</w>
a n
学 生</w>
涉 及</w>
银 行</w>
电 极</w>
解 决</w>
之 一</w>
决 定</w>
降 低</w>
e r</w>
基 础</w>
然 而</w>
直 接</w>
2 2</w>
另 外</w>
这 里</w>
金 属</w>
结 合</w>
规 定</w>
允 许</w>
主 义</w>
建 议</w>
地 方</w>
空 间</w>
实 施
第 二
部 件</w>
部 门</w>
成 本</w>
测 试</w>
在 于</w>
最 大</w>
形 式</w>
实施 方案</w>
考 虑</w>
全 球</w>
价 格</w>
组 件</w>
文 化</w>
性 能</w>
a r
及 其</w>
增 长</w>
管 理
大 学</w>
运 动</w>
代 表</w>
行 为</w>
使 得</w>
城 市</w>
来 说</w>
服务 器</w>
美 元</w>
2 4</w>
制 造</w>
1 3
孩 子</w>
记 录</w>
驱 动</w>
示 出</w>
告 诉</w>
氧 化
电 子
一 项</w>
行 业</w>
学 习</w>
联合 国</w>
小 时</w>
速 度</w>
关 键
电 池</w>
确 保</w>
那 么</w>
文 章</w>
2 5</w>
人 们</w>
汽 车</w>
了 解</w>
一 直</w>
消 息</w>
2 1</w>
特 定</w>
接 受</w>
运 行</w>
进 入</w>
我 国</w>
处 理
超 过</w>
努 力</w>
4 0
行 动</w>
业 务</w>
动 机</w>
措 施</w>
最 后</w>
具 体</w>
一 定</w>
以 上</w>
表 明</w>
参 数</w>
原 因</w>
注 意</w>
需 求</w>
因 素</w>
还 是</w>
开 发</w>
1 5
工 作
19 9
促 进</w>
价 值</w>
r o
工 具</w>
如 图</w>
对 象</w>
未 来</w>
内 部</w>
健 康</w>
客 户</w>
完 全</w>
持 续</w>
基 本</w>
加 强</w>
公 开</w>
喜 欢</w>
尽 管</w>
o r
发 送</w>
针 对</w>
限 制</w>
位 于</w>
法 律</w>
接 触</w>
事 件</w>
生 物</w>
无 法</w>
资 产</w>
应 用
a t
一 部分</w>
随 着</w>
访 问</w>
1 7</w>
事 情</w>
一 样</w>
调 整</w>
起 来</w>
第 一
传 输</w>
整 个</w>
车 辆</w>
计算 机</w>
1 8
e n
控制 器</w>
2 .
检 查</w>
o n
软 件</w>
20 0</w>
今 天</w>
达 到</w>
0 0
任 务</w>
生 成</w>
只 是</w>
某 些</w>
以 便</w>
稳 定</w>
协 议</w>
定 义</w>
虽 然</w>
参 考</w>
按 照</w>
游 戏</w>
i c
效 果</w>
成 功</w>
功 率</w>
数 量</w>
传 统</w>
评 估</w>
电 话</w>
调 查</w>
理 论</w>
这 一</w>
创 建</w>
聚 合物</w>
1 4
旋 转</w>
数 字</w>
摘 要</w>
以 来</w>
分 别</w>
当 前</w>
电 流</w>
存储 器</w>
视 频</w>
讨 论</w>
只 有</w>
请 求</w>
机 会</w>
固 定</w>
朋 友</w>
容 器</w>
东 西</w>
简 单</w>
应用 程序</w>
甚 至</w>
儿 童</w>
介 绍</w>
o n</w>
那 些</w>
平 台</w>
机 制</w>
意 义</w>
添 加</w>
拥 有</w>
分 配</w>
改 善</w>
实 际</w>
自 动</w>
改 革</w>
媒 体</w>
关键 词</w>
特 性</w>
理 解</w>
7 0</w>
过 去</w>
程 度</w>
电 子</w>
政 治</w>
气 体</w>
交 易</w>
1 6
制 度</w>
受 到</w>
体 系</w>
还 有</w>
阶 段</w>
经 济
加 入</w>
对 应</w>
1 9</w>
容 易</w>
导 体</w>
为 什么</w>
识 别</w>
3 2</w>
诸 如</w>
仍 然</w>
指 示</w>
参 与</w>
空 气</w>
三 个</w>
溶 液</w>
分 钟</w>
个 人</w>
采 取</w>
北 京</w>
历 史</w>
人 民</w>
相 应</w>
创 新</w>
构 成</w>
2 6</w>
尺 寸</w>
混 合物</w>
收 入</w>
表 达</w>
制 备</w>
类 似</w>
资 金</w>
工 程</w>
先 生</w>
造 成</w>
节 点</w>
药 物</w>
准 备</w>
频 率</w>
效 率</w>
处理 器</w>
找 到</w>
参 加</w>
记 者</w>
8 0</w>
关 联</w>
指 出</w>
成 员</w>
外 部</w>
2 3</w>
怎 么</w>
流 体</w>
更 好</w>
适 当</w>
发 动机</w>
学 校</w>
你 们</w>
系 列</w>
实 例</w>
一 般</w>
活 性</w>
基 金</w>
最 终</w>
距 离</w>
单 位</w>
尤 其</w>
处 于</w>
地 址</w>
多 数</w>
分 子</w>
树 脂</w>
开 关</w>
人 民
首 先</w>
物 质</w>
结 束</w>
组 成</w>
设 施</w>
比 赛</w>
疾 病</w>
2 8</w>
最 好</w>
责 任</w>
战 略</w>
5 %</w>
家 庭</w>
0 00</w>
带 来</w>
分 离</w>
预 测</w>
构 件</w>
独 立</w>
a c
不 断</w>
网 站</w>
混 合</w>
指 定</w>
适 用</w>
观 察</w>
取 得</w>
有 限
今 年</w>
评 价</w>
专 业</w>
严 重</w>
响 应</w>
大 约</w>
r e
蛋 白</w>
试 验</w>
更 新</w>
通 道</w>
探 讨</w>
举 行</w>
算 法</w>
快 速</w>
产 业</w>
形 状</w>
和 平</w>
s t
觉 得</w>
显 示
介 质</w>
正 常</w>
明 显</w>
3 1</w>
关 注</w>
不 要</w>
更 加</w>
日 本</w>
临 床</w>
引 起</w>
大 量</w>
强 度</w>
颗 粒</w>
多 种</w>
a l
- -</w>
妇 女</w>
转 换</w>
0 %</w>
防 止</w>
调 节</w>
社 会
一 点</w>
满 足</w>
安 全
视 图</w>
规 模</w>
接 口</w>
m m</w>
重 量</w>
含 有</w>
3 .
事 会</w>
同 样</w>
序 列</w>
必 要</w>
代 码</w>
的 话</w>
科 学</w>
联 系</w>
销 售</w>
国 际
第 三</w>
终 端</w>
一 下</w>
总 统</w>
现 有</w>
打 开</w>
人 类</w>
中 国
基 本
增 强</w>
贸 易</w>
即 使</w>
不 仅</w>
有 人</w>
真 的</w>
技 术
浓 度</w>
框 架</w>
规 则</w>
良 好</w>
动 器</w>
长 度</w>
错 误</w>
背 景</w>
大 家</w>
另 一
动 力</w>
正 确</w>
英 国</w>
工 业</w>
解 决
出 口</w>
数据 库</w>
下 降</w>
最 近</w>
重 新</w>
手 机</w>
开 展</w>
而 言</w>
像 素</w>
除 了</w>
大 会</w>
加 热</w>
费 用</w>
表 现</w>
连 续</w>
1 7
启 动</w>
i t
工 艺</w>
优 化</w>
平 均</w>
相 信</w>
液 体</w>
一 切</w>
1 10</w>
第 三
研 究
应 当</w>
几 个</w>
大 多数</w>
发 布</w>
经 验</w>
如 此</w>
全 面</w>
共 同</w>
金 融
称 为</w>
联 网</w>
延 伸</w>
保 证</w>
全 国</w>
半 导体</w>
纤 维</w>
基 因</w>
集 团</w>
电 源</w>
真 正</w>
无 线</w>
无 线
恢 复</w>
信 息
改 进</w>
避 免</w>
利 亚</w>
自 由</w>
实 验</w>
5 00</w>
知 识</w>
决 议</w>
世 界
编 码</w>
想 要</w>
国 内</w>
离 子</w>
意 味
化 剂</w>
有 机</w>
越 来
适 合</w>
解 释</w>
e l
消 费
o o
一 名</w>
支 撑</w>
1 20</w>
购 买</w>
广 泛</w>
定 位</w>
路 径</w>
报 道</w>
相 比</w>
意味 着</w>
预 定</w>
支 付</w>
变 得</w>
3 00</w>
下 来</w>
下 面</w>
积 极</w>
施 加</w>
有限 公司</w>
认 识</w>
通 知</w>
长 期</w>
动 物</w>
结 论</w>
语 言</w>
出 来</w>
名 称</w>
详 细</w>
投 资
欧 洲</w>
推 动</w>
几 乎</w>
越来 越</w>
证 明</w>
医 院</w>
9 0</w>
厚 度</w>
标 记</w>
收 集</w>
策 略</w>
资 本</w>
角 度</w>
状 况</w>
停 止</w>
培 训</w>
能 量</w>
秘 书
那 里</w>
合 适</w>
制 定</w>
循 环</w>
N A</w>
分 布</w>
l e</w>
经 过</w>
含 量</w>
布 置</w>
电 视</w>
金 融</w>
学 院</w>
获 取</w>
器 件</w>
3 4</w>
当 然</w>
4 .
智 能</w>
高 度</w>
o w
俄 罗
主 席</w>
命 令</w>
差 异</w>
共 和
这 么</w>
定 性</w>
足 够</w>
感 到</w>
光 学</w>
助 于</w>
感 觉</w>
样 品</w>
病 毒</w>
专 家</w>
诊 断</w>
颜 色</w>
信 道</w>
实 际
10 2</w>
0. 0
提 升</w>
重 点</w>
2 7</w>
元 素</w>
生 产
不 过</w>
综 合</w>
比 例</w>
基 板</w>
溶 剂</w>
显 著</w>
一 位</w>
电 影</w>
办 法</w>
挑 战</w>
最 佳</w>
利 益</w>
两 种</w>
3 5</w>
客 户
离 开</w>
能 源</w>
修 改</w>
大 小</w>
开 放</w>
申 请</w>
联 合</w>
全 部</w>
核 心</w>
精 神</w>
小 于</w>
4 2</w>
列 表</w>
原 则</w>
负 责</w>
周 期</w>
发 展
发 光</w>
经 营</w>
很 大</w>
化 学</w>
连 接
公 约</w>
传 送</w>
资 料</w>
导 电</w>
一 天</w>
提 交</w>
关 闭</w>
面 临</w>
合 同</w>
构 造</w>
网 络
监 测</w>
转 移</w>
人 权</w>
科 技</w>
大 于</w>
社 区</w>
领 导</w>
才 能</w>
版 本</w>
估 计</w>
测 定</w>
3 6</w>
冷 却</w>
意 见</w>
加 工</w>
催 化剂</w>
互 联网</w>
主 体</w>
维 护</w>
机 械</w>
i n</w>
复 杂</w>
函 数</w>
随 后</w>
品 牌</w>
再 次</w>
武 器</w>
进 程</w>
燃 料</w>
晶 体
例 子</w>
做 出</w>
关 键</w>
面 积</w>
I D</w>
经 由</w>
5 .
流 动</w>
电 机</w>
团 队</w>
a s
供 应</w>
免 费</w>
维 持</w>
解决 方案</w>
法 院</w>
属 性</w>
成 分</w>
强 调</w>
酒 店</w>
特 点</w>
6 0
发 射</w>
确 认</w>
规 划</w>
理 事会</w>
欢 迎</w>
作 出</w>
人 口</w>
意 识</w>
如 下</w>
俄罗 斯</w>
壳 体</w>
发 挥</w>
释 放</w>
操 作
201 6</w>
优 势</w>
L E
唯 一</w>
一 年</w>
实际 上</w>
那 个</w>
天 线</w>
消费 者</w>
验 证</w>
符 合</w>
201 7</w>
办 公
搜 索</w>
似 乎</w>
交 流</w>
设 定</w>
主 题</w>
插 入</w>
员 工</w>
中 央</w>
附 近</w>
竞 争</w>
旅 游</w>
抑 制</w>
进 展</w>
那 样</w>
用 作</w>
创 造</w>
限 于</w>
已 知</w>
医 生</w>
期 望</w>
边 缘</w>
趋 势</w>
斯 坦</w>
覆 盖</w>
晶体 管</w>
领 导
预 期</w>
指 标</w>
e t
供 应
实 践</w>
不 到</w>
5 2</w>
a m
4 5</w>
冲 突</w>
o u
低 于</w>
邮 件</w>
官 员</w>
平 衡</w>
协 调</w>
培 养</w>
安 排</w>
贷 款</w>
单 独</w>
世 纪</w>
20 00</w>
去 年</w>
最 高</w>
返 回</w>
时 代</w>
学 家</w>
r i
农 业</w>
重 大</w>
有 助于</w>
代 表
损 失</w>
手 术</w>
由 此</w>
201 5</w>
之 外</w>
载 体</w>
指 令</w>
干 燥</w>
公 共</w>
构 建</w>
玻 璃</w>
课 程</w>
经 常</w>
动 态</w>
面 板</w>
2 9</w>
充 分</w>
扫 描</w>
当 地</w>
思 想</w>
消 除</w>
上 海</w>
医 疗</w>
a n</w>
in d
香 港</w>
有 些</w>
承 诺</w>
新 闻</w>
相 关联</w>
商 业</w>
一 致</w>
引 导</w>
决 于</w>
整 体</w>
取 决于</w>
市 场
保 障</w>
困 难</w>
直 到</w>
工 程
201 8</w>
各 个</w>
补 充</w>
4 00</w>
照 片</w>
每 天</w>
兴 趣</w>
耦 合</w>
扩 大</w>
现 代</w>
预 计</w>
危 机</w>
l e
物 理</w>
试 图</w>
3 3</w>
接 收
6 .
特 殊</w>
推 进</w>
死 亡</w>
植 物</w>
投资 者</w>
电 力</w>
一 份</w>
平 面</w>
屏 幕</w>
8 0
换 器</w>
当 时</w>
开 口</w>
建 筑</w>
下 载</w>
具 体
正 式</w>
明 确</w>
巨 大</w>
食 品</w>
危 险</w>
身 体</w>
成 立</w>
基本 上</w>
教 学</w>
清 楚</w>
密 封</w>
多 少</w>
匹 配</w>
小 组</w>
感 染</w>
合 成</w>
密 度</w>
开 发
可 用</w>
故 障</w>
注 册</w>
模 拟</w>
以 前</w>
女 性</w>
另一 方面</w>
A P
显示 器</w>
而 是</w>
200 8</w>
自 然</w>
适 应</w>
用 来</w>
只 要</w>
一 系列</w>
合 理</w>
逻 辑</w>
同 意</w>
3 8</w>
制 造
链 路</w>
性 质</w>
传 递</w>
总 是</w>
肿 瘤</w>
联 盟</w>
第 一个</w>
一 家</w>
4 4</w>
万 元</w>
四 个</w>
抗 体</w>
20 10</w>
共 享</w>
声 音</w>
删 除</w>
衬 底</w>
10 4</w>
战 争</w>
尝 试</w>
P C
坚 持</w>
也 许</w>
审 查</w>
保 险</w>
概 念</w>
货 币</w>
指 数</w>
属 于</w>
故 事</w>
1 50</w>
压 缩</w>
援 助</w>
蛋 白
c h
成 果</w>
氧 化</w>
我 会</w>
扩 展</w>
印 度</w>
阵 列</w>
人 士</w>
各 国</w>
201 4</w>
固 体</w>
接 近</w>
参 照</w>
产 物</w>
地 位</w>
非 洲</w>
电 脑</w>
提 取</w>
同 步</w>
威 胁</w>
力 量</w>
吸 收</w>
音 乐</w>
机 器</w>
单 击</w>
切 换</w>
流 量</w>
充 电</w>
i s
宣 布</w>
环 境
利 率</w>
是 因为</w>
彼 此</w>
仅 仅</w>
现 场</w>
展 示</w>
这 项</w>
常 规</w>
I n
经 历</w>
c o
批 准</w>
以 后</w>
英 语</w>
组 分</w>
端 口</w>
发 送
以 色
成 像</w>
共和 国</w>
直 径</w>
在 线</w>
看 看</w>
典 型</w>
交 换</w>
辅 助</w>
农 村</w>
生 命</w>
左 右</w>
宽 度</w>
7 .
办公 室</w>
按 钮</w>
格 式</w>
音 频</w>
制 剂</w>
界 面</w>
指 导</w>
过 滤</w>
标 签</w>
减 小</w>
10 0
线 性</w>
2 5
间 隔</w>
老 师</w>
亿 美元</w>
速 率</w>
运 输</w>
土 地</w>
比 如</w>
年 来</w>
秘书 长</w>
基 础
来 源</w>
LE D</w>
预 算</w>
收 到</w>
最 新</w>
i l
重 复</w>
4 1</w>
单 个</w>
替 代</w>
反 映</w>
薄 膜</w>
e s
预 防</w>
硬 件</w>
脉 冲</w>
大 部分</w>
氧化 物</w>
德 国</w>
中 间</w>
飞 机</w>
部 署</w>
制 成</w>
ind ow
国 家
污 染</w>
食 物</w>
因 子</w>
上 升</w>
艺 术</w>
以色 列</w>
芯 片</w>
客户 端</w>
广 告</w>
选 项</w>
公 共
道 路</w>
合 金</w>
本 身</w>
涂 层</w>
负 载</w>
额 外</w>
一 旦</w>
贡 献</w>
相 反</w>
4 8</w>
第 一次</w>
部 队</w>
实 体</w>
高 于</w>
多 年</w>
1 30</w>
测 器</w>
声 明</w>
R A
拉 克</w>
C P
20 12</w>
效 应</w>
indow s</w>
术 语</w>
能 性</w>
消 费</w>
缔 约
O S</w>
鼓 励</w>
每 年</w>
o l
图 案</w>
选 择
生 长</w>
担 心</w>
规 范</w>
护 理</w>
现 象</w>
完 善</w>
附 图</w>
附 加</w>
a g
a l</w>
伙 伴</w>
W e
引 入</w>
201 1</w>
反 应
结 构
法 国</w>
旨 在</w>
阈 值</w>
收 益</w>
透 镜</w>
制 作</w>
打 印</w>
工作 人员</w>
月 份</w>
监 管</w>
结 果
示 意
查 看</w>
激 光</w>
6 2</w>
等 于</w>
基 站</w>
W indows</w>
百 分
t i
时 期</w>
原 子</w>
乙 烯</w>
行 政</w>
7 0
给 予</w>
远 程</w>
迅 速</w>
日 期</w>
保 留</w>
200 9</w>
透 明</w>
商 品</w>
动 作</w>
201 3</w>
民 族</w>
分 析
监 督</w>
犯 罪</w>
e s</w>
十 年</w>
连接 器</w>
生 物
稳 定性</w>
传 播</w>
取 代</w>
训 练</w>
体 积</w>
肯 定</w>
一 条</w>
200 7</w>
融 资</w>
分 组</w>
m g</w>
集 中</w>
驱 动器</w>
美 国
p p
到 达</w>
不 可</w>
供 给</w>
实 验
6 4</w>
系 数</w>
依 据</w>
化 学
年 度</w>
4 6</w>
窗 口</w>
辐 射</w>
上 所述</w>
保 存</w>
建 筑
房 间</w>
自 身</w>
统 计</w>
事 务</w>
发 表</w>
流 程</w>
上 面</w>
尼 亚</w>
不 再</w>
咨 询</w>
他 人</w>
文 档</w>
S t
文 件
端 子</w>
草 案</w>
双 方</w>
寻 找</w>
计算 机
周 围</w>
这 次</w>
5 1</w>
我 要</w>
齿 轮</w>
合 并</w>
父 母</w>
使 用
永 远</w>
有 利</w>
保 险
破 坏</w>
200 5</w>
突 出</w>
优 点</w>
8 .
谈 判</w>
纳 米</w>
统 一</w>
愿 意</w>
选 举</w>
完 整</w>
股 票</w>
页 面</w>
剂 量</w>
地 产</w>
来 看</w>
包 装</w>
血 管</w>
认 证</w>
立 即</w>
确 实</w>
较 大</w>
限 定</w>
聚 合</w>
交 易
意 思</w>
职 业</w>
妈 妈</w>
u r
普 通</w>
如 上所述</w>
应 对</w>
查 询</w>
竞 争
将 会</w>
分 类</w>
m l</w>
相 机</w>
5 4</w>
I P</w>
a v
沿 着</w>
清 洁</w>
曲 线</w>
恐 怖
现 实</w>
线 圈</w>
5 5</w>
大 型</w>
警 察</w>
只 能</w>
沉 积</w>
星 期
皮 肤</w>
拒 绝</w>
集 成</w>
缺 乏</w>
方 便</w>
200 6</w>
晚 上</w>
t h
给 出</w>
高 级</w>
I I</w>
手 段</w>
统 计
虚 拟</w>
经 理</w>
波 器</w>
10 6</w>
令 人</w>
角 色</w>
事 实</w>
发 生
卫 生</w>
运 用</w>
发 出</w>
不 想</w>
任 意</w>
神 经
蛋白 质</w>
9 .
机 器
M S</w>
D C</w>
3 7</w>
监 控</w>
其 实</w>
亿 元</w>
跟 踪</w>
深 度</w>
6 5</w>
判 断</w>
弹 性</w>
5 6</w>
高 兴</w>
反 射</w>
供应 商</w>
原 理</w>
制 品</w>
本 地</w>
协 会</w>
er v
接 合</w>
节 目</w>
e t</w>
图 片</w>
保 护
7 5</w>
P S</w>
分 享</w>
管 道</w>
C O
遇 到</w>
交 通</w>
准 确</w>
承 认</w>
阅 读</w>
放 在</w>
授 权</w>
决 策</w>
就 业</w>
居 民</w>
升 级</w>
A C</w>
反 馈</w>
e c
截 面</w>
更 改</w>
利 润</w>
10 00</w>
相 当</w>
系 统
合 剂</w>
发 行</w>
I S
绿 色</w>
丰 富</w>
放 置</w>
外 壳</w>
商 业
名 字</w>
伊 拉克</w>
电 阻</w>
下 文</w>
员 国</w>
体 验</w>
看 起来</w>
可 靠</w>
1 %</w>
U E</w>
论 坛</w>
滤 波器</w>
事 实
女 孩</w>
两 年</w>
机器 人</w>
垂 直</w>
分 散</w>
有 限</w>
哪 里</w>
编 辑</w>
领导 人</w>
潜 在</w>
令 人
A C
补 偿</w>
观 点</w>
新 型</w>
10 1</w>
容 量</w>
一 场</w>
19 8
想 法</w>
7 2</w>
i d</w>
e l</w>
等 等</w>
文 本</w>
照 明</w>
个 月</w>
亚 洲</w>
强 大</w>
证 据</w>
纤 维
有 时</w>
激 活</w>
阿 拉
产 品
离 子
a d
6 00</w>
变 成</w>
欧 盟</w>
D NA</w>
最 小</w>
n m</w>
首 次</w>
失 败</w>
面 对</w>
详 细
P C</w>
免 疫</w>
代表 团</w>
父 亲</w>
编 程</w>
几 年</w>
小 区</w>
自 动
代 理</w>
债 务</w>
带 有</w>
澳 大
链 接</w>
延 迟</w>
回 到</w>
公 众</w>
读 取</w>
S C
财 务</w>
干 扰</w>
禁 止</w>
印 刷</w>
缓 冲
股 份</w>
相 互
障 碍</w>
教 师</w>
重 要
A n
别 人</w>
年 龄</w>
数 字
葡 萄
电 缆</w>
一 件</w>
此 类</w>
社会 主义</w>
探 索</w>
各 地</w>
技术 人员</w>
200 4</w>
搅 拌</w>
4 3</w>
吸 引</w>
感 谢</w>
评 论</w>
审 议</w>
围 绕</w>
机 场</w>
射 器</w>
私 人</w>
均 匀</w>
200 3</w>
in g</w>
发展 中
发展中 国家</w>
缺 陷</w>
群 众</w>
部 长</w>
塑 料</w>
扩 散</w>
军 事</w>
无 论</w>
回 答</w>
锁 定</w>
弹 簧</w>
及 时</w>
变 形</w>
台 湾</w>
随 机</w>
m a
怎 么
信 号
- -
分 为</w>
金 属
绝 缘</w>
身 份</w>
失 去</w>
控制 系统</w>
滤 器</w>
成 长</w>
转 变</w>
重 视</w>
相 互</w>
结果 表明</w>
理 想</w>
1 12</w>
可 能性</w>
1 40</w>
振 动</w>
施 工</w>
变 量</w>
固 化</w>
粒 子</w>
太 阳
P D
不 足</w>
电 容器</w>
样 本</w>
房 地产</w>
光 源</w>
作 品</w>
对 话</w>
栅 极</w>
卫 生
母 亲</w>
审 计</w>
S T
寻 求</w>
袭 击</w>
2 10</w>
甲 基</w>
基础 设施</w>
底 部</w>
填 充</w>
总 结</w>
极 管</w>
烷 基</w>
治 理</w>
技 能</w>
聚 物</w>
下 午</w>
早 期</w>
总 体</w>
转 化</w>
C A
设 立</w>
电子 邮件</w>
流 程
年 代</w>
当 局</w>
石 油</w>
民 主
流程 图</w>
有 用</w>
进 步</w>
生 态</w>
反 对</w>
提 到</w>
人 才</w>
图 形</w>
人民 币</w>
安全 性</w>
噪 声</w>
义 务</w>
二 极管</w>
波 长</w>
过 滤器</w>
专 利</w>
利 于</w>
粘 合剂</w>
投 入</w>
回 来</w>
损 伤</w>
证 券</w>
平 等</w>
加 密</w>
加 快</w>
级 别</w>
自 由
排 放</w>
压 缩
二 氧化
顺 序</w>
刺 激</w>
合 作
为 止</w>
引 发</w>
澳大 利亚</w>
基 团</w>
6 1</w>
I P
事 业</w>
案 件</w>
假 设</w>
5 8</w>
码 器</w>
运 营</w>
女 人</w>
顶 部</w>
异 常</w>
自 然
更 大</w>
作 业</w>
各 自</w>
第 十
配 合</w>
S erv
视 为</w>
图 示</w>
上 涨</w>
逐 渐</w>
听 到</w>
加 拿
真 空</w>
m o
公 里</w>
男 人</w>
阻 止</w>
呈 现</w>
时 间
at i
神 经</w>
暴 露</w>
标 识</w>
用 途</w>
享 受</w>
C D
电 视
弯 曲</w>
攻 击</w>
会 计</w>
呼 吁</w>
同 一</w>
普 遍</w>
旅 行</w>
季 度</w>
o f
事实 上</w>
暴 力</w>
轴 承</w>
打 击</w>
推 出</w>
去 除</w>
第 四</w>
We b</w>
实验 室</w>
初 始</w>
交 通
否 则</w>
l i
单 体</w>
优 先</w>
人 数</w>
中 任</w>
赢 得</w>
该 国</w>
近 年来</w>
负 责
标 志</w>
做 好</w>
高 效</w>
做 到</w>
进 口</w>
这 方面</w>
符 号</w>
寿 命</w>
下 列</w>
接 着</w>
细 节</w>
糖 尿
不 可
事 项</w>
实 时</w>
债 券</w>
o r</w>
相 邻</w>
S E
承 担</w>
5 3</w>
穿 过</w>
财 务
年 轻</w>
事 故</w>
丙 烯
u n
严 格</w>
物 体</w>
6 6</w>
特 色</w>
相 似</w>
巴 勒
临 时</w>
明 白</w>
局 部</w>
接 下来</w>
落 实</w>
数 目</w>
10 8</w>
地 图</w>
2 8
在 内</w>
引 擎</w>
糖尿 病</w>
基 地</w>
精 度</w>
成 绩</w>
值 得</w>
先 进</w>
眼 睛</w>
条 款</w>
入 口</w>
答 案</w>
A P</w>
营 销</w>
放 大
轴 线</w>
独 特</w>
这 位</w>
司 法</w>
2 %</w>
做 法</w>
对 照
最 初</w>
工 厂</w>
推 荐</w>
为 此</w>
家 人</w>
很 快</w>
U S
转 向</w>
因 而</w>
主 机</w>
密 钥</w>
200 1</w>
从 事</w>
联 邦</w>
担 任</w>
公 民</w>
复 合</w>
加拿 大</w>
制造 商</w>
主 任</w>
第 四
达 成</w>
未 示</w>
储 存</w>
数 值</w>
现 状</w>
o m
艾 滋
9 0
地 点</w>
艺 术
绝 缘
途 径</w>
股 东</w>
有 趣</w>
误 差</w>
等 待</w>
融 合</w>
损 害</w>
账 户</w>
条 约</w>
P E
真 实</w>
仿 真</w>
满 意</w>
对照 组</w>
正 如</w>
房 子</w>
输 送</w>
地 球</w>
宣 传</w>
以 外</w>
意 大
民 主</w>
警 告</w>
校 正</w>
语 音</w>
后 来</w>
工 资</w>
各 项</w>
C D</w>
支 架</w>
曾 经</w>
群 体</w>
显 然</w>
采 购</w>
有 效
所 谓</w>
伟 大</w>
端 部</w>
焊 接</w>
体 现</w>
段 时间</w>
取 消</w>
触 摸</w>
0.0 5</w>
异 性</w>
200 2</w>
热 器</w>
举 办</w>
A R
权 力</w>
一 组</w>
氨 基
活 性
10 %</w>
机 关</w>
检 验</w>
3 9</w>
症 状</w>
儿 子</w>
登 记</w>
变 换</w>
尊 重</w>
A T
负责 人</w>
签 署</w>
转 子</w>
伤 害</w>
动 性</w>
疗 效</w>
m L</w>
模 板</w>
深 入</w>
尚 未</w>
用 户
3 %</w>
医 疗
H z</w>
i P
英 寸</w>
3 D</w>
召 开</w>
接 入</w>
时 钟</w>
协 助</w>
消 耗</w>
加 速</w>
不 错</w>
20 2</w>
法 规</w>
广 播</w>
态 度</w>
绝 对</w>
注 入</w>
不 得
放大 器</w>
根 本</w>
提 供
复 制</w>
西 班
现 代
酸 酯</w>
检 测器</w>
国 务
高 校</w>
原 始</w>
制 动</w>
边 界</w>
e n</w>
中 央
公 布</w>
支 出</w>
I C
导 管</w>
纽 约</w>
设 有</w>
立 法</w>
现 金</w>
年 人</w>
无线 电</w>
非 常
选择 性</w>
a b
教 授</w>
十 分</w>
l o
集 合</w>
M L</w>
理 由</w>
翻 译</w>
血 液</w>
运 动
干 预</w>
金 额</w>
对 此</w>
映 射</w>
打 印
光 纤</w>
洗 涤</w>
工 人</w>
调 制</w>
是 从</w>
缔约 国</w>
时 刻</w>
力 学</w>
0. 5</w>
射 线</w>
韩 国</w>
L C</w>
谢 谢</w>
充 分
常 见</w>
S O
动 脉</w>
研 发</w>
物 流</w>
酸 盐</w>
红 色</w>
平 行</w>
反应 器</w>
2 20</w>
E x
目 录</w>
考 试</w>
R e
思 考</w>
癌 症</w>
增 大</w>
粉 末</w>
商 务</w>
出 售</w>
膨 胀</w>
u t
转 换器</w>
橡 胶</w>
持 续
外 国</w>
综 合
对 比</w>
平 均
附 件</w>
证 书</w>
a p
应 力</w>
相 关
燃 烧</w>
财 政</w>
往 往</w>
比 特</w>
遵 守</w>
6 8</w>
就 是
物 品</w>
基 金
心 理</w>
给 定</w>
电 平</w>
纵 向</w>
定 期</w>
回 收</w>
M ic
性 别</w>
干 部</w>
平 方
感 兴趣</w>
间 隙</w>
科 学
文 明</w>
隔 离</w>
饱 和</w>
协 定</w>
替 换</w>
发 言</w>
氨 酸</w>
采 访</w>
示意 图</w>
C h
最 低</w>
论 文</w>
青 年</w>
不 得</w>
不得 不</w>
oo k</w>
A S
公 路</w>
病 人</w>
拍 摄</w>
有 利于</w>
参 见</w>
体 育</w>
非 法</w>
履 行</w>
密 码</w>
就是 说</w>
有 点</w>
空 调</w>
注 射</w>
修 复</w>
信 任</w>
除 非</w>
北 京
总 线</w>
医 学</w>
律 师</w>
电 动机</w>
个 人
白 色</w>
里 面</w>
类 别</w>
8 00</w>
两 者</w>
i g
发 言
驾 驶</w>
专 门</w>
解 码</w>
基 底</w>
重要 性</w>
生 素</w>
除 去</w>
放 弃</w>
高 速
线 路</w>
6 3</w>
2 4
力 于</w>
冷 却
女 士</w>
投 票</w>
致 力于</w>
以 为</w>
信 用</w>
公 园</w>
任 何
智 能
具 备</w>
电 器</w>
喷 嘴</w>
高 速</w>
精 确</w>
电 容</w>
捕 获</w>
接收 器</w>
财 政
太阳 能</w>
ro s
大 规模</w>
至 约</w>
采 取
放 大</w>
50 %</w>
移 民</w>
意大 利</w>
更 换</w>
违 反</w>
201 9</w>
外 交
变 更</w>
10 5</w>
品 质</w>
氨基 酸</w>
2 7
有 着</w>
切 割</w>
资 源
执 行
有 所</w>
比 亚</w>
不 管</w>
难 以</w>
文 化
准 则</w>
伦 敦</w>
作 者</w>
重 组</w>
展 开</w>
哪 些</w>
R NA</w>
帐 户</w>
邀 请</w>
视 觉</w>
冲 击</w>
A N</w>
无线 通信</w>
记 得</w>
.. ..
出 去</w>
虚 拟
西 方</w>
通 用</w>
新 闻
马 达</w>
移 除</w>
细 胞
理 会</w>
公 平</w>
1. 5</w>
其 他人</w>
化 物</w>
可 靠
本 次</w>
写 入</w>
无 论
I D
on e</w>
1 60</w>
主 动</w>
共 同
前 景</w>
科 学家</w>
受 体</w>
摄 像
全 球
沟 通</w>
延 长</w>
倾 斜</w>
d i
蚀 刻</w>
伊 朗</w>
转 动</w>
西 亚</w>
可靠 性</w>
. .</w>
苷 酸</w>
矩 阵</w>
1 14</w>
文 献</w>
单 一</w>
上 帝</w>
高 压</w>
每 次</w>
M a
核 酸</w>
菜 单</w>
军 队</w>
有 权</w>
密 封
球 员</w>
优 秀</w>
受 害
至 关
p H</w>
2 50</w>
产 量</w>
4 7</w>
轨 道</w>
至关 重要</w>
美 丽</w>
分 子
知 识
重 庆</w>
多 次</w>
操作 系统</w>
生 态
施 用</w>
复 合
条 例</w>
特 朗
即 将</w>
特朗 普</w>
一 半</w>
溶 解</w>
滑 动</w>
有 机
很 少</w>
M P
一 方面</w>
柔 性</w>
核 苷酸</w>
框 图</w>
推 广</w>
光 束</w>
行 政
模 具</w>
封 装</w>
信 心</w>
恐怖 主义</w>
阐 述</w>
贸 易
专 用</w>
纳 入</w>
驾 驶
完 美</w>
苹 果</w>
资 格</w>
安 理会</w>
e b
相 位</w>
来 到</w>
片 段</w>
场 景</w>
怎 样</w>
E C
标 准
D M
4 9</w>
保 健</w>
电子 设备</w>
8 %</w>
先 前</w>
工 业
农 民</w>
电 路
载 波</w>
等 级</w>
r a
液 压</w>
活 塞</w>
酰 胺</w>
快 乐</w>
明 天</w>
荧 光</w>
2 9
叶 片</w>
监 视</w>
突 然</w>
原 料</w>
总 理</w>
政 治
说 明
两 次</w>
轮 胎</w>
宗 教</w>
7 4</w>
理 念</w>
书 记</w>
卫 星</w>
细 菌</w>
上 市</w>
轴 向</w>
点 击</w>
分 辨
共 聚物</w>
少 年</w>
放 电</w>
中 小
6 %</w>
t er
S h
巴 马</w>
法 庭</w>
始 终</w>
大 鼠</w>
凝 胶</w>
波 动</w>
乐 部</w>
年 轻
议 程</w>
自 我</w>
过 来</w>
k g</w>
超 声</w>
简 化</w>
长 时间</w>
自动 化</w>
图 书
具体 实施</w>
圆 形</w>
网 上</w>
e d</w>
实 行</w>
提 示</w>
效 益</w>
损 坏</w>
专 业
存 器</w>
分辨 率</w>
俱 乐部</w>
标 识
前 述</w>
掌 握</w>
基 准</w>
S i
容 纳</w>
急 性</w>
5 7</w>
研 讨</w>
7 1</w>
毫 米</w>
e m
发 器</w>
of t</w>
财 产</w>
整 合</w>
无 需</w>
许 可</w>
内 外</w>
后 续</w>
室 温</w>
妻 子</w>
c m</w>
中 华
回 家</w>
情 形</w>
住 房</w>
体 制</w>
8 5</w>
s i
7 8</w>
移 动
证 实</w>
o t
C S
天 然
A l
渠 道</w>
血 清</w>
会 计
奥 巴马</w>
调 度</w>
地 说</w>
中 示</w>
比 率</w>
海 洋</w>
重 建</w>
男 子</w>
环 保</w>
清 单</w>
R F</w>
商 店</w>
标 题</w>
添 加
激 励</w>
尽 可能</w>
18 0</w>
第二 个</w>
7 6</w>
机 械
很 难</w>
手 动</w>
喷 射</w>
R O
分 解</w>
特 派
衣 服</w>
感 测</w>
阿 富
天 气</w>
积 极
10 3</w>
行 驶</w>
竞争 力</w>
0 1</w>
横 向</w>
伊 斯
大 陆</w>
习 惯</w>
指 控</w>
期 待</w>
逐 步</w>
观 看</w>
地 震</w>
co m</w>
教 学
8 2</w>
配 器</w>
前 面</w>
终 止</w>
男 性</w>
一 段时间</w>
B S</w>
教 育
披 露</w>
架 构</w>
合 器</w>
心 脏</w>
H T
敏 感</w>
体 育
特派 团</w>
某 个</w>
三 维</w>
采 集</w>
触 发</w>
12 2</w>
电 荷</w>
不 少</w>
20 20</w>
货 币
关 心</w>
欧 洲
指 南</w>
调 用</w>
团 体</w>
中 有</w>
依 赖
航 空
约 束</w>
多 样
还 要</w>
工作 组</w>
办 事
加 载</w>
企 业
此 次</w>
u l
大 学生</w>
径 向</w>
S Q
陶 瓷</w>
万 美元</w>
几 天</w>
高 温</w>
7 %</w>
装 备</w>
巴勒 斯坦</w>
添加 剂</w>
博 物
20 %</w>
默 认</w>
浏 览
足 以</w>
社 交</w>
所 用</w>
活性 剂</w>
减 轻</w>
图书 馆</w>
9 5</w>
历 史
对 策</w>
D P</w>
支 承</w>
过 渡</w>
速 器</w>
三 年</w>
也 就是说</w>
充 满</w>
运 作</w>
歧 视</w>
电 解
一 张</w>
ros oft</w>
秘书 处</w>
感 受</w>
压缩 机</w>
议 会</w>
幅 度</w>
标识 符</w>
C C
玻 璃
地 面</w>
飞 行</w>
上 市
可 见</w>
人 道
创 业</w>
上市 公司</w>
天 然</w>
局 势</w>
布 局</w>
光 谱</w>
所 有人</w>
电 动</w>
呼 叫</w>
信 用
风 格</w>
浏览 器</w>
之 中</w>
R S</w>
阿富 汗</w>
任何 人</w>
半 年</w>
20 4</w>
引 用</w>
议 员</w>
小 鼠</w>
数 学</w>
S S
华 盛
官 方</w>
排 出</w>
警 方</w>
en t
强 烈</w>
办事 处</w>
4 %</w>
身 上</w>
货 物</w>
9 9</w>
铁 路</w>
房 屋</w>
法 律
免 疫
理 学</w>
压 器</w>
剩 余</w>
C N
上 午</w>
设 计
成 熟</w>
森 林</w>
依 赖</w>
路 线</w>
下 跌</w>
E T</w>
后 面</w>
泡 沫</w>
重 新
共 产
革 命</w>
女 儿</w>
面 图</w>
博物 馆</w>
号 码</w>
蒸 汽</w>
并 非</w>
慢 性</w>
横 截面</w>
配 备</w>
定 向</w>
打 算</w>
混 凝
不 好</w>
o s
情 绪</w>
升 高</w>
权 限</w>
反 射
l a
说 话</w>
产 权</w>
9 %</w>
Mic rosoft</w>
年轻 人</w>
软 件
微 生物</w>
可 是</w>
可 变</w>
T P</w>
此 时</w>
I N
想 到</w>
组 成
组成 部分</w>
期 限</w>
球 队</w>
同 学</w>
水 性</w>
e x
适 于</w>
I T</w>
黑 色</w>
种 类</w>
索 引</w>
图 像
初 步</w>
五 个</w>
认 真</w>
形 态</w>
零 件</w>
道 德</w>
下 行</w>
Serv er</w>
西班 牙</w>
名 单</w>
缓 存</w>
6 7</w>
en t</w>
启 用</w>
所 得</w>
致 动器</w>
日 益</w>
受害 者</w>
亮 度</w>
混凝 土</w>
5 9</w>
任 选</w>
对 手</w>
发言 人</w>
末 端</w>
血 压</w>
7 00</w>
男 孩</w>
I C</w>
产 业
基 因
不 锈
转 型</w>
业 绩</w>
轻 松</w>
疫 苗</w>
证 券
定 制</w>
诱 导</w>
呼 吸</w>
便 携
带 宽</w>
发 性</w>
昨 天</w>
是 不是</w>
显示 装置</w>
区 别</w>
梦 想</w>
用 性</w>
微 米</w>
打印 机</w>
A d
墨 西
胜 利</w>
An d
权 益</w>
幸 福</w>
纯 化</w>
图 表</w>
海 外</w>
研究 所</w>
至 于</w>
场 所</w>
人 群</w>
国 外</w>
mo l</w>
总 部</w>
如 今</w>
留 下</w>
受 伤</w>
C T</w>
厨 房</w>
餐 厅</w>
行 车</w>
婴 儿</w>
电 气</w>
集 成
法 官</w>
不 用</w>
合作 伙伴</w>
发 达
发达 国家</w>
成 就</w>
宪 法</w>
文件 夹</w>
土 壤</w>
试 剂</w>
导 航</w>
目 的
遭 受</w>
相关 性</w>
刚 刚</w>
精 神
分 量</w>
7 3</w>
环 形</w>
频 道</w>
截 至</w>
营 养</w>
顾 问</w>
加 大</w>
公 寓</w>
国务 院</w>
易 于</w>
不 同
游 客</w>
负 荷</w>
1 1
观 众</w>
o d
I M
冠 军</w>
销 售
基金 会</w>
i r
侧 面</w>
a r</w>
分 开</w>
特 异性</w>
S P
发送 到</w>
饮 料</w>
便携 式</w>
导 向</w>
固 定
缺 点</w>
今 后</w>
3 10</w>
组 装</w>
看 来</w>
日 至</w>
气 候
现代 化</w>
之 类</w>
即 可</w>
生 存</w>
潜 力</w>
协 商</w>
付 款</w>
痛 苦</w>
脂 肪</w>
维 修</w>
199 9</w>
8 8</w>
排 气</w>
优 先
2 2
大 幅</w>
怀 疑</w>
排 除</w>
正 是</w>
程 序
二 次</w>
0. 1</w>
自 主</w>
排 名</w>
靠 近</w>
上 方</w>
SQ L</w>
参 与
2. 5</w>
好 处</w>
交 互</w>
坐 在</w>
报 表</w>
价 值
鉴 于</w>
一 级</w>
C H
强 化</w>
光 电</w>
配 件</w>
想 象</w>
若 干</w>
从 来</w>
天然 气</w>
她 们</w>
打 电话</w>
持 有</w>
目的 地</w>
抗 原</w>
技 巧</w>
蓝 色</w>
紧 急</w>
腺 癌</w>
董 事会</w>
案 例</w>
0 2</w>
首 席</w>
南 部</w>
更 为</w>
诉 讼</w>
蒸 发</w>
提 醒</w>
改 造</w>
到 底</w>
前 往</w>
西 部</w>
播 放</w>
赛 季</w>
追 求</w>
战 斗</w>
订 单</w>
统计 学</w>
运 会</w>
8 6</w>
早 上</w>
要 素</w>
仪 器</w>
五 年</w>
委 会</w>
短 期</w>
检 索</w>
分 之一</w>
领 先</w>
9 2</w>
爸 爸</w>
日 志</w>
h one</w>
年 底</w>
代 替</w>
浴 室</w>
阿 尔
于 是</w>
不 够</w>
会 员国</w>
多 肽</w>
8 4</w>
管理 系统</w>
成 型</w>
一 般
供 电</w>
候 选
液 晶</w>
大 脑</w>
深 刻</w>
结 晶</w>
大 致</w>
体 内</w>
1 16</w>
朝 鲜</w>
校 准</w>
计 量</w>
侧 壁</w>
不 起</w>
提 前</w>
不锈 钢</w>
职 业
扭 矩</w>
登 录</w>
出 生</w>
30 2</w>
织 物</w>
导 体
半 导体
摩 尔</w>
难 民</w>
联 系
气候 变化</w>
之 下</w>
赛 车</w>
阳 极</w>
I S</w>
第三 方</w>
_ _
工程 师</w>
家 里</w>
模 糊</w>
室 内</w>
讲 话</w>
发 射
字 符</w>
克 服</w>
航 空</w>
发 电机</w>
再 生</w>
磁 场</w>
巴 西</w>
基 质</w>
P P
摩 擦</w>
ro id</w>
层 次</w>
足 球</w>
一 对</w>
上 行</w>
著 名</w>
C P</w>
博 士</w>
职 责</w>
检 察
转 让</w>
成 形</w>
C l
杂 志</w>
格 兰</w>
加 上</w>
术 后</w>
下 去</w>
依 然</w>
人 力
汇 率</w>
B C</w>
领 土</w>
消 失</w>
空 气
u s
青 少年</w>
等 离子
等离子 体</w>
制 性</w>
C R
不 必</w>
2 30</w>
紧 张</w>
相互 作用</w>
采 样</w>
列 出</w>
V D</w>
浓 缩</w>
建 造</w>
百分 比</w>
人道 主义</w>
回 应</w>
ati on</w>
水 溶液</w>
斯 特</w>
纤维 素</w>
两 组</w>
修 订</w>
全 世界</w>
从 未</w>
药 品</w>
多 层</w>
偏 移</w>
o b
编 写</w>
g e</w>
巴 基
所 说</w>
第 五</w>
v e</w>
熟 悉</w>
气 候</w>
优 质</w>
麻 烦</w>
中 断</w>
出 于</w>
未 能</w>
第 五
接 头</w>
不 仅仅</w>
财 富</w>
磁 性</w>
ic e</w>
收 购</w>
艾滋 病</w>
图 标</w>
土 耳
担 保</w>
股 权</w>
详细 信息</w>
支 助</w>
分子 量</w>
热 量</w>
这 场</w>
a d</w>
个 体</w>
舒 适</w>
头 部</w>
一 代</w>
概 述</w>
参 阅</w>
好 像</w>
税 收</w>
本 体</w>
友 好</w>
对 称</w>
形 象</w>
清 洗</w>
规 格</w>
形 势</w>
华盛 顿</w>
库 存</w>
u s</w>
透 露</w>
记 忆</w>
人 工
增 益</w>
P S
小 型</w>
电 阻
清 除</w>
爆 炸</w>
重 叠</w>
增 长
备 份</w>
联合 国
客 房</w>
批 评</w>
粘 度</w>
前 进</w>
人 物</w>
北 部</w>
置 于</w>
极 大</w>
M P</w>
出 发</w>
部 位</w>
后 果</w>
流 行</w>
立 场</w>
各 方</w>
描 绘</w>
10 0%</w>
建 设
通 讯</w>
黄 金</w>
国 人</w>
下 游</w>
与 其</w>
面 向</w>
将 来</w>
学 会</w>
复合 材料</w>
T F
用 品</w>
无 机</w>
涂 覆</w>
不 了</w>
学 者</w>
得 出</w>
30 %</w>
2 3
S p
回 归</w>
7 7</w>
前 提</w>
涡 轮</w>
流 动性</w>
D S
贫 困</w>
巴基 斯坦</w>
温 度
吸 附</w>
编 号</w>
涂 料</w>
法 案</w>
T h
提 议</w>
过 度</w>
秘 密</w>
缓 解</w>
近 平</w>
本 书</w>
退 出</w>
羟 基</w>
习 近平</w>
使用 者</w>
封 闭</w>
表 格</w>
看 着</w>
重 申</w>
A N
划 分</w>
维 生素</w>
职 位</w>
20 1</w>
US B</w>
i d
溶 性</w>
9 6</w>
同 事</w>
某 种</w>
装 饰</w>
科 技
公 式</w>
一 篇</w>
一 侧</w>
咖 啡</w>
一 只</w>
候选 人</w>
递 送</w>
声 器</w>
州 市</w>
差 距</w>
f f
国 会</w>
离 合器</w>
看 见</w>
所 在</w>
接 到</w>
预 先</w>
外 观</w>
议 院</w>
抑 制剂</w>
对 准</w>
10 .
公 告</w>
有 力</w>
平方 米</w>
有效 性</w>
And roid</w>
为 例</w>
建筑 物</w>
阴 极</w>
互 动</w>
信 贷</w>
劳 动</w>
基 材</w>
集 体</w>
调 节
签 名</w>
恒 定</w>
其 次</w>
成 员国</w>
向 量</w>
平 板</w>
央 行</w>
无论 是</w>
福 利</w>
规 律</w>
认 可</w>
这 件</w>
各 级</w>
各 类</w>
发 起</w>
疗 法</w>
份 额</w>
已 有</w>
三 种</w>
对 照</w>
汽 车
阿拉 伯</w>
o c
几 何</w>
量 化</w>
激 素</w>
自 行车</w>
种 子</w>
非 政府</w>
判 定</w>
斗 争</w>
粘 合</w>
静 态</w>
转 速</w>
F ac
灵 活</w>
不 利</w>
会 话</w>
路 由</w>
集成 电路</w>
计 数</w>
众 多</w>
花 费</w>
上 下文</w>
8 1</w>
看 法</w>
关 切</w>
广 州</w>
与 此
家 庭
动 力学</w>
站 点</w>
A pp
9 8</w>
G B</w>
还 原</w>
睡 眠</w>
倾 向</w>
1 11</w>
层 面</w>
一 套</w>
S D
存 款</w>
经 营
周 五</w>
多 孔</w>
回 顾</w>
叙 利亚</w>
终 于</w>
遵 循</w>
人 体</w>
编 制</w>
1 50
晶 体</w>
周 一</w>
保 持
赋 予</w>
0 5</w>
晶 片</w>
丈 夫</w>
忘 记</w>
日 常</w>
20 6</w>
或 许</w>
深 圳</w>
关 节</w>
中 间
可 行</w>
记 住</w>
定 量</w>
聚 焦</w>
复 杂
脂 肪
宣 言</w>
开 启</w>
电路 板</w>
突 破</w>
缓 冲</w>
申 请
座 椅</w>
电子 商务</w>
2 A</w>
u b
风 扇</w>
移 植</w>
内 存</w>
燃 料
结 婚</w>
请 参阅</w>
哪 个</w>
eb ook</w>
倡 议</w>
携 带</w>
照 顾</w>
试 者</w>
当 中</w>
原 来</w>
出 版</w>
物 中</w>
管理 器</w>
超 级</w>
面 前</w>
节 能</w>
衍 生物</w>
克 斯</w>
m in</w>
土耳 其</w>
坐 标</w>
修 正</w>
驾驶 员</w>
注 册
代 谢</w>
高 等
绝缘 层</w>
一 个
奥 运会</w>
分 割</w>
方 程</w>
波 形</w>
处理 单元</w>
租 赁</w>
旅 游
各 种
联 接</w>
用 水</w>
传 输
取 向</w>
顾 客</w>
战 略
6 9</w>
i s</w>
iP hone</w>
轮 机</w>
M A</w>
数 百
an d</w>
型 号</w>
起 到</w>
I L</w>
说明 书</w>
用户 界面</w>
接收 机</w>
制造 业</w>
地 板</w>
最 大
矛 盾</w>
报 告
出 版
墨西 哥</w>
声 称</w>
最 小
上 部</w>
鉴 定</w>
乘 客</w>
新 加
享 有</w>
199 8</w>
查 找</w>
探 针</w>
选 定</w>
印 象</w>
R E
争 议</w>
A D
娱 乐</w>
欧 元</w>
二 醇</w>
受 试者</w>
许 可
影 响
城 市
谈 论</w>
为 主</w>
计 划
键 盘</w>
掺 杂</w>
自 定义</w>
力 度</w>
价 格
影响 力</w>
曝 光</w>
30 4</w>
塑 性</w>
居 住</w>
糟 糕</w>
M E
黄 色</w>
有 没有</w>
全球 化</w>
一 路</w>
拉 伸</w>
c h</w>
这 家</w>
照 射</w>
客 人</w>
C on
运动 员</w>
网 页</w>
电 动
示意 性</w>
赔 偿</w>
9 4</w>
凹 槽</w>
调 查
3 20</w>
参与 者</w>
尼 亚
i m
迁 移</w>
测 试
尽 快</w>
12 4</w>
摄像 机</w>
相 结合</w>
环 节</w>
F D
烯 烃</w>
侵 犯</w>
缔约 方</w>
节 省</w>
聚 集</w>
丙烯 酸</w>
X 射线</w>
高 质量</w>
毕 业</w>
后 者</w>
太 阳</w>
银 行
控制 电路</w>
M S
催 化</w>
发 电</w>
饮 食</w>
J av
多 元
t er</w>
智 慧</w>
C E
发生 器</w>
我 能</w>
建 模</w>
国 内外</w>
表 演</w>
U R
疼 痛</w>
素 质</w>
职 能</w>
基 层</w>
厘 米</w>
负 担</w>
引 力</w>
学 位</w>
滤 波</w>
敦 促</w>
螺 纹</w>
担 忧</w>
再 现</w>
便 宜</w>
劳 动
e d
2 40</w>
生 命
出 席</w>
腐 蚀</w>
品 种</w>
队 伍</w>
怎么 样</w>
休 息</w>
有 所
视 频
提 及</w>
L T
隐 藏</w>
之 内</w>
涵 盖</w>
世界 各地</w>
接 地</w>
许可 证</w>
润 滑
u m
十 二
有 益</w>
字 符
第二 次</w>
音 乐
辩 论</w>
一 个月</w>
电 力
不 良</w>
激 光
g le</w>
此 处</w>
准 确
认 知</w>
屏 蔽</w>
士 兵</w>
画 面</w>
美 洲</w>
玩 家</w>
一 体
功 能
腐 败</w>
承 载</w>
轮 廓</w>
处 置</w>
丙 烯</w>
持续 时间</w>
缓冲 器</w>
新 兴</w>
人 生</w>
食 品
抱 歉</w>
向 上</w>
周 末</w>
些 时候</w>
一 周</w>
扩 张</w>
远 离</w>
Fac ebook</w>
家 长</w>
定 时</w>
探 测</w>
电 磁
营 商</w>
论 述</w>
定 价</w>
学 科</w>
变 动</w>
m 2</w>
c e</w>
巴 黎</w>
排 列</w>
声 波</w>
命 名</w>
次 数</w>
负 债</w>
定 书</w>
8 0%</w>
劳 动力</w>
箭 头</w>
筛 选</w>
协 作</w>
星 期</w>
绩 效</w>
1 18</w>
S A
收 益
电 话
寄 存器</w>
老 板</w>
一 句</w>
解 码器</w>
岗 位</w>
埃 及</w>
B A</w>
出 色</w>
合 法</w>
1 70</w>
机 遇</w>
垃 圾</w>
交 联</w>
阻 抗</w>
扬 声器</w>
漂 亮</w>
2 6
广 大</w>
泄 漏</w>
举 措</w>
适 配器</w>
非 线性</w>
董 事</w>
稀 释</w>
服 装</w>
兄 弟</w>
本 质</w>
告 知</w>
打 造</w>
管理 员</w>
制 冷
予 以</w>
装 配</w>
电 信</w>
交易 所</w>
下 方</w>
相 当
外 面</w>
英 里</w>
时间 段</w>
全 国
事 务
约 翰</w>
与此 同时</w>
新加 坡</w>
少 数</w>
AP I</w>
二 十
克 隆</w>
纳 米
必 需</w>
焦 点</w>
民 间</w>
P ro
盈 利</w>
覆 盖
核 武器</w>
创 造
依 靠</w>
日 子</w>
购 物</w>
通 路</w>
弹 性
金融 机构</w>
办 理</w>
常 常</w>
13 2</w>
初 始
受 欢迎</w>
o p
2 12</w>
全 新</w>
el l</w>
资 助</w>
布 线</w>
多样 性</w>
调 控</w>
A c
概 率</w>
专 注</w>
无 效</w>
老 人</w>
M ar
依赖 于</w>
活 力</w>
上 海
感 应</w>
a t</w>
风 机</w>
说 法</w>
患 有</w>
透 明
商业 银行</w>
积 累</w>
举 例
车 轮</w>
美 好</w>
G oo
见 到</w>
1 15</w>
航 班</w>
志 愿
存储 单元</w>
分 布
印 度
之 上</w>
9 1</w>
进 而</w>
改 革
R F
并 未</w>
灾 害</w>
国 民
降 解</w>
改 性</w>
静 脉</w>
留 在</w>
3 60</w>
N a
50 0
字 段</w>
U V</w>
千 年</w>
毕 业
7 9</w>
议 定书</w>
观 察
不 久</w>
每 月</w>
间 接</w>
电解 质</w>
乙 醇</w>
美 联
峰 值</w>
1 A</w>
周 边</w>
思 维</w>
任 命</w>
身 边</w>
发 布
高 达</w>
淋 巴
询 问</w>
2 a</w>
9 0%</w>
一 体</w>
激 发</w>
加 热器</w>
庆 祝</w>
投 影</w>
导 弹</w>
区 分</w>
不同 于</w>
补 贴</w>
30 0
合 格</w>
周 二</w>
日 电</w>
y p
共 识</w>
繁 荣</w>
明 年</w>
行 星</w>
视 角</w>
an d
固 件</w>
军 事
身 份
缓 慢</w>
伙 伴
时 时</w>
交 换器</w>
互 连</w>
n et</w>
害 怕</w>
8 3</w>
清 晰</w>
腔 室</w>
希 腊</w>
受 益</w>
和 谐</w>
共产 党</w>
依 照</w>
闭 合</w>
污 染
应 急</w>
选 地</w>
文 学</w>
S S</w>
s h
就 要</w>
CP U</w>
回 路</w>
收 缩</w>
一 段</w>
加 以</w>
红 外</w>
艺术 家</w>
两 名</w>
40 2</w>
公 正</w>
导 入</w>
图像 处理</w>
遭 到</w>
丢 失</w>
总 额</w>
折 叠</w>
司 机</w>
吸 收
到 来</w>
I T
M C</w>
收益 率</w>
实 力</w>
近 期</w>
字符 串</w>
知识 产权</w>
-- --
周 三</w>
意 外</w>
自 治
人 工</w>
以 往</w>
修 饰</w>
周 四</w>
暂 时</w>
脚 本</w>
C C</w>
马 克
对 方</w>
什 么
驱 动
磨 损</w>
邻 近</w>
L in
工 序</w>
主 义
12 5</w>
4 10</w>
提供 商</w>
泰 国</w>
传 导</w>
操 纵</w>
危 害</w>
朝 向</w>
电 网</w>
伙伴 关系</w>
物 种</w>
公 司
同 志</w>
编 码器</w>
指 示
开 心</w>
矢 量</w>
体 重</w>
对 待</w>
播 放
液 晶
30 00</w>
相当 于</w>
简 称</w>
收 费</w>
相 连</w>
什么 样</w>
首 都</w>
武 装</w>
回 复</w>
胶 囊</w>
I II</w>
电 位</w>
I F
气 流</w>
生 效</w>
执 法</w>
渗 透</w>
密 切</w>
极 端</w>
A p
临 床
观 念</w>
密 切
头 发</w>
昂 贵</w>
干 细胞</w>
演 员</w>
燃料 电池</w>
分 数</w>
频 带</w>
主 权</w>
制 裁</w>
实 证</w>
常 用</w>
此 前</w>
矩 形</w>
刚 性</w>
O 2</w>
断 开</w>
向 下</w>
G P
借 助</w>
终 端
爱 尔
礼 物</w>
分 支</w>
i t</w>
放 松</w>
回 报</w>
拆 卸</w>
削 减</w>
I V</w>
遗 产</w>
压 电</w>
优 惠</w>
培 养
粮 食</w>
0. 00
乙 酯</w>
运 转</w>
主 管</w>
e v
换 成</w>
现 金
防 治</w>
交 叉</w>
镜 头</w>
下 部</w>
缩 短</w>
圆 柱
监 狱</w>
助 理</w>
创 作</w>
飞 行
中 所</w>
射 率</w>
性 化</w>
s e</w>
R 2</w>
剖 析</w>
E G
扫 描
区 段</w>
20 8</w>
9 00</w>
碳 原子</w>
看 出</w>
接 触
1. 2</w>
遗 传</w>
抓 住</w>
N A
一体 化</w>
上 周</w>
协 同</w>
司 法
得 以</w>
In ter
年 前</w>
均 衡</w>
磁 体</w>
心 理
激 烈</w>
毒 品</w>
外 交</w>
惊 讶</w>
远 端</w>
变 压器</w>
硬 化</w>
检 查
载 荷</w>
种 植</w>
地 理</w>
评 分</w>
Goo gle</w>
经 典</w>
毒 性</w>
稳 定
审 判</w>
萃 取</w>
超 出</w>
随 时</w>
项 目
199 7</w>
每 日</w>
党 人</w>
确 定性</w>
突 变</w>
实 质</w>
a m</w>
50 00</w>
源 于</w>
两 天</w>
颜 料</w>
储 备</w>
运 营商</w>
杆 菌</w>
智能 手机</w>
掩 模</w>
氨 基</w>
日 起</w>
隧 道</w>
周 年</w>
支 持
行 性</w>
秩 序</w>
演 讲</w>
A l</w>
M T
最 高
委 员</w>
两 国</w>
国 有
总 量</w>
冰 箱</w>
普 通
水 中</w>
年 级</w>
麦 克
谈 到</w>
0 3</w>
羧 酸</w>
斯 坦
营 养
话 说</w>
杀 死</w>
紧 密</w>
热 交换器</w>
报 纸</w>
价值 观</w>
RA M</w>
恶 化</w>
杂 质</w>
文 字</w>
酸 钠</w>
教 练</w>
面 上</w>
注 意
为 期</w>
隐 私</w>
活 跃</w>
马 来
管 制</w>
小 说</w>
南 非</w>
M O
出 台</w>
网 关</w>
发 射器</w>
不 变</w>
二氧化 碳</w>
理 性</w>
前 后</w>
还 会</w>
2. 0</w>
市 民</w>
零 售</w>
3 50</w>
直 线</w>
气 氛</w>
有 者</w>
用 以</w>
像 是</w>
换 句
不 良
六 个</w>
涂 布</w>
色 彩</w>
组 织
接 入
L AN</w>
路 由
位 移</w>
通 信
一 带</w>
电 池
奖 励</w>
日 前</w>
浪 费</w>
优先 级</w>
低 温</w>
言 之</w>
退 休</w>
M OS</w>
a s</w>
网 格</w>
谷 歌</w>
M an
L i
学 术</w>
磁 盘</w>
武 装
沟 槽</w>
爆 发</w>
决 心</w>
手 指</w>
微 信</w>
增 速</w>
. 1</w>
决 赛</w>
嵌 入</w>
提 案</w>
那 种</w>
股 市</w>
甲 醇</w>
热 情</w>
一 辆</w>
G DP</w>
奇 怪</w>
沉 淀</w>
分 区</w>
婚 姻</w>
m mol</w>
半 径</w>
可 怕</w>
情 感</w>
别 的</w>
交 付</w>
I E
英 镑</w>
团 结</w>
政 党</w>
不 断
生物 学</w>
供应 链</w>
拘 留</w>
水 果</w>
日 报</w>
T E
迹 象</w>
1. 0</w>
作 文</w>
期 货</w>
境 内</w>
阻 碍</w>
i c</w>
h t
时 尚</w>
根 本
发 育</w>
难 以
彩 色</w>
不 幸</w>
其 余</w>
40 %</w>
本 周</w>
深 化</w>
他 会</w>
th e</w>
前 体</w>
对 话
A L
新 西
自 从</w>
生 涯</w>
蔬 菜</w>
永 久</w>
近 日</w>
暂 停</w>
平 民</w>
变 体</w>
胰 岛
r o</w>
流 入</w>
连 通</w>
人力 资源</w>
物 理
信息 化</w>
种 族
顺 利</w>
或 是</w>
12 1</w>
分 发</w>
专 员</w>
便 利</w>
小 学</w>
克 兰</w>
街 道</w>
串 联</w>
上 游</w>
公 安
.... ..</w>
螺 栓</w>
送 到</w>
几 种</w>
东 部</w>
0.0 1</w>
发 行
伴 随</w>
经济 体</w>
警 报</w>
X ML</w>
主 流</w>
2 B</w>
有 源</w>
熔 融</w>
集 群</w>
一 台</w>
选 取</w>
0 4</w>
交 换
吸 入</w>
大 大
甲 烷</w>
9 3</w>
神经 网络</w>
并 发
高 频</w>
P V
换句 话说</w>
偏 差</w>
挖 掘</w>
I R</w>
染 料</w>
老 年人</w>
刑 事</w>
亲 爱</w>
S D</w>
质 性</w>
详细 描述</w>
并发 症</w>
标准 化</w>
报 价</w>
凸 轮</w>
期 内</w>
G PS</w>
马 上</w>
区 块</w>
依 法</w>
信 仰</w>
中小 企业</w>
肌 肉</w>
思 路</w>
周 日</w>
i i</w>
无 关</w>
I B
经济 学</w>
授 予</w>
老 年</w>
C l</w>
采取 行动</w>
e N
彻 底</w>
考 核</w>
石 墨</w>
可 为</w>
高 级
承 受</w>
12 8</w>
胰岛 素</w>
兴 奋</w>
南 省</w>
责 任
当 天</w>
3 5
病 例</w>
疑 问</w>
起 始</w>
长 期
e p
导 线</w>
营 业</w>
广 场</w>
脱 离</w>
爱尔 兰</w>
党 员</w>
改革 开放</w>
瑞 士</w>
电 磁</w>
片 材</w>
志愿 者</w>
O H</w>
加 剧</w>
湿 度</w>
i a</w>
吸 引力</w>
10 7</w>
争 取</w>
199 5</w>
a y
12 6</w>
T r
放 射
199 6</w>
表 达
民 众</w>
真 是</w>
太 平
转 矩</w>
淀 粉</w>
管理 局</w>
in g
螺 旋</w>
英 语
D C
审 核</w>
中 以</w>
制冷 剂</w>
凸 缘</w>
器 官</w>
周 期
一 块</w>
触 摸
遗 憾</w>
花 园</w>
F C</w>
英 尺</w>
荷 兰</w>
调 制
定 子</w>
4 A</w>
浏 览</w>
住 宅</w>
对 外</w>
职 工</w>
每 周</w>
中 东</w>
以 此</w>
听 说</w>
氧 气</w>
医 药</w>
电 站</w>
大 概</w>
兼 容</w>
P LC</w>
o g
a y</w>
一 批</w>
参 观</w>
3 A</w>
t r
成 年人</w>
会 员</w>
路 上</w>
差 别</w>
衡 量</w>
教 堂</w>
z on</w>
雷 达</w>
机 理</w>
互 相</w>
可 选</w>
读 出</w>
第 六</w>
仪 式</w>
氧 基</w>
行 动
新 鲜</w>
一 款</w>
发布 会</w>
纽 约
at e</w>
家 具</w>
碰 撞</w>
三 角
可 选地</w>
信息 技术</w>
对话 框</w>
笔 记
限 制性</w>
手 册</w>
业 务
热 塑性</w>
事 物</w>
较 为</w>
一 支</w>
A R</w>
承 包
极 性</w>
经 费</w>
路由 器</w>
布 什</w>
忽 略</w>
堆 叠</w>
射 频</w>
货币 政策</w>
综合 征</w>
上 去</w>
M D
英 文</w>
未 经</w>
副 本</w>
工 件</w>
越 南</w>
风 险
12 .
中 将</w>
电 梯</w>
二氧化 硅</w>
共 有</w>
变 革</w>
显 微
人工 智能</w>
高 中</w>
锻 炼</w>
外 线</w>
东 省</w>
今 晚</w>
燃 烧
敏 感
干 净</w>
W or
研 讨
蜂 窝</w>
一 部</w>
列 入</w>
变 速器</w>
追 踪</w>
0 8</w>
i e</w>
分析 师</w>
8 7</w>
偏 置</w>
卧 室</w>
环 氧
合 法
填 料</w>
厂 家</w>
种 族</w>
高 血压</w>
反 向</w>
新西 兰</w>
低 成本</w>
坚 定</w>
它 会</w>
各 个
7 0%</w>
运 算</w>
M A
控 件</w>
w w
水 分</w>
1. 1</w>
金融 危机</w>
此 后</w>
校 园</w>
小 心</w>
参 考
占 据</w>
G A</w>
姓 名</w>
w e
S c
截 止</w>
P o
第二 天</w>
广 东</w>
幸 运</w>
套 筒</w>
F i</w>
最小 化</w>
太 多</w>
这 份</w>
调 色</w>
集 中
更 是</w>
大 气</w>
脂肪 酸</w>
中 文</w>
研讨 会</w>
敌 人</w>
常 数</w>
热 处理</w>
油 墨</w>
英 雄</w>
演 出</w>
U I</w>
期 权</w>
q u
乙 酸</w>
总 数</w>
20 3</w>
出 血</w>
候 选</w>
导 出</w>
久 性</w>
管 线</w>
前 端</w>
初 级</w>
你 好</w>
分 离
话 题</w>
考 察</w>
国 防
6 0%</w>
菲 律
毕业 生</w>
促 使</w>
零 售
度 量</w>
沟 道</w>
必 要
0 6</w>
作 家</w>
示 范</w>
基 督
活 化</w>
揭 示</w>
代 理
波 束</w>
聊 天</w>
配 有</w>
展 览</w>
企业 家</w>
目 前
目前 为止</w>
假 定</w>
船 舶</w>
康 复</w>
玩 具</w>
线 程</w>
档 案</w>
清 理</w>
背 后</w>
否 认</w>
困 境</w>
毫 无
夏 天</w>
水 泥</w>
正 交</w>
气 管</w>
罪 行</w>
频 谱</w>
色 谱</w>
积 分</w>
生 理</w>
每 种</w>
re s
L D
失 望</w>
可 爱</w>
注 重</w>
乡 村</w>
队 列</w>
探 测器</w>
陷 入</w>
A r
分 歧</w>
抗 议</w>
会 谈</w>
污染 物</w>
各 位</w>
火 车</w>
起 诉</w>
R C</w>
峰 会</w>
恐 惧</w>
解 析</w>
复 用</w>
并 用</w>
本 人</w>
作 物</w>
下 述</w>
将 要</w>
怀 孕</w>
u x</w>
in t</w>
2 5%</w>
一 生</w>
明 星</w>
N O
伊斯 兰</w>
打 破</w>
创 意</w>
信用 卡</w>
分 裂</w>
代 价</w>
聪 明</w>
0 9</w>
容 性</w>
0. 2</w>
转 换成</w>
气 缸</w>
人民 共和国</w>
P H
贫 穷</w>
约 会</w>
招 聘</w>
s on</w>
I O
信号 处理</w>
新 华
CP U
计 数
上 文</w>
共 振</w>
多 么</w>
M I</w>
回 去</w>
超 声波</w>
阳 光</w>
光 盘</w>
e w
字 节</w>
缺 少</w>
R P</w>
激光 器</w>
法 治</w>
签 订</w>
命 运</w>
城 镇</w>
万 人</w>
任 一</w>
当 代</w>
农 业
效 力</w>
绕 组</w>
梯 度</w>
院 校</w>
预 订</w>
199 4</w>
课 题</w>
歌 曲</w>
通 孔</w>
P O
预 防
占 领</w>
分 化</w>
电子 装置</w>
计算机 系统</w>
举例 来说</w>
e y</w>
媒 体
血 浆</w>
北京 市</w>
优 异</w>
烧 结</w>
广 播
in e</w>
A ma
缩 小</w>
9 7</w>
两 国
安 置</w>
P A</w>
第 六
维 亚</w>
杠 杆</w>
卡 车</w>
委 托</w>
信 托</w>
分布 式</w>
C L
30 1</w>
航空 公司</w>
螺 钉</w>
累 计</w>
家 族</w>
至 今</w>
偏 振</w>
照 相机</w>
P L
资 本
u c
平 坦</w>
所 属</w>
频 繁</w>
半导体 器件</w>
利 用
P E</w>
突 起</w>
燃 油</w>
8 9</w>
垂 直
很 小</w>
使 命</w>
待 遇</w>
C T
有 时候</w>
密封 件</w>
报 警</w>
N O</w>
2 D</w>
时 段</w>
微 软</w>
199 0</w>
艾滋 病毒</w>
移 位</w>
一 层</w>
直 至</w>
圣 诞
引 线</w>
字 母</w>
15 %</w>
读 者</w>
无线 网络</w>
商 务
遗 传
表 征</w>
衍 生</w>
当 事
舞 台</w>
电 介质</w>
联系 人</w>
菲律 宾</w>
复 苏</w>
损 耗</w>
40 4</w>
废 物</w>
计数 器</w>
a k
紧 固</w>
透 视图</w>
玉 米</w>
PC R</w>
X X</w>
R 1</w>
少 量</w>
20 5</w>
罗 马</w>
怎么 办</w>
名 为</w>
哥 伦
忽 视</w>
初始 化</w>
生 长
信息 系统</w>
指 向</w>
高 度
灵 活性</w>
净 化</w>
超 越</w>
不 确定性</w>
要 么</w>
S T</w>
信 令</w>
App le</w>
阿拉 伯
S I</w>
对 不起</w>
介 电
练 习</w>
10 00
马来 西亚</w>
咖 啡
量 子</w>
预 后</w>
30 6</w>
防 护</w>
限 度</w>
养 老
摆 脱</w>
公 务
D i
有 害</w>
结 算</w>
硬 度</w>
残 疾
民 族
器 械</w>
骨 折</w>
年 初</w>
原 子
的 确</w>
微 粒</w>
5 10</w>
说 道</w>
早 餐</w>
中国 政府</w>
水 解</w>
切 实</w>
港 口</w>
左 侧</w>
毕 竟</w>
中 说</w>
抵 押</w>
子 系统</w>
碳 酸
聚 乙烯</w>
总 经理</w>
牺 牲</w>
哲 学</w>
体 外</w>
这 会</w>
基 体</w>
向 前</w>
阀 门</w>
Ama zon</w>
模 拟
it y</w>
乙 烯
客 观</w>
刚 才</w>
3 30</w>
炎 症</w>
一 座</w>
纪 念</w>
实 用
外 侧</w>
C 1</w>
犯 罪
江 苏</w>
一 致
接入 点</w>
走 向</w>
省 略</w>
培养 基</w>
波 导</w>
聚 氨
药 学</w>
两 岸</w>
最 多</w>
便 于</w>
H D
度 过</w>
3 4
乌 克兰</w>
灵 敏
评 级</w>
乙 酸
点 火</w>
本 来</w>
中 期</w>
报告 员</w>
没 什么</w>
一 次
紧 急
排 序</w>
附 属</w>
摄 影</w>
自治 区</w>
随 机
D E
累 积</w>
成 人</w>
带 到</w>
多 媒体</w>
S A</w>
i l</w>
E n
土 著</w>
o f</w>
艰 难</w>
综 述</w>
研 磨</w>
衍 射</w>
滚 动</w>
聚氨 酯</w>
转 录</w>
竞 选</w>
能 否</w>
专 利
周 六</w>
M C
一 端</w>
专 家
立 体
右 侧</w>
大 楼</w>
无 人
Jav a</w>
联 赛</w>
发 酵</w>
时 器</w>
条 目</w>
ur e</w>
开 放
有 望</w>
主 张</w>
1 13</w>
错 过</w>
农 产品</w>
t o</w>
静 电</w>
古 巴</w>
呼 吸
T i
动 画</w>
O r
克 里
折 射率</w>
不 多</w>
至 图</w>
克 林
美联 储</w>
电 场</w>
同 期</w>
付 出</w>
宿 主</w>
行 使</w>
附 着</w>
W i
感 知</w>
到 期</w>
局 长</w>
穆 斯
带 动</w>
世界 杯</w>
主 持</w>
高 端</w>
最 优</w>
葡萄 糖</w>
夫 人</w>
广 泛
逮 捕</w>
涡 轮机</w>
含 义</w>
和 平
3 6
乳 腺癌</w>
销 商</w>
样 子</w>
监 督
平均 值</w>
v er
基 座</w>
气 门</w>
月 底</w>
拿 到</w>
质 疑</w>
尔 斯</w>
值 得
传 动</w>
0 7</w>
全 局</w>
噪 音</w>
意 愿</w>
病 变</w>
增长 率</w>
入 式</w>
报 名</w>
氯 化
鼠 标</w>
客户 机</w>
一 是</w>
成 本
绘 制</w>
手 柄</w>
灾 难</w>
2 14</w>
击 败</w>
酒 吧</w>
数字 化</w>
ww w</w>
会 议
布 鲁
白 宫</w>
审 批</w>
利 息</w>
全 省</w>
弹性 体</w>
破 产</w>
对 抗</w>
太平 洋</w>
第二 十
海 上</w>
要 是</w>
14 2</w>
判 决</w>
自 愿</w>
C o
同 一个</w>
制 订</w>
蓝 牙</w>
博 客</w>
灵敏 度</w>
转 发</w>
3. 5</w>
输 出
显微 镜</w>
穿 着</w>
量 计</w>
谐 振</w>
剩 下</w>
增 殖</w>
完 整
中 学</w>
得 分</w>
钥 匙</w>
大 大</w>
固 态</w>
演 示</w>
选 民</w>
家 伙</w>
找 出</w>
配 方</w>
多 种
海 军</w>
黎 巴
线 图</w>
文 书</w>
分 成</w>
配 置
分 散
触 点</w>
4 20</w>
姆 斯</w>
间 距</w>
吃 饭</w>
处 罚</w>
组 中</w>
甲 基
共和 党</w>
写 道</w>
M AC</w>
麦克 风</w>
禁 用</w>
M R</w>
穆斯 林</w>
这 座</w>
碱 性</w>
U E
工作 者</w>
上 诉</w>
UR L</w>
淋 浴</w>
联 邦
睡 觉</w>
发 放</w>
国际 法</w>
微 波</w>
对 齐</w>
失 性</w>
阻 力</w>
13 4</w>
纪 念
愿 望</w>
宝 宝</w>
聚 酯</w>
旁 边</w>
何 时</w>
加 权</w>
裁 军</w>
宇 宙</w>
黑 暗</w>
V i
很 棒</w>
进 料</w>
轨 迹</w>
进 来</w>
变 为</w>
废 气</w>
S i</w>
大 众</w>
强 制</w>
乐 观</w>
P A
高速 公路</w>
行 程</w>
更 高</w>
电 影
乙酸 乙酯</w>
转 印</w>
面 部</w>
工 会</w>
研究 进展</w>
本 国</w>
Inter net</w>
阳 性</w>
巩 固</w>
只 会</w>
示 范
生 活
炸 弹</w>
电 性</w>
位 点</w>
可 行性</w>
贫 困
端 的</w>
那 时</w>
汽 油</w>
反 对
成 都</w>
国 王</w>
疯 狂</w>
50 2</w>
d e</w>
粘 附</w>
车 型</w>
行动 计划</w>
套 管</w>
宏 观
意 图</w>
经济 社会</w>
电阻 器</w>
设计 师</w>
建 成</w>
新 能源</w>
触摸 屏</w>
减 压</w>
并 行</w>
阶 级</w>
车 站</w>
设 想</w>
透明 度</w>
I N</w>
渴 望</w>
产 能</w>
二 维</w>
剖 视图</w>
人 口
阳 离子</w>
光 学
工 商
S F
试 点</w>
周 知</w>
M e
氧化 铝</w>
申请 人</w>
数据 传输</w>
插 座</w>
s p
例 示</w>
表 面
新 疆</w>
微 型</w>
哺 乳
确 切</w>
地 下</w>
逆 变
y n
树 立</w>
进 气</w>
首 脑
解决 问题</w>
生态 系统</w>
管 状</w>
ch an
同 比</w>
事 长</w>
血 糖</w>
四 年</w>
外 科</w>
仓 库</w>
交换 机</w>
这 儿</w>
配 套</w>
显示 屏</w>
海 岸</w>
数据 流</w>
植 入</w>
深 入
马 里</w>
中国 共产党</w>
估 算</w>
10 9</w>
融 入</w>
投 诉</w>
惩 罚</w>
圆柱 形</w>
格 局</w>
子 宫</w>
手 中</w>
西 藏</w>
各 样</w>
黎巴 嫩</w>
空 中</w>
移动 电话</w>
散 射</w>
必 然</w>
去 世</w>
纪 录</w>
E T
Man ag
现 行</w>
余 额</w>
复杂 性</w>
百分 点</w>
重 大
总 裁</w>
实 质性</w>
大 使</w>
一 轮</w>
心 里</w>
附 接</w>
持 久</w>
抛 光</w>
王 国</w>
分 泌</w>
S P</w>
R T
子 公司</w>
多 名</w>
仔 细</w>
克 尔</w>
不 太
逆变 器</w>
今 日</w>
首脑 会议</w>
好 好</w>
能 器</w>
p s</w>
灵 魂</w>
关 税</w>
基因 组</w>
拉 斯</w>
苯 乙烯</w>
磷 酸</w>
众 所
出 口
W T
盐 水</w>
爱 情</w>
谴 责</w>
苏 丹</w>
众所 周知</w>
实 用</w>
公 知</w>
表达 式</w>
入 侵</w>
理 论
服务 业</w>
R I</w>
全 体</w>
P T
C om
应 答</w>
使用 寿命</w>
答 复</w>
光 线</w>
付 费</w>
光 伏</w>
简 要</w>
ti on</w>
单 词</w>
非 洲
I A</w>
克林 顿</w>
整 理</w>
停 车
新 增</w>
谨 慎</w>
塑 料
发生 率</w>
中 是</w>
199 3</w>
坚 决</w>
多 边</w>
数据 中心</w>
罚 款</w>
挤 出</w>
流 通</w>
中 继</w>
控制 台</w>
人 力</w>
把 握</w>
公务 员</w>
所 有者</w>
某 种
愤 怒</w>
科 索
承包 商</w>
调节 器</w>
刀 片</w>
f or</w>
洛 杉
研究 生</w>
界 定</w>
1 a</w>
反 复</w>
救 援</w>
拓 展</w>
英 格兰</w>
相 等</w>
发送 给</w>
早 些时候</w>
几 次</w>
假 期</w>
固 醇</w>
一 百
多 于</w>
公 斤</w>
借 鉴</w>
股 票
环境 保护</w>
3 3
远 远</w>
一次 性</w>
取 出</w>
很 长</w>
混 合
科索 沃</w>
进 度</w>
C A</w>
酸 性</w>
适 宜</w>
少 数
原 材料</w>
信息 处理</w>
互 补</w>
疫 情</w>
4 50</w>
浙 江</w>
尼亚 州</w>
所 得
图 象</w>
权 重</w>
决 策
极 限</w>
方 位</w>
高等 教育</w>
检察 官</w>
迫 使</w>
泳 池</w>
5 A</w>
温 暖</w>
V R</w>
葡萄 酒</w>
残疾 人</w>
保险 公司</w>
书 面</w>
今 年
愉 快</w>
能 源
抵 达</w>
瑞 典</w>
有机 溶剂</w>
C O</w>
代表 性</w>
最 为</w>
马克 思
完整 性</w>
收 取</w>
估 值</w>
功 能性</w>
干 涉</w>
存储 设备</w>
A B</w>
写 作</w>
15 2</w>
上 半年</w>
民主 党</w>
有 个</w>
管理 人员</w>
尔 德</w>
两 人</w>
天 津</w>
合 成
电 源
甲 苯</w>
注意 力</w>
开 车</w>
山 东</w>
尼 日
租 车</w>
2 b</w>
悬 浮
p l
大 国</w>
加 压</w>
传 动
ar d</w>
包 围</w>
介 入</w>
备 选</w>
内 置</w>
谱 法</w>
扮 演</w>
女 子</w>
0. 00</w>
领 袖</w>
热 点</w>
观 测</w>
约 定</w>
时 隙</w>
N S</w>
签 证</w>
市场 经济</w>
私 营
or t
15 00</w>
D VD</w>
占 用</w>
病 理</w>
摩 托
落 后</w>
纠 正</w>
衰 减</w>
严 重
国 民</w>
RF ID</w>
功 耗</w>
选 自</w>
w it
配置 文件</w>
协 调
借 助于</w>
提 名</w>
G a
数据 包</w>
之 处</w>
P D</w>
中华 人民共和国</w>
专 项</w>
雇 员</w>
夏 季</w>
ar t
宽 带</w>
地 理
解 放
高 尔
生 日</w>
生 意</w>
太 空</w>
推 迟</w>
震 惊</w>
方 针</w>
致 动</w>
风 力</w>
接 种</w>
海 滩</w>
十 字
复 合物</w>
影 像</w>
政 府
中 心
复 位</w>
电视 台</w>
这 部</w>
访 问
正 义</w>
方 形</w>
驱动 程序</w>
管 部门</w>
e g
那 天</w>
阿 根
多 地</w>
1 B</w>
调 试</w>
加 利
疲 劳</w>
仲 裁</w>
眼 镜</w>
S M</w>
2 60</w>
下 滑</w>
休 闲</w>
人 会</w>
雇 主</w>
c on
进 去</w>
9 5%</w>
内 在</w>
慢 慢</w>
生产 力</w>
地 铁</w>
偏 好</w>
发 达</w>
局 面</w>
直 流</w>
可 用性</w>
内 燃
化 工</w>
个 性化</w>
M o
哺乳 动物</w>
数据 处理</w>
索 赔</w>
健 全</w>
化 疗</w>
竞争 对手</w>
整 数</w>
季 节</w>
一 类</w>
背 面</w>
相 对
切 削</w>
深 圳
准确 性</w>
符 合
p h
收 获</w>
个 别</w>
进 制</w>
解 除</w>
垂直 于</w>
插 头</w>
心 脏
时 报</w>
内 侧</w>
引 进</w>
特 网</w>
吸 烟</w>
斯 特
总 书记</w>
虚拟 机</w>
混 乱</w>
充 足</w>
e w</w>
2 22</w>
死 亡
插 件</w>
一 群</w>
教 训</w>
欧洲 联盟</w>
灰 色</w>
虐 待</w>
内 地</w>
扩 增</w>
加 速度</w>
桥 梁</w>
透 射</w>
统 治</w>
商 标</w>
之 所以</w>
交 谈</w>
环氧 树脂</w>
控 股</w>
捕 捉</w>
1 200</w>
化学 品</w>
立 体</w>
M D</w>
二 级</w>
焦 虑</w>
C H</w>
商 品
基 片</w>
接 通</w>
内燃 机</w>
剥 离</w>
高 层</w>
I G
yp e</w>
过 量</w>
抵 抗</w>
S C</w>
被 迫</w>
LT E</w>
IP 地址</w>
平 滑</w>
小 姐</w>
斯 科</w>
培 育</w>
一 边</w>
当 选</w>
回 事</w>
大 战</w>
存 取</w>
锥 形</w>
提 取
不 饱和</w>
电 能</w>
低 压</w>
I M</w>
批 发</w>
合 约</w>
SE Q
因 特网</w>
硬 盘</w>
o s</w>
温度 传感器</w>
两 侧</w>
可 编程</w>
氧化 剂</w>
无 疑</w>
A M</w>
张 力</w>
通 货
特 尔</w>
A D</w>
销 量</w>
再 生
表 中</w>
贩 运</w>
具体 地说</w>
无 限</w>
播放 器</w>
发 明
股 价</w>
M Hz</w>
洗 衣
先 后</w>
应 变</w>
主 导</w>
u e</w>
旋 转
招 标</w>
人 才
上 限</w>
模 制</w>
古 老</w>
多 人</w>
f i
指 导
数 十
前 列
满 意
纸 张</w>
P N</w>
离 散</w>
W S</w>
洛杉 矶</w>
二 者</w>
上 班</w>
电池 组</w>
质 量
视 野</w>
订 阅</w>
监 视
切 断</w>
营 业
漏 洞</w>
感 情</w>
中 部</w>
研 制</w>
内 部
抱 怨</w>
ar e</w>
当 今</w>
一致 性</w>
区 间</w>
平 稳</w>
各种 各样</w>
职业 生涯</w>
专 题</w>
迄 今
f or
人 均</w>
霉 素</w>
执行 官</w>
阻 挡</w>
并 不
晶 硅</w>
指 责</w>
网 友</w>
不 行</w>
氧 烷</w>
崩 溃</w>
精 力</w>
三 次</w>
从 中</w>
消 防
口 服</w>
H E
肺 癌</w>
百 姓</w>
A I</w>
SEQ ID
T V</w>
在 此
停 车</w>
刑 事
项 卡</w>
19 0</w>
材 质</w>
D S</w>
选 项卡</w>
正 面</w>
预 处理</w>
确 立</w>
独 立
完 全
显 影</w>
多 元</w>
健 康
安 静</w>
获 悉</w>
主 持
生 育</w>
振 荡</w>
结果 显示</w>
对 性</w>
嵌 入式</w>
6 00
Lin ux</w>
讨 厌</w>
o x</w>
一 所</w>
指 纹</w>
残 留</w>
制 约</w>
惊 人</w>
该 项</w>
维 度</w>
液晶 显示</w>
岛 屿</w>
w t
成 效</w>
佛 罗
自 信</w>
挤 压</w>
4 a</w>
分 段</w>
一 方</w>
四 川</w>
l a</w>
地 质</w>
地 为</w>
啤 酒</w>
化 妆
尼 斯</w>
pp m</w>
振 荡
二 是</w>
0. 3</w>
双 向</w>
长 大</w>
u m</w>
里 亚</w>
马克思 主义</w>
业 主</w>
偏 离</w>
富 有</w>
A S</w>
3 12</w>
子 女</w>
润 滑</w>
教 会</w>
近 似</w>
第 七
12 3</w>
所 作</w>
名 义</w>
流 感</w>
可 视
30 8</w>
嫌 疑
衰 竭</w>
ri p
13 .
调 器</w>
杭 州</w>
南 京</w>
地 被</w>
亚 胺</w>
细 长</w>
赞 赏</w>
这 使</w>
不 必要</w>
摄像 头</w>
请 问</w>
研究 院</w>
磋 商</w>
不 愿</w>
导 电性</w>
立 法
螺 母</w>
芳 基</w>
现 实
氛 围</w>
起 动</w>
B P</w>
景 观</w>
粒 径</w>
计划 署</w>
标 志
主 办</w>
地 下
乳 液</w>
职 务</w>
O ff
优 于</w>
托 管</w>
阿根 廷</w>
计算机 程序</w>
199 2</w>
宪 章</w>
于 图</w>
流 速</w>
游 泳</w>
通 报</w>
甲 酸</w>
13 1</w>
试 样</w>
强 劲</w>
加利 福
实 践
服 用</w>
装 载</w>
就 业
依 次</w>
万 吨</w>
如 图
R T</w>
机 动
牛 奶</w>
波 兰</w>
称 作</w>
区 域
短 信</w>
悬 挂</w>
邮 箱</w>
董 事长</w>
参 议院</w>
失 业</w>
指示 器</w>
硅 氧烷</w>
友 谊</w>
上 传</w>
L CD</w>
发展 趋势</w>
难 题</w>
脆 弱</w>
认 定</w>
护 士</w>
如图 所示</w>
大 力</w>
衰 退</w>
市 长</w>
沃 尔
高速 缓存</w>
以 使</w>
蓄 电池</w>
住 院</w>
转 化
N H
透 过</w>
更 长</w>
中 方</w>
剪 切</w>
ou n
苯 基</w>
优 良</w>
c o</w>
金 钱</w>
E C</w>
冬 季</w>
石 油
3 8
流 器</w>
并 联</w>
chan ge</w>
办 公</w>
致 命</w>
13 6</w>
液 相</w>
次 级</w>
氢 氧化
粉 丝</w>
截 面图</w>
广 西</w>
短 路</w>
情 报</w>
监 会</w>
死亡 率</w>
边 境</w>
异 氰
铰 链</w>
收 发器</w>
13 5</w>
对 接</w>
有 线</w>
高 性能</w>
底 座</w>
薪 酬</w>
AC K</w>
牙 齿</w>
全 市</w>
经济 学家</w>
多 家</w>
40 00</w>
调 研</w>
陈 述</w>
高 新
层 叠</w>
毫 升</w>
破 裂</w>
时 光</w>
蒸 气</w>
变 换器</w>
增 进</w>
耳 机</w>
迭 代</w>
祖 国</w>
人民 政府</w>
展 现</w>
欣 赏</w>
自 杀</w>
几 十年</w>
ag e</w>
满意 度</w>
歧 管</w>
邻 居</w>
没 事</w>
断 裂</w>
普 遍
婚 礼</w>
普 及</w>
宝 贵</w>
以 至于</w>
题 为</w>
6 A</w>
谈 谈</w>
继 承</w>
流 过</w>
主义 者</w>
外 汇</w>
中 性</w>
测 量
所 知</w>
体 上</w>
海 关</w>
交 给</w>
严 格
东 盟</w>
舒 服</w>
既 然</w>
适 应
提取 物</w>
2 16</w>
C F
甲 状
换 能器</w>
会 儿</w>
1. 3</w>
外 周</w>
放 缓</w>
一 道</w>
信 念</w>
er s</w>
粒 度</w>
微 处理器</w>
所 有权</w>
大 气
彩 票</w>
桌 子</w>
防 御</w>
不 见</w>
发射 机</w>
会 见</w>
苏 联</w>
盐 酸</w>
针 对性</w>
wt %</w>
火 灾</w>
试 验
抗 生素</w>
1 20
国 债</w>
房 价</w>
南 亚</w>
最大 化</w>
S u
节 日</w>
充 当</w>
空 腔</w>
烟 草</w>
溶 于</w>
西 省</w>
场 合</w>
苏 格兰</w>
am e</w>
摧 毁</w>
免 受</w>
样 式</w>
权 人</w>
I g
比 重</w>
入 物</w>
拉 丁
机 组</w>
ec t</w>
走 进</w>
凋 亡</w>
创 新
风险 管理</w>
边 形</w>
在 下文</w>
最 早</w>
氮 气</w>
RO M</w>
日 常
来 讲</w>
作 战</w>
资源 管理</w>
操作 者</w>
渗 透
捐 款</w>
医疗 保健</w>
犹 太
双 重</w>
纹 理</w>
水 溶性</w>
聚 合
煤 炭</w>
流 行
战 斗
v i
滥 用</w>
圆 周</w>
ati on
C S</w>
传 达</w>
支 柱</w>
昨 日</w>
非 正式</w>
英 国
U n
ac k</w>
三角 形</w>
新 生
黑 人</w>
创 业
所得 税</w>
内 涵</w>
40 1</w>
桌 面</w>
PE G</w>
未 知</w>
失 踪</w>
提供 者</w>
6 10</w>
当事 人</w>
A A</w>
ac h
防 范</w>
侧 视图</w>
V is
亚 马
实 在</w>
V M</w>
制 动器</w>
绑 定</w>
显 得</w>
印度 尼
or e</w>
特 征
语 法</w>
跟 着</w>
现 出</w>
冒 险</w>
基 部</w>
微 笑</w>
L O
A B
迄今 为止</w>
局 限于</w>
m 3</w>
总 值</w>
继 续
车 身</w>
而 易
夹 持</w>
4 5
光 栅</w>
阴 影</w>
心 肌
托 盘</w>
香 港
反 恐</w>
带 领</w>
Ex change</w>
览 会</w>
时间 表</w>
差 分</w>
少 于</w>
天 空</w>
节 约</w>
和 解</w>
灌 注</w>
40 0
开 支</w>
一 届</w>
双 边</w>
保 罗</w>
换 言之</w>
乙 二醇</w>
以 期</w>
讲 述</w>
全 年</w>
外 围</w>
容 积</w>
通 风</w>
交 替</w>
子 集</w>
敏感 性</w>
柴 油</w>
失 效</w>
存储 介质</w>
官 能</w>
硫 酸
P ow
we b</w>
中 空</w>
口 腔</w>
多 项</w>
南 方</w>
窗 户</w>
塞 尔</w>
复 兴</w>
锅 炉</w>
40 6</w>
悬 浮</w>
击 者</w>
如 上</w>
社会 保障</w>
家 中</w>
O p
知 名</w>
电 线</w>
凹 部</w>
广泛 应用</w>
焊 盘</w>
装 修</w>
Ap p</w>
海 洋
J o
螺 旋
日 内
改 为</w>
士 学位</w>
方 向
奠 定</w>
退 火</w>
D at
残 基</w>
预 设</w>
一 步
啮 合</w>
14 4</w>
谈 话</w>
电 厂</w>
踏 板</w>
有限 责任</w>
分 层</w>
心脏 病</w>
肠 道</w>
染 色</w>
溶 胶</w>
明 确
春 节</w>
与 会
首 页</w>
悬浮 液</w>
耶 稣</w>
原 油</w>
S 2</w>
外交 部</w>
i f
振 器</w>
村 庄</w>
处 在</w>
包 装
毒 素</w>
环 状</w>
l l</w>
消 息
新华 社</w>
竖 直</w>
金融 市场</w>
贯 彻</w>
N o
资 金
图 中</w>
小 麦</w>
层 中</w>
re c
异氰 酸酯</w>
i k
摩托 车</w>
直 播</w>
第 三个</w>
伊斯 兰
t ro
4. 5</w>
野 生
支持 者</w>
数 学
缺 失</w>
庞 大</w>
经 销商</w>
3. 0</w>
Q u
裁 决</w>
日 本
科 研</w>
替 代
尸 体</w>
课 堂</w>
学 习
气 相</w>
4 B</w>
广 告
非 易</w>
三 星</w>
巴勒 斯坦
气 囊</w>
拯 救</w>
指 针</w>
T O
跨 越</w>
波 斯
废 水</w>
活 着</w>
夫 妇</w>
梗 死</w>
最 快</w>
展 望</w>
被 捕</w>
投 标</w>
亚马 逊</w>
m an</w>
乔 治</w>
摄 像</w>
高 考</w>
大 力
CO 2</w>
紫 外线</w>
木 材</w>
学 术
喷 墨</w>
为 何</w>
诸 多</w>
选 手</w>
可视 化</w>
解 调器</w>
5 20</w>
主持 人</w>
化妆 品</w>
外 汇
3 B</w>
E L</w>
那 儿</w>
Ma c</w>
肝 脏</w>
运 送</w>
肝 炎</w>
丧 失</w>
达 州</w>
肺 炎</w>
转 基因</w>
动 物
华 为</w>
国 防</w>
氢 气</w>
俄罗 斯
2 11</w>
b er
恐 怖</w>
旅游 业</w>
被 告</w>
语 文</w>
主 意</w>
两 位</w>
上 下</w>
不 应</w>
缩 放</w>
l y</w>
as e</w>
负 极</w>
三 天</w>
聚 丙烯</w>
3 40</w>
粘 结</w>
S y
充分 利用</w>
AP P</w>
朝 着</w>
困 扰</w>
e m</w>
发生 变化</w>
酒 精</w>
伙 计</w>
生产 线</w>
书 籍</w>
乙 基</w>
m p
一 片</w>
政 权</w>
更 具</w>
东 京</w>
S M
烹 饪</w>
Off ice</w>
紧 固件</w>
传 染
变 速
E M</w>
三 分之一</w>
发 病</w>
尽 量</w>
缅 甸</w>
用 量</w>
教 科
走 出</w>
游 泳池</w>
厂 商</w>
IB M</w>
座 位</w>
克 斯坦</w>
老 化</w>
空 白</w>
比 利
农 场</w>
别 墅</w>
以 太
味 道</w>
必要 性</w>
缺 血</w>
开发 人员</w>
明 显
村 民</w>
例 外</w>
染 色
N F</w>
暴 力
指 挥</w>
私营 部门</w>
连 续
es s</w>
回 忆</w>
F i
丙 基</w>
国际 化</w>
F P
北 省</w>
违 法</w>
当 年</w>
5 5
争 端</w>
航 天
振荡 器</w>
E P
领导 者</w>
凸 起</w>
印度尼 西亚</w>
冗 余</w>
化 硅</w>
官 能
见 面</w>
这 时</w>
本 届</w>
旅 客</w>
膨 胀
群 岛</w>
核 心
奋 斗</w>
冲 洗</w>
妊 娠</w>
多 功能</w>
S N
病 症</w>
ac k
工 具
拓 扑</w>
负 债
发 动</w>
监视 器</w>
方 框</w>
c el</w>
回 流</w>
克 罗
多元 化</w>
真 相</w>
江 省</w>
面 试</w>
不 安</w>
日常 生活</w>
伤 口</w>
主 人</w>
皇 家</w>
直 流
一 遍</w>
C u</w>
克 萨
求 解</w>
A 1</w>
S W
60 2</w>
想 起</w>
时 机</w>
儿 童
东 方</w>
生 气</w>
加 拉
标 的</w>
防 水</w>
简 介</w>
重 构</w>
纯 度</w>
5 G</w>
挪 威</w>
漏 极</w>
大 选</w>
发 作</w>
人 权
时 序</w>
3 a</w>
配 体</w>
神经 元</w>
天 天</w>
en d
50 4</w>
空 间
百分 之
一 大
球 迷</w>
莫 斯科</w>
最大 值</w>
火 箭</w>
暗 示</w>
蚀 剂</w>
e e</w>
紧 凑</w>
科学 技术</w>
结构 性</w>
法 定</w>
国 有</w>
高 水平</w>
铝 合金</w>
每 一</w>
进 出口</w>
D R
武 汉</w>
多 达</w>
农 民
3 2
指 挥
使 馆</w>
加 勒
澄 清</w>
3 7
阿 里
碎 片</w>
涉 嫌</w>
航 天</w>
托 架</w>
水 资源</w>
功 效</w>
填 写</w>
努 力
14 .
核 算</w>
最 具</w>
宏 观</w>
几 周</w>
经 验
电 台</w>
管理 层</w>
冷 冻</w>
尼日 利亚</w>
有 线
古 代</w>
通 量</w>
墨 水</w>
后 期</w>
外 科
余 物</w>
治 疗
注 释</w>
起 点</w>
嫌疑 人</w>
克 力</w>
美国 政府</w>
充分 发挥</w>
S L
ac le</w>
病 率</w>
难 度</w>
显 而易
三 大</w>
显而易 见</w>
总 共</w>
约 翰
八 个</w>
过 于</w>
公 开
切 口</w>
最 低
变 型</w>
拟 议</w>
时 说</w>
销售 额</w>
升 机</w>
表 示
住 宿</w>
借 款</w>
失 业
城 乡</w>
北 约</w>
层 压</w>
西 安</w>
夹 具</w>
o t</w>
科 学院</w>
核 准</w>
路 面</w>
钢 板</w>
伯 特</w>
分离 器</w>
室 外</w>
编 辑
乐 队</w>
反 弹</w>
步 行</w>
申 报</w>
1 1.
x x</w>
l as
分 级</w>
持续 性</w>
振 幅</w>
传 感</w>
语 句</w>
己 烷</w>
绝 大多数</w>
固定 资产</w>
HT TP</w>
剧 院</w>
两 端</w>
一 本</w>
负 面
小 米</w>
飞 往</w>
马 斯</w>
PD F</w>
共同 努力</w>
硫 酸</w>
第三 次</w>
心 情</w>
少数 民族</w>
交 流
阴 离子</w>
城 镇
院 长</w>
网 膜</w>
杂 交</w>
聚 会</w>
蒙 古</w>
巴 巴</w>
人民 法院</w>
H B
财政 部</w>
扶 贫</w>
浴 缸</w>
真 菌</w>
运 输
启 动
199 1</w>
亏 损</w>
丙烯 酸酯</w>
不可 避免</w>
Q Q</w>
生产 率</w>
服务 器
H F</w>
利 亚
上 个月</w>
设 法</w>
尖 端</w>
强 迫</w>
教 导</w>
被 动</w>
步 伐</w>
硅 烷</w>
夹 紧</w>
竞 赛</w>
上 万</w>
继 电器</w>
类 似
征 收</w>
笔记 本
超 市</w>
开 设</w>
日内 瓦</w>
商 定</w>
荣 誉</w>
P P</w>
导 演</w>
同 性
结构 域</w>
2 32</w>
德 里</w>
水 量</w>
流 出</w>
总 体
狭 窄</w>
移动 装置</w>
听 取</w>
宗 旨</w>
冠 状
中 等</w>
2. 1</w>
2. 2</w>
开发 者</w>
赚 钱</w>
文件 系统</w>
ex t</w>
U N
奖 金</w>
对 外
备 用</w>
球 场</w>
佛罗 里
T A</w>
亚 太
m e</w>
传 送
两 倍</w>
广 阔</w>
p ro
冷 凝
出 租车</w>
生 成
购 物
新 建</w>
帮 忙</w>
记 录
散 热器</w>
以太 网</w>
产 出</w>
认 真
E L
温 室</w>
失 所</w>
消 化</w>
固 有</w>
流 离
流离 失所</w>
电 商</w>
日 历</w>
虚 假</w>
行 进</w>
st r
放 入</w>
管 如此</w>
尽 管如此</w>
仪 表</w>
薄 片</w>
奥 斯
静 止</w>
手 势</w>
硅 胶</w>
增 量</w>
多样 化</w>
圣诞 节</w>
统计 数据</w>
肥 胖</w>
正 极</w>
穿 戴</w>
应 付</w>
15 .
蒸 馏</w>
进 化</w>
发行 人</w>
罕 见</w>
创 始
4 30</w>
索 马里</w>
提 起</w>
纲 领</w>
包 裹</w>
MP a</w>
募 集</w>
岩 石</w>
笔记本 电脑</w>
威 尔
差 不多</w>
悬 架</w>
电动 汽车</w>
纠 纷</w>
定 位
晚 餐</w>
大 多</w>
吹 风机</w>
动 力
宝 贝</w>
衬 垫</w>
P M</w>
此 基础</w>
信号 线</w>
应 收</w>
几 分钟</w>
m s</w>
官能 团</w>
立 方
手 表</w>
到 位</w>
物 料</w>
文 中</w>
专 辑</w>
人 大
P W
旅 行
上海 市</w>
D O
即 便</w>
幼 儿
摄 影
2 70</w>
进 口
心 中</w>
事 先</w>
B O
宽 松</w>
工 艺
国有 企业</w>
外 国人</w>
难 道</w>
聚 酰胺</w>
C 2</w>
扭 转</w>
控 器</w>
润滑 剂</w>
折 扣</w>
顶 级</w>
工 商</w>
上 学</w>
4 8
平 时</w>
上 次</w>
u al</w>
高 职</w>
饲 料</w>
中华 民族</w>
零 部件</w>
一 间</w>
解 密</w>
员 额</w>
聚 糖</w>
我 来</w>
境 外</w>
露 出</w>
除 此
昨 晚</w>
有 序</w>
钻 石</w>
缓冲 液</w>
周期 性</w>
O n
会 上</w>
分 配器</w>
肠 癌</w>
一 流</w>
赞 扬</w>
群 组</w>
秘 书</w>
世界 银行</w>
垃 圾
采取 措施</w>
成 千
离 婚</w>
类似 物</w>
按 压</w>
另一 端</w>
洗衣 机</w>
第 一步</w>
编 码
Or acle</w>
T S</w>
生长 因子</w>
纪 律</w>
连 杆</w>
搜 索
电 信号</w>
与会 者</w>
导 通</w>
创始 人</w>
长期 以来</w>
养 老</w>
西班 牙
二 氯
探 头</w>
英 特尔</w>
食 用</w>
尺 度</w>
自 豪</w>
er e</w>
an g
引 物</w>
u p</w>
D M</w>
债 权人</w>
电话 号码</w>
赤 字</w>
任 期</w>
配 制</w>
策 划</w>
溶 解
M B</w>
M E</w>
戴 尔</w>
两 项</w>
沮 丧</w>
买 方</w>
某 人</w>
成千 上万</w>
票 据</w>
关 节
起 草</w>
园 区</w>
设 在</w>
增 压</w>
银 行业</w>
服务 提供商</w>
高度 重视</w>
A T</w>
P ro</w>
u di
本 科</w>
二 进制</w>
充 满
N et
弥 补</w>
S 1</w>
HT ML</w>
eN B</w>
受 损</w>
生产 总值</w>
储 蓄</w>
交 互
近 端</w>
m i
另 有</w>
魅 力</w>
偿 还</w>
心 血管</w>
副 作用</w>
TF T</w>
年 内</w>
三 角</w>
工业 化</w>
经 受</w>
获 得
P R
接 纳</w>
小 孩</w>
这 笔</w>
之 路</w>
P l
引 领</w>
卓 越</w>
FD M</w>
校 长</w>
民 生</w>
粘 结
V I</w>
上 网</w>
说 服</w>
还 原
A 股</w>
光学 系统</w>
放 心</w>
游 离</w>
屋 顶</w>
改 良</w>
遭 遇</w>
影 片</w>
大 学
指 明</w>
30 5</w>
源 性</w>
分 隔</w>
注 射
再生 能源</w>
电 化学</w>
通 胀</w>
微 波
恢 复
谋 杀</w>
热 门</w>
无论 如何</w>
十 八</w>
负面 影响</w>
权 威</w>
底 层</w>
耐 心</w>
投 影
违 约</w>
哥伦 比亚</w>
稍 后</w>
毫无 疑问</w>
款 人</w>
葡萄 牙</w>
表 决</w>
0. 8</w>
塞 尔
看 待</w>
D L</w>
保 守</w>
介 于</w>
残 余</w>
T e
h o
收 回</w>
乐 趣</w>
故 意</w>
R 3</w>
取 得
加 沙</w>
冻 结</w>
卫 星
利 润
B 2</w>
一 切
不 敢</w>
山 区</w>
宠 物</w>
财务 报表</w>
马 拉
芝 加
六 个月</w>
宏观 经济</w>
生态 环境</w>
削 弱</w>
股 东
无 法
渲 染</w>
一 根</w>
布 莱
凭 证</w>
域 网</w>
容 忍</w>
预 警</w>
冷却 剂</w>
干 事</w>
色 谱法</w>
排 放
伴 侣</w>
波斯 尼亚</w>
宣 传
w or
神 秘</w>
第一 层</w>
拉丁 美洲</w>
临 界</w>
益 处</w>
洗 脱</w>
初 期</w>
而 已</w>
民 营</w>
诚 信</w>
勇 气</w>
健 身</w>
表 面积</w>
极 其</w>
缴 纳</w>
1. 6</w>
下 半年</w>
创 伤</w>
却 是</w>
执 政</w>
不 适</w>
CC H</w>
16 2</w>
全 面
无人 机</w>
13 8</w>
公共 服务</w>
一 行</w>
款 项</w>
数据 源</w>
辞 职</w>
深圳 市</w>
U T
列 举</w>
欺 诈</w>
杀 害</w>
半 岛</w>
物 资</w>
医 师</w>
蛋白 酶</w>
产品 质量</w>
对 面</w>
2 24</w>
ht t
党 委</w>
前 期</w>
分析 法</w>
曲 轴</w>
L 2</w>
修 正
正 确
不良 反应</w>
V A</w>
状 物</w>
锂 离子</w>
外 部
光 子</w>
向 导</w>
之 为</w>
共 用</w>
哥 哥</w>
刚 度</w>
粮 食
oo k
图 形
两 家</w>
大 体上</w>
蛋 糕</w>
火 焰</w>
电 气
短 暂</w>
微波 炉</w>
详 情</w>
共同 体</w>
救 济</w>
前 言</w>
在 乎</w>
垄 断</w>
哪 儿</w>
M B
丧 生</w>
国际 贸易</w>
胆 固醇</w>
姿 势</w>
道 理</w>
15 1</w>
p er
存 放</w>
共和 党人</w>
食品 安全</w>
剥 夺</w>
N i</w>
看 上去</w>
军 人</w>
抗 蚀剂</w>
导 率</w>
传 统
现金 流量</w>
恐怖 分子</w>
液 滴</w>
二 烯</w>
跟 随</w>
散 热</w>
微 观</w>
阿里 巴巴</w>
快 速
iP ad</w>
订 购</w>
直 升机</w>
酰 亚胺</w>
浆 料</w>
朝 鲜
es t</w>
快 递</w>
极 化</w>
阿 里</w>
考 生</w>
I B</w>
停 留</w>
广 东省</w>
变 性</w>
两 周</w>
国民 经济</w>
N ET</w>
派 遣</w>
电 感</w>
植 入物</w>
联 剂</w>
道 歉</w>
剂 盒</w>
H P</w>
收 率</w>
单 元
斯 州</w>
蒸 发器</w>
场 地</w>
R A</w>
颁 布</w>
市场 化</w>
高 管</w>
面 包</w>
生命 周期</w>
出版 物</w>
巧 克力</w>
分析 方法</w>
2 O</w>
营 造</w>
学 金</w>
变速 箱</w>
预 览</w>
有限 元</w>
发 挥
咨 询
屏 障</w>
比利 时</w>
全 力</w>
控制 阀</w>
布 朗</w>
凭 借</w>
多 核苷酸</w>
16 .
地 示</w>
置 换</w>
再 也</w>
纺 织
抑 郁</w>
板 块</w>
多元 醇</w>
不 但</w>
C M</w>
磷 酸
志 愿</w>
L 1</w>
不 论</w>
空 闲</w>
丹 麦</w>
星期 五</w>
30 3</w>
台 湾
适 度</w>
1. 4</w>
叠 加</w>
特 别
切 除</w>
电 量</w>
气 泡</w>
鸡 蛋</w>
百 度</w>
启动 子</w>
联合 会</w>
自由 基</w>
T CP</w>
套 件</w>
钢 铁</w>
车 道</w>
法律 法规</w>
开发 计划署</w>
澳 门</w>
令 牌</w>
充 电器</w>
域 名</w>
M M</w>
观察 员</w>
软 管</w>
短 缺</w>
哮 喘</w>
合 计</w>
重新 启动</w>
a u
本 月</w>
推 行</w>
舞 蹈</w>
高 精度</w>
抽 吸</w>
空 穴</w>
7 5%</w>
说明 性</w>
高 科技</w>
调 谐</w>
IS O</w>
唤 醒</w>
在 家</w>
公 允</w>
乙烯 基</w>
负 面</w>
激 光束</w>
加 州</w>
光 灯</w>
浮 动</w>
解 锁</w>
或 非</w>
+ +</w>
__ __
一 线</w>
新生 儿</w>
手 续</w>
丁 基</w>
北 美</w>
迷 你</w>
应 有</w>
列 车</w>
半 个</w>
飞行 员</w>
注 射器</w>
V C</w>
并 购</w>
称 之为</w>
We b
字 体</w>
发 给</w>
所 选</w>
月 初</w>
操作 员</w>
残 余物</w>
所 在
中 为</w>
入 射</w>
城 区</w>
参 议员</w>
数据 结构</w>
i p
笔 者</w>
中 介</w>
农 村
此 种</w>
微 博</w>
把 手</w>
后 部</w>
2 50
资 讯</w>
S E</w>
预 报</w>
下 调</w>
环 氧</w>
演 变</w>
9 9
税 率</w>
省 委</w>
酰 基</w>
一 会儿</w>
停车 场</w>
大 厦</w>
众 议院</w>
修正 案</w>
未 有</w>
通 式</w>
隔 膜</w>
诚 实</w>
精 彩</w>
迎 来</w>
球 形</w>
捐 赠</w>
重 置</w>
优 惠
U S</w>
玩 笑</w>
殖 民
真 空
七 个</w>
专 门
体 系
拉 夫</w>
日 益
多 久</w>
并 于</w>
餐 馆</w>
磁 共振</w>
言 论</w>
15 4</w>
依赖 性</w>
贯 彻
立体 图</w>
沉 默</w>
有线 电视</w>
救 助</w>
菌 株</w>
重 力</w>
里 兰
每 股</w>
成 品</w>
t h</w>
稍 微</w>
消 毒</w>
隔 开</w>
恰 当</w>
内 心</w>
核 查</w>
网络 安全</w>
凹 陷</w>
SEQID NO</w>
不 太</w>
筹 资</w>
下 次</w>
百 万</w>
染色 体</w>
秒 钟</w>
靶 向</w>
之 际</w>
证 人</w>
男 女</w>
根 据
腔 镜</w>
冬 天</w>
Cl ou
三 名</w>
真 实
A 2</w>
组 建</w>
各个 方面</w>
拾 取</w>
2 C</w>
帝 汶</w>
P U
会计 师</w>
筹 备</w>
交 往</w>
跨 境</w>
更 少</w>
药 剂</w>
充 气</w>
2 18</w>
解 调</w>
选 中</w>
法 语</w>
并 入</w>
如 同</w>
一 者</w>
消 化
有 效率</w>
数 额</w>
记 载</w>
午 餐</w>
F R</w>
登 记
D e
P h
家 园</w>
脂 质</w>
2. 4</w>
汇 报</w>
Manag er</w>
中国 人民
图 案
考 验</w>
装 箱</w>
自 治</w>
图案 化</w>
电 流
华 尔
总 监</w>
据 悉</w>
奥 地
m RNA</w>
0. 4</w>
柴 油
结构 化</w>
1. 8</w>
C a
看 不到</w>
视 网膜</w>
篮 球</w>
1 17</w>
or y</w>
L .
F T</w>
云 南</w>
车 载</w>
访 者</w>
模 量</w>
教育 部</w>
I F</w>
二氯 甲烷</w>
尔 顿</w>
体系 结构</w>
再 循环</w>
度 假</w>
C ar
户 外</w>
L P</w>
粘结 剂</w>
数 组</w>
不 如</w>
拍 卖</w>
闪 烁</w>
3 14</w>
制 止</w>
保护 层</w>
发挥 作用</w>
E R</w>
燃 气</w>
第二 层</w>
试 剂盒</w>
U L</w>
乘 坐</w>
A V</w>
高 效率</w>
解决 办法</w>
媒 介</w>
河 南</w>
总 局</w>
利 比亚</w>
偏 转</w>
上 时</w>
移 交</w>
保 证
捐 助
酷 刑</w>
净 利润</w>
激 酶</w>
污 水</w>
理 财</w>
各 向
主 教</w>
通 讯
ou r
开发 商</w>
节 奏</w>
导 轨</w>
P M
门 口</w>
一 人</w>
热 爱</w>
除此 之外</w>
el l
油 价</w>
东 帝汶</w>
海 南</w>
保 养</w>
伸 出</w>
终端 设备</w>
m m
00 0
汽 缸</w>
熔 化</w>
主 导
Po int</w>
赛 事</w>
苯 二
人 为</w>
犹太 人</w>
市 中心</w>
ac e</w>
S 3</w>
租 金</w>
卸 载</w>
风 暴</w>
个 性</w>
延 续</w>
传 真</w>
刷 新</w>
着 色</w>
帝 国</w>
除 外</w>
外 界</w>
胚 胎</w>
置 信</w>
这 名</w>
愚 蠢</w>
14 1</w>
长 远</w>
B T</w>
p m</w>
市场 份额</w>
大 豆</w>
B u
中 药</w>
早 晨</w>
商 家</w>
r y</w>
市 政府</w>
账 款</w>
看 过</w>
纳米 管</w>
杰 克</w>
幼儿 园</w>
盖 子</w>
严 峻</w>
i on</w>
DM A</w>
一 面</w>
维 尔</w>
学 到</w>
拆 除</w>
土 地
P R</w>
铸 造</w>
地 带</w>
可 见
氮 化物</w>
主 管部门</w>
一 颗</w>
骄 傲</w>
开 关
买 家</w>
船 只</w>
心 理学</w>
输 入
客 厅</w>
k er</w>
姐 姐</w>
审 计
Ex cel</w>
rip t</w>
I O</w>
受 控</w>
一 刻</w>
科 威
沥 青</w>
洗 涤
喜 爱</w>
F or
武装 冲突</w>
装 有</w>
议 题</w>
电 感器</w>
一 笔</w>
7. 5</w>
省 级</w>
模 块
市 委</w>
平 板
卫生 间</w>
一 大</w>
浸 渍</w>
4. 0</w>
撤 销</w>
一般 来说</w>
全 文</w>
o v
值得 注意</w>
柱 塞</w>
祈 祷</w>
发 现
增 多</w>
究 竟</w>
天 堂</w>
线 缆</w>
旅 馆</w>
保 障
C .
年 间</w>
切 片</w>
章 程</w>
规 划
自 行</w>
4 12</w>
研究 员</w>
进 一步
进一步 提高</w>
招 生</w>
a b</w>
分 之
读 取
s c
将 近</w>
相 干</w>
某种 程度</w>
得 多</w>
地 上</w>
死 刑</w>
编 译</w>
减 速</w>
键 入</w>
作 出
身份 验证</w>
席 位</w>
皮 细胞</w>
幼 儿</w>
示范 性</w>
开 采</w>
7 5
介 导</w>
崛 起</w>
象 征</w>
认 同</w>
40 8</w>
7 10</w>
芝加 哥</w>
发 票</w>
获 胜</w>
19 80</w>
连接 件</w>
B l
劳 工</w>
校 验</w>
谐 波</w>
位 数</w>
促 进
喷 射器</w>
公 认</w>
惯 例</w>
8 8
见 图</w>
景 点</w>
片 剂</w>
强 有力</w>
走 势</w>
布 尔</w>
湖 南</w>
中 午</w>
孔 径</w>
每 当</w>
上 来</w>
巴勒斯坦 人</w>
利用 率</w>
6 a</w>
金融 服务</w>
L S</w>
F r
前 部</w>
磺 酸</w>
调 动</w>
纳 德</w>
卖 方</w>
布 拉
E d
四 分之一</w>
s e
2 80</w>
青 岛</w>
这 类</w>
摩 擦
配 对</w>
i OS</w>
通货 膨胀</w>
触 发器</w>
3 9
源 自</w>
谈 会</w>
晚 期</w>
妨 碍</w>
基 线</w>
ar t</w>
滚 筒</w>
刚 果
编辑 器</w>
变 化
教 室</w>
it e</w>
比 较
平 面图</w>
串 行</w>
时 性</w>
定 时器</w>
心 态</w>
政 协</w>
中 毒</w>
N F
思 想
积极 参与</w>
5 B</w>
慈 善</w>
小 板</w>
这 句</w>
哈 哈</w>
动 员</w>
刹 车</w>
马 克</w>
启 示</w>
成 年</w>
石 头</w>
穿 孔</w>
路 易
自 我
车 间</w>
鉴 别</w>
甘 油</w>
发明 人</w>
裂 纹</w>
信 标</w>
民主 共和国</w>
调制 器</w>
总 之</w>
5. 5</w>
触 觉</w>
虚 线</w>
囚 犯</w>
奥地 利</w>
常 驻</w>
频 器</w>
盒 子</w>
血 小板</w>
诞 生</w>
侵 害</w>
机 油</w>
M RI</w>
着 力</w>
特 殊
迈 克尔</w>
叫 做</w>
保 密</w>
首 相</w>
压 力
养老 金</w>
一 把</w>
G F</w>
绑 架</w>
识 别
除 术</w>
A WS</w>
科 研
管理 者</w>
失业 率</w>
1 b</w>
锦 标
器 具</w>
管理 体系</w>
乃 至</w>
零售 商</w>
锦标 赛</w>
福 建</w>
邻 国</w>
1 10
5 12</w>
挥 发性</w>
一 无
医 学
遏 制</w>
态 势</w>
al l</w>
多 重</w>
液 压
今 天
学 期</w>
磁 铁</w>
阐 明</w>
含 水</w>
好 事</w>
人 家</w>
身份 证</w>
模块 化</w>
探 究</w>
任 职</w>
为 重要</w>
7 A</w>
河 北</w>
宝 石</w>
同性 恋</w>
贯 穿</w>
凌 晨</w>
贝 尔
警 察
景 区</w>
关键 字</w>
绘 画</w>
用 药</w>
芬 兰</w>
经济 效益</w>
芳 族</w>
亲 自</w>
离 心
70 2</w>
稳定 剂</w>
构 型</w>
专利 申请</w>
自然 资源</w>
其 后</w>
Pow er
数据 线</w>
纷 纷</w>
制 冷</w>
患 儿</w>
大 卫</w>
柏 林</w>
爆 炸
5 50</w>
汤 姆</w>
退 化</w>
沿 海</w>
沙 特
世界 大战</w>
流 动
不 当</w>
促 销</w>
关节 炎</w>
情 报
军 方</w>
溅 射</w>
普 京</w>
蒙 特
大 赛</w>
胎 儿</w>
灰 尘</w>
气 温</w>
反对 派</w>
数据 分析</w>
活 动
忘 录</w>
管 路</w>
寻 常</w>
备 忘录</w>
重 量计</w>
势 头</w>
示 意</w>
P I</w>
温 和</w>
离 心</w>
A z
外 延</w>
前 所
线 索</w>
---- ----
扇 区</w>
干 旱</w>
重 返</w>
违 法
如 说</w>
全 体
润滑 油</w>
E S</w>
O ut
橄 榄
r a</w>
北 方</w>
蚀 性</w>
淋巴 细胞</w>
k m</w>
较 佳</w>
实 习</w>
0. 6</w>
基督 教</w>
输 送
扭 曲</w>
党 中央</w>
冠状 动脉</w>
一 杯</w>
调制 解调器</w>
螺 杆</w>
没 错</w>
旋转 轴</w>
燃烧 室</w>
熔 点</w>
内 核</w>
W i</w>
反射 镜</w>
轿 车</w>
不 足以</w>
产业 链</w>
白 人</w>
or t</w>
消 防</w>
物 业</w>
2 15</w>
农民 工</w>
詹 姆斯</w>
保 守
F e</w>
放射 性</w>
曲 率</w>
版 权</w>
年 期</w>
个人 信息</w>
纺 织</w>
an t
据 说</w>
第二 种</w>
修 理</w>
高 品质</w>
网络 设备</w>
6 5
身 体
H A</w>
是 非</w>
原 本</w>
D D</w>
麻 醉</w>
udi o</w>
17 .
没 关系</w>
振 兴</w>
之 旅</w>
一 点
拿 出</w>
3. 2</w>
Th e</w>
旺 达</w>
专家 组</w>
到 处</w>
而 成</w>
原 体</w>
否 是</w>
因 于</w>
搜索 引擎</w>
化 器</w>
科威 特</w>
十 九</w>
多 糖</w>
假 如</w>
驱 动力</w>
妹 妹</w>
失 真</w>
总 成</w>
射 击</w>
是 否是</w>
议 案</w>
13 3</w>
14 6</w>
O FDM</w>
G C</w>
金 山</w>
都 市</w>
星期 一</w>
P 1</w>
挑 战
6 000</w>
能 耗</w>
回 购</w>
清 洁
碱 金属</w>
争 论</w>
导 频</w>
14 5</w>
B r
精 确
豪 华</w>
元 区</w>
单 纯</w>
肯 尼亚</w>
一般 性</w>
环境 温度</w>
最高 法院</w>
冷却 器</w>
电 镀</w>
根据 上述</w>
抵 消</w>
日 元</w>
逻 辑
Ac ti
矿 物</w>
奖 学金</w>
卢 旺达</w>
事 业
反应 物</w>
有所 不同</w>
L A</w>
所 致</w>
2. 3</w>
公 交
切 除术</w>
分 公司</w>
6 20</w>
80 2</w>
1 100</w>
制 药</w>
H PLC</w>
帖 子</w>
此 事</w>
奇 迹</w>
欧 元区</w>
将 军</w>
达 尔
现 已</w>
以 内</w>
怎么 回事</w>
干 什么</w>
植 物
选择 器</w>
赞 成</w>
比 特
实 地</w>
廉 价</w>
Ad d
组 和</w>
出 行</w>
一 例</w>
煤 矿</w>
50 1</w>
营 企业</w>
不 满</w>
C I</w>
外 地</w>
隐 患</w>
前所 未有</w>
约 束
中 医</w>
阻 塞</w>
C R</w>
监 禁</w>
床 上</w>
体 会</w>
式 化</w>
钱 包</w>
接 待</w>
性 格</w>
学 历</w>
感 染
高 级别</w>
产 阶级</w>
T C</w>
复 发</w>
商 人</w>
硕 士</w>
第 一种</w>
碳 酸</w>
偏 压</w>
扣 除</w>
00 1</w>
收 藏</w>
i o</w>
高级 专员</w>
动 荡</w>
6 B</w>
规 范
垫 圈</w>
I X</w>
税 务</w>
整 治</w>
恶 性
报 酬</w>
套 房</w>
精 密</w>
短 时间</w>
t on</w>
R D</w>
血 性</w>
郁 症</w>
刀 具</w>
T I</w>
期 刊</w>
一 氧化
倡 导</w>
轻 微</w>
恶 劣</w>
底 板</w>
载 有</w>
机动 车</w>
罗 马
毛 巾</w>
十 个</w>
跨 国</w>
四 种</w>
经 纪
乙 方</w>
智 利</w>
寻 呼</w>
3 16</w>
东 北</w>
委 内
50 6</w>
粘 性</w>
沸 石</w>
阳 台</w>
委内 瑞
最 终
CA D</w>
买 卖</w>
残 疾</w>
想 想</w>
得 知</w>
天 使</w>
进 攻</w>
事务 所</w>
淘 汰</w>
可 控</w>
文化 遗产</w>
序 列
负债 表</w>
P V</w>
验 收</w>
立 刻</w>
18 .
难以 置信</w>
开 幕</w>
读 书</w>
尊 严</w>
描 述
O 3</w>
l er</w>
会 晤</w>
甲状 腺</w>
队 员</w>
出版 社</w>
声 学</w>
生 存
资本 主义</w>
行 李</w>
维 也
猜 测</w>
益 于</w>
外 资</w>
王 子</w>
变 异</w>
G Hz</w>
妇 女
家 乡</w>
不 受</w>
60 4</w>
生成 器</w>
浅 析</w>
第 九
第 八
范 畴</w>
中 共
气 动</w>
柬 埔
激 动
毛 细
新 生</w>
液 态</w>
T i</w>
培 训
您 好</w>
减 值</w>
知 名
极 为</w>
必 不可
年 度
根 源</w>
传 承</w>
8 A</w>
签 约</w>
来 源于</w>
i r</w>
洪 水</w>
wit ter</w>
集 装箱</w>
伺 服</w>
手 工</w>
富 裕</w>
氢 化</w>
高新 技术</w>
汉 语</w>
S e
5. 0</w>
Vis ual</w>
维也 纳</w>
金 刚
美 食</w>
htt p</w>
浪 漫</w>
微 小</w>
姿 态</w>
东 南亚</w>
公共 卫生</w>
平 安</w>
迫 切
博 览会</w>
人 文</w>
燃烧 器</w>
夜 晚</w>
C or
尊 敬</w>
C E</w>
皮 带</w>
气 象
程 式</w>
专业 知识</w>
热 性</w>
机 床</w>
s t</w>
o S</w>
美 味</w>
空 军</w>
最 长</w>
沉 积
农 药</w>
交通 工具</w>
In t
理 工
里 克</w>
介 电</w>
准 备
反 转</w>
墙 壁</w>
存储 系统</w>
推 移</w>
就 算</w>
过 多</w>
这 张</w>
谐 振器</w>
an n
e x</w>
行 情</w>
手 持</w>
柠 檬
取 样</w>
T 2</w>
颁 发</w>
必不可 少</w>
特 权</w>
PC B</w>
甲 方</w>
裂 缝</w>
谢 您</w>
飞行 器</w>
祝 贺</w>
沙特 阿拉伯</w>
党 的
res s</w>
es s
发现 自己</w>
服务 质量</w>
仅 为</w>
歌 手</w>
原 则
孕 妇</w>
分 类
封 信</w>
四 川
俯 视图</w>
内 壁</w>
多 晶硅</w>
一 度</w>
视频 信号</w>
R o
受 访者</w>
纳 税
激 情</w>
法 人</w>
E E
台 阶</w>
反 而</w>
减 弱</w>
15 6</w>
主 轴</w>
等 式</w>
安 装
开发 区</w>
B 1</w>
沙 发</w>
双 边
招 募</w>
B e
气 味</w>
城市 化</w>
等 到</w>
M T</w>
不 开</w>
抗 性</w>
不 知</w>
解 雇</w>
第三 十
两 条</w>
安 德
隔 板</w>
枢 转</w>
重 于</w>
两 性</w>
电 势</w>
习 班</w>
海 地</w>
鼓 舞</w>
晚 些时候</w>
熔 体</w>
不太 可能</w>
相 比
氏 度</w>
h a
基 准
护 照</w>
勇 敢</w>
外 径</w>
4 b</w>
存 货</w>
江 苏
中 所
表 单</w>
图 解</w>
旅 程</w>
图 书</w>
等 效</w>
师 范
南 斯
相 匹配</w>
我 省</w>
s s
印 刷
企 图</w>
紧急 情况</w>
反 射器</w>
镜 片</w>
侧 向</w>
扩 展
向 外</w>
配 线</w>
堵 塞</w>
冷 凝</w>
冷凝 器</w>
干 燥
群 集</w>
放 到</w>
民主 党人</w>
B I</w>
建设 性</w>
史 密
克罗 地
曲 线图</w>
心 病</w>
中 起</w>
椅 子</w>
补 助</w>
急 剧</w>
达 成
助 手</w>
病 情</w>
斯 顿</w>
擦 除</w>
困 惑</w>
加 油</w>
风 景</w>
比 如说</w>
美 军</w>
错 误
故 障
骨 髓</w>
特 区</w>
录 制</w>
贸 发</w>
春 天</w>
4 40</w>
减 去</w>
帽 子</w>
PE T</w>
P 2</w>
声 誉</w>
大 道</w>
国 籍</w>
韧 性</w>
ap p</w>
卫生 组织</w>
稀 释
时 会</w>
可见 光</w>
刚果 民主共和国</w>
CN N</w>
拉 动</w>
端 点</w>
Sh ar
热 水</w>
激 动</w>
光 滑</w>
7 50</w>
信 誉</w>
R S
教 程</w>
H IV</w>
语 义</w>
异 构
i z
技术 创新</w>
A g
口 袋</w>
几 内
令人 满意</w>
连 同</w>
过 夜</w>
生 殖</w>
按 摩</w>
第一 位</w>
归 因于</w>
赞 同</w>
感 激</w>
顺 便</w>
克萨 斯州</w>
千 万</w>
E D
总 和</w>
斯 洛
支 付
C VD</w>
ec t
D NS</w>
大 厅</w>
原 谅</w>
模 仿</w>
威 尔</w>
重 复
用 地</w>
l ook</w>
细胞 因子</w>
闪 存</w>
坚 强</w>
上 以</w>
人 心</w>
埃 塞
占 有</w>
抑 郁症</w>
CS I</w>
地 雷</w>
环 路</w>
奥 运</w>
段 落</w>
着 色
防 火
最 少</w>
就业 机会</w>
集 团
圣 经</w>
苹 果
剂 型</w>
叙 述</w>
快 照</w>
缓冲 区</w>
乳 酸</w>
惰 性</w>
同 行</w>
吸 附
法 定
起 源</w>
达成 协议</w>
搭 建</w>
精 细</w>
胃 癌</w>
R U</w>
精 准</w>
脱 水</w>
肾 脏</w>
为 本</w>
6 50</w>
度 计</w>
调 解</w>
结 局</w>
摆 动</w>
解 放</w>
不 让</w>
做 些</w>
委内瑞 拉</w>
河 流</w>
20 .
高 强度</w>
密 集</w>
V PN</w>
祝 福</w>
S a
le y</w>
发 病率</w>
恶 性</w>
测 序</w>
喷 雾</w>
休 息
W O
M at
毛 泽
贯彻 落实</w>
地 域</w>
雇 用</w>
黑 龙
明 亮</w>
标志 物</w>
顶 点</w>
1 40
工作 室</w>
单元 格</w>
世 贸
剖 面</w>
印 尼</w>
人 大</w>
回 顾
当 作</w>
尴 尬</w>
随 访</w>
P 2
按 下</w>
聚 碳
玛 丽</w>
宗 教
聚碳 酸酯</w>
篇 文章</w>
卤 素</w>
州 长</w>
碳 纤维</w>
欺 骗</w>
h t</w>
酵 母</w>
涂 敷</w>
法 兰</w>
3 22</w>
对 冲</w>
牵 引</w>
注 解</w>
片 机</w>
原 有</w>
选 出</w>
锦 涛</w>
T witter</w>
全 方位</w>
件 事</w>
Di rec
物 可</w>
齐 全</w>
粗 糙
公 益</w>
X X
受 到
虚拟 化</w>
贵 州</w>
N T</w>
阴 性</w>
白 天</w>
复 制
孔 隙</w>
首 要</w>
耶 路
最 有</w>
耶路 撒
戏 剧</w>
对 比
PW M</w>
俄罗斯 联邦</w>
听 力</w>
要 点</w>
6 6
半导体 芯片</w>
饥 饿</w>
拟 合</w>
产 率</w>
色 素</w>
当 量</w>
通 气</w>
早 就</w>
5 30</w>
纳税 人</w>
悲 伤</w>
P a</w>
st er</w>
Wi Fi</w>
大 使馆</w>
胡 锦涛</w>
更 快</w>
路 器</w>
绝缘 体</w>
致 使</w>
售 价</w>
治 愈</w>
条 带</w>
地理 位置</w>
月 球</w>
星期 六</w>
洗 碗
15 5</w>
第一 组</w>
耶路撒 冷</w>
监 察</w>
作 风</w>
空 隙</w>
代理 人</w>
拟 订</w>
颈 部</w>
L e
A ut
跳 舞</w>
股东 大会</w>
AP K</w>
电 解</w>
腹 腔镜</w>
罪 犯</w>
悲 剧</w>
没 想到</w>
偶 尔</w>
禁 令</w>
选 用</w>
项目 管理</w>
正 规</w>
而 来</w>
证 监会</w>
中央 银行</w>
数百 万</w>
前 方</w>
据 称</w>
阻 尼</w>
讲 习班</w>
时 针</w>
智 力</w>
利 班</w>
白 血
u d
压 制</w>
2 25</w>
区 中</w>
塔 利班</w>
血 症</w>
差 值</w>
F P</w>
创造 性</w>
选择 地</w>
千 克</w>
波 士
细 分</w>
房 产</w>
首 选</w>
量 级</w>
无 水</w>
背 光</w>
机 能</w>
辐 射
塔 尔</w>
势 力</w>
娱 乐
列 为</w>
沙 漠</w>
地 毯</w>
看 作</w>
多 样</w>
洗碗 机</w>
脸 上</w>
F e
端 面</w>
咱 们</w>
轮 轴</w>
开 辟</w>
中 共</w>
M y
在 一起</w>
馈 送</w>
S ch
按 键</w>
喷 涂</w>
中 华</w>
即 时</w>
姐 妹</w>
C ol
2 26</w>
塑 造</w>
几 点</w>
说 出</w>
甲 醛</w>
叠 层</w>
断 路器</w>
大 师</w>
in a</w>
神 奇</w>
屠 杀</w>
万 个</w>
民 警</w>
各 界</w>
St udio</w>
耳 朵</w>
3. 1</w>
6. 5</w>
星期 二</w>
山 东省</w>
加 工
以 供</w>
严 厉</w>
钻 孔</w>
漫 长</w>
干 扰
较 强</w>
真 理</w>
适应 性</w>
医疗 保险</w>
大 门</w>
L L</w>
高尔 夫
相比 之下</w>
骨 架</w>
巴 布
联合 王国</w>
腾 讯</w>
人才 培养</w>
次 世界大战</w>
较 长</w>
穷 人</w>
可 调</w>
党 和
爱 好
2 21</w>
玻璃 纤维</w>
统 筹</w>
星 球</w>
金刚 石</w>
R 4</w>
其 为</w>
T 1</w>
搅 拌
剖 面图</w>
从 不</w>
罢 工</w>
光 刻</w>
举 报</w>
ic k</w>
平 静</w>
巨 头</w>
解 读</w>
比 尔</w>
昆 虫</w>
平 移</w>
16 8</w>
等 离子</w>
可 持续性</w>
家 用</w>
始 于</w>
各种 类型</w>
方 框图</w>
明 智</w>
不 上</w>
直 观</w>
支 援</w>
新 区</w>
史密 斯</w>
危 险
挑 选</w>
y th
施 工
钝 化</w>
聚 类</w>
C r
公 主</w>
in t
密切 相关</w>
确 保
中间 体</w>
福 特</w>
柬埔 寨</w>
N C</w>
感 光
生 病</w>
码 头</w>
19 .
学 员</w>
基 督</w>
读 数</w>
人 人</w>
一 看</w>
第 七</w>
大 体</w>
底 物</w>
图 纸</w>
一 架</w>
气 象</w>
Out look</w>
曲 面</w>
录 取</w>
创造 力</w>
里 程
滞 后</w>
发送 至</w>
流 域</w>
账 号</w>
陕 西</w>
新 年</w>
简 便</w>
小 型
惊 喜</w>
7 20</w>
对比 度</w>
安 徽</w>
6 4
彼 得</w>
盘 驱动器</w>
首 歌</w>
投 票
W LAN</w>
马 尔
介电 层</w>
高 清</w>
198 9</w>
A BS</w>
绝 对
球 菌</w>
裁 定</w>
ob e</w>
臭 氧</w>
这 样
叶 轮</w>
全 身</w>
捍 卫</w>
大 幅度</w>
Az ure</w>
机 电</w>
蜂 窝
总 的
M on
孤 独</w>
幕 式</w>
党 组织</w>
金融 资产</w>
种族 主义</w>
骨 骼</w>
撰 写</w>
的 是</w>
编 织</w>
反 思</w>
互 换</w>
废 除</w>
审 理</w>
生 物质</w>
6 8
涨 幅</w>
派 对</w>
过 剩</w>
寡 核苷酸</w>
磷 酸盐</w>
远 侧</w>
舆 论</w>
ub e</w>
自 觉</w>
耦 接</w>
合 伙
挡 层</w>
代表 大会</w>
花 板</w>
下 一代</w>
t ext</w>
PV C</w>
健康 状况</w>
局 域网</w>
阻 挡层</w>
瞬 间</w>
切 实
强 奸</w>
渔 业</w>
钢 筋</w>
一 词</w>
管 芯</w>
扫描 仪</w>
受 理</w>
愿 景</w>
民 意
夜 间</w>
适 配</w>
诊 所</w>
感 到
家 属</w>
毫 克</w>
枪 支</w>
埃塞 俄
省 政府</w>
SO 4</w>
去 过</w>
白血 病</w>
厕 所</w>
维 和</w>
默 认
传 热</w>
无 菌</w>
高 密度</w>
联 络</w>
G E</w>
U T</w>
买 入</w>
层 上</w>
抽 象</w>
关键 技术</w>
评 审</w>
H S</w>
s k
词 汇</w>
贝 尔</w>
餐 饮</w>
心 肌</w>
地 是</w>
文 本
Sc ript</w>
一 声</w>
1 19</w>
发送 器</w>
汇 总</w>
排放 量</w>
牢 固</w>
常 态</w>
系统 性</w>
执 照</w>
真 诚</w>
常 委会</w>
太 太</w>
A m
何 种</w>
世贸 组织</w>
破 坏
移 徙</w>
概 括</w>
治疗 剂</w>
新 一代</w>
孟 加拉
5 a</w>
格 鲁
奖 项</w>
指 引</w>
战 胜</w>
革 命
家 居</w>
血 流</w>
整 改</w>
新 颖</w>
供 水</w>
各向 异性</w>
江苏 省</w>
泄 露</w>
16 4</w>
尼 泊
纺织 品</w>
C o</w>
火 星</w>
突 发</w>
增 加
穿 透</w>
会计 准则</w>
存 活</w>
S R</w>
H D</w>
导 热</w>
领 取</w>
大 胆</w>
M g
额 定</w>
8 5%</w>
甲 酯</w>
入 境</w>
手 套</w>
亲 和
街 头</w>
不 住</w>
显 著
营 地</w>
M c
近 几
血 栓</w>
逆 转</w>
提 请</w>
17 2</w>
发 誓</w>
抽 取</w>
d B</w>
增 值
新 社</w>
德 斯</w>
第一 天</w>
三 十
20 7</w>
数据 信号</w>
拷 贝</w>
生产 商</w>
PP T</w>
金属 材料</w>
高 峰</w>
经纪 人</w>
文 物</w>
外 表</w>
D B</w>
水 稻</w>
生 于</w>
增 值</w>
正 好</w>
概 况</w>
扶 持</w>
助 力</w>
定 影</w>
拉 斯
淘 宝</w>
饮 用水</w>
树 木</w>
结构 调整</w>
n er</w>
以 免</w>
匈 牙
碳 纳米管</w>
残 留
普 勒</w>
奥 林
先 进
条 形
我 家</w>
4. 2</w>
3. 3</w>
卡 尔</w>
小 镇</w>
大 城市</w>
养 殖</w>
解 剖</w>
动 脉
巨 大
强 制性</w>
粘 贴</w>
无 数</w>
光 致
积极 性</w>
见 证</w>
IS A</w>
头 脑</w>
区 内</w>
城镇 化</w>
政 策
开 玩笑</w>
直流 电</w>
走 上</w>
精 英</w>
辩 护</w>
邪 恶</w>
大 西
支 配</w>
演 习</w>
i p</w>
计 入</w>
勘 探</w>
愈 合</w>
同 等</w>
药 用</w>
管 辖</w>
罗 斯</w>
护 套</w>
使 该</w>
实用 新型</w>
保护 区</w>
低 频</w>
务 实</w>
浙 江省</w>
C r</w>
发 泡</w>
加 深</w>
寒 冷</w>
12 7</w>
姑 娘</w>
联邦 政府</w>
应 激</w>
媒体 报道</w>
请 单击</w>
中间 层</w>
B D</w>
一切 都
E t
波士 顿</w>
缠 绕</w>
送 给</w>
4 4
行 走</w>
匿 名</w>
不 出</w>
智能 化</w>
查 明</w>
人 格</w>
第一 章</w>
用户 名</w>
贬 值</w>
阳 市</w>
微 控制器</w>
科 目</w>
测 定
美 术
破 碎</w>
流 向</w>
起 步</w>
质 子</w>
F S</w>
混 物</w>
盟 友</w>
这 点</w>
恶 意</w>
那 边</w>
着 重</w>
会议 室</w>
原 发性</w>
阶 层</w>
ic s</w>
推 导</w>
佩 戴</w>
减 排</w>
刑 法</w>
广 义</w>
多 路
感 动</w>
多路 复用</w>
平板 电视</w>
回 放</w>
惯 性</w>
塞尔 维亚</w>
发 表
过 高</w>
效 能</w>
皮 革</w>
丢 弃</w>
A g</w>
引 脚</w>
指 派</w>
Jo h
冠 心病</w>
教科 文
克 莱
全球 性</w>
地 层</w>
14 8</w>
.... ....
排 斥</w>
原 型</w>
灭 绝</w>
M 2</w>
着 手</w>
商务 部</w>
斯 蒂
注册 资本</w>
水 质</w>
入 射
简 档</w>
总 会</w>
合伙 人</w>
可 疑</w>
热 交换</w>
氧化 硅</w>
源 代码</w>
Ad obe</w>
提 问</w>
发 热</w>
答 应</w>
每 组</w>
前 沿</w>
国防 部</w>
额 度</w>
o m</w>
丙 酮</w>
重 症</w>
国家 级</w>
利 昂</w>
纯 粹</w>
心理 健康</w>
技术 支持</w>
短 语</w>
镜 子</w>
老 百姓</w>
t ype</w>
内 径</w>
白 细胞</w>
P la
内 膜</w>
还 应</w>
抗 菌</w>
限 值</w>
k s</w>
电子 器件</w>
援 引</w>
越 大</w>
细 化</w>
假 日</w>
第二 组</w>
镜 像</w>
状 态
吞 吐
辆 车</w>
手 机
聚 烯烃</w>
基金 组织</w>
共 聚</w>
防火 墙</w>
C ent
厦 门</w>
比 亚
单 层</w>
B o
辛 苦</w>
Y ou
评 定</w>
动 态
综合 性</w>
湖 北</w>
核 实</w>
爱 心</w>
病 学</w>
专业 人士</w>
实 物</w>
纳 税</w>
正 向</w>
病 毒
缺 口</w>
孤 立</w>
迎 接</w>
工作 站</w>
米 尔</w>
开 枪</w>
D 2</w>
要 说</w>
不 然</w>
有 史
面 包
事 宜</w>
有史 以来</w>
D 1</w>
减 肥</w>
操作 性</w>
爱好 者</w>
交互 式</w>
省 份</w>
自然 灾害</w>
相 处</w>
开 通</w>
因 数</w>
当 地
遥 控器</w>
斯 里兰
坐 下</w>
i m</w>
灯 泡</w>
好 消息</w>
线 性
后 台</w>
忠 诚</w>
交 联剂</w>
劣 化</w>
例 程</w>
9 9.
幻 想</w>
关 系
粘 接</w>
肝 癌</w>
印 发</w>
P er
封 锁</w>
哈 尔
多 条</w>
3 G</w>
关 联
高 分辨率</w>
本 赛季</w>
25 6</w>
8 10</w>
应 为</w>
琼 斯</w>
管 辖
13 00</w>
林 业</w>
货 运</w>
尼 龙</w>
意 志</w>
现金 流</w>
f c</w>
穿 越</w>
透 析</w>
新 一轮</w>
带 给</w>
训 练
过 敏</w>
合 同
带 走</w>
批 量</w>
教科文 组织</w>
尼 尔</w>
1 30
影 剂</w>
右 键</w>
卵 巢</w>
克罗地 亚</w>
表 情</w>
M L
化 石</w>
排 队</w>
投 射</w>
研究 者</w>
卡 罗
政府 部门</w>
H AR
增值 税</w>
未 成年人</w>
受 益
多 余</w>
不 像</w>
球 蛋白</w>
教 材</w>
相 似
若 干
撞 击</w>
鞋 子</w>
意 识
模 子</w>
女 王</w>
k e</w>
矿 石</w>
天 花板</w>
十 六
有 毒</w>
上 课</w>
星期 三</w>
9 9%</w>
杰 出</w>
手 臂</w>
公共 汽车</w>
史 蒂
R a
颗 粒
第二 章</w>
天 气
1 C</w>
塞 浦
塞浦 路
N G</w>
升 压</w>
埃塞俄 比亚</w>
全 民</w>
部 落</w>
忍 受</w>
邓 小
之 日起</w>
摄 氏度</w>
严 肃</w>
an g</w>
高 中
开 销</w>
In st
干 嘛</w>
人 次</w>
裂 解</w>
工作 队</w>
在 外</w>
莱 坞</w>
战 士</w>
le s</w>
整 体
法 器</w>
中 小</w>
定 罪</w>
柔 软</w>
加利福 尼亚州</w>
预 约</w>
互 利</w>
西班牙 语</w>
连续 性</w>
电解 液</w>
过 敏
黄 金
驱 逐</w>
跨 国
主 页</w>
免疫 系统</w>
骚 扰</w>
yth on</w>
硬 币</w>
S R
在此 期间</w>
女 朋友</w>
紧 缩</w>
0. 7</w>
吞吐 量</w>
电子 产品</w>
泽 民</w>
津 贴</w>
法 令</w>
计算 方法</w>
CD MA</w>
异 构</w>
短 期内</w>
40 5</w>
大 麻</w>
3 b</w>
洗涤 剂</w>
中 旬</w>
ou t</w>
伦 理</w>
轮 毂</w>
支 票</w>
雷 斯</w>
洗 浴</w>
呈 现出</w>
用 车</w>
方向 盘</w>
持 有人</w>
3 65</w>
题 目</w>
色 调</w>
竟 然</w>
A b
民 营企业</w>
山 西</w>
暖 气</w>
80 1</w>
历史 性</w>
重 庆
再 见</w>
Serv ice</w>
稀释 剂</w>
历 程</w>
2 500</w>
可 溶性</w>
女 生</w>
好 多</w>
ro n
换 热器</w>
佛罗里 达州</w>
业 界</w>
摩 洛
C M
国际 公约</w>
d s</w>
开放 式</w>
准 入</w>
质 粒</w>
斯里兰 卡</w>
造 型</w>
原则 上</w>
i b
就 此</w>
迫切 需要</w>
创 立</w>
成 交</w>
整 天</w>
乡 镇</w>
回 落</w>
搭 配</w>
太 大</w>
里 斯</w>
登 陆</w>
奥林 匹
并 发</w>
基 化</w>
悠 久</w>
蔓 延</w>
口 号</w>
行 业
命 令
椭 圆形</w>
单 向</w>
H e
预 先
会 面</w>
卖 出</w>
机 架</w>
离子 交换</w>
S G
交 织</w>
外 层</w>
热 水
快 捷</w>
江 泽民</w>
限 性</w>
2 42</w>
笔记 本</w>
50 8</w>
P ar
富 含</w>
灯 光</w>
意识 形态</w>
心 率</w>
形 剂</w>
星期 四</w>
章 节</w>
战略 性</w>
2 13</w>
赋 形剂</w>
le t</w>
艺术 品</w>
友 好
纳 州</w>
P B
热 带</w>
排 水</w>
3 11</w>
旧 金山</w>
服务 中心</w>
F O
门 票</w>
I E</w>
数据 类型</w>
加 重</w>
经营 者</w>
哈 萨
老 鼠</w>
全 会</w>
跑 步</w>
油 田</w>
点 播</w>
通 话</w>
门 槛</w>
头 痛</w>
出 资</w>
建 议
传 媒</w>
住 所</w>
私 有</w>
举 动</w>
冷 冻
龙 头</w>
单 片机</w>
腐 蚀性</w>
保险 箱</w>
神 圣</w>
金 牌</w>
体 制
收 款</w>
广 大
走 廊</w>
顶 端</w>
u g
格鲁 吉
丝 绸
不 易</w>
管理 工作</w>
河 北省</w>
侵 入</w>
8 000</w>
甘 油
市 区</w>
孟加拉 国</w>
长 达</w>
内 人士</w>
塞 拉
比 里亚</w>
教 徒</w>
终 点</w>
体制 改革</w>
举 例</w>
杂 环</w>
网 球</w>
障 碍
芳 香
宽 敞</w>
一 小
Ga N</w>
15 8</w>
陪 审
务 人</w>
内 阁</w>
触 头</w>
棉 花</w>
集 器</w>
H 2</w>
初 中</w>
198 8</w>
利 比里亚</w>
伸 缩</w>
基督 徒</w>
读取 器</w>
游 行</w>
ic es</w>
电视 节目</w>
传染 病</w>
拍 照</w>
上 层</w>
- --</w>
整 流</w>
方 差</w>
心 灵</w>
D A</w>
S m
委 书记</w>
备 案</w>
越 高</w>
搜 寻</w>
比 值</w>
遗传 算法</w>
放 下</w>
混 合器</w>
证 会</w>
FP GA</w>
开 源</w>
保证 金</w>
W h
业 内人士</w>
上 线</w>
成 在</w>
游 戏
流 失</w>
70 4</w>
寻 址</w>
DS P</w>
春 季</w>
弹 药</w>
重 金属</w>
黑 客</w>
丝绸 之路</w>
坐 标
填 补</w>
知 情</w>
T R
稳 健</w>
亲 密</w>
旁 路</w>
X P</w>
购 买
无 人</w>
再 说</w>
C MOS</w>
拉 里</w>
A G</w>
EG F</w>
i es</w>
约 旦</w>
al l
次 序</w>
多 普勒</w>
亮 点</w>
丙 醇</w>
下 周</w>
o w</w>
该 市</w>
17 5</w>
窥 镜</w>
回 升</w>
重 型</w>
口 头</w>
相 连接</w>
角 膜</w>
开 会</w>
数 以
尼泊 尔</w>
江 西</w>
匈牙 利</w>
弟 弟</w>
富 尔</w>
国 主义</w>
上 调</w>
细 则</w>
该 死</w>
值 为</w>
石 化</w>
吸附 剂</w>
所在 地</w>
同 胞</w>
an c
60 1</w>
公 平
逃 离</w>
e st
E P</w>
硫 酸钠</w>
et t
可 逆</w>
句 子</w>
繁 殖</w>
示 于</w>
现 任</w>
网络 连接</w>
塞拉 利昂</w>
人权 委员会</w>
O LED</w>
数学 模型</w>
CE O</w>
进 球</w>
循 环
滑 块</w>
定 值</w>
宣 称</w>
格 式化</w>
潮 流</w>
阻 断</w>
这 条</w>
耐 久性</w>
细胞 系</w>
损 益</w>
沉积 物</w>
F F</w>
40 3</w>
饭 店</w>
全体 会议</w>
化学 物质</w>
听 证会</w>
摄 入</w>
18 2</w>
音 机</w>
奉 献</w>
长 江</w>
局 限性</w>
临床 意义</w>
熟 知</w>
可 信</w>
基 带</w>
协调 员</w>
增 压器</w>
我 院</w>
研究 成果</w>
L D</w>
S k
停 下来</w>
捐 助</w>
确 信</w>
F A</w>
an s
达尔 富尔</w>
取得 成功</w>
持 股</w>
客 服</w>
野生 动物</w>
内 窥镜</w>
摩洛 哥</w>
型 肝炎</w>
注射 液</w>
临床 试验</w>
借 贷</w>
交通 运输</w>
乌 干
坚 实</w>
不 佳</w>
首 个</w>
tro l</w>
如 前
P ID</w>
鼻 子</w>
环 绕</w>
后 代</w>
优 越</w>
N FC</w>
钢 管</w>
呼吸 道</w>
伤 亡</w>
边 界
建设 项目</w>
4. 1</w>
4 7
3 5%</w>
一 分钟</w>
不 去</w>
贮 存</w>
紧 张
堆 栈</w>
5 7
得 出
变 暖</w>
得出 结论</w>
面 向
ra m</w>
如前 所述</w>
结 核</w>
依 托</w>
集 会</w>
一 页</w>
共 计</w>
伊 朗
分 配
M n</w>
不 合理</w>
通 用
独 自</w>
晶 粒</w>
决 定性</w>
年 龄
后 勤</w>
斯 达
陆 地</w>
通 往</w>
搭 载</w>
好 莱坞</w>
第一 阶段</w>
随 之</w>
液 化</w>
加 固</w>
三 相</w>
总 重量</w>
不 明</w>
窗 格</w>
本 土</w>
这 边</w>
部 长
唱 歌</w>
阈 值
粗 糙</w>
毛细 管</w>
违 规</w>
C L</w>
三 条</w>
筛 查</w>
捐助 者</w>
引 人
分之 二</w>
解 答</w>
秘 鲁</w>
H O
率 先</w>
财务 管理</w>
谅 解</w>
16 5</w>
格鲁吉 亚</w>
化学 反应</w>
ma x</w>
狭 缝</w>
播 出</w>
5 8
撤 离</w>
阴 道</w>
回顾 性</w>
乌干 达</w>
美 容</w>
邻 接</w>
收 发
等 奖</w>
否 定</w>
G r
拥 抱</w>
马 拉</w>
霍 尔</w>
年度 报告</w>
变 色</w>
F ET</w>
军 官</w>
懂 得</w>
灵 感</w>
三 是</w>
厉 害</w>
公 报</w>
反 正</w>
反 过来</w>
E N
菲 尔德</w>
过 热</w>
安 哥
筹 集</w>
沿 线</w>
永 久性</w>
批 发
0. 25</w>
数字 信号</w>
H C</w>
升 值</w>
地 形</w>
相 容</w>
Direc t
没 收</w>
m M</w>
故障 诊断</w>
c m2</w>
异 步</w>
醒 来</w>
创新 能力</w>
Q oS</w>
L E</w>
赞 助</w>
借 口</w>
配 送</w>
同 情</w>
r pm</w>
水 处理</w>
P G</w>
对 本</w>
闻 名</w>
出 租</w>
里程 碑</w>
用 力</w>
两 大</w>
氮 化硅</w>
行 为
空 心</w>
我 用</w>
计 时器</w>
契 约</w>
商业 模式</w>
性 气体</w>
正 方形</w>
纤维 化</w>
快速 增长</w>
大 街</w>
催 化
账 面</w>
ic k
a w
复制 到</w>
稳 固</w>
财 经</w>
马 丁</w>
线 上</w>
豁 免</w>
门 户</w>
淋巴 结</w>
中 风</w>
M ac
名 人</w>
A c</w>
南 海</w>
下 表</w>
las h</w>
序 号</w>
从 业
就 让</w>
可 怜</w>
S AP</w>
2 20
既 有</w>
3 80</w>
不 及</w>
受 限</w>
奶 奶</w>
十 大</w>
光 轴</w>
印 第
条形 码</w>
恐 怕</w>
4 14</w>
辈 子</w>
总的 来说</w>
l in
数据 通信</w>
判 处</w>
O N</w>
此 举</w>
飓 风</w>
毛泽 东</w>
经 贸
常 务
青 年
普 查</w>
界 限</w>
恶性 肿瘤</w>
密切 合作</w>
便 捷</w>
简 直</w>
4 G</w>
底 面</w>
A F</w>
交 叉
枢 轴</w>
南斯 拉夫</w>
会 长</w>
缀 合</w>
d e
专业 化</w>
底 盘</w>
天 津
F M</w>
d er</w>
视 力</w>
分析 仪</w>
伯 格</w>
监督 管理</w>
适 用
照 相</w>
居 民
内 蒙古</w>
爱 好</w>
腹 部</w>
油 漆</w>
气 口</w>
国际 货币
2 34</w>
阿尔 及
战 场</w>
迈 出</w>
电力 系统</w>
宿 舍</w>
过 氧化物</w>
位 差</w>
模 塑</w>
熟 练</w>
6 30</w>
牧 师</w>
稳 态</w>
侵 蚀</w>
源 极</w>
配 偶</w>
助 剂</w>
主 观</w>
SC H</w>
电路 图</w>
玫 瑰</w>
电 脑
只 不过</w>
暴力 行为</w>
感 光</w>
A BC</w>
NO x</w>
容 许</w>
在 实践
船 上</w>
N 2</w>
较 差</w>
入 手</w>
透 社</w>
原子 能</w>
焊 料</w>
D B
12 a</w>
从 图</w>
世界 卫生组织</w>
水 印</w>
路 透社</w>
E l
不 止</w>
大西 洋</w>
掩 盖</w>
加勒 比</w>
街 上</w>
碳酸 氢
般 的</w>
ST A</w>
庇 护</w>
低 收入</w>
仪 表
R E</w>
中 止</w>
棕 色</w>
土 壤
在 我
溶解 度</w>
60 6</w>
当 下</w>
合法 权益</w>
开 拓</w>
拮 抗
信号 强度</w>
降 至</w>
粗糙 度</w>
一 期</w>
偏 见</w>
无 缝</w>
定 居
电视 机</w>
C 3</w>
擅 长</w>
第一 批</w>
b u
可 视</w>
分 娩</w>
卡 片</w>
托 人</w>
市场 需求</w>
试 试</w>
尽 力</w>
残 酷</w>
癌 细胞</w>
湿 地</w>
16 1</w>
罗马 尼亚</w>
溢 出</w>
消息 人士</w>
楼 梯</w>
可 拆卸</w>
难 过</w>
梳 理</w>
定 于</w>
C u
挑战 性</w>
执行 器</w>
文 学
随 意</w>
一般 而言</w>
h ere</w>
L og
抵 制</w>
坚 信</w>
碳 水
碳水 化合物</w>
剥 削</w>
海 水</w>
预 算
骨 头</w>
处 方</w>
0. 5%</w>
en n
打印 头</w>
钻 井</w>
警 惕</w>
B ar
8 00
边 际</w>
抗 氧化剂</w>
E R
河 南省</w>
万 名</w>
轻 易</w>
野 生</w>
位 线</w>
队 长</w>
有 意</w>
烷 氧基</w>
IP v
亚 历
布 斯</w>
投 放</w>
副 总裁</w>
稀 土</w>
唐 纳德</w>
P H</w>
清 算</w>
医 学院</w>
荣 幸</w>
件 人</w>
外科 手术</w>
转化 成</w>
16 6</w>
车 队</w>
激 进</w>
2 52</w>
一 月</w>
开 幕式</w>
喂 养</w>
Jav a
19 70</w>
连 结</w>
销 毁</w>
as s
民 事</w>
刻 蚀</w>
Clou d</w>
旗 下</w>
平 方</w>
毁 灭
V O
过 渡
6 7
航 行</w>
武 力</w>
il l</w>
滤 液</w>
抖 动</w>
消 融</w>
D H
投资 人</w>
情 景</w>
查 阅</w>
挡 板</w>
火 车站</w>
好 奇</w>
很 强</w>
接 线</w>
栓 塞</w>
显著 性</w>
重 启</w>
多 方面</w>
F 1</w>
指挥 官</w>
比 为</w>
相 继</w>
16 00</w>
E E</w>
博 弈</w>
不 高</w>
Sy st
亲 水性</w>
散 布</w>
拮抗 剂</w>
肺 部</w>
礼 品</w>
分散 剂</w>
奥 尔
好 了</w>
医疗 器械</w>
争 夺</w>
好 看</w>
沉 降</w>
沙 特</w>
垫 片</w>
喝 酒</w>
C V</w>
E MC</w>
本 地
交 货</w>
环 保
不 足
债 权</w>
陆 军</w>
控制 权</w>
讲 座</w>
0. 1%</w>
几 十
珠 宝</w>
平均 水平</w>
烤 箱</w>
执 法
3 15</w>
直 链</w>
人力 资本</w>
某 一</w>
喷 雾
十 五
耐 用</w>
国际货币 基金组织</w>
商 场</w>
反应 堆</w>
资源 分配</w>
人民 网</w>
四 条</w>
华尔 街</w>
启 发</w>
过 氧化
在实践 中</w>
介 意</w>
消 灭</w>
衬 套</w>
棱 镜</w>
字 线</w>
减 缓</w>
输出 功率</w>
产 妇</w>
详 述</w>
偶 联</w>
股票 市场</w>
玩 游戏</w>
工作 效率</w>
电源 线</w>
10 A</w>
m ent</w>
斯 科
公交 车</w>
低 级</w>
元 首</w>
9 A</w>
六 年</w>
毁灭 性</w>
瓶 颈</w>
塞浦路 斯</w>
u b</w>
见 过</w>
所 能</w>
见 解</w>
主 板</w>
福 建
书 写</w>
电 泳</w>
污 泥</w>
三 分之二</w>
群 众
控制 面板</w>
班 级</w>
3 C</w>
支 撑
我 市</w>
美 利
论 证</w>
介电 常数</w>
钢 琴</w>
老 婆</w>
兑 换</w>
水 下</w>
粉 碎</w>
无 辜</w>
羧 基</w>
D D
5 40</w>
3 70</w>
车 速</w>
单 克隆</w>
5. 1</w>
沉 重</w>
凝 聚</w>
目 标
期 货
残留 物</w>
良 性</w>
生 化</w>
粘 土</w>
纲 要</w>
行 了</w>
就 行了</w>
蓬 勃
自由 度</w>
结 晶
客户 服务</w>
三 届</w>
令人 兴奋</w>
G SM</w>
链 条</w>
指 标
反 腐败</w>
终 身</w>
至 多</w>
长 官</w>
这 款</w>
后 方</w>
多 边形</w>
动物 园</w>
on s</w>
广 州市</w>
选 活动</w>
演 奏</w>
红 十字
种 种</w>
违 背</w>
a h</w>
G 2</w>
遥 远</w>
合作 社</w>
文化 产业</w>
切 尔
东 北
第四 次</w>
高 分子</w>
十 二</w>
美 分</w>
侵 略</w>
苏 州</w>
支 链</w>
道 德
互 联
市场 竞争</w>
疏 水</w>
重 定向</w>
冷却 系统</w>
雾 化</w>
O K</w>
角 落</w>
问 卷</w>
弘 扬</w>
室 内
博 会</w>
优 雅</w>
. -</w>
便 利
价格 上涨</w>
召 集</w>
肾 上
隔 离
妥 协</w>
经 贸</w>
Ac c
青 春</w>
T NF</w>
上 将</w>
城 堡</w>
现 货</w>
油 气</w>
力 学
加 速器</w>
j ect</w>
感 化</w>
红 细胞</w>
经济 性</w>
P at
译 码</w>
非常 适合</w>
折 射</w>
衣 柜</w>
灰 度</w>
m an
法定 代表</w>
支付 宝</w>
手 术
冲 程</w>
si on</w>
机 票</w>
瞬 时</w>
公 用</w>
市 值</w>
前 者</w>
附 录</w>
od e</w>
高 原</w>
信 赖</w>
映 像</w>
艰 苦</w>
产 值</w>
着色 剂</w>
E S
相 交</w>
安 保</w>
决 权</w>
铰 接</w>
话 语</w>
语 言
小 儿</w>
概 要</w>
阈值 电压</w>
舒 适
原 告</w>
电 弧</w>
依 法
表 现
可 达</w>
脊 髓</w>
巴 士</w>
坚 固</w>
太 好了</w>
战 术</w>
绝 望</w>
冷 静</w>
学 费</w>
安哥 拉</w>
衬 衫</w>
转 染</w>
最小 值</w>
同 步
磁 化</w>
制 得</w>
调查 结果</w>
迷 人</w>
灭 菌</w>
信用 风险</w>
每 人</w>
M O</w>
接 枝</w>
评 为</w>
头 上</w>
威 廉</w>
m a</w>
记 忆
签 字</w>
心 室</w>
变 焦</w>
表 述</w>
感 谢您</w>
演 化</w>
15 3</w>
除 以</w>
附 加
聚 酰亚胺</w>
必 将</w>
en ce</w>
情 节</w>
加 息</w>
紫 外</w>
Com p
分 行</w>
中 海</w>
人 员
获 利</w>
证 件</w>
一 门</w>
大 臣</w>
气 溶胶</w>
4 9
西 南</w>
反射 率</w>
书 面
外交 部长</w>
不 规则</w>
预 见</w>
鱼 类</w>
力学 性能</w>
流 经</w>
层 间</w>
误 解</w>
得 起</w>
叔 叔</w>
自然 人</w>
溃 疡</w>
收 敛</w>
编 译
出 具</w>
k Hz</w>
b y</w>
10 000</w>
水 泵</w>
I V
谷 物</w>
无 聊</w>
EG R</w>
正 常
关 怀</w>
u p
接 管</w>
相 容性</w>
G N
切 割
D av
马 德里</w>
后 处理</w>
国家 一级</w>
更 多地</w>
氢氧化 钠</w>
大 声</w>
我 爱
陆 续</w>
非洲 联盟</w>
有 制</w>
四川 省</w>
卷 绕</w>
珍 惜</w>
行 事</w>
不 好
统计 局</w>
烟 雾</w>
V er
数 千
照 明
模拟 器</w>
ab le</w>
对 付</w>
得 不到</w>
水 管</w>
对 阵</w>
异构 体</w>
来 临</w>
光 明</w>
7 B</w>
柴油 机</w>
选 票</w>
深 远</w>
2 28</w>
14 3</w>
遥 感</w>
升 温</w>
外 来</w>
工作 量</w>
或 缺</w>
u n</w>
浓 缩
漂 移</w>
无线 电
实 用性</w>
合 众
柠檬 酸</w>
管理 制度</w>
留 学</w>
罗 伯特</w>
检察 院</w>
碰 到</w>
第二 阶段</w>
比 拟</w>
跨国 公司</w>
根本 上</w>
从 根本上</w>
申 诉</w>
耐 药</w>
物 在</w>
国 产</w>
转 到</w>
便 携</w>
高 铁</w>
硅 酸盐</w>
IS O
CN .
不 停</w>
郑 州</w>
相 变</w>
决策 者</w>
癫 痫</w>
推 力</w>
抑 制
维 奇</w>
药 物
家庭 成员</w>
如 表</w>
is co</w>
点 燃</w>
格 达</w>
本 条</w>
届 时</w>
财务 状况</w>
充 电
墨西 哥
ME MS</w>
b er</w>
送 往</w>
T ube</w>
心 力
打 扰</w>
药 性</w>
德 尔</w>
手 里</w>
分 支
统 一
蓬勃 发展</w>
侧 上</w>
男 朋友</w>
货 车</w>
氟 化</w>
孔 口</w>
第三 章</w>
降 低成本</w>
公安 局</w>
空气 质量</w>
光 标</w>
地 向</w>
秋 天</w>
C 4</w>
织 造</w>
系 列
同 轴</w>
T S
劳动 者</w>
检 测
当 日</w>
慈 善
中 来</w>
计 提</w>
山 市</w>
有 罪</w>
活 塞
清 醒</w>
数据 挖掘</w>
报 头</w>
仇 恨</w>
恶 心</w>
批 次</w>
家 电</w>
阅 读
宇 航
I R
消费 品</w>
原 位</w>
大 肠
水 位</w>
节 气门</w>
天 内</w>
体育 场</w>
二 手
聚 体</w>
新 款</w>
丰 田</w>
被 判</w>
安 慰</w>
强 烈
而 言之</w>
万 亿美元</w>
概 念
外 光</w>
有 待</w>
开 头</w>
光 体</w>
心力 衰竭</w>
率 为</w>
合 伙</w>
遥 控</w>
座 谈会</w>
度 假
e Point</w>
V M
外 出</w>
具体 来说</w>
1. 7</w>
状 及</w>
斯 基</w>
预防 措施</w>
修 补</w>
陷 阱</w>
态 性</w>
不 在乎</w>
电动 车</w>
聚 醚</w>
p H
网 址</w>
开发 署</w>
音乐 会</w>
网络 接口</w>
电 导率</w>
西 北</w>
标 本</w>
税 务
越 过</w>
利 斯</w>
电子 束</w>
破坏 性</w>
而 出</w>
H R</w>
现 状及</w>
弗 吉
约翰 逊</w>
12 A</w>
导 引</w>
过 分</w>
力 矩</w>
盈 余</w>
PC I</w>
身 高</w>
种 群</w>
198 6</w>
独立 性</w>
地下 水</w>
关 断</w>
H ar
压缩 空气</w>
at or</w>
I OS</w>
不可 或缺</w>
下 班</w>
腔 体</w>
18 00</w>
WT O</w>
订 户</w>
分支 机构</w>
程序 代码</w>
一 员</w>
榜 样</w>
S n
悉 尼</w>
其 余
其余 部分</w>
由 该</w>
无 形
一切都 是</w>
复 印
d a</w>
饱 和
主 席
音 量</w>
磷 脂</w>
通 电</w>
a h
m A</w>
电磁 阀</w>
il l
上 年</w>
质 体</w>
入 住</w>
典 礼</w>
嵌 段</w>
增 生</w>
G e
早 已</w>
呵 呵</w>
肾 病</w>
包 覆</w>
补 救</w>
条 纹</w>
相 器</w>
好 转</w>
连 锁</w>
承 担
6. 0</w>
浅 谈</w>
东 亚</w>
C ++</w>
兴 起</w>
简 短</w>
犹 豫</w>
美利 坚
不 清</w>
后 悔</w>
印第 安
过 境</w>
南 京
四 大</w>
C N</w>
各 大</w>
较 少</w>
每 位</w>
美利坚 合众
di a</w>
终 结</w>
如 本</w>
G ro
块 钱</w>
兼 容性</w>
198 5</w>
G IS</w>
管 子</w>
一 贯</w>
和 华</w>
描述 符</w>
特 设</w>
救 灾</w>
恒 星</w>
5. 2</w>
过氧化 氢</w>
迄 今</w>
推 理</w>
产业 结构</w>
第一 季度</w>
当 该</w>
格 兰
无 意</w>
MO SF
积 金</w>
钢 铁
功 率
犯 下</w>
还 好</w>
问 问</w>
红 外线</w>
好 评</w>
推 测</w>
外 形</w>
G UI</w>
次 要</w>
车 库</w>
合法 性</w>
百 万
特 有</w>
投影 仪</w>
D T
You Tube</w>
人 造</w>
郊 区</w>
变 速</w>
定位 系统</w>
耶 和华</w>
14 00</w>
坦 克</w>
过 时</w>
资 企业</w>
种族 歧视</w>
访问 控制</w>
三 级</w>
吡 啶</w>
导 师</w>
维 斯</w>
软 化</w>
另一 侧</w>
从 那
凝 固</w>
膀 胱</w>
绿 化</w>
吉 林
市场 营销</w>
新 兴
钻 头</w>
约束 力</w>
侧 部</w>
十 三</w>
准确 度</w>
SE M</w>
他 妈
下 端</w>
左 边</w>
精 品</w>
Serv ices</w>
绝缘 材料</w>
R es
阿 塞
地 球
落 地</w>
非常 感谢</w>
协 商
调节 剂</w>
促 成</w>
m in
他妈 的</w>
2 O3</w>
预 热</w>
音 调</w>
海 底</w>
覆盖 层</w>
ook ie</w>
巴 格达</w>
第二 届</w>
净 资产</w>
y s</w>
注册 表</w>
消 极</w>
软 骨</w>
穿 刺</w>
产业 化</w>
推 翻</w>
em ent</w>
国 会
布 隆
脱 贫</w>
沸 点</w>
大 火</w>
范 例</w>
毫 无</w>
挽 救</w>
拉 圭</w>
沈 阳</w>
十 分
诱 发</w>
多 态性</w>
修 建</w>
12 %</w>
荣 耀</w>
198 7</w>
低 估</w>
G B
主 角</w>
气 道</w>
龄 化</w>
行 人</w>
资 质</w>
重 写</w>
总 计</w>
公 民
女 童</w>
前列 腺</w>
IP O</w>
牛 肉</w>
一 季度</w>
乳 房</w>
19 2</w>
信息 安全</w>
东 道
迟 到</w>
快 门</w>
公 差</w>
评 论
音 频
市 政</w>
热 源</w>
氮 化</w>
F l
之 地</w>
90 2</w>
谱 仪</w>
加 斯</w>
胸 部</w>
大 连</w>
建 立
账 单</w>
拨 款</w>
防 守</w>
可 知</w>
做 过</w>
成本 低</w>
洗 钱</w>
Shar ePoint</w>
支 部</w>
腹 泻</w>
an a</w>
障碍 物</w>
哈萨 克斯坦</w>
占 空
D F</w>
3 24</w>
t a
毛 发</w>
游 览</w>
摄影 师</w>
往 来</w>
事 态</w>
我爱 你</w>
双 层</w>
呋 喃</w>
墙 上</w>
推 送</w>
冲 压</w>
V EGF</w>
条 文</w>
拖 延</w>
科学 研究</w>
圆 柱</w>
第二 次世界大战</w>
族 裔</w>
影 子</w>
攸 关</w>
感 冒</w>
第 八</w>
3 18</w>
结 核
精 心</w>
w are</w>
接收 数据</w>
o p</w>
演 进</w>
P2 P</w>
大 宗</w>
on g</w>
偏 振
人 能</w>
确保 您</w>
地 质
乐 意</w>
绘 图</w>
包 容</w>
乘 以</w>
束 缚</w>
目 光</w>
在 场</w>
气 压</w>
6 b</w>
收 音机</w>
纱 线</w>
r e</w>
备 受</w>
输 送到</w>
阿塞 拜
解放 军</w>
诗 歌</w>
is t</w>
紧 迫</w>
9 10</w>
大 人</w>
辽 宁</w>
辉 煌</w>
N P</w>
斯 托
i v
树 脂
商 用</w>
掺 杂
特 许</w>
真实 性</w>
拟 定</w>
占空 比</w>
恶 意
最终 用户</w>
磁 带</w>
0. 9</w>
接 合
还 给</w>
拥 挤</w>
乙 烷</w>
E N</w>
需 求
称 赞</w>
起 重
et a</w>
近 几年</w>
时 所</w>
N ot
内 皮</w>
下 限</w>
熊 猫</w>
中央 政府</w>
无 机
终端 装置</w>
处 长</w>
上 端</w>
80 2.
分 手</w>
荷 载</w>
永 恒</w>
斯 拉</w>
8 5
形 容</w>
整 流器</w>
挣 扎</w>
偶 然</w>
完 毕</w>
携 手</w>
R RC</w>
增 强
债 务人</w>
通信 接口</w>
武装 部队</w>
从 来
C F</w>
便 是</w>
私 募</w>
4. 3</w>
电视 剧</w>
试 着</w>
支 气管</w>
消 耗
传 奇</w>
去 年
经营 范围</w>
胁 迫</w>
水 域</w>
胶 带</w>
留 言</w>
当 期</w>
掺杂 剂</w>
ic h
优 秀
高级 官员</w>
派 出</w>
邮 报</w>
不 管
打 包</w>
B ro
一 国</w>
D A
壁 垒</w>
养老 保险</w>
医 药
威尔 士</w>
惰 性气体</w>
一 日</w>
工 况</w>
塞 性</w>
扎 实</w>
邮 政</w>
首 位</w>
党 派</w>
第二 节</w>
陷 入
8. 5</w>
不 动
选 框</w>
黑 塞
阻 燃
依 旧</w>
侵 权</w>
大肠 杆菌</w>
顶 层</w>
问 及</w>
希 尔</w>
香 料</w>
担 当</w>
拜 访</w>
从来 不</w>
挠 性</w>
降 落</w>
膳 食</w>
美利坚合众 国</w>
粘 剂</w>
规范 化</w>
与 非</w>
lo c
外 贸</w>
尘 器</w>
右 边</w>
时 域</w>
显 微</w>
首 批</w>
2 64</w>
耗 尽</w>
瓶 子</w>
具体 情况</w>
al y
老 龄化</w>
克 逊</w>
停 用</w>
酸 酐</w>
宝 马</w>
在我 看来</w>
实 话</w>
低 速</w>
期 末</w>
安 娜</w>
清 器</w>
20 9</w>
纽约 时报</w>
紧 密
信 度</w>
粘 膜</w>
生 人</w>
徒 刑</w>
上 级</w>
夫 妻</w>
据 此</w>
高 出</w>
黑塞 哥
o l</w>
极 端
健 身
不 利于</w>
同 一
高尔 夫</w>
0 5
盆 地</w>
不 能
两国 关系</w>
预 测
i st
P U</w>
十 几
测 验</w>
亚太 地区</w>
黑塞哥 维
黑塞哥维 那</w>
GP U</w>
潮 湿</w>
C B
二 甲基</w>
毫 秒</w>
脑 梗死</w>
有效 期</w>
构 思</w>
大 事</w>
壮 大</w>
I o
疟 疾</w>
政治 家</w>
S O</w>
病 原体</w>
生产 者</w>
网络 游戏</w>
增长 速度</w>
嘉 宾</w>
聚合 酶</w>
死 去</w>
隔 室</w>
乙 醚</w>
D I</w>
外 套</w>
登 上</w>
师范 大学</w>
节 性</w>
卫生 部</w>
补 充
犹 太</w>
中 时</w>
出 错</w>
17 4</w>
英 国人</w>
司法 部</w>
车 门</w>
事实 证明</w>
萎 缩</w>
多 尔</w>
议 事
该 值</w>
绝 不</w>
T L
2 35</w>
长 沙</w>
配 额</w>
年 纪</w>
亮 相</w>
高 浓度</w>
金融 体系</w>
日 记</w>
无 源</w>
l ic
an t</w>
P ython</w>
活性 炭</w>
衰 老</w>
服 从</w>
M IM
国际 标准</w>
准 直</w>
瓣 膜</w>
亲 戚</w>
50 5</w>
推 断</w>
吻 合</w>
80 4</w>
热 能</w>
时 空</w>
生产 能力</w>
侧 重于</w>
米 兰</w>
震 荡</w>
E RP</w>
紧张 局势</w>
b ps</w>
低 碳</w>
哈 拉</w>
几 百
配 电</w>
阿尔及 利亚</w>
品 牌
机 体</w>
o d</w>
抛 弃</w>
19 78</w>
失 误</w>
运 人</w>
采 矿</w>
模 糊
出 机</w>
步 进</w>
多 位</w>
地 狱</w>
稳 步</w>
走 过</w>
o k
中 东
Z n</w>
立方 米</w>
耐 热性</w>
报 复</w>
光 敏</w>
戒 指</w>
散 步</w>
足 球
本 着</w>
d ll</w>
Z n
指标 体系</w>
葡 萄</w>
医 治</w>
人大 常委会</w>
调查 局</w>
导 性</w>
剧 烈</w>
丑 闻</w>
第四 十
加 氢</w>
附 带</w>
资 产
矿 物质</w>
起 飞</w>
挤 出机</w>
听 见</w>
净 值</w>
分 裂
A DC</w>
两 层</w>
医 用</w>
Com m
Op en
陌 生人</w>
h e
气 态</w>
FD A</w>
线 管</w>
数 码
4 22</w>
吸 气</w>
光 导</w>
腺 素</w>
者 说</w>
树脂 层</w>
击 中</w>
该 组</w>
华 人</w>
性 地</w>
布 什
a z
股 息</w>
也 门</w>
去年 同期</w>
.. ..</w>
四 名</w>
不 该</w>
0 7
默认 值</w>
8 9
所 涉</w>
一 同</w>
现 阶段</w>
重庆 市</w>
F 2</w>
秋 季</w>
5 mm</w>
2 31</w>
氏 体</w>
事务 部</w>
定 形</w>
流 量计</w>
几内 亚</w>
漫 画</w>
激动 剂</w>
入 学</w>
卡 拉</w>
4 60</w>
这 部分</w>
神 话</w>
年 末</w>
T M</w>
氯 化</w>
尔 特</w>
奶 酪</w>
美联 社</w>
太 高</w>
咨询 服务</w>
福建 省</w>
S Y
生 动</w>
维 多
改 委</w>
N i
体 检</w>
灯 具</w>
复 选框</w>
翻 转</w>
滤 清器</w>
am b
er n
路 口</w>
13 7</w>
lo g
00 00</w>
股 份
挂 钩</w>
以 下
前 来</w>
布 里
拨 打</w>
一 共</w>
D 2D</w>
D oc
矿 山</w>
管辖 权</w>
宁 波</w>
或 者说</w>
一 番</w>
分 期</w>
装 入</w>
歌 词</w>
交通 事故</w>
包 封</w>
前列 腺癌</w>
家庭 暴力</w>
粥 样</w>
金属 板</w>
推 进
马克 思</w>
降 雨</w>
联 动</w>
抓 好</w>
留 给</w>
裁 员</w>
职 人员</w>
简 历</w>
坏 死</w>
竞 选活动</w>
E B</w>
m e
猪 肉</w>
外交 政策</w>
生物 体</w>
地 中海</w>
一 幅</w>
词 语</w>
斜 率</w>
月 亮</w>
当 今
滑 雪</w>
者 之间</w>
重 心</w>
购物 中心</w>
理 财
转 移
合 资</w>
络 合物</w>
带 上</w>
编译 器</w>
P et
捷 克
安全 带</w>
R 5</w>
尽 早</w>
凸 轮轴</w>
器 材</w>
码 元</w>
热 电</w>
牌 照</w>
a i</w>
外 国
声 道</w>
A ST
工作 日</w>
16 3</w>
二 元</w>
管理 模式</w>
存 者</w>
安 徽
党 建</w>
W in
S ol
医疗 机构</w>
乳 腺</w>
欲 望</w>
有 过</w>
危 及</w>
视 线</w>
公 积金</w>
称 号</w>
民 事
命令 行</w>
笔 记</w>
物 理学</w>
幸 存者</w>
转 运</w>
联 想</w>
0.00 1</w>
资 深</w>
Java Script</w>
D ell</w>
迹 线</w>
世界 贸易
撤 出</w>
工作 岗位</w>
2. 8</w>
延 误</w>
安装 程序</w>
V B</w>
Vi ew</w>
标 人</w>
A t
4 80</w>
所 载</w>
脊 柱</w>
2. 6</w>
西 岸</w>
电子 元件</w>
集团 公司</w>
发 改委</w>
产 地</w>
珍 贵</w>
单 方面</w>
一点 点</w>
脂 质体</w>
酌 情</w>
结 石</w>
居 然</w>
s i</w>
om e</w>
合 理性</w>
复杂 度</w>
营 运</w>
定 为</w>
案 文</w>
G A
折 旧</w>
双 手</w>
两 会</w>
流行 病学</w>
中小 学</w>
C isco</w>
非 营
降 到</w>
盖 板</w>
美 学</w>
接 受
o v</w>
参 数
得 益于</w>
反射 层</w>
收 集器</w>
艰 巨</w>
录 音</w>
选 自
网 状</w>
童 年</w>
一小 部分</w>
摄 取</w>
纽约 市</w>
集 体
M g</w>
外交 官</w>
运动 会</w>
电 图</w>
欧 美</w>
快 点</w>
人 事</w>
近 侧</w>
石 英</w>
蒸 馏
想 过</w>
Si O2</w>
和 谐
间 断</w>
还原 剂</w>
起 床</w>
W at
T im
下 层</w>
薪 水</w>
数 码</w>
c c</w>
聚 酯
阻 塞性</w>
表 位</w>
天 性</w>
上 皮</w>
造 影</w>
县 级</w>
对 苯二
间 谍</w>
福 祉</w>
文件 名</w>
寄 生
更 强</w>
滤 光</w>
贡 献
70 6</w>
12 9</w>
同 位
关键 问题</w>
子 弹</w>
时 代
数据 文件</w>
斜 坡</w>
巴 塞
升 至</w>
在 世界
在世界 上</w>
3. 6</w>
s erv
礼 貌</w>
灾 区</w>
2 1
标 注</w>
冷 战</w>
7 7
虚拟 现实</w>
订 立</w>
分 工</w>
借 款人</w>
菜 单
硬 盘驱动器</w>
缺 血性</w>
公 益
其 间</w>
60 8</w>
导 航
直 肠癌</w>
钓 鱼</w>
此 项</w>
i ii</w>
抽 样</w>
设 为</w>
视 差</w>
驻 留</w>
规 程</w>
不 用
D R</w>
概 略</w>
锚 定</w>
矿 业</w>
不 起
198 4</w>
展 会</w>
8 B</w>
素 养</w>
齿 轮
B i
参 赛</w>
固 性</w>
同位 素</w>
C re
腺 炎</w>
前 缀</w>
增 幅</w>
6 40</w>
解 释
率 高</w>
国务 卿</w>
层 级</w>
环境 影响</w>
an e</w>
建议 您</w>
前 任</w>
成 膜</w>
工程 项目</w>
无形 资产</w>
P r
内 战</w>
序列 号</w>
意 指</w>
密 集
经 皮</w>
减 税</w>
承 包</w>
车 主</w>
低 迷</w>
违法 行为</w>
私 营</w>
每 秒</w>
移 动性</w>
劳 工
撒 谎</w>
at h
监 测
A s</w>
新 车</w>
唱 片</w>
家 宝</w>
多 月</w>
年 里</w>
引 见</w>
起 初</w>
宫 颈
电阻 率</w>
定 律</w>
算 是</w>
布鲁 塞尔</w>
所 处</w>
随 便</w>
单 晶</w>
反 响</w>
插 槽</w>
机 身</w>
交易 日</w>
卡 塔尔</w>
该 州</w>
Wor d</w>
意大 利
b ox</w>
直 销</w>
X 2</w>
省 市</w>
嫁 给</w>
EL ISA</w>
起重 机</w>
an ce</w>
水 合物</w>
储 能</w>
精神 病</w>
拖 动</w>
三 项</w>
4 16</w>
代 人</w>
尿 素</w>
St re
离 不开</w>
火 花</w>
操 纵
an y
航 线</w>
伪 造</w>
20 30</w>
ma il</w>
偏 心</w>
陶 瓷
V o
2 36</w>
N 1</w>
频 域</w>
责任 感</w>
8 20</w>
鸟 类</w>
经 常
追 究</w>
红 利</w>
性 状</w>
扰 动</w>
电影 节</w>
席 会议</w>
自 助</w>
麻 醉
倾 听</w>
露 台</w>
再 度</w>
场 上</w>
追 溯</w>
缩 减</w>
p d
SS L</w>
那 州</w>
多 播</w>
D E</w>
I I
被 困</w>
保护 膜</w>
按 时</w>
信号 处理器</w>
鲜 明</w>
看 不见</w>
对外 开放</w>
6 9
布隆 迪</w>
R GB</w>
远 镜</w>
增 塑
伸 展</w>
善 良</w>
橙 色</w>
望 远镜</w>
海 域</w>
八 年</w>
瞻 性</w>
P a
护 罩</w>
公 交</w>
特 兰
华盛 顿
一 倍</w>
运 气</w>
小 小
事业 单位</w>
25 5</w>
西 非</w>
公安 机关</w>
发展 前景</w>
计 时</w>
报 率</w>
卫 队</w>
大 会
前 瞻性</w>
离 线</w>
预防 性</w>
中 美</w>
扁 平</w>
曼 联</w>
巴塞 罗
几 位</w>
预 留</w>
杀 手</w>
D es
空 缺</w>
前 途</w>
中心 线</w>
均 值</w>
肉 类</w>
本 合同</w>
6 12</w>
趋 于</w>
水 库</w>
存储 卡</w>
传 说</w>
海 峡</w>
抢 劫</w>
繁 忙</w>
冶 金</w>
生 殖
国 情</w>
雇 佣</w>
剪 辑</w>
保 安</w>
周 边
遇 见</w>
迪 拜</w>
处理 程序</w>
格 林
G u
插 值</w>
发 货</w>
2 90</w>
开 业</w>
更 糟</w>
标 号</w>
团 结
PD CCH</w>
伸 长</w>
分 流</w>
& #</w>
非常 简单</w>
衣 物</w>
邓小 平</w>
防 火</w>
加 利亚</w>
中 全会</w>
案 子</w>
特 斯拉</w>
产 生
部长 级</w>
白 俄罗斯</w>
乳 化</w>
I n</w>
计划 生育</w>
门 诊</w>
模 态</w>
硫 化</w>
胡 萝
单 价</w>
流 中</w>
亨 利</w>
空气 流</w>
眼 中</w>
香 烟</w>
单 身</w>
创业 板</w>
肥 料</w>
水 箱</w>
掺 入</w>
CO M</w>
Io T</w>
数据 量</w>
合 力</w>
领 先
好 友</w>
四 次</w>
胱 氨酸</w>
用 餐</w>
本 期</w>
中 非</w>
义 务
25 4</w>
圆 筒</w>
供 体</w>
论 点</w>
幸 福
合 规</w>
利 物
施 行</w>
假 装</w>
着 陆</w>
非常 低</w>
高 风险</w>
杰 克逊</w>
阿塞拜 疆</w>
费 率</w>
分 光</w>
异 议</w>
保险 人</w>
坚 持
血 管
巡 逻</w>
i x</w>
成 交
8 a</w>
两 点</w>
警 官</w>
哈 马斯</w>
一氧化 碳</w>
AN D</w>
热 线</w>
重 整</w>
o u</w>
处理 系统</w>
刚 果</w>
恐怖 袭击</w>
爵 士</w>
平 衡
凯 恩</w>
防 腐
包 衣</w>
50 nm</w>
开 工</w>
# #</w>
高尔夫 球</w>
乐 器</w>
C V
海 军
聚 乙二醇</w>
AS A</w>
保 加利亚</w>
弗 兰
外部 设备</w>
攻 击者</w>
每 隔</w>
和谐 社会</w>
巴 尔
密封 剂</w>
50 3</w>
昨 天
紫 色</w>
编 程
灌 溉</w>
增塑 剂</w>
皮 书</w>
外 围
硝 酸</w>
经 合
经合 组织</w>
老 公</w>
i le</w>
证券 交易所</w>
粮 农
粮农 组织</w>
撤 回</w>
聚 苯乙烯</w>
3. 4</w>
狭 槽</w>
转化 率</w>
民 国</w>
漠 化</w>
赶 紧</w>
幻 灯
4 3
旅行 社</w>
德 拉</w>
车 上</w>
多 万</w>
存 量</w>
平 米</w>
顺 利
色 情</w>
亚 太</w>
绝对 值</w>
差 额</w>
周 围
开 门</w>
I L
背 部</w>
西 州</w>
显 现</w>
引 渡</w>
周 血</w>
自由 化</w>
赌 博</w>
半 小时</w>
as h
小 组
生产 成本</w>
Ex p
本 报
外 周血</w>
承 载
LE D
N MR</w>
发展 观</w>
不 时</w>
深入 研究</w>
难 点</w>
客 车</w>
陪审 团</w>
M W</w>
基本 原理</w>
丁 烯</w>
兰 州</w>
售 后
售后 服务</w>
不好 意思</w>
被 称作</w>
70 1</w>
阁 下</w>
198 2</w>
N BA</w>
氯 乙烯</w>
利物 浦</w>
抗 氧化</w>
两 岸
大大 提高</w>
层 析</w>
O Ac</w>
装 饰
S N</w>
通 知
蜂窝 电话</w>
N T
二氧化 钛</w>
信用 证</w>
咳 嗽</w>
E X
限 额</w>
翻 译
幻灯 片</w>
k V</w>
高 位</w>
工 发</w>
津 巴布
财务 报告</w>
溢 价</w>
200 0
绩 效
赎 回</w>
留 下来</w>
Q I</w>
深 处</w>
奴 隶</w>
P T</w>
恐 慌</w>
传输 层</w>
重 度</w>
巡 回
德 克萨斯州</w>
I G</w>
断 层</w>
4 5%</w>
合 理
M 1</w>
出 国</w>
ar y</w>
微 量</w>
温 家宝</w>
17 1</w>
抽 出</w>
构 想</w>
器 中</w>
乐 园</w>
纪 录
od e
圆 盘</w>
造 价</w>
福 德</w>
强 国</w>
小小 的</w>
内 皮细胞</w>
济 南</w>
澳 洲</w>
乳 糖</w>
眼 前</w>
公共 部门</w>
意 料</w>
分析 器</w>
面 料</w>
年 份</w>
不同 之处</w>
理财 产品</w>
斯 克</w>
临 近</w>
汇 编</w>
爷 爷</w>
致 发光</w>
监 理</w>
亦 然</w>
展 出</w>
怪 物</w>
股 利</w>
触 控</w>
佛 教</w>
非 凡</w>
托 马斯</w>
复 习</w>
纪录 片</w>
环境 污染</w>
拿 走</w>
不 便</w>
A V
新 世纪</w>
相关 者</w>
国 政府</w>
心肌 梗死</w>
8 50</w>
以 致</w>
希 拉里</w>
低 密度</w>
今年 以来</w>
统计 分析</w>
伊斯兰 教</w>
欧 姆</w>
t s</w>
t a</w>
监 护
前 列</w>
津巴布 韦</w>
深 深</w>
发送 数据</w>
七 年</w>
滤 色
原 始
沉 淀
回 避</w>
腿 部</w>
空气 污染</w>
执行 局</w>
外围 设备</w>
B L
回 报率</w>
清 晰
谎 言</w>
从 没</w>
卖 家</w>
仔 细
S IP</w>
受 过</w>
光 板</w>
波 段</w>
电 致发光</w>
甲 板</w>
磨 料</w>
笑 话</w>
主导 地位</w>
股 本</w>
赌 场</w>
脉 冲
理 查
落 入</w>
留 学生</w>
B a
九 个</w>
关键 因素</w>
数 控</w>
看 好</w>
工 党</w>
毫 不
舒适 性</w>
尼 克</w>
可 不</w>
O b
瞄 准</w>
人 来</w>
星 级</w>
St r
倾 斜
an ch
国民 党</w>
亚 特兰
风 味</w>
前 置</w>
不用 说</w>
激 进
相 符</w>
相 位差</w>
密 码
薄 弱</w>
好 人</w>
务 人员</w>
一 处</w>
以 南</w>
T a
克 拉
3 32</w>
全 力
公 用
规 避</w>
耕 地</w>
巴塞罗 那</w>
曲 柄</w>
叛 军</w>
特 拉
4 6
中 型</w>
不 懈</w>
HAR Q</w>
选 拔</w>
植 被</w>
岛 上</w>
辅 导</w>
各 项
E A</w>
气 化</w>
殖民 地</w>
拜 托</w>
S H</w>
过 大</w>
高 档</w>
Direct ory</w>
多种 不同</w>
农 户</w>
里 程</w>
丙 烷</w>
议 者</w>
Cl 2</w>
难 民
an k</w>
处 境</w>
W il
计算 器</w>
常 委</w>
路 线图</w>
化 解</w>
油 箱</w>
AT A</w>
举例 说明</w>
宫颈 癌</w>
坐标 系</w>
递 增</w>
漏 电</w>
过 早</w>
结 肠</w>
锚 固</w>
初 次</w>
S B
字 典</w>
治 安</w>
H Cl</w>
凸 出</w>
证券 市场</w>
D L
大 自然</w>
结构 图</w>
PH P</w>
精 子</w>
一 艘</w>
为 准</w>
受害 人</w>
烧 瓶</w>
突 尼斯</w>
内 陆</w>
路 里</w>
DM I</w>
星 星</w>
离 职</w>
耐 受</w>
加利福 尼亚</w>
G al
孵 育</w>
卡 路里</w>
凸 显</w>
党 内</w>
自 发</w>
静 脉
A M
等 同</w>
t e</w>
Joh n</w>
放 射</w>
贵 金属</w>
欢 乐</w>
相似 性</w>
保 温</w>
血 脂</w>
y a</w>
拉 克
通 向</w>
10 a</w>
中 医药</w>
椭 圆</w>
访 谈</w>
美 术</w>
进 行
服 装
共产 主义</w>
转 弯</w>
WT RU</w>
克里 斯</w>
不 动</w>
平方 公里</w>
水 电</w>
关键 作用</w>
确 诊</w>
官 网</w>
各个 领域</w>
兄 弟
承 办</w>
18 4</w>
善 于</w>
旗 帜</w>
万 平方米</w>
飞 船</w>
卡 因</w>
五 月</w>
坚 定
巨 额</w>
x y</w>
行 长</w>
政 客</w>
城 乡
胶 体</w>
收 治</w>
低 功耗</w>
视频 流</w>
反 之
硫 酸盐</w>
分 摊</w>
军事 行动</w>
有 意思</w>
反之 亦然</w>
中 继
半 胱氨酸</w>
存储 空间</w>
er y</w>
民意 调查</w>
休 假</w>
乙 酰</w>
规划 署</w>
H 2
文 艺
下 令</w>
靠 背</w>
经济 衰退</w>
i an</w>
. 2</w>
L a
油 泵</w>
致 电</w>
5 14</w>
无 视</w>
煅 烧</w>
受 众</w>
二 十年</w>
F re
开 创</w>
膜 炎</w>
缺 损</w>
居 住
2. 7</w>
痕 迹</w>
泡 剂</w>
B BC</w>
退 休
F L
衬 里</w>
利润 率</w>
n g</w>
血 红
at a</w>
Acti ve</w>
ir e</w>
习 俗</w>
陌 生</w>
土地 利用</w>
仪表 板</w>
甘 肃</w>
减 贫</w>
el d</w>
17 6</w>
警察 局</w>
en c
R ob
收 支</w>
三 层</w>
全 景</w>
A U
4 C</w>
商 量</w>
苦 难</w>
查 处</w>
行政 部门</w>
用 电</w>
获 奖</w>
预先 确定</w>
想 着</w>
宫 颈</w>
基 的</w>
画 家</w>
V al
示 图</w>
M in
对苯二 甲</w>
富 集</w>
多 级</w>
有效 载荷</w>
松 开</w>
奶 粉</w>
跌 幅</w>
中 欧</w>
弱 点</w>
互 联</w>
值 来</w>
台 北</w>
微 微</w>
过 后</w>
象 素</w>
阳 性
仅 限于</w>
辽 宁
软件 开发</w>
安全 部队</w>
4. 4</w>
下 属</w>
5 9
lo w</w>
RA N</w>
着 眼
角 度
船 员</w>
控制 策略</w>
评 选</w>
满 足
抗 议者</w>
法 测定</w>
我 该</w>
替代 品</w>
小 康
r i</w>
堆 积</w>
分 红</w>
战斗 机</w>
精确 度</w>
脂 酸</w>
枢 纽</w>
活 检</w>
常 设</w>
不 算</w>
季 节性</w>
从 小</w>
T 3</w>
19 60</w>
脆 弱
P F</w>
广播 公司</w>
RA M
电子 显微镜</w>
老 虎</w>
M PEG</w>
丁 二烯</w>
阿尔 巴
贯 通</w>
0. 0</w>
SO N</w>
市 政
资源 配置</w>
召 回</w>
后 轮</w>
膝 盖</w>
多 岁</w>
质 谱</w>
测 算</w>
感光 鼓</w>
无 力</w>
难 忘</w>
伺 服
l d</w>
潜 艇</w>
套 利</w>
输送 机</w>
经济 危机</w>
折 磨</w>
可 乐</w>
蔗 糖</w>
价 比</w>
30 7</w>
M od
手 上</w>
键 合</w>
含 氟</w>
忠 实</w>
兼 职</w>
圣 诞</w>
索 尼</w>
前 导</w>
身体 健康</w>
官 兵</w>
宁 愿</w>
课 程
断 面</w>
店 铺</w>
铺 设</w>
走 路</w>
3 21</w>
2 23</w>
逃 避</w>
微 孔</w>
逃 脱</w>
A G
扫描 线</w>
安 市</w>
发 电
两 类</w>
联 络
三 个
下 旬</w>
线 束</w>
发 了</w>
辐 照</w>
农 作物</w>
粒 细胞</w>
19 79</w>
对 系统</w>
一 来</w>
我 刚</w>
一 再</w>
瓷 砖</w>
塞 族</w>
指示 灯</w>
神经 系统</w>
超 时</w>
储 存器</w>
可 动</w>
李 克
事 儿</w>
传 到</w>
任 择</w>
假 体</w>
经验 丰富</w>
僵 局</w>
脑 卒
脑卒 中</w>
兑 现</w>
脆弱 性</w>
归 属</w>
开 来</w>
永 磁</w>
性 价比</w>
业 内</w>
裤 子</w>
联系 方式</w>
诗 人</w>
死 者</w>
聘 请</w>
湖 南省</w>
文 摘</w>
硫 化
粒 体</w>
恋 爱</w>
AS P</w>
重要 讲话</w>
卵 巢
淀 积</w>
贫 血</w>
录 像</w>
而 定</w>
侵 袭</w>
A le
K e
科 特
常 见
审 美</w>
色 度</w>
脖 子</w>
无 可
升 降</w>
8 7
基 亚</w>
延 期</w>
原 创</w>
c l
L o
亲和 力</w>
P re
方 块</w>
养 护</w>
Dat a</w>
听 器</w>
疲 软</w>
麦 克</w>
泵 送</w>
提 倡</w>
政 务</w>
A L</w>
T D</w>
正 当</w>
片 状</w>
化 床</w>
句 话</w>
妇女 地位</w>
密集 型</w>
好 吃</w>
大 理
搅拌 器</w>
陪 伴</w>
白 蛋白</w>
最 佳
名 额</w>
恶意 软件</w>
壁 纸</w>
晚 会</w>
核 细胞</w>
安徽 省</w>
防 控</w>
经济 体制</w>
回 合</w>
A s
Cent er</w>
糖 果</w>
三个 代表</w>
热 烈</w>
安全 气囊</w>
缝 隙</w>
昆 明</w>
对 流</w>
果 实</w>
供 选择</w>
会 为</w>
T HF</w>
标 称</w>
同 类</w>
光 片</w>
逐 年</w>
am p
吉 尔
楼 层</w>
f t</w>
存 档</w>
导 游</w>
流 化床</w>
大 桥</w>
科 罗
交 道</w>
迪 瓦</w>
美 观</w>
中小 型</w>
烦 恼</w>
处 分</w>
饼 干</w>
t y</w>
凹 口</w>
世 卫</w>
处理 过程</w>
小 女孩</w>
吸收 性</w>
党 员
S F</w>
D ev
看 电视</w>
晶 格</w>
效 用</w>
其 上</w>
社会 科学</w>
电阻 值</w>
截 图</w>
果 汁</w>
多 点</w>
早 日</w>
起 着</w>
Con n
近 来</w>
轻 度</w>
海 盗</w>
草 原</w>
表 皮</w>
减 免</w>
投 入
P G
深 化
深化 改革</w>
最 新
内 腔</w>
10 10</w>
保护 性</w>
商 会</w>
失 衡</w>
传输 线</w>
杀 人</w>
氢 原子</w>
L a</w>
聚合 反应</w>
9 8%</w>
缩 略
G re
世界贸易 组织</w>
副 产物</w>
其 是</w>
18 5</w>
契 机</w>
人大 代表</w>
业务 流程</w>
一 枚</w>
结 尾</w>
国会 议员</w>
O P</w>
履 行
无 定形</w>
5 b</w>
著 作</w>
电磁 波</w>
暴 雨</w>
山 脉</w>
指 望</w>
棒 球</w>
殴 打</w>
In c</w>
碳 化硅</w>
规 章</w>
7 30</w>
民 用</w>
克 林</w>
学 生
蒙 古
ar d
周 向</w>
触 及</w>
诺 贝尔
混 蛋</w>
五 大</w>
v e
混 淆</w>
基础 架构</w>
非 织造</w>
注 目</w>
此 案</w>
辨 识</w>
叶 子</w>
2 5.
经 纪</w>
阻 尼
眼 泪</w>
彩 色
安 东
券 市场</w>
债 券市场</w>
6. 2</w>
脱 硫</w>
李克 强</w>
间 歇</w>
美 好
S U
天 文
海 绵</w>
过 期</w>
地 方
时 才</w>
适 用性</w>
京 都</w>
数 个</w>
b e
检查 和</w>
所 长</w>
力 争</w>
两 级</w>
口 味</w>
知名 度</w>
坦 桑
北 极</w>
官 方
物 镜</w>
f f</w>
T E</w>
同 业</w>
焦 距</w>
H DMI</w>
建筑 师</w>
基本 面</w>
3 25</w>
政 部</w>
Na 2
名 叫</w>
日 内</w>
高 等</w>
供 资</w>
勃 勃</w>
水 面</w>
口 语</w>
变 迁</w>
使用 权</w>
威 廉
大 米</w>
pl or
CA N</w>
肝 细胞</w>
7 000</w>
光 度</w>
交 错</w>
借 此</w>
做 成</w>
人 际
海 报</w>
公 安</w>
由 图</w>
曼 谷</w>
监 事</w>
浪 潮</w>
对 称
ach e</w>
V 2</w>
l ine</w>
轨 道
流 产</w>
代理 商</w>
社 区
C a</w>
低 聚物</w>
包 容性</w>
股 指</w>
可 惜</w>
水 层</w>
格 林</w>
涡 流</w>
粮食 安全</w>
碳酸氢 钠</w>
哈 利</w>
议事 规则</w>
2 44</w>
视 点</w>
伊 利
缩 回</w>
病 因</w>
S 4</w>
E v
飙 升</w>
100 2</w>
系统 地</w>
略 微</w>
共 存</w>
气 球</w>
罗 姆
带 电</w>
一 化</w>
他 于</w>
汇 集</w>
ri s</w>
小 微</w>
瓦 斯</w>
规 模
S MS</w>
ic a</w>
口 气</w>
温度 控制</w>
亚 美
积 聚</w>
流 子</w>
行政 区</w>
流 感
分 销</w>
船 长</w>
排 行
门 店</w>
模 式
计算机 网络</w>
牢 记</w>
吸收 剂</w>
野生 型</w>
忙 碌</w>
宽 容</w>
排行 榜</w>
嘲 笑</w>
亲 水</w>
计 费</w>
尼 古
发 电厂</w>
科特 迪瓦</w>
显 影剂</w>
更 进一步</w>
特 勒</w>
文 所</w>
铁 路
P BS</w>
始 终
书 桌</w>
耐 磨
理 事</w>
缓 和</w>
受到 限制</w>
文 库</w>
注意 事项</w>
角度 看</w>
拦 截</w>
公 顷</w>
B L</w>
路易 斯</w>
j av
多 巴
海 湾</w>
青 睐</w>
人道 主义
人道主义 法</w>
顶 面</w>
形 势
探 析</w>
社会 各界</w>
抽 屉</w>
短 短</w>
m l
换 档</w>
难民 署</w>
应 由</w>
硬 脂酸</w>
成 因</w>
外科 医生</w>
注 定</w>
必 定</w>
保 健
高 专</w>
6 5%</w>
重 链</w>
科罗 拉
厨 师</w>
注 销</w>
淋巴 瘤</w>
6. 1</w>
衔 接</w>
魔 法</w>
略 有</w>
结核 病</w>
扩 散
天 才</w>
防腐 剂</w>
伊 拉克
走 私</w>
无 损</w>
覆盖 率</w>
汉 堡</w>
跳 跃</w>
示 威
2 mm</w>
征 税</w>
紊 乱</w>
阿 密</w>
脸 部</w>
锂 电池</w>
日益 增长</w>
个人 电脑</w>
中 长期</w>
有 钱</w>
服务 员</w>
玻 利
食 管</w>
S UV</w>
茶 叶</w>
十 五</w>
第一 届</w>
松 弛</w>
令人 震惊</w>
M G
耐 药性</w>
迈 阿密</w>
当 成</w>
CH 2
招 股</w>
抑制 作用</w>
PD A</w>
5 6
公 立
乙 型肝炎</w>
磨 机</w>
撒 哈拉</w>
点 亮</w>
讽 刺</w>
18 8</w>
蓝 光</w>
Et OAc</w>
新兴 产业</w>
当地 人</w>
st a</w>
第三 季度</w>
_ _</w>
精 美</w>
应 收款</w>
民 兵</w>
院 士</w>
全 程</w>
哥伦 比亚
提供 援助</w>
致 辞</w>
听 众</w>
F in
浆 液</w>
竞争 性</w>
旋 钮</w>
学术 界</w>
下 雨</w>
一 眼</w>
越来 越
我 谨</w>
资 格
限 期</w>
缆 线</w>
厄 瓜
定居 点</w>
年 限</w>
Si C</w>
待 机</w>
延 时</w>
职 员</w>
分析 表明</w>
敞 开</w>
测 得</w>
感 恩</w>
券 商</w>
意 向</w>
个 数</w>
水 利
联邦 调查局</w>
嵌 合</w>
激 增</w>
同 源</w>
耐 磨</w>
危 地
低 下</w>
找 个</w>
d uc
板 材</w>
访 客</w>
载 流子</w>
台 风</w>
帐 篷</w>
电 信
归 纳</w>
程序 员</w>
尼 奥</w>
功能 障碍</w>
17 8</w>
肩 膀</w>
所 指</w>
碳酸 钙</w>
小康 社会</w>
枪 击</w>
施 加
16 0
薄 层</w>
胶 原</w>
C as
义务 教育</w>
六 月</w>
万 亿元</w>
水 流</w>
缝 合</w>
电 体</w>
ation al</w>
底 线</w>
or g</w>
竞 技</w>
冷却 水</w>
A 4</w>
倍 数</w>
泰 勒</w>
聚 力</w>
非 晶</w>
摆 在</w>
奔 驰</w>
plor er</w>
宁 夏</w>
人 居</w>
切尔 西</w>
签 发</w>
不断 扩大</w>
金 砖</w>
堕 胎</w>
情 境</w>
专 题
R M</w>
本 章</w>
射 流</w>
噬 细胞</w>
储 层</w>
领导 小组</w>
皮 质</w>
那 位</w>
13 9</w>
分 担</w>
多 彩</w>
与 会</w>
分类 器</w>
丝 网</w>
大力 支持</w>
袋 子</w>
小 朋友</w>
IE EE
专 有</w>
注 塑</w>
气 阀</w>
发射 功率</w>
a pp
大 众
皮 肤
发言 者</w>
木 质</w>
相 一致</w>
氯化 钠</w>
P 3</w>
尿 液</w>
测试 方法</w>
导航 系统</w>
撕 裂</w>
D el
看 似</w>
14 a</w>
队 友</w>
S al
质 押</w>
孔 中</w>
收发 机</w>
着眼 于</w>
水 合</w>
输 注</w>
表 彰</w>
劳 务</w>
查 尔斯</w>
慷 慨</w>
母 线</w>
设计 方案</w>
想 象
巴 斯</w>
大 屠杀</w>
Dat a
价值 链</w>
阅读 器</w>
肝 硬化</w>
机械 性能</w>
事 后</w>
司 长</w>
潜 水</w>
Pl us</w>
想 不到</w>
亲 人</w>
班 子</w>
海 拔</w>
准 许</w>
不 妨</w>
全 都</w>
数 十年</w>
刺 激
问 卷
问卷 调查</w>
尽 量
热 固性</w>
有所 增加</w>
格 斯</w>
长 城</w>
结构 设计</w>
网 民</w>
差 速器</w>
比特 流</w>
St e
炎 性</w>
抵 御</w>
2 62</w>
讲 解</w>
暑 假</w>
湖 北省</w>
想象 力</w>
源 头</w>
滚 子</w>
从 此</w>
制 片
批 评
羰 基</w>
变 频</w>
花 钱</w>
抗 肿瘤</w>
半 场</w>
兔 子</w>
原 性</w>
光 泽</w>
四 氢
有 点
打 交道</w>
获 益</w>
富 翁</w>
哭 泣</w>
ol d</w>
异 化</w>
收 件人</w>
两岸 关系</w>
巴 拉克</w>
俄 亥
中 立</w>
不 容
赶 上</w>
第一 条</w>
大气 压</w>
ent s</w>
玻璃 化</w>
下 发</w>
缩 合</w>
C CD</w>
师 生</w>
中 美
小 齿轮</w>
螺 丝</w>
避 开</w>
点 评</w>
充满 活力</w>
戏 剧
不起 作用</w>
生 计</w>
放 开</w>
作出 贡献</w>
禽 流感</w>
棒 了</w>
太 棒了</w>
宾 馆</w>
检 修</w>
微 结构</w>
航 运</w>
古 典</w>
补 丁</w>
面 对面</w>
网 上
轮 子</w>
数 千</w>
推 向</w>
三 倍</w>
雕 塑</w>
幽 默</w>
教学 模式</w>
火 山</w>
现实 意义</w>
身 心</w>
M o</w>
裁 判</w>
这样 的话</w>
一 堆</w>
随机 存取</w>
中 日</w>
通 行</w>
B as
均 衡
加 班</w>
办 学</w>
传动 装置</w>
M ob
计算 结果</w>
仓 储</w>
实 惠</w>
7. 0</w>
严重 性</w>
上 报</w>
第四 章</w>
清 华
全国 性</w>
扫描 器</w>
采 纳</w>
病 理学</w>
和 约</w>
建筑 面积</w>
回 头</w>
en g
线 条</w>
称 重</w>
低 廉</w>
迪 士
夹 层</w>
18 6</w>
TF E</w>
联 通</w>
英 文
金融 工具</w>
绕 过</w>
芳香 族</w>
致 密</w>
财政 政策</w>
卡罗 来
新 鲜
斯 加</w>
迪士 尼</w>
食 谱</w>
宾 夕
瞬 态</w>
小 时候</w>
促 动</w>
陕 西省</w>
le d</w>
oo l
国家 队</w>
K B</w>
创 办</w>
下 车</w>
宾夕 法
哈尔 滨</w>
常 识</w>
台 上</w>
北 爱尔兰</w>
加 纳</w>
这 辆</w>
流 路</w>
厂 房</w>
一 千
T un
阀 体</w>
L i</w>
多 米
闭 环</w>
F D</w>
7. 2</w>
克 制</w>
反应 时间</w>
味 剂</w>
中 未</w>
波 特</w>
传 入</w>
烟 气</w>
监 察
十 年代</w>
浸 泡</w>
k a</w>
压 迫</w>
例 行</w>
S B</w>
Ex plorer</w>
乳 化剂</w>
u st
呕 吐</w>
板 上</w>
一 首</w>
社 保</w>
CO 3</w>
异 丙醇</w>
接 器</w>
产品 名称</w>
S ec
a c</w>
物 件</w>
伤 性</w>
不动 产</w>
当 初</w>
从 前</w>
牙 科</w>
N E
7 00
喜 剧</w>
动 能</w>
基因 型</w>
4 11</w>
T B</w>
奢 侈
进行 谈判</w>
外 层
外层 空间</w>
人 质</w>
ic on
捷克 共和国</w>
光致 抗蚀剂</w>
三 月</w>
组织 者</w>
频 段</w>
火 花
监 护</w>
持续 增长</w>
& &
毛 利率</w>
出 境</w>
加 油
急 需</w>
阿 布
多 伦
G O</w>
雄 性</w>
MOSF ET</w>
m b
软件 包</w>
套 装</w>
轴 上</w>
渐 渐</w>
引人 注目</w>
吉林 省</w>
照 亮</w>
娃 娃</w>
5. 3</w>
一 会</w>
No .
机 密</w>
大理 石</w>
动 漫</w>
P t</w>
斯洛 伐
前 一天</w>
荒 漠化</w>
休 克</w>
次 于</w>
务 必</w>
复 原</w>
区域 性</w>
不 敢
乙 腈</w>
冲 动</w>
震 动</w>
R B</w>
创 下</w>
果 说</w>
天 后</w>
信息 管理</w>
刊 登</w>
CR C</w>
晚 饭</w>
20 25</w>
写 下</w>
P L</w>
封 面</w>
金 色</w>
署 长</w>
护 理
第十 二
90 4</w>
自由 贸易</w>
A 3</w>
负 有</w>
毛 里
遮 光</w>
法 学</w>
审 视</w>
t e
步 入</w>
逻辑 电路</w>
焊 缝</w>
带 入</w>
字 幕</w>
后 卫</w>
c n</w>
废 弃</w>
万 亿</w>
负 压</w>
如 果说</w>
入射 光</w>
润 湿</w>
一 号</w>
弄 清楚</w>
叛 乱</w>
国 旗</w>
N e
新 泽
大 容量</w>
英 超</w>
关 爱</w>
二 手</w>
首 届</w>
十 字</w>
过 载</w>
溯 到</w>
通知 书</w>
会计 信息</w>
E V
重 塑</w>
线 器</w>
想 念</w>
用 例</w>
陷入 困境</w>
五 角
苯 酚</w>
维 护
归 一化</w>
观察 者</w>
法 制</w>
丙 二醇</w>
四氢 呋喃</w>
造 血</w>
O R</w>
苹果 公司</w>
线 粒体</w>
相 差</w>
祖 先</w>
试 题</w>
哈 希</w>
无 色</w>
模拟 信号</w>
烧 伤</w>
浸 入</w>
c m3</w>
第二 季度</w>
等 位
等位 基因</w>
水 肿</w>
背 离</w>
工程 学院</w>
这 才</w>
D is
示 威</w>
在此 之前</w>
问 责</w>
棘 手</w>
证券 化</w>
两 张</w>
加 尔</w>
管 控</w>
美 妙</w>
爱 德
奥 迪</w>
热 解</w>
轰 炸</w>
营养 不良</w>
放 疗</w>
保持 一致</w>
压 敏
井 下</w>
方 图</w>
下 个月</w>
手 持
通信 协议</w>
万 英镑</w>
街 区</w>
方 程式</w>
往 复
重复 使用</w>
第一 年</w>
临 界
皇 帝</w>
数 年</w>
词 典</w>
60 5</w>
电流 值</w>
控制 程序</w>
五 名</w>
工 资
最 强</w>
作 用力</w>
明确 规定</w>
大 面积</w>
停 火</w>
7 a</w>
财 产
处 以</w>
H T</w>
做 饭</w>
睡 着</w>
讨 论
惊 叹</w>
法 新社</w>
直 方图</w>
v er</w>
德 语</w>
炉 灶</w>
据 信</w>
co de</w>
大 海</w>
套 餐</w>
胰 腺</w>
高 电平</w>
相 遇</w>
C QI</w>
基 层
有机 酸</w>
诺 基亚</w>
出 生
MP 3</w>
第 九</w>
le c
畸 形</w>
星期 天</w>
卡 特</w>
光 刻
挫 折</w>
C 6</w>
仿 佛</w>
ex e</w>
公 示</w>
天 赋</w>
湖 泊</w>
还 款</w>
水 准</w>
桥 接</w>
14 7</w>
干 部
厄瓜 多尔</w>
3 26</w>
受 限制</w>
炭 黑</w>
东 莞</w>
预 案</w>
198 1</w>
奢侈 品</w>
据 介绍</w>
人 性</w>
量 表</w>
级 联</w>
油 脂</w>
前 侧</w>
表 型</w>
女 友</w>
喷 出</w>
雌 激素</w>
拓 宽</w>
惊 奇</w>
收 紧</w>
处 决</w>
瞩 目</w>
维 加斯</w>
核 能</w>
缩略 图</w>
国 内
日 晚</w>
降 压</w>
中 考</w>
体 液</w>
智能 卡</w>
漫 游</w>
四 届</w>
维多 利亚</w>
5 60</w>
内部 空间</w>
促进 剂</w>
中 西部</w>
团 聚</w>
并 行
固定 装置</w>
靶 标</w>
巴 拿
冰 岛</w>
胃 肠道</w>
征 服</w>
25 1</w>
参 数值</w>
为 人
ar a</w>
诱 惑</w>
需求 量</w>
风 雨</w>
搬 迁</w>
团 伙</w>
危地 马拉</w>
码 字</w>
肾 功能</w>
环 比</w>
武 汉
AT M</w>
u t</w>
小 幅</w>
a st
通 告</w>
滑 轮</w>
杀 伤</w>
中 产阶级</w>
近几 年来</w>
风 速</w>
雨 水</w>
散 发</w>
第三 届</w>
伊利 诺
产生 器</w>
MIM O</w>
远 期</w>
am es</w>
车 架</w>
聚 乙烯
聚乙烯 醇</w>
效 率高</w>
迈 克</w>
传 递
延 迟
透 视</w>
可 比</w>
东道 国</w>
诈 骗</w>
盖 茨</w>
M AT
独 家</w>
工 地</w>
第二 条</w>
推 广
难 性</w>
一 顿</w>
主席 团</w>
改 性
实验 组</w>
饱和 度</w>
人 类
脂 族</w>
J A
膜 片</w>
升 降
视 察</w>
分裂 症</w>
优先 权</w>
S K
加 盟</w>
问 责
80 6</w>
玻璃 板</w>
同 伴</w>
何 处</w>
测量 方法</w>
公共 交通</w>
家 用
降 息</w>
茨 海
明 胶</w>
大 批</w>
人 事
小 编</w>
巨 噬细胞</w>
国 土</w>
仅 次于</w>
战 役</w>
18 1</w>
等 待
举 出</w>
保 人</w>
顶 尖</w>
执 业</w>
一 封</w>
阿尔 茨海
功 夫</w>
今天 下午</w>
s s</w>
证券 公司</w>
S IM
男 女
红 包</w>
198 3</w>
透 射率</w>
书 中</w>
同 性</w>
ri g
更 正</w>
做 事</w>
尤 为</w>
动 摇</w>
画 廊</w>
回 波</w>
DC M</w>
操 控</w>
图 谱</w>
美 女</w>
拧 紧</w>
开 度</w>
重 现</w>
定 居</w>
亚特兰 大</w>
非 法
评 判</w>
u re
70 8</w>
成 功率</w>
很 久
以 向</w>
诉 人</w>
攀 升</w>
理工 大学</w>
贴 片</w>
安 卓</w>
802. 11</w>
接触 式</w>
缺 氧</w>
男 生</w>
强 制
化 工
明 尼
等待 时间</w>
简 洁</w>
香 蕉</w>
CP I</w>
天 主教</w>
19 50</w>
石 家
性 能
屁 股</w>
新华 网</w>
S o
精神 分裂症</w>
阴 谋</w>
外 语</w>
景 色</w>
分 辨</w>
合 金
闪 光</w>
云 南省</w>
萨 尔
小 额</w>
病 房</w>
福 音</w>
60 3</w>
球 面</w>
母 公司</w>
斑 点</w>
莱 德</w>
毁 灭</w>
瑜 伽</w>
an s</w>
国务 院
听 觉</w>
2 9.
性 感</w>
预防 犯罪</w>
低 价</w>
医疗 卫生</w>
多伦 多</w>
特 异</w>
利 益
本 科
风险 投资</w>
纵 轴</w>
纳米 线</w>
ar k</w>
钢 材</w>
言 语</w>
水 壶</w>
叛 乱
碱 基</w>
出 发
G S</w>
停 机</w>
a f
补 偿
新闻 网</w>
橄榄 球</w>
往 返</w>
细胞 培养</w>
简 述</w>
亚 洲
尔 多
遗 址</w>
目 睹</w>
有机 物</w>
嘧 啶</w>
吸 取</w>
D I
保 费</w>
机 翼</w>
区 政府</w>
2 17</w>
净 额</w>
行 李
盲 目</w>
下 侧</w>
差 动</w>
阵 容</w>
2 M</w>
噪 比</w>
9 B</w>
剧 本</w>
打 败</w>
发表 声明</w>
平 面
入 选</w>
国家 标准</w>
与 否</w>
恩 斯</w>
E 2</w>
相 加</w>
投 机</w>
集 线器</w>
完 工</w>
充 实</w>
两 者之间</w>
电影 院</w>
拉 姆</w>
七 届</w>
用 到</w>
物 是</w>
福 州</w>
每 分钟</w>
a k</w>
降 水</w>
参 看</w>
冲 击
锁 紧</w>
亲 属</w>
p ri
眼 光</w>
途 中</w>
盎 司</w>
万 辆</w>
能 量
雄 心
几 家</w>
Syst em</w>
光刻 胶</w>
S L</w>
税 收
风 电</w>
产 后</w>
迫 切</w>
血红 蛋白</w>
教 皇</w>
重 点
从 属</w>
特 工</w>
党员 干部</w>
3 13</w>
那 一刻</w>
本 法</w>
承担 责任</w>
践 行</w>
G en
桌 上</w>
周 刊</w>
现实 生活</w>
号 楼</w>
灾 难性</w>
博 士
跟 进</w>
首 脑</w>
无人 驾驶</w>
金融 业</w>
追 溯到</w>
部 委</w>
比特 率</w>
享 用</w>
保持 稳定</w>
星期 日</w>
N U
9 20</w>
诉 讼
中国 科学院</w>
歇 尔</w>
必 然
病毒 感染</w>
彼 得
广播 电台</w>
准备 金</w>
新 形势
新形势 下</w>
哥 斯达
信 噪比</w>
总 干事</w>
地下 室</w>
金 字
保 修</w>
致 富</w>
远 程
输 电</w>
哥斯达 黎
专 用
显 着</w>
化 妆</w>
作 证</w>
E D</w>
密 歇
佣 金</w>
外汇 储备</w>
投 标人</w>
事 是</w>
1. 9</w>
强 硬</w>
学 业</w>
A E</w>
汲 取</w>
自 有</w>
核 电站</w>
四 周</w>
患 病</w>
化学 武器</w>
胎 面</w>
冷却 液</w>
设 备
蜂 蜜</w>
狮 子</w>
猴 子</w>
一 时</w>
土 金属</w>
汇 款</w>
直 觉</w>
师 傅</w>
全 职</w>
来 回</w>
插 管</w>
良 好
膝 关节</w>
收 藏
1 15
14 A</w>
直 肠</w>
彼 此
西 雅
均 匀
集 聚</w>
多 维</w>
墨 尔
硫 化物</w>
m at
E M
纤维 细胞</w>
逐 步
上 皮细胞</w>
硫酸 镁</w>
av e</w>
2 8.
施加 压力</w>
富 人</w>
没 人</w>
海 啸</w>
增 添</w>
纪 委</w>
HB V</w>
课 堂
需 要
重新 配置</w>
奥林匹 克</w>
从 未
in o</w>
百 年</w>
国防 部长</w>
SD K</w>
说 实话</w>
正 值</w>
路 边</w>
哥斯达黎 加</w>
免 于</w>
肚 子</w>
相对 湿度</w>
固 化剂</w>
免 除</w>
逆 向</w>
建 材</w>
赶 到</w>
12 b</w>
凤 凰</w>
5 4
路 程</w>
火花 塞</w>
微 球</w>
ag ram</w>
电气 设备</w>
艾 伦</w>
缺 席</w>
增 高</w>
融 化</w>
牵 头</w>
天津 市</w>
y er</w>
20 22</w>
总 统
传输 数据</w>
营 业务</w>
服务 提供者</w>
主 营业务</w>
半 球</w>
当今 世界</w>
工程 处</w>
S n</w>
Manag ement</w>
贸易 协定</w>
吉 姆</w>
足 迹</w>
低 水平</w>
四 月</w>
急 救</w>
葬 礼</w>
一个 多</w>
2 38</w>
球 体</w>
光 照</w>
脱 落</w>
高 潮</w>
功 于</w>
回 国</w>
包 络</w>
箱 子</w>
涌 现</w>
d er
N ame</w>
IM F</w>
u icon
普通 股</w>
突 破
归 功于</w>
多 长时间</w>
同 心</w>
uicon trol</w>
变 电站</w>
常 规
停 滞</w>
中国人民 银行</w>
大 局</w>
击 穿</w>
轨道 交通</w>
教学 改革</w>
一 新</w>
乘 员</w>
a x</w>
弧 形</w>
精 致</w>
视 场</w>
双 击</w>
品 尝</w>
解 散</w>
联系 电话</w>
本 例</w>
Sp here</w>
负 担
普遍 存在</w>
既 往</w>
几 率</w>
定 理</w>
攻 坚</w>
送 达</w>
破 解</w>
DS C</w>
日 趋</w>
个人 资料</w>
朝鲜 半岛</w>
没 法</w>
订 正</w>
无 害</w>
相互 连接</w>
现 年</w>
P d</w>
前 轮</w>
传送 带</w>
守 则</w>
数据 表</w>
12 B</w>
话 音</w>
注 明</w>
D ri
6. 3</w>
跨 度</w>
监 管部门</w>
西 斯</w>
雕 刻</w>
re f
丙烯 酰胺</w>
高 昂</w>
电磁 辐射</w>
肢 体</w>
很 漂亮</w>
实用 程序</w>
er t</w>
中 亚</w>
三 位</w>
H 2O</w>
层 次
卡 通</w>
D o
物 业
运 行
共 体</w>
海 事</w>
废 料</w>
不 知
In f
潜 能</w>
吉 他</w>
默 德</w>
线 下</w>
周期 性地</w>
c m
y s
IPv 6</w>
子 里</w>
信 中</w>
先 天性</w>
微 妙</w>
EC U
M et
ar g
宇航 员</w>
从业 人员</w>
解 说</w>
19 67</w>
马 萨
私 有
谋 杀
管理 水平</w>
村 里</w>
后 侧</w>
法 则</w>
怠 速</w>
八 月</w>
18 0
W AN</w>
节 省
渐 进</w>
4 18</w>
水 源</w>
客 观
脂 蛋白</w>
结 合
低 通
教学 方法</w>
这 么
I l
格 雷
马 力</w>
代 谢
CH 2</w>
民 航</w>
七 条</w>
彻 底
基 石</w>
污 水处理</w>
窗 体</w>
盗 窃</w>
丁 醇</w>
圆 筒
学 士学位</w>
内 酯</w>
频 率
细 致</w>
威廉 姆斯</w>
可 取</w>
N a</w>
长 春</w>
薪 资</w>
理查 德</w>
倒 入</w>
全 县</w>
排 气管</w>
吉 林</w>
H V
自 贸
平 常</w>
S V
未 决</w>
型 材</w>
一 辈子</w>
不 定</w>
浓缩 物</w>
过 得</w>
D N</w>
Ig G</w>
C al
出 物</w>
ad er</w>
7. 1</w>
工具 栏</w>
竣 工</w>
低通 滤波器</w>
间 盘</w>
位 居</w>
一无 二</w>
合 格
开 奖</w>
大力 发展</w>
模 特</w>
全 过程</w>
亚 利
该 软件</w>
办公 厅</w>
时 限</w>
c DNA</w>
管 局</w>
甘 肃
替代 性</w>
P RO
或 多
独 一无二</w>
十 多年</w>
历史 记录</w>
混 沌</w>
镇 压</w>
初 创</w>
处 所</w>
银行 卡</w>
小 岛屿</w>
oc k
K I</w>
保 管</w>
机械 设备</w>
战 队</w>
注册 号</w>
降 级</w>
号 线</w>
拖 车</w>
天 下</w>
自 旋</w>
清 液</w>
遗 漏</w>
告 人</w>
深 厚</w>
非常 高兴</w>
第四 季度</w>
F T
值得 一
一 股</w>
可 经</w>
水 利</w>
尼 迪</w>
斯 堡</w>
双边 关系</w>
R N
一 封信</w>
淹 没</w>
擦 拭</w>
商 学院</w>
蚂 蚁</w>
前 台</w>
点 钟</w>
新 高</w>
哪 怕</w>
接 线
粉 尘</w>
兴 奋
可 观</w>
叛乱 分子</w>
3 500</w>
c s</w>
卡罗来 纳州</w>
医 保</w>
校 园
票 房</w>
耐 热</w>
比 克</w>
亚利 桑
合 肥</w>
全 自动</w>
Int el</w>
报 导</w>
首 尔</w>
不 列
2 c</w>
建 构</w>
养 成</w>
受 性</w>
奥 会</w>
西雅 图</w>
生 理学</w>
拉斯 维加斯</w>
解 除
排 量</w>
正 当
运 费</w>
馏 分</w>
b o
玩 耍</w>
加 速
抵 押
外 商
不列 颠</w>
缩 水</w>
湿 性</w>
捆 绑</w>
机 舱</w>
k W</w>
两国 人民</w>
理论 依据</w>
法 兰
轻 链</w>
性 病</w>
外 币</w>
教科 书</w>
19 49</w>
亚历 山
连接 点</w>
航空 航天</w>
胶 乳</w>
页 岩</w>
大大 降低</w>
卡 尔
标志 性</w>
头 盔</w>
疏 散</w>
辖 区</w>
既 定</w>
录 像
身 后</w>
控制 技术</w>
热 稳定性</w>
商业 化</w>
E r
诉 求</w>
机 车</w>
Dav id</w>
培训 班</w>
变 频器</w>
互 通</w>
共 轭</w>
目 击者</w>
er g
卵巢 癌</w>
高 功率</w>
分 校</w>
咖啡 馆</w>
冰 淇
五角 大楼</w>
顺 时针</w>
ri d
生 日
镀 层</w>
L R</w>
先 决
立法 者</w>
名 词</w>
硕 士学位</w>
手 提
帕 金
P ol
这 起</w>
收 盘</w>
阿 姆
20 a</w>
远 处</w>
景 气</w>
承 运人</w>
厌 倦</w>
荣 获</w>
产品 开发</w>
流 水
小型 化</w>
问责 制</w>
星 空</w>
菲 利
不敢 相信</w>
主 要
失 调</w>
金属 化</w>
这 片</w>
应用 领域</w>
先决 条件</w>
精 心
燃 气
该 文</w>
送 入</w>
鲁 棒
环境 署</w>
基本 相同</w>
辽宁 省</w>
小 企业</w>
重 传</w>
布什 总统</w>
搜 查</w>
CR M</w>
天 数</w>
缩 写</w>
带 回</w>
缴 费</w>
MS C</w>
EC U</w>
覆盖 范围</w>
全 长</w>
整 车</w>
G 1</w>
偏 移
三 人</w>
立 大学</w>
G l
负 载
第 四个</w>
网 点</w>
本 报</w>
日 后</w>
档 案
两 只</w>
不管 怎样</w>
综合 症</w>
C G</w>
农业 部</w>
杯 子</w>
咎 于</w>
烧 烤</w>
椎 间盘</w>
一 节</w>
穆 罕
记 者
应用 服务器</w>
归 咎于</w>
骑 士</w>
小 波</w>
耗 时</w>
有机 硅</w>
体 温</w>
硝 酸盐</w>
场 效应</w>
密 性</w>
天气 预报</w>
吸 烟
简 易</w>
射 束</w>
信 件</w>
A F
人 有</w>
膨胀 系数</w>
粉 红色</w>
电 绝缘</w>
另一 方</w>
太 快</w>
编程 语言</w>
胞 胎</w>
调 理</w>
自贸 区</w>
澳大 利亚
移 植物</w>
顶 板</w>
人 道</w>
失 常</w>
归 类</w>
项目 经理</w>
转 导</w>
时 起</w>
不 移</w>
漏 斗</w>
20 21</w>
了 不起</w>
H O</w>
废 弃
杰 夫</w>
控制 数据</w>
崇 拜</w>
生 理
这 为</w>
摊 销</w>
出 门</w>
5 22</w>
超 导</w>
一 维</w>
所 列</w>
同 于</w>
10 B</w>
电 离</w>
空 袭</w>
充 质</w>
缔 结</w>
办 事</w>
一 楼</w>
陪 同</w>
交 所</w>
精 选</w>
亲 切</w>
An aly
全 区</w>
串 行
齿 条</w>
二 酸</w>
续 费</w>
8. 1</w>
美 金</w>
景 象</w>
黑龙 江省</w>
2 40
oun d
m on
推广 应用</w>
兼 顾</w>
京 津
文化 交流</w>
二 战</w>
认 购</w>
Re p
多 大</w>
量 分析</w>
敏 捷</w>
附 表</w>
生产 工艺</w>
F c</w>
管理 中心</w>
油 耗</w>
夏 威
隔 热</w>
租 房</w>
3. 8</w>
出 院</w>
上 角</w>
C B</w>
随机 数</w>
物理 层</w>
15 7</w>
来 文</w>
层 状</w>
前 锋</w>
千 米</w>
饮 用</w>
回 阀</w>
持 久性</w>
P i
斑 块</w>
穆罕 默德</w>
盟 委员会</w>
欧 盟委员会</w>
闲 置</w>
存储 元件</w>
性 别
粪 便</w>
状 体</w>
完全 相同</w>
oo d</w>
考 古</w>
下 肢</w>
止 回阀</w>
日本 政府</w>
归 还</w>
开 展
w h
科 院</w>
出 所</w>
波 纹</w>
欧洲 人</w>
山 西省</w>
赚 取</w>
对 数</w>
星 人</w>
皮 质
提 出
气 孔</w>
放 宽</w>
控制 中心</w>
齿轮 箱</w>
第二 轮</w>
威 斯
n e</w>
亚美 尼亚</w>
Acc ess</w>
第一 件</w>
救 护
工 人
ation s</w>
火 器</w>
网络 系统</w>
矫 正</w>
销售 收入</w>
博 士学位</w>
渗透 性</w>
深 层</w>
走 访</w>
两 场</w>
CA M</w>
脚 步</w>
2 41</w>
打 工</w>
警 示</w>
今天 上午</w>
低 电平</w>
4 15</w>
阻 燃</w>
利 尔</w>
马萨 诸
鼓 风机</w>
三 元</w>
雅 典</w>
不 来</w>
演 讲
伤 心</w>
健身 房</w>
南 北</w>
不 下</w>
放 假</w>
指 甲</w>
移 出</w>
外 壁</w>
筹 备
极 具</w>
激进 分子</w>
N ACK</w>
马 铃
移 至</w>
储 量</w>
医 务人员</w>
传染 性</w>
先 锋</w>
美 的</w>
史蒂 夫</w>
乌 兹
al e</w>
性 行为</w>
人 选</w>
太 小</w>
ad e</w>
通 风
球 囊</w>
理 想
有 利
极 好</w>
开 孔</w>
等 同于</w>
甲 氧基</w>
递 交</w>
糊 精</w>
性 材料</w>
工程 建设</w>
伴 有</w>
胶 质</w>
5 5%</w>
数 控
才 华</w>
动 手</w>
制 服</w>
主 场</w>
吸 尘器</w>
挂 牌</w>
乌兹 别
差 错</w>
周围 环境</w>
任 务
乘 法</w>
测 距</w>
飞 速
金字 塔</w>
退 款</w>
腹 膜</w>
O EM</w>
利 息
股 骨</w>
时 要</w>
多 晶</w>
p k
高 峰
帐 号</w>
跑 道</w>
算 术</w>
G M</w>
成 份</w>
黑龙 江</w>
治 国</w>
坏 账</w>
表面 层</w>
僵 尸</w>
嵌 套</w>
酸 化</w>
L 3</w>
a p</w>
软件 应用</w>
联 酋</w>
超 临界</w>
4 70</w>
行 列</w>
留 时间</w>
框 中</w>
停 留时间</w>
遗 忘</w>
此 刻</w>
楼 主</w>
弱 势
阿 联酋</w>
F lash</w>
无 条件</w>
个 子</w>
欧洲 央行</w>
口 径</w>
拥 塞</w>
游戏 机</w>
图形 用户界面</w>
平 凡</w>
在 意</w>
强 势</w>
7 12</w>
种 植
绳 索</w>
构 图</w>
沉 浸</w>
ic h</w>
照明 设备</w>
纸 板</w>
旅行 者</w>
晋 升</w>
马铃 薯</w>
恢复 正常</w>
高 斯</w>
聚 硅氧烷</w>
坚定 不移</w>
日 讯</w>
毫 不</w>
胎 盘</w>
摩 根</w>
保护 主义</w>
力 求</w>
中 外</w>
飞速 发展</w>
运 河</w>
碳 酸盐</w>
弱势 群体</w>
贵 州
19 1</w>
誉 为</w>
内 层</w>
指导 方针</w>
七 月</w>
0. 15</w>
全 额</w>
n ame</w>
楼 市</w>
税 款</w>
吡 咯
预 制</w>
耐 受性</w>
非 对称</w>
类 固醇</w>
期 徒刑</w>
幅 值</w>
胶 粘剂</w>
注 视</w>
墨尔 本</w>
RA ID</w>
永 磁体</w>
O A</w>
废弃 物</w>
高 点</w>
中美 关系</w>
产品 设计</w>
简 报</w>
鞋 底</w>
清华 大学</w>
油 门</w>
被 盗</w>
耐磨 性</w>
M N</w>
追 逐</w>
淡 水</w>
残 忍</w>
换 取</w>
介 素</w>
e ar
色 散</w>
反 相器</w>
保守 党</w>
Ti O2</w>
支 座</w>
眼 科</w>
发 音</w>
重 试</w>
影 视</w>
90 1</w>
例 可</w>
PD U</w>
整 整</w>
背 板</w>
脱 颖
脱颖 而出</w>
as t</w>
年 会</w>
栅 格</w>
头 衔</w>
冰淇 淋</w>
江 西省</w>
学 年</w>
蜡 烛</w>
斯洛伐 克</w>
5 16</w>
音乐 家</w>
工作 台</w>
甲基 丙烯酸</w>
旁 通</w>
一 章</w>
缓冲 存储器</w>
收 发</w>
揭 露</w>
避 孕
Inst agram</w>
anch a</w>
遍 布</w>
磁 通</w>
楼 上</w>
提 高
十二 五</w>
校 区</w>
佛罗里 达</w>
极 度</w>
核 裁军</w>
ti any
柜 台</w>
消化 道</w>
中 新
规 约</w>
领 土
R os
超 级
体 积
播放 列表</w>
ik e</w>
书 店</w>
一 瓶</w>
中共 中央</w>
V S</w>
普遍 认为</w>
世 纪
最 优化</w>
西 医</w>
机动 车辆</w>
喜 悦</w>
轿 厢</w>
协商 一致</w>
检 疫</w>
丰 富
麦 凯恩</w>
引 出</w>
轻 质</w>
海 地区</w>
追 加</w>
Q 1</w>
7 8
新 浪</w>
达 姆</w>
线 材</w>
or k</w>
项 式</w>
二 甲苯</w>
ul l</w>
tiany ancha</w>
报 销</w>
边 缘
电子 电路</w>
干扰 素</w>
已 于</w>
氢 氧化物</w>
9 50</w>
印 迹</w>
L AB</w>
票 价</w>
流行 病</w>
生物 降解</w>
AT P</w>
征 求</w>
19 5</w>
交易 者</w>
十 月</w>
总体 而言</w>
制 度
吃 惊</w>
核 电</w>
优惠 政策</w>
明 治</w>
Na OH</w>
数据 模型</w>
日 语</w>
国家 元首</w>
拉 链</w>
13 %</w>
素 材</w>
赔 偿
降 温</w>
压 板</w>
re f</w>
侮 辱</w>
这 篇</w>
3 mm</w>
隔 壁</w>
莫 桑
服 役</w>
进 出</w>
国 集团</w>
内 科</w>
逃 跑</w>
掩 膜</w>
安 慰
招 商
4. 8</w>
暴 跌</w>
P O</w>
ig ht</w>
分子 筛</w>
贿 赂</w>
Re d
乌 拉圭</w>
ul t</w>
路 交通</w>
U PS</w>
费 城</w>
滤 光片</w>
公用 事业</w>
相 适应</w>
A u</w>
以 人
对外 贸易</w>
磁 极</w>
这 块</w>
该 法</w>
快 捷
中 级</w>
人 身
ti f
时 应</w>
am p</w>
终端 用户</w>
心 律
内 时</w>
3. 7</w>
阶 梯</w>
战 线</w>
横 跨</w>
边 框</w>
继续 前进</w>
计 价</w>
救护 车</w>
副 局长</w>
数字 图像</w>
尽 全力</w>
跟 上</w>
接 缝</w>
科 大学</w>
尾 部</w>
烯 基</w>
区域 合作</w>
使用 量</w>
北京 大学</w>
内 镜</w>
安全 隐患</w>
服 饰</w>
抗 病毒</w>
立 足</w>
年龄 段</w>
小 球</w>
圆柱 体</w>
不 论
寄 生</w>
积 分
幸 存</w>
胶 原
压 机</w>
跳 过</w>
一 双</w>
分散 性</w>
L U
京津 冀</w>
番 茄</w>
pp t</w>
当事 方</w>
轮 询</w>
港 元</w>
w t</w>
芳 香</w>
CS S</w>
课堂 教学</w>
尤 为重要</w>
荒 谬</w>
红十字 会</w>
车 厢</w>
涌 入</w>
社会 保险</w>
感 官</w>
St ore</w>
运 算
湿 气</w>
特 里亚</w>
兽 医</w>
Ch ro
G P</w>
发 出
孔 隙
就 绪</w>
is h
拖 鞋</w>
T g</w>
地 使</w>
接收 者</w>
多 哈</w>
家用 电器</w>
咪 唑</w>
粉 末
饮 酒</w>
L T</w>
经济 损失</w>
Add .1</w>
震 器</w>
详 尽</w>
顺 应</w>
安慰 剂</w>
经验 教训</w>
纹 身</w>
自 制</w>
入 狱</w>
en s
土 豆</w>
花 生</w>
辖 市</w>
创 新型</w>
9. 5</w>
回 转</w>
4. 6</w>
17 00</w>
X XX</w>
本 金</w>
肩 部</w>
19 4</w>
青 海</w>
乒 乓
近 距离</w>
定 量分析</w>
以人 为本</w>
3 50
伊利诺 伊
采 购
翻 新</w>
发 起
D RAM</w>
迈 进</w>
草 地</w>
管理 程序</w>
显 式</w>
节 约
微 创</w>
非营 利</w>
17 %</w>
创 纪录</w>
租 户</w>
版 本
边 坡</w>
ac t</w>
硬 质</w>
水 力</w>
彻 斯特</w>
小 小</w>
普通 人</w>
谣 言</w>
li g
莫桑 比克</w>
提 高效率</w>
19 00</w>
氯 仿</w>
出口 商</w>
凝 结</w>
面 貌</w>
法 轮
地 以</w>
一 下
建筑 材料</w>
邮 政
审 慎</w>
针 刺</w>
出发 点</w>
主 办
旋 风</w>
十二 届</w>
复印 件</w>
重 量
组 长</w>
东 南
os t</w>
5. 4</w>
鸡 肉</w>
双 面</w>
SC R</w>
阻燃 剂</w>
清晰 度</w>
人 机
苯 甲酸</w>
清 洗
专门 机构</w>
5 C</w>
中 文
基 数</w>
手 腕</w>
大 地</w>
断 电</w>
内 罗
E B
备 注</w>
证 明
每 条</w>
补充 剂</w>
预 聚物</w>
发 掘</w>
调 光</w>
人 中</w>
观 光</w>
橡 胶
难 得</w>
不 吃</w>
修 剪</w>
树 林</w>
谋 求</w>
九 条</w>
强 力</w>
手 法</w>
重量 轻</w>
受益 人</w>
高 低</w>
牙 买
突 发
卷 积</w>
加速 度计</w>
瘫 痪</w>
物 价</w>
婴 幼儿</w>
大 象</w>
B us
购 置</w>
美 方</w>
I a</w>
CR P</w>
羊 毛</w>
那 次</w>
四 天</w>
巡 航</w>
2 46</w>
孔隙 率</w>
裂 化</w>
沉淀 物</w>
AS IC</w>
朋 友
白 皮书</w>
骗 子</w>
截 取</w>
弗兰 克</w>
家 可
圣 地
微 分</w>
俄亥 俄
捷 克</w>
低 电压</w>
PP P</w>
恰 好</w>
医 科大学</w>
刚 好</w>
s u
沿 图</w>
冠 军
沙 拉</w>
19 73</w>
问 候</w>
抗 力</w>
兰 人</w>
20 A</w>
一 定量</w>
该 类</w>
磷 光体</w>
希 腊
无线 连接</w>
标 定</w>
十 一届</w>
质 素</w>
包装 材料</w>
镇 痛</w>
蓝 图</w>
18 %</w>
阻尼 器</w>
克 鲁
不 予</w>
流 逝</w>
背 叛</w>
五 次</w>
墨 盒</w>
T T</w>
单 据</w>
凝 聚力</w>
犯 有</w>
上 任</w>
S H
马 云</w>
内罗 毕</w>
预 示</w>
视 镜</w>
共 价</w>
0.0 2</w>
深 受</w>
无 家可
佐 剂</w>
社 团</w>
非 水</w>
氧化 锌</w>
衍 生
阀 座</w>
货 架</w>
弗吉 尼亚州</w>
大 纲</w>
IC 卡</w>
退 伍
共 建</w>
退 役</w>
经济 区</w>
it h</w>
W al
SD S</w>
遮 蔽</w>
塞 州</w>
整 套</w>
阿尔巴 尼亚</w>
关 押</w>
一 辆车</w>
Re v
肾上 腺素</w>
网络 服务</w>
现 值</w>
长 国</w>
有 何</w>
吸 毒</w>
失 控</w>
前 夕</w>
金 正
2 6.
突 变体</w>
公开 赛</w>
钢 结构</w>
典 范</w>
汽车 行业</w>
酋 长国</w>
2 45</w>
党和 国家</w>
参 加
卖 淫</w>
展 览会</w>
管理 机构</w>
9 00
H ot
挖 掘
热 泵</w>
地 面积</w>
马萨诸 塞州</w>
被 告人</w>
虫 剂</w>
副 总经理</w>
德 国人</w>
小 学生</w>
9 000</w>
关联 方</w>
特 使</w>
操作 过程</w>
出 示</w>
深 层次</w>
扩展 性</w>
版 权
外 长</w>
能 为</w>
拇 指</w>
单 次</w>
立体 声</w>
ig n</w>
面 粉</w>
学习 者</w>
拼 接</w>
致 敬</w>
口 处</w>
瓦 尔</w>
衣 橱</w>
心 电图</w>
B IOS</w>
80 8</w>
近 代</w>
罪 名</w>
烷 烃</w>
通 过
手持 式</w>
亚 哥</w>
国 企</w>
E F</w>
尔 多</w>
鲜 花</w>
右 翼</w>
车 子</w>
正确 性</w>
输 给</w>
退伍 军人</w>
武 术</w>
伊 丽
克 里</w>
总 收入</w>
一 年
e k</w>
求 意见</w>
征 求意见</w>
高 层次</w>
逾 期</w>
多 边
千 瓦</w>
发 烧</w>
半 透明</w>
厄 立
并 非
17 3</w>
n a</w>
I m
3 42</w>
群 落</w>
弱 势</w>
颈 动脉</w>
厄立 特里亚</w>
螺 线管</w>
个 世纪</w>
流水 线</w>
C X
30 9</w>
华 州</w>
阿姆 斯特
招 商</w>
无 核武器</w>
侦 查</w>
数 月</w>
初 级
1 mm</w>
m ul
立法 会</w>
8. 0</w>
农 田</w>
马 其
中 标</w>
保 值</w>
证 词</w>
体 中</w>
值 时</w>
顶 盒</w>
休 眠</w>
南 宁</w>
R L</w>
B B</w>
中 仅</w>
思 议</w>
微 分
民 间
智 库</w>
中新 网</w>
保护 装置</w>
再 次
加勒 比
磁 头</w>
发射 极</w>
中 枢
风 能</w>
卷 入</w>
3 52</w>
地 表</w>
扰 乱</w>
ac h</w>
DC I</w>
伊丽 莎
用 法</w>
安全 措施</w>
心 跳</w>
iP od</w>
倾 角</w>
立 陶
日 程</w>
y st
格 尔</w>
换 挡</w>
实 心</w>
轻 型</w>
半 决赛</w>
住 院
la b</w>
轻 轻</w>
法轮 功</w>
社会 化</w>
克 拉</w>
伊斯兰 共和国</w>
从 动</w>
夹 子</w>
形 貌</w>
深 刻
2 7.
地 基</w>
不 介意</w>
高新 区</w>
笑 容</w>
IT O</w>
App lic
第一 家</w>
沙 滩</w>
党 支部</w>
M or
德 国
石 膏</w>
地 缘</w>
小 伙伴</w>
绝 大部分</w>
俄亥俄 州</w>
年 均</w>
14 9</w>
阐 释</w>
双 键</w>
滤色 器</w>
较 弱</w>
权 衡</w>
建立 健全</w>
夏威 夷</w>
不可 思议</w>
人 性化</w>
湍 流</w>
产品 描述</w>
酰 化</w>
水 晶</w>
大 幅
8 30</w>
尖 锐</w>
卫星 频道</w>
辅 助
根本 原因</w>
亿 英镑</w>
S AN</w>
00 0.00</w>
H ol
小 男孩</w>
图 层</w>
水 蒸气</w>
D 3</w>
圣地 亚哥</w>
流 式</w>
汇 聚</w>
新闻 部</w>
着 急</w>
这 事</w>
变 小</w>
以 防</w>
19 76</w>
内 分泌</w>
V III</w>
煽 动</w>
19 9</w>
聚酯 树脂</w>
19 75</w>
轻 武器</w>
出 路</w>
令人 担忧</w>
面包 机</w>
铁 矿石</w>
ing s</w>
6 14</w>
铭 记</w>
5 11</w>
jav a</w>
热水 器</w>
打 出</w>
G 20</w>
汇 票</w>
蓄 电</w>
J e
洗 衣</w>
散 热
育 种</w>
漂 白</w>
-------- --------
全国 政协</w>
两 份</w>
加油 站</w>
人 身</w>
3 28</w>
好 玩</w>
估 价</w>
上 型</w>
转 变成</w>
甘肃 省</w>
采取 任何</w>
很 多年</w>
福 利
教学 质量</w>
尖 叫</w>
三 点</w>
中国 银行</w>
2 33</w>
服务 体系</w>
甲 酰胺</w>
E V</w>
面 孔</w>
局 限</w>
外部 环境</w>
缓冲 剂</w>
压 实</w>
牙买 加</w>
习 惯
沙 龙</w>
机 动</w>
示威 者</w>
面 罩</w>
摩擦 力</w>
政治 权利</w>
加 成</w>
脉 搏</w>
复 方</w>
驱 逐
阿 卜
记录 器</w>
后 赛</w>
联合国 大会</w>
数据 仓库</w>
季 后赛</w>
镀 锌</w>
以色 列
晶 圆</w>
回 调</w>
括 号</w>
漂 浮</w>
机 顶盒</w>
P MI</w>
肯 尼迪</w>
共 青
铸 铁</w>
黏 膜</w>
该 部</w>
P ri
N B</w>
户 外
部 段</w>
一 一</w>
免 税</w>
权 威
小 规模</w>
储 罐</w>
3 34</w>
T R</w>
灵 敏</w>
全 息</w>
言 论
设 定值</w>
颅 内</w>
尿 布</w>
重 用</w>
屈 服</w>
特 种</w>
胜 地</w>
监 事会</w>
逆 时针</w>
散 列</w>
外商 投资</w>
烘 箱</w>
西 北
X 1</w>
言论 自由</w>
薄 板</w>
T G</w>
问 道</w>
装 运</w>
恐 龙</w>
支 行</w>
双 工</w>
外 星人</w>
山 梨
午 饭</w>
4 24</w>
烘 烤</w>
凶 手</w>
路 段</w>
人民 代表大会</w>
B ook</w>
压敏 粘合</w>
萨 达姆</w>
三 明治</w>
表 演
新 人</w>
in s</w>
温 柔</w>
存 续</w>
13 A</w>
炸 药</w>
麦 当
洗 手
翻译 成</w>
领土 完整</w>
输出 设备</w>
个 案</w>
热 传导</w>
误 导</w>
构 成
五 分钟</w>
P IN</w>
骨 质</w>
6 60</w>
交 际</w>
美术 馆</w>
赞 助
最 坏</w>
雄心 勃勃</w>
yn c</w>
浪 费
P F
R 6</w>
早 点</w>
奇 偶
硅 酮</w>
接 剂</w>
双 胞胎</w>
AC S</w>
核 对</w>
大 队</w>
科 尔</w>
多 层次</w>
计 量
例 在</w>
不 相同</w>
DH CP</w>
收 拾</w>
T o
香 味</w>
辨 别</w>
手 续费</w>
液 位</w>
暂 时性</w>
保险 杠</w>
u g</w>
离子 注入</w>
热 力学</w>
开 拓
表 层</w>
体 征</w>
M BA</w>
14 %</w>
段 性</w>
体育 运动</w>
预 言</w>
无 纺
j s</w>
数据 管理</w>
法 制
I s
紧 紧</w>
理工 学院</w>
另一 名</w>
试 卷</w>
7 9
翅 膀</w>
高 盛</w>
试 用</w>
抨 击</w>
19 6</w>
感 应
推 销</w>
保守 派</w>
多 路</w>
雕 像</w>
滑 坡</w>
四 处</w>
婚 姻
-- --</w>
创业 者</w>
减 震器</w>
后 视镜</w>
氧化 锆</w>
围 栏</w>
盘 算</w>
驱动 轮</w>
回 收率</w>
条 线</w>
拥 堵</w>
中 介
八 条</w>
Mic ha
物 流
数码 相机</w>
来 电</w>
脾 气</w>
格 雷</w>
抚 养</w>
破 损</w>
自 律</w>
简 而言之</w>
三 季度</w>
技术 转让</w>
浸 润</w>
传动 系统</w>
不 久
b e</w>
最低 工资</w>
双 链</w>
以下 内容</w>
阿 姨</w>
x ml</w>
超 额</w>
三 十年</w>
灰 石</w>
酸 奶</w>
横 梁</w>
法 典</w>
链 轮</w>
安全 感</w>
计算机 科学</w>
九 月</w>
右 手</w>
if t</w>
伊丽莎 白</w>
车 里</w>
抬 起</w>
公 投</w>
学 报</w>
转 入</w>
骨 干</w>
国 土
男 友</w>
4 32</w>
绿 色
第一 信号</w>
脉 动</w>
公 司法</w>
m o</w>
邮 票</w>
粘 接剂</w>
活塞 杆</w>
没 用</w>
需要 的话</w>
倾 销</w>
19 8</w>
入 量</w>
机 箱</w>
S 5</w>
R B
勒 斯</w>
第一 场</w>
4 25</w>
上 演</w>
感 性</w>
CD 4</w>
一 向</w>
不 带</w>
各 省</w>
数据 保护</w>
谐 器</w>
枪 手</w>
低 位</w>
调 谐器</w>
英语 教学</w>
贵州 省</w>
出 价</w>
衍生 品</w>
一 整天</w>
占 有
击 队</w>
板 状</w>
T X</w>
业 余</w>
Ma x</w>
离子 水</w>
星 座</w>
5. 6</w>
C li
福 克斯</w>
被 控</w>
投资 银行</w>
优惠 券</w>
70 5</w>
心 轴</w>
梯 形</w>
第一 节</w>
温 州</w>
2 2.
人际 关系</w>
经贸 合作</w>
历 时</w>
五 条</w>
首 发</w>
纪念 日</w>
少 女</w>
R H</w>
排 查</w>
转 为</w>
经 理
布拉 格</w>
掩 码</w>
资金 来源</w>
提 的是</w>
值得一 提的是</w>
纽 带</w>
微分 方程</w>
东 北部</w>
Na Cl</w>
中国 证监会</w>
凯 特</w>
制片 人</w>
开 端</w>
直 辖市</w>
卤 化</w>
组 合
无线电 通信</w>
鲁棒 性</w>
醋 酸</w>
彰 显</w>
排 名
关 注
侦 探</w>
反射 光</w>
C U</w>
慈善 机构</w>
皮 下</w>
杀 菌</w>
诊 治</w>
N ew
10 mm</w>
AC E</w>
该 校</w>
均衡 器</w>
断 言</w>
直 接
搜 集</w>
经常 性</w>
淬 火</w>
固 相</w>
相 移</w>
ar i</w>
大 奖</w>
栽 培</w>
重 合</w>
A v
否 决</w>
平 原</w>
2 3.
化学 成分</w>
等 国</w>
握 手</w>
t 2</w>
环 球</w>
电流 密度</w>
造 就</w>
令人 惊叹</w>
些 年来</w>
N ASA</w>
p a</w>
巴 林</w>
市场 准入</w>
海 鲜</w>
非 国家</w>
8 6
流 变</w>
CO PD</w>
苯 胺</w>
内部 结构</w>
高 素质</w>
磁 力</w>
听 听</w>
充分 考虑</w>
聘 用</w>
数据 处理系统</w>
治 亚
乙 胺</w>
T ype</w>
改性 剂</w>
公共 政策</w>
血 液
收 据</w>
1 1%</w>
表示 感谢</w>
抵 靠</w>
实 务</w>
岁 月</w>
教 师
辨 认</w>
清 真
奔 跑</w>
夕 卜</w>
悲 惨</w>
马拉 松</w>
概 率
清真 寺</w>
壳 聚糖</w>
课 件</w>
动 件</w>
不 间断</w>
冻 干</w>
第三 代</w>
读 存储器</w>
职 权</w>
打 死</w>
抢 救</w>
出 差</w>
森 林
利 差</w>
内 向</w>
领导 力</w>
内 需</w>
Ch ar
禁 运</w>
端 盖</w>
及 图</w>
先 行</w>
二 聚体</w>
驳 回</w>
洛 克</w>
饲 养</w>
辐射 源</w>
建筑 工程</w>
敢 于</w>
路易 斯
Tun es</w>
联 机</w>
第四 届</w>
稀 疏</w>
第五 十
主 动脉</w>
历史 数据</w>
爆 破</w>
民 进
遵 从</w>
批 判</w>
纳 粹</w>
开 罗</w>
加 仑</w>
管 癌</w>
名 片</w>
纸 浆</w>
离 岸</w>
银行 家</w>
偏移 量</w>
高 危</w>
菌 剂</w>
工作 温度</w>
口 令</w>
几 秒钟</w>
测定 方法</w>
单 链</w>
有 色
巨 人</w>
篮 子</w>
嫉 妒</w>
正 文</w>
阿尔茨海 默</w>
膨胀 率</w>
智能 家居</w>
划 线</w>
萨 德</w>
机 型</w>
乳 制品</w>
金 斯</w>
烤 面包机</w>
晚 间</w>
飞 轮</w>
心理 学家</w>
阶 段性</w>
多 发性</w>
牙 刷</w>
让 步</w>
聆 听</w>
c li
有 形</w>
3 90</w>
类 产品</w>
L G</w>
C K</w>
哈 里</w>
Mar k
新 娘</w>
遣 返</w>
18 3</w>
私有 化</w>
免疫 原性</w>
租 用</w>
喷 洒</w>
马 耳
褐 色</w>
楔 形</w>
复合 体</w>
P TFE</w>
老 实</w>
人 脸</w>
100 1</w>
NA S</w>
领先 地位</w>
备 件</w>
联合国 安理会</w>
硫 醇</w>
去 离子水</w>
白 酒</w>
普 尔</w>
喷雾 干燥</w>
东 欧</w>
锁 止</w>
X RD</w>
奶 油</w>
19 72</w>
导 光板</w>
博 拉</w>
第二 年</w>
侵 略
玛 丽
张 紧</w>
专门 知识</w>
量 度</w>
各 州</w>
it ion</w>
重新 安装</w>
电 偶</w>
平 等
摩擦 系数</w>
lo g</w>
构 造
月 经</w>
告 别</w>
液晶 面板</w>
被 示</w>
场 馆</w>
鲨 鱼</w>
16 A</w>
电 灯</w>
z e</w>
阻 隔</w>
an o</w>
原 油
M G</w>
负担 得起</w>
整 洁</w>
充电 电池</w>
国有 资产</w>
90 6</w>
敷 料</w>
Tr ans
萧 条</w>
描 写</w>
多 项式</w>
成 功
战 后</w>
一 口</w>
互 相
善 意</w>
拒 绝
油 器</w>
老 年
宣 告</w>
万 一</w>
线 或</w>
格 里
高 地</w>
偏振 光</w>
很 酷</w>
H PV</w>
比 起</w>
自由 主义</w>
百分 数</w>
巴 克</w>
观 者</w>
喜 好</w>
反 相</w>
东 南部</w>
知识 库</w>
二 十</w>
搬 运</w>
二 甲基
配 准</w>
上 侧</w>
矿 井</w>
抓 获</w>
16 %</w>
部 处</w>
租 人</w>
斜 面</w>
好 运</w>
薪 金</w>
拉 德</w>
f l
传 播
x xx</w>
法律 责任</w>
演 唱</w>
遗传 学</w>
党的 建设</w>
只 读</w>
突发 事件</w>
复 员</w>
不 小</w>
山 上</w>
魔 鬼</w>
极端 主义</w>
我 试</w>
曼 哈
圆 满
闹 钟</w>
带 轮</w>
采取 有效</w>
供 需</w>
卫生 保健</w>
5 3
两 地</w>
极 高</w>
流 传</w>
做 点</w>
正 比</w>
参 展</w>
产 权
游 说</w>
亚历山 大</w>
乳 剂</w>
二 胺</w>
有 名</w>
舰 队</w>
基 点</w>
精 简</w>
马耳 他</w>
执法 人员</w>
A O
杀 虫剂</w>
五 种</w>
孔 子</w>
不 怕</w>
整 形</w>
适用 范围</w>
伊利诺伊 州</w>
专 项
查 理</w>
使 能</w>
铸 件</w>
SA S</w>
营 收</w>
新 政府</w>
原始 数据</w>
M SC
陆 战队</w>
文 艺</w>
u ro
台 式</w>
黑 洞</w>
电力 供应</w>
哈 佛
野 蛮</w>
塞 内
对 焦</w>
偶 像</w>
响 应
互 信</w>
4. 7</w>
伟 大
不 在</w>
总 面积</w>
下 达</w>
er n</w>
精 制</w>
中枢 神经</w>
C K
曼 彻斯特</w>
拨 号</w>
服务 平台</w>
i al</w>
美 元
国家 统计局</w>
切 尔</w>
配 料</w>
女 演员</w>
文 明
史 上</w>
改 装</w>
弹性 模量</w>
奇 妙</w>
转 账</w>
贮 存器</w>
蒙特 利尔</w>
阿 森
山 羊</w>
停车 位</w>
斯洛 文
超 高</w>
肮 脏</w>
100 4</w>
N AND</w>
胃 肠</w>
抗 震</w>
16 a</w>
一 圈</w>
十 一</w>
对称 性</w>
然 不同</w>
带 头</w>
带 通</w>
办公 桌</w>
民进 党</w>
感到 高兴</w>
中 世纪</w>
A W
凝 剂</w>
防 护
海 马</w>
爱 国</w>
工艺 品</w>
小 事</w>
协 同
嘴 唇</w>
进 取</w>
公 钥</w>
i Tunes</w>
光 荣</w>
组 与</w>
30 00
针 头</w>
个 股</w>
爱 国
V P</w>
赞 比亚</w>
原 件</w>
2 72</w>
核 试验</w>
滚 轮</w>
40 7</w>
持 平</w>
数百 名</w>
收 听</w>
深 切</w>
背 包</w>
写 出</w>
这 套</w>
付 给</w>
瓦 多</w>
招 呼</w>
M er
塞内 加尔</w>
东 南</w>
内 政部</w>
园 林</w>
t l</w>
小 孩子</w>
E 1</w>
接合 部</w>
用 具</w>
2 1.
凭 据</w>
技术 开发</w>
保护 环境</w>
第一 部</w>
爱 沙
宁 市</w>
这 支</w>
偏 向</w>
n s</w>
豪 华
本 行</w>
也 好</w>
尿 道</w>
第一 轮</w>
肝 素</w>
省 长</w>
体 燃料</w>
大 功率</w>
6. 4</w>
或 少</w>
车 祸</w>
开 办</w>
钎 焊</w>
知 晓</w>
压力 容器</w>
州 大学</w>
天 生</w>
辅 导
系统 控制</w>
牛 顿</w>
u k
9 6
牢 固
紧 迫
宏 块</w>
铅 笔</w>
无 处
流 转</w>
a S</w>
19 74</w>
款 式</w>
一 列</w>
附加 值</w>
洗 澡</w>
森 堡</w>
G e</w>
考 试
崇 高</w>
回 声</w>
差 异化</w>
草 坪</w>
乐 团</w>
大 意</w>
壁 炉</w>
表 观</w>
x 2</w>
动脉 瘤</w>
亚利桑 那州</w>
以 较</w>
MAT LAB</w>
9 001</w>
草 药</w>
口 岸</w>
N K</w>
售 出</w>
维 修
分 立</w>
长 久</w>
不久 前</w>
邮 寄</w>
创新 性</w>
酯 化</w>
酪 氨酸</w>
萨尔 瓦多</w>
V IP</w>
一 帧</w>
优 美</w>
升 起</w>
连 线</w>
PS A</w>
清洁 剂</w>
雌 性</w>
鲍 勃</w>
港 澳</w>
利 好</w>
扩 建</w>
国际 法庭</w>
ut e</w>
叙 事</w>
赖 氨酸</w>
人 生
挑 衅</w>
无 锡</w>
商 贸</w>
大 致
e z</w>
幸福 感</w>
长 率</w>
身 材</w>
就 诊</w>
银行 贷款</w>
派 出所</w>
物 价
卵 白</w>
无纺 布</w>
接触 点</w>
u r</w>
原 先</w>
磷酸 化</w>
节 流</w>
要 约</w>
3 3%</w>
第五 章</w>
此 机会</w>
自 体</w>
极 了</w>
中央 政治
帕金 森
只 好</w>
酰 氯</w>
流 媒体</w>
伍 德</w>
中 度</w>
上 映</w>
科罗拉 多
J SON</w>
青 春
司 令
眼 里</w>
一 到</w>
床 垫</w>
隐 含</w>
50 ml</w>
全 民
铁 矿</w>
本 市</w>
ou se</w>
9 11</w>
台 独</w>
人口 普查</w>
励 磁</w>
休息 区</w>
初 学者</w>
人 节</w>
两 党</w>
无 所
星 系</w>
双 人
意 味</w>
继续 下去</w>
碱 土金属</w>
熨 斗</w>
客 运</w>
优 缺点</w>
两国 之间</w>
俄 语</w>
转 向
空间 站</w>
比 分</w>
加 法器</w>
大致 相同</w>
开关 电路</w>
异 源</w>
衰 落</w>
最 合适</w>
六 条</w>
亿 人</w>
大 韩
T L</w>
会 同</w>
宏观 调控</w>
克 利
方 便
督 促</w>
A ir
水 相</w>
紫 外光</w>
统 治
生 肖</w>
节 段</w>
朋友 圈</w>
7. 4</w>
行政 长官</w>
体 面</w>
异 物</w>
甲基 化</w>
德 黑
A AA</w>
覆盖 物</w>
e c</w>
愈 来
九 年</w>
有 色</w>
p o
廉 政</w>
未 必</w>
M n
中 场</w>
强 壮</w>
德黑 兰</w>
MT S</w>
赛 道</w>
主 题
排 水
疏 松</w>
定 期
灭 火</w>
玻利 维亚</w>
法律 援助</w>
拆 分</w>
之 初</w>
中 山</w>
Te ch
我 們</w>
医 护
大韩 民国</w>
一 头</w>
F TP</w>
三 周</w>
多 媒体
一大 批</w>
流感 病毒</w>
坐 落</w>
演 唱
利 性</w>
成 品
午 夜</w>
不论 是</w>
赠 送</w>
等 候</w>
成 将</w>
做 生意</w>
心律 失常</w>
按 规定</w>
D N
海 运</w>
编 解码器</w>
Micha el</w>
宾夕法 尼亚州</w>
增 至</w>
欢 迎
暴力 事件</w>
治亚 州</w>
搁 置</w>
心 动
巴 塞尔</w>
营业 执照</w>
煤 炭
Q 2</w>
翅 片</w>
ow n</w>
演 练</w>
工程 施工</w>
卡 梅
重复 性</w>
有 无</w>
大 程度</w>
B ur
无 奈</w>
筹 措</w>
巴拿 马</w>
防 腐</w>
跨 界</w>
M U
华 丽</w>
范 文</w>
一 对
医护 人员</w>
自 闭
ex t
住 房
底 漆</w>
收 养</w>
带 状</w>
革 新</w>
单 相</w>
委 任</w>
倒 塌</w>
生 育
卫星 电视</w>
硼 酸</w>
世 博会</w>
d o</w>
G L</w>
7 40</w>
自闭 症</w>
目标 值</w>
政策 措施</w>
K G</w>
大 家庭</w>
南 极</w>
社会 福利</w>
Sp r
壁 上</w>
F IF
On e</w>
皮 层</w>
五 天</w>
9 5
静 止
囊 肿</w>
层次 结构</w>
违 规
试 行</w>
在 生活
克 拉克</w>
尔 森</w>
详 见</w>
螺 仪</w>
颁 奖
应用 软件</w>
老 挝</w>
不断 完善</w>
中国 队</w>
正 试图</w>
co l
隐 瞒</w>
浪费 时间</w>
泥 浆</w>
IF N</w>
板 球</w>
V LAN</w>
马 州</w>
入 门</w>
骨 髓
摄 体</w>
刹 车
苛 刻</w>
体育 馆</w>
T TI</w>
水 体</w>
交易 量</w>
身 分</w>
叙 利亚
举 起</w>
自 行
公民 权利</w>
曼哈 顿</w>
车 手</w>
体 质</w>
30 a</w>
指 纹
D T</w>
本 田</w>
提 纯</w>
陀 螺仪</w>
退 回</w>
P OS</w>
A MP</w>
数据 项</w>
照 料</w>
封 闭
6 C</w>
基 极</w>
下 放</w>
装 机</w>
热 管</w>
厌 恶</w>
自 来
13 a</w>
多 址</w>
阿森 纳</w>
返 还</w>
S I
溶 剂
动 式</w>
普 森</w>
H g</w>
白 光</w>
10 24</w>
随 者</w>
ri st
金融 风险</w>
报告 期</w>
降 价</w>
一 趟</w>
M V</w>
几 何
一下 子</w>
发 型</w>
里 奥</w>
小 屋</w>
不 通</w>
脑 缺血</w>
成交 量</w>
双 极</w>
研究 组</w>
挥 发</w>
借 此机会</w>
接触 器</w>
和平 解决</w>
信 贷
er a</w>
幼 苗</w>
象 征
家 禽</w>
多 多</w>
发生 冲突</w>
试验 区</w>
维 权</w>
立陶 宛</w>
宗教 信仰</w>
M W
控制 措施</w>
建筑 业</w>
一 家人</w>
足 联</w>
PU CCH</w>
命 中</w>
甜 蜜</w>
宁 静</w>
L ab
缸 盖</w>
首 要
电 控</w>
食 堂</w>
SS D</w>
睾 丸</w>
特 质</w>
微 调</w>
抬 头</w>
最 受</w>
三角 洲</w>
成 都市</w>
哈 根</w>
D yn
丰富 多彩</w>
禁 毒</w>
报 考</w>
语 境</w>
发 扬</w>
化学 式</w>
葡萄 球菌</w>
眼 球</w>
c r
菌 体</w>
枪 杀</w>
更 深</w>
雅 虎</w>
起 源于</w>
牢固 地</w>
变化 率</w>
流 阀</w>
法 国人</w>
RA T</w>
工业 生产</w>
不 含</w>
储 存
明尼 苏
大 哥</w>
稳定 化</w>
贫困 地区</w>
裙 子</w>
技术 上</w>
难 民营</w>
基本 法</w>
各 组</w>
爱沙 尼亚</w>
第五 次</w>
忧 虑</w>
养 分</w>
D F
监 听</w>
切实 可行</w>
公司 章程</w>
25 8</w>
差 点</w>
亚 当</w>
原子 能
70 3</w>
牛 仔
存 入</w>
新 手</w>
枕 头</w>
做 起</w>
实 在
外 源</w>
Wor k
造 纸</w>
驻 地</w>
逆 转录</w>
盈 率</w>
氩 气</w>
车 票</w>
m A
V II</w>
上 周五</w>
H .
傻 瓜</w>
掌 控</w>
与 众
多 相</w>
消费 量</w>
平 线</w>
ig ht
被 誉为</w>
掀 起</w>
轻 重</w>
崭 新</w>
软 组织</w>
S w
与众 不同</w>
至 该</w>
15 9</w>
税 法</w>
好 几个</w>
旅游 局</w>
内 衬</w>
阿拉伯 语</w>
特殊 性</w>
后 退</w>
纠 错</w>
看 不
售 后</w>
阿拉伯 联合
阿拉伯联合 酋长国</w>
全国 人大</w>
多 方</w>
在 短期内</w>
2 19</w>
在 职</w>
布 雷
并不 一定</w>
市 盈率</w>
as s</w>
除 率</w>
海 量</w>
吁 请</w>
意 在</w>
用 心</w>
夹 克</w>
坦桑 尼亚</w>
水 器</w>
痴 呆</w>
卢 比</w>
结 节</w>
山 谷</w>
赢 家</w>
为 时
奥 委会</w>
电 磁场</w>
继 而</w>
集 电极</w>
延迟 时间</w>
点 处</w>
针 织</w>
例 是</w>
0. 75</w>
购 房</w>
戏剧 性</w>
军 备</w>
温 馨</w>
吉尔 吉
绞 痛</w>
极 区</w>
打 断</w>
商 户</w>
S am
质量 保证</w>
恶 魔</w>
约 瑟
腹 腔</w>
坟 墓</w>
出 厂</w>
2 65</w>
或多 或少</w>
Stre et</w>
知识 分子</w>
第二 信号</w>
涂 抹</w>
轧 制</w>
形 态
发电 机组</w>
题 材</w>
时 延</w>
蜜 蜂</w>
受 托人</w>
琥 珀
归 档</w>
特别 行政区</w>
淀 粉
打 个</w>
几 项</w>
中 学生</w>
接入 网</w>
草 莓</w>
个 体
采 样
谱 分析</w>
五 十
C ap
K ar
高 通</w>
跟 踪
人 行
结 肠癌</w>
揽 子</w>
中 子</w>
安 妮</w>
倒 闭</w>
辣 椒</w>
栖 息
溶 胀</w>
磁 性材料</w>
of f
尽 头</w>
M i
胰 腺炎</w>
直 立</w>
一 揽子</w>
威 士
英 亩</w>
月 度</w>
连 锁
底 特
电力 线</w>
士 们</w>
院 子</w>
投 产</w>
社会 学</w>
保 卫</w>
炎 热</w>
面 具</w>
肠 炎</w>
中 应</w>
发 泡剂</w>
非常 重视</w>
帮 扶</w>
卷 曲</w>
id e</w>
弗 朗
透 光</w>
税 费</w>
塔 吉
美国 国会</w>
男 士</w>
卖 掉</w>
开发 新</w>
2 100</w>
含 水量</w>
电子 书</w>
共 赢</w>
标准 偏差</w>
析 出</w>
体积 小</w>
狂 热</w>
巧 妙</w>
2 48</w>
三 方</w>
乌兹别 克斯坦</w>
某种 意义</w>
实 业</w>
取 回</w>
11 A</w>
i ver
音 响</w>
占 领
3 20
热 电偶</w>
不 全</w>
好 坏</w>
消 毒
ag e
黄 铜</w>
激 活
压 差</w>
解除 武装</w>
爱 人</w>
N MOS</w>
滞 留</w>
DM F</w>
纵 横</w>
底特 律</w>
更 能</w>
总 有</w>
意 见
通 行
弹 道
凸 块</w>
年 报</w>
生产 性</w>
1 D</w>
畸 变</w>
帕 特
制 定
栖息 地</w>
去 掉</w>
哥 本
ti ve</w>
柱 状</w>
生产 厂家</w>
周 转</w>
p si</w>
Vi sta</w>
压 降</w>
同一 时间</w>
动 轴承</w>
C G
丙烯 腈</w>
参考 值</w>
排名 第</w>
双 语</w>
攻 击
三 家</w>
B R</w>
团 长</w>
3 31</w>
水 土
正 弦</w>
张 贴</w>
联 结</w>
SC SI</w>
斯科 特</w>
19 45</w>
m ic
am ew
现 存</w>
新闻 报道</w>
M MP</w>
50 mm</w>
城市 规划</w>
16 9</w>
女 孩子</w>
磨 削</w>
科罗拉多 州</w>
国际 原子能
国际原子能 机构</w>
上 校</w>
膝 上型</w>
下 拉
南 昌</w>
反 义</w>
黄 酮</w>
期 满</w>
GP RS</w>
19 77</w>
空 前</w>
光 明
模 组</w>
9 8
N or
播放 机</w>
影 院</w>
奇偶 校验</w>
ber g</w>
谷 氨酸</w>
保险 业</w>
VM ware</w>
检察 长</w>
s ch
音 器</w>
计算机 辅助</w>
洞 穴</w>
爱 上</w>
海军 陆战队</w>
R U
这样 一来</w>
坠 毁</w>
有 害
领导 层</w>
载 人</w>
SO C</w>
隐 性</w>
留 守</w>
野 外</w>
继 承
卸 下</w>
卢 森堡</w>
一对 一</w>
超 重</w>
中 要</w>
无 毒</w>
道 路交通</w>
纸 质</w>
F A
上 载</w>
尔 曼</w>
余 名</w>
号 召</w>
人 文
该 行</w>
凝 血</w>
m er</w>
高 层
Gro up</w>
新泽 西州</w>
万 人次</w>
抽 烟</w>
产业 园</w>
乒乓 球</w>
16 7</w>
羡 慕</w>
突 袭</w>
文 凭</w>
GP P</w>
问 到</w>
再 也
出 资
乍 得</w>
评论 家</w>
d o
母 细胞</w>
开发 利用</w>
冷 水</w>
适 时</w>
特 大</w>
星 形</w>
短 距离</w>
情 人</w>
无 知</w>
网络 通信</w>
u l</w>
旅 途</w>
微 弱</w>
商 城</w>
湿 法</w>
附 连
子 网</w>
文件 格式</w>
并 列</w>
E SD</w>
波 多
就 职</w>
文本 框</w>
Clou d
使用 率</w>
M I
步 枪</w>
盘 子</w>
经济 带</w>
推 车</w>
滤 芯</w>
重 命名</w>
尿 酸</w>
孙 子</w>
中 向</w>
混 频器</w>
奇 异</w>
译 码器</w>
活 率</w>
测 绘</w>
第三 节</w>
收 缩
新 股</w>
敏感 度</w>
CS F</w>
建设 工程</w>
责 令</w>
芯 部</w>
碎 机</w>
Ph ot
H S
纪念 碑</w>
充 放电</w>
法 拉
内 障</w>
明显 改善</w>
提 振</w>
保持 良好</w>
中 均</w>
用 人
5 15</w>
敬 业</w>
H A
U s
晶体 结构</w>
at s
兄弟 姐妹</w>
适 量</w>
异 丙基</w>
热 潮</w>
洋 葱</w>
某 某</w>
上 台</w>
贝 克</w>
箱 体</w>
努力 实现</w>
退 还</w>
填 充
oc k</w>
2. 5%</w>
匹 林</w>
示范 区</w>
该 党</w>
q l</w>
新闻 稿</w>
度 高</w>
拉 脱
之 以
流 血</w>
1. 25</w>
K h
z a</w>
in ess</w>
复 用
两 制</w>
人民 检察院</w>
报 文</w>
白 内障</w>
急 诊</w>
供应 量</w>
会 以</w>
沸 腾</w>
演唱 会</w>
co mp
获 取
国际 法院</w>
My SQL</w>
礼 仪</w>
10 20</w>
公共 场所</w>
模 范</w>
叶 派</w>
催化 活性</w>
妥 善
微 晶</w>
措 辞</w>
一 事</w>
不太 好</w>
极 其
推 杆</w>
2 27</w>
什 叶派</w>
S er
原 定</w>
第三 条</w>
弗 雷
登记 册</w>
绝 热</w>
旋 律</w>
un g</w>
邮 件
尾 气</w>
二 甲</w>
i v</w>
3 23</w>
伸 长率</w>
临床 表现</w>
丁 酯</w>
达 尔</w>
没 见</w>
内 有</w>
液压 缸</w>
节 假日</w>
增加 值</w>
下 图</w>
影 像
EC C</w>
花 岗
胜 任</w>
祖 母</w>
设计 者</w>
历史 悠久</w>
阿 曼</w>
Exp ress</w>
19 71</w>
........ ........
腰 椎</w>
l and</w>
这 有</w>
硅 谷</w>
反 击</w>
母 乳
母乳 喂养</w>
棕 榈</w>
拆 迁</w>
誓 言</w>
改 动</w>
这 段</w>
达 到
迫 害</w>
盟 国</w>
2 200</w>
斯洛文 尼亚</w>
炸 死</w>
坚 果</w>
缸 体</w>
缺 省</w>
挖掘 机</w>
用人 单位</w>
c l</w>
青 年人</w>
T re
3 36</w>
创 性</w>
光 缆</w>
一 栋</w>
正 弦
所 有制</w>
影像 学</w>
花 朵</w>
硝 基</w>
这 台</w>
主 教练</w>
波多 黎
体 细胞</w>
透 气</w>
祝 愿</w>
渗透 率</w>
首 长</w>
扩 充</w>
E PS</w>
叶 绿
8 12</w>
7 6
流 式
流式 细胞</w>
商品 价格</w>
F FT</w>
形态 学</w>
运 载</w>
说 得
突 出
严格 执行</w>
波多黎 各</w>
四 边形</w>
世界 级</w>
n %</w>
L V
实在 在</w>
实 实在在</w>
诊 疗</w>
M H
现 今</w>
末 尾</w>
官方 网站</w>
别 无
装 满</w>
10 b</w>
米 勒</w>
非常 复杂</w>
可 谓</w>
畅 销</w>
上 门</w>
EG FR</w>
恰 恰</w>
F F
合成 气</w>
Li ve</w>
第一 名</w>
床 单</w>
狩 猎</w>
立 方</w>
沃尔 玛</w>
有 益于</w>
掌 声</w>
工具 包</w>
on y</w>
在生活 中</w>
妥 善</w>
通货 膨胀率</w>
放 射线</w>
戴 式</w>
高 标准</w>
资 料
放 映</w>
高 压
女 士们</w>
B er
1. 5%</w>
钛 合金</w>
分 型</w>
亚 型</w>
3 35</w>
里 叶</w>
回 忆
委 托人</w>
散热 片</w>
信 服</w>
增 稠
副 产品</w>
乌 鲁
记 账</w>
传输 速率</w>
让 人</w>
十 六</w>
公安 部</w>
摄 入量</w>
美 德</w>
自动 控制</w>
乙 醇
海 南省</w>
电 枢</w>
物 质
付 钱</w>
8 b</w>
脑 袋</w>
令人 不安</w>
is h</w>
g r
钻 探</w>
充满 信心</w>
交易 商</w>
容 式</w>
调 速</w>
as h</w>
5 18</w>
居 室</w>
协调 一致</w>
接 点</w>
1 102</w>
前 缘</w>
严格 遵守</w>
2 4.
拉脱 维亚</w>
尼 克
股票 价格</w>
卫生 纸</w>
动 植物</w>
索 赔
插 孔</w>
打 下</w>
凝 血
馈 电</w>
劣 势</w>
tr ue</w>
单 项</w>
胰 腺癌</w>
毗 邻</w>
接 口
视 觉
H er
组织 学</w>
集 资金</w>
筹 集资金</w>
魔 术</w>
射 出</w>
证券 交易</w>
掩 蔽</w>
额 定
引 流</w>
再 有</w>
真 皮</w>
意 想不到</w>
颠 覆</w>
C MP</w>
a xy</w>
胶 片</w>
污 垢</w>
热 敏
金属 膜</w>
东 风</w>
已 婚</w>
儿 科</w>
核心 技术</w>
消防 员</w>
ID E</w>
载 入</w>
戴 维斯</w>
代 码
K 1</w>
ic al</w>
购 房
商品 房</w>
耐 腐蚀性</w>
竞争 者</w>
几 名</w>
傅 里叶</w>
餐 具</w>
害 虫</w>
哥本 哈根</w>
卤 化物</w>
工艺 流程</w>
食 用
香 水</w>
肿 瘤
100 ml</w>
罗姆 尼</w>
之 夜</w>
民主 主义
收 纳</w>
一 如
L B</w>
轮 椅</w>
宣传 部</w>
阻 滞</w>
通讯 社</w>
蓝 宝石</w>
挠 曲</w>
配 位</w>
赫 兹</w>
预 应力</w>
实验 教学</w>
H 1</w>
现 场
时 装</w>
弹道 导弹</w>
美国 公司</w>
胜 者</w>
高 技术</w>
因 果
白 银</w>
大 坝</w>
单 核细胞</w>
丰 厚</w>
似 的</w>
管 中</w>
普遍 性</w>
复 数</w>
诠 释</w>
1 110</w>
服务 水平</w>
多米 尼
吉 尔</w>
悬 臂</w>
聚 氯乙烯</w>
有所 改善</w>
一如 既往</w>
同 盟</w>
拖 拉
湿 润</w>
ri x</w>
海洋 法</w>
扮 演
pk 10</w>
互 助</w>
一 国
松 散</w>
央 视</w>
准 时</w>
展 现出</w>
增 收</w>
血 清
照 度</w>
CH 3</w>
点 头</w>
喀 麦
人 队</w>
三 十</w>
基础 知识</w>
库 中</w>
改 正</w>
半 部</w>
争 吵</w>
非洲 大陆</w>
开展 业务</w>
压 印</w>
犯罪 行为</w>
SN R</w>
牧 业</w>
脱 机</w>
H ome</w>
患 病率</w>
保险 丝</w>
无 权</w>
烷 酮</w>
减 慢</w>
T GF</w>
具体 措施</w>
Aut o
涂 膜</w>
并不 需要</w>
扩展 名</w>
孤 儿</w>
托 尼</w>
遮 挡</w>
汉 字</w>
磁 阻</w>
电 容式</w>
尾 巴</w>
Me dia</w>
3 d</w>
财务 会计</w>
D W
台 式
布 兰
立 足
次 级
体 力</w>
大 类</w>
M 3</w>
英国 政府</w>
含 氧</w>
阵 地</w>
通用 汽车</w>
50 mL</w>
夸 大</w>
西 欧</w>
活 化剂</w>
玉 米
劳动 合同</w>
80 5</w>
麻 疹</w>
普 林
AR M</w>
焚 烧</w>
得 克萨斯州</w>
2 75</w>
奥斯 卡</w>
技术 水平</w>
工程 学</w>
冷冻 机</w>
失 活</w>
同 年</w>
合 资企业</w>
危险 性</w>
恐怖 组织</w>
电子 表格</w>
燃 煤</w>
管理 信息系统</w>
篡 改</w>
并非 如此</w>
随 之
身 为</w>
3 GPP</w>
出 席会议</w>
经济 运行</w>
菲 特</w>
无 须</w>
里 奇</w>
滴 定</w>
地 块</w>
共同 利益</w>
N E</w>
截 然不同</w>
纺 丝</w>
占有 率</w>
紧 紧
占 地</w>
Mo d</w>
M F</w>
终 极</w>
清 晨</w>
4 D</w>
黄 河</w>
零 食</w>
逝 世</w>
可 燃</w>
据 估计</w>
真空 泵</w>
根 除</w>
热 衷
p la
截 止
动 画
裁 军
裁军 谈判</w>
太 低</w>
为 示</w>
前 线</w>
中 未示</w>
窃 取</w>
柠 檬</w>
耗 散</w>
十 一
信 徒</w>
wor d</w>
趋 向</w>
算 了</w>
基础 教育</w>
书 法</w>
随之 而来</w>
髋 关节</w>
不 着</w>
一 分
投资 收益</w>
b o</w>
大 盘</w>
垃圾 邮件</w>
台式 机</w>
职 权
闪 光灯</w>
百 科</w>
退 货</w>
蘑 菇</w>
职权 范围</w>
美 洲
持 久
环 己烷</w>
天 主
枚 举</w>
过 年</w>
电池 板</w>
自 称</w>
另 选</w>
拉 美</w>
C 5</w>
P B</w>
多种 形式</w>
请 勿</w>
代 数</w>
瀑 布</w>
侧 板</w>
粘 着</w>
产 科</w>
家 族
Con t
徘 徊</w>
尿 管</w>
西 门
纽约 州</w>
实际 行动</w>
热衷 于</w>
功能 模块</w>
寄生 虫</w>
进 气口</w>
执 政党</w>
ac t
世 上</w>
烧 毁</w>
分 局</w>
前 驱</w>
净 化器</w>
CA S</w>
复 活</w>
大大 减少</w>
交 割</w>
螺旋 弹簧</w>
南 美</w>
B oo
蒸馏 水</w>
多巴 胺</w>
营养 素</w>
我 校</w>
头 戴式</w>
沿 海地区</w>
传 出</w>
咖啡 机</w>
4 85</w>
祖 父</w>
袜 子</w>
招 待
流动 资产</w>
金融 中心</w>
中 美洲</w>
三 酯</w>
追 随者</w>
80 3</w>
令人 鼓舞</w>
数十 亿美元</w>
头 寸</w>
MT C</w>
从那 时起</w>
浓 厚</w>
黄 油</w>
财 年</w>
加 到</w>
衣 裙</w>
吡咯 烷酮</w>
讨论 会</w>
整 顿</w>
悲 观</w>
窄 带</w>
不 难</w>
仆 人</w>
高 得</w>
H o
收 容</w>
心 房</w>
递 延</w>
长 丝</w>
归 属于</w>
检 出</w>
A ss
肿 胀</w>
17 7</w>
内 政</w>
西 北部</w>
矿 产</w>
规 例</w>
s a</w>
三 国</w>
科 普</w>
高 时</w>
内 衣</w>
au l</w>
测试 仪</w>
林 肯</w>
维 吾
媒体 播放器</w>
面向 对象</w>
战略 目标</w>
透 光
我 想</w>
城 里</w>
液 中</w>
而 战</w>
加 密
amew ork</w>
记者 会</w>
联合国 儿童
联合国儿童 基金会</w>
运算 符</w>
出 场</w>
一无 所知</w>
P K
中国 移动</w>
生物 医学</w>
毛里 求
自 私</w>
合 一</w>
大 片</w>
苄 基</w>
能 效</w>
圆 锥</w>
总 资产</w>
v s</w>
实 线</w>
想 像</w>
热 带
IE C</w>
C #</w>
初 探</w>
组 在</w>
15 A</w>
感染 性</w>
质量 标准</w>
牌 子</w>
水 上</w>
n e
T l</w>
产 资源</w>
丙 酸</w>
表面 张力</w>
镁 合金</w>
丝 毫</w>
角 速度</w>
丹 尼尔</w>
V 1</w>
若 要</w>
梦 见</w>
客 机</w>
来 访</w>
据 统计</w>
ra y</w>
二 价</w>
受 力</w>
V d
体 重
半 天</w>
联合 声明</w>
主 力</w>
I MS</w>
良 心</w>
徽 标</w>
S RS</w>
强制 执行</w>
埃 尔</w>
陈 水
水 道</w>
反 抗</w>
松 动</w>
噩 梦</w>
承载 力</w>
状态 机</w>
伊朗 伊斯兰共和国</w>
生存 率</w>
红 军</w>
闪 电</w>
舌 头</w>
石家 庄</w>
间 质</w>
V a
时 效</w>
征 聘</w>
投入 使用</w>
抽 头</w>
光 眼</w>
能 以</w>
小 伙
Al 2O3</w>
噬 菌体</w>
火 炬</w>
落 下</w>
偿 债</w>
按 住</w>
索赔 人</w>
占 地面积</w>
今年 夏天</w>
问 答</w>
Ad v
楼 下</w>
UR I</w>
国 庆</w>
抓 紧</w>
至 上</w>
计 值</w>
第一 级</w>
大 雨</w>
质 教育</w>
素 质教育</w>
促进 作用</w>
R a</w>
8. 2</w>
民族 主义</w>
开 裂</w>
渗 漏</w>
淋 巴</w>
饮 食
控 股
低 点</w>
青 光眼</w>
传 给</w>
开 花</w>
k Pa</w>
保险 费</w>
吉尔吉 斯
库 克</w>
约 合</w>
写 字
光 量</w>
锻 造</w>
这 时候</w>
St or
公共 安全</w>
气 管
氯 化物</w>
el op
永 不</w>
垄 断
初 心</w>
B U
一 小</w>
T F</w>
符合 条件</w>
输 掉</w>
五 十</w>
陈水 扁</w>
喀麦 隆</w>
指 令
起 码</w>
测定 法</w>
其 内</w>
阿卜 杜
各 族
p r
偏 远</w>
Zn O</w>
从 性</w>
左 手</w>
温 器</w>
余 地</w>
遗 留</w>
二 楼</w>
h a</w>
第三 种</w>
斯 塔</w>
精 灵</w>
芳 烃</w>
投 降</w>
6 3
壮 观</w>
社会 效益</w>
Mob ile</w>
乘 用车</w>
共同 点</w>
程序 设计</w>
SO A</w>
7. 3</w>
14 b</w>
氟 乙烯</w>
包 层</w>
一 波</w>
d i</w>
标 示</w>
触摸 板</w>
完 备</w>
免疫 性</w>
二十 一</w>
粒 状</w>
矿 产资源</w>
成 核</w>
IG BT</w>
停 电</w>
那 条</w>
镇 上</w>
等 价</w>
直 达</w>
房 地
专家 学者</w>
重新 分配</w>
哈佛 大学</w>
慰 问</w>
复用 器</w>
醛 树脂</w>
扩 大
7 4
血 细胞</w>
实 习
逼 近</w>
自然 界</w>
挡 风
磷 酸酯</w>
伊斯 坦
人 造
5 nm</w>
st e
G W</w>
列 中</w>
连 衣裙</w>
经 委会</w>
q q</w>
零售 业</w>
民族 团结</w>
一氧化 氮</w>
著 作
增稠 剂</w>
12. 5</w>
全 是</w>
滚 珠</w>
量 值</w>
RA CH</w>
1 c</w>
近 年</w>
22 a</w>
阿 司
阿司 匹林</w>
双 赢</w>
格 栅</w>
开 路</w>
密 闭</w>
制度 化</w>
0 x
19 69</w>
5 70</w>
往 常</w>
oo p</w>
转 身</w>
一国 两制</w>
T 恤</w>
今 朝</w>
料 到</w>
捕 鱼</w>
迈 向</w>
雄 厚</w>
热 点
两 边</w>
代理 服务器</w>
关 掉</w>
毛里求 斯</w>
颗粒 物</w>
约瑟 夫</w>
k e
救 治</w>
烘 焙</w>
震 撼</w>
14 B</w>
Web Sphere</w>
如 所</w>
必要 条件</w>
均 价</w>
恐 吓</w>
认 出</w>
微 量
电 镜</w>
恤 金</w>
切 成</w>
称 呼</w>
德 勒</w>
圆 锥形</w>
本 能</w>
钢 丝</w>
别 名</w>
ec h</w>
电 荷
拖 欠</w>
扎 克</w>
9 a</w>
氧 体</w>
战略 伙伴</w>
黑 白</w>
贩 卖</w>
组 人员</w>
机 组人员</w>
羽 毛
一 九
进 食</w>
锦 赛</w>
凸 部</w>
不 稳定性</w>
单 车</w>
制定 者</w>
看 重</w>
鞋 类</w>
碳 钢</w>
N V
荧 光灯</w>
长 江
赞 美</w>
植物 油</w>
以 上
正常 化</w>
MB MS</w>
p er</w>
阳性 率</w>
敌 对</w>
秉 承</w>
起 义</w>
挡风 玻璃</w>
Gal axy</w>
窗 帘</w>
Na2 SO4</w>
脑 出血</w>
夺 取</w>
脱 欧</w>
文 献
不 远</w>
中 新社</w>
b l
Pro ject</w>
灯 号</w>
战斗 人员</w>
残 渣</w>
O C</w>
波 音</w>
收 入
S 7</w>
里 德</w>
文 物
磁 盘
气 质</w>
监 控器</w>
过敏 性</w>
药物 制剂</w>
退休 金</w>
万 亩</w>
分 压</w>
肌 肤</w>
科 夫</w>
IC P</w>
造 福</w>
闭 锁</w>
极其 重要</w>
c ookie</w>
助 听器</w>
违规 行为</w>
油 酸</w>
马 来</w>
B E</w>
推 特
b it</w>
Chro me</w>
En ter
麦当 劳</w>
推 定</w>
均匀 分布</w>
兴奋 剂</w>
F I</w>
从 业</w>
S IM</w>
数 次</w>
铵 盐</w>
余 人</w>
S il
辛 格</w>
不 及
指 代</w>
第一 份</w>
珍 珠</w>
单 色</w>
砂 浆</w>
深 感</w>
限 内</w>
近几 个月</w>
木 质素</w>
闭 嘴</w>
对 立</w>
安 定</w>
一 代人</w>
6 16</w>
出 手</w>
轨 制</w>
从 头
每 间</w>
奥 氏体</w>
行业 协会</w>
烷 基化</w>
小伙 子</w>
供 热</w>
依 从性</w>
互联 网
源 泉</w>
捕 捞</w>
瑞 士
圆筒 形</w>
自来 水</w>
第五 届</w>
新 窗口</w>
戈 尔</w>
蒂 斯</w>
S 1
购买 力</w>
套 期</w>
型 式</w>
申 购</w>
少 年
交易 员</w>
近 东</w>
不 符</w>
激 励
锁 存</w>
ho p</w>
铁 氧体</w>
洗手 间</w>
伊斯坦 布尔</w>
堪 萨
d r
支 化</w>
素 瘤</w>
本科 生</w>
2. 9</w>
2 66</w>
敌 对
二 月</w>
性 暴力</w>
成 瘾</w>
发 售</w>
前 行</w>
没 能</w>
旌 旗</w>
an y</w>
爱德 华</w>
倾 倒</w>
项 链</w>
门 户
难 者</w>
可 操作性</w>
3 45</w>
8 40</w>
严 谨</w>
O T</w>
U DP</w>
拖拉 机</w>
淡 化</w>
门 外</w>
t ri
坚 守</w>
看 书</w>
花 园
B T
电 功率</w>
航 母</w>
串 扰</w>
握 住</w>
19 20</w>
该 案</w>
布 尔
口 腔
贵 族</w>
ti on
减 灾</w>
减 速器</w>
隔 音</w>
ou r</w>
二 羧酸</w>
系统 对</w>
重 放</w>
一 经</w>
eN B
柴油 发动机</w>
en s</w>
输入 您</w>
C at
乌鲁 木
受 灾</w>
连接 起来</w>
胶原 蛋白</w>
静止 图像</w>
5 80</w>
网 路</w>
水 温</w>
辊 子</w>
4 21</w>
矿 工</w>
保护 措施</w>
铁 芯</w>
送 器</w>
诚 意</w>
书 签</w>
遍 及</w>
分布 式
保持 联系</w>
C s</w>
流 率</w>
礼 服</w>
畅 通</w>
湖 区</w>
质 地</w>
M u
章 制度</w>
篇 章</w>
总 公司</w>
人 气</w>
回 程</w>
视频 会议</w>
平 壤</w>
温 育</w>
友好 合作</w>
解 剖
动物 模型</w>
克萨 斯</w>
9 30</w>
MA X</w>
期 限内</w>
养 殖
而 异</w>
极 板</w>
除 草
新闻 媒体</w>
可 溶</w>
M ed
P b</w>
9 7%</w>
原 生</w>
数字 签名</w>
俘 获</w>
专 科</w>
规 章制度</w>
陶瓷 材料</w>
公司 债券</w>
拉 力</w>
光 路</w>
R R</w>
毒 症</w>
半导体 存储器</w>
都 会</w>
扮演 着</w>
太 晚</w>
an i</w>
守 护</w>
心 绞痛</w>
最 差</w>
F ound
写 信</w>
现代 农业</w>
咖啡 因</w>
6 22</w>
00 00
布 罗
病 原
全国 人大常委会</w>
威 尼斯</w>
法 学院</w>
供 参考</w>
跨 文化</w>
新 疆
管理 体制</w>
野 心</w>
偏 低</w>
定 点</w>
in i</w>
花岗 岩</w>
斯 德
规 制</w>
歌 剧</w>
剔 除</w>
U L
冥 想</w>
应 性</w>
6 18</w>
布莱 尔</w>
藏 室</w>
控制 元件</w>
驾 车</w>
万 公里</w>
求 助</w>
法 在</w>
性 虐待</w>
哥 尔
MC S</w>
首要 任务</w>
厨 房
四 氟乙烯</w>
不 感兴趣</w>
不 负
Tim e</w>
栏 目</w>
扣 押</w>
秸 秆</w>
埋 葬</w>
微量 元素</w>
工程 设计</w>
视 听</w>
命 题</w>
手 枪</w>
安全 可靠</w>
文 斯</w>
窒 息</w>
L u
P e
政 变</w>
元 器件</w>
会 聚</w>
2 61</w>
该 图</w>
而 代
d y</w>
天 窗</w>
机 电
支持 系统</w>
市 售</w>
伦 斯</w>
覆 层</w>
准确 率</w>
效 果
街 日报</w>
漫 射</w>
华尔 街日报</w>
T er
反 之</w>
鲍 威尔</w>
规 矩</w>
水 产</w>
监护 人</w>
营业 额</w>
碳 化物</w>
今年 年底</w>
值 班</w>
南 南
T DD</w>
异 质</w>
斯德 哥尔
应 是</w>
紧 要</w>
S el
肤 色</w>
主 链</w>
往 年</w>
数据 交换</w>
脑 血管</w>
暴 风雨</w>
M ag
填充 物</w>
慕 尼
运 载
3 33</w>
被 保险人</w>
台 面</w>
面 团</w>
场 面</w>
寺 庙</w>
喇 叭</w>
洛 斯</w>
宫 殿</w>
估 计值</w>
孢 子</w>
定位 器</w>
0. 2%</w>
糖 浆</w>
斯 塔
胫 骨</w>
火 山
0 8
反对 党</w>
真 心</w>
大 全</w>
潜 在
拉 曼</w>
西 西
热 烈
尽量 减少</w>
太 远</w>
传 来</w>
深 夜</w>
转 轴</w>
其 示</w>
南南 合作</w>
为人 知</w>
无 形</w>
I PS</w>
高 阶</w>
甘油 三酯</w>
波 浪</w>
侧 边</w>
v al
7 14</w>
为 首</w>
针 灸</w>
使 人</w>
at e
绝 佳</w>
除草 剂</w>
转 而</w>
戒 烟</w>
on e
耗 费</w>
奴 隶
L LC</w>
太 久</w>
二 阶</w>
商 机</w>
5. 8</w>
随 即</w>
银行 存款</w>
滑 肌</w>
细 微</w>
大大 增加</w>
联合国 开发计划署</w>
平 滑肌</w>
可 使</w>
专 长</w>
果 断</w>
S 6</w>
根本 性</w>
Dyn am
贴 现</w>
暂 行
t t</w>
计算 公式</w>
西 南
糖 基化</w>
重新 考虑</w>
告 诉
餐 桌</w>
坚 称</w>
已 久</w>
告诉 您</w>
夸 张</w>
p ar
洁 净</w>
ol og
类 药物</w>
班 主任</w>
变 送器</w>
袭 击者</w>
日 程
幕 后</w>
那 年</w>
相 较</w>
法 国
胆 碱</w>
中间 件</w>
物理 性质</w>
防 空</w>
州 立大学</w>
28 2</w>
中继 器</w>
特 里</w>
开 环</w>
剪 切
碳 化</w>
家 直销</w>
型 机</w>
厂 家直销</w>
4 26</w>
这 本</w>
延 缓</w>
环境 因素</w>
经济 指标</w>
有 意识</w>
爱 国主义</w>
P ack</w>
4 2
硅 树脂</w>
输 血</w>
打 赌</w>
19 3</w>
四 十
控制 算法</w>
MD A</w>
偶 联剂</w>
其 所</w>
5 24</w>
最 美</w>
平 整</w>
职 称</w>
肺 结核</w>
各 层</w>
度假 村</w>
V DD</w>
预 备</w>
着 迷</w>
开 机</w>
金融 监管</w>
迁 移
张 家
丙 氨酸</w>
L NG</w>
武 器
25 3</w>
可 悲</w>
录 入</w>
韧 带</w>
源 码</w>
H LA</w>
感染 者</w>
地 用</w>
微 博
排 雷</w>
腰 部</w>
ET F</w>
波 纹
中 等
当 晚</w>
灿 烂</w>
慕尼 黑</w>
价 位</w>
低 浓度</w>
冷 藏</w>
成 正比</w>
网络 化</w>
可 可</w>
总 督</w>
优 越
海 峡
口 中</w>
蝴 蝶</w>
遣 队</w>
哈 佛</w>
食 管癌</w>
一 站
情 人节</w>
不 准</w>
谋杀 案</w>
胳 膊</w>
行业 标准</w>
行李 箱</w>
逗 留</w>
因果 关系</w>
丽 丝</w>
各 行
W EB</w>
9 99</w>
筹 划</w>
无处 不在</w>
达 拉斯</w>
马 路</w>
Sh ell</w>
规 性</w>
参 赛
细胞 膜</w>
随 身
N 0</w>
强 行</w>
取 而代
默 克尔</w>
取而代 之</w>
作出 反应</w>
愉 悦</w>
扶 手</w>
三 组</w>
药 材</w>
T ur
胆 囊</w>
弊 端</w>
悬 液</w>
评 委</w>
种族 灭绝</w>
料 流</w>
周 岁</w>
螺旋 桨</w>
开放 性</w>
三 场</w>
边缘 化</w>
热 膨胀</w>
起 伏</w>
7 b</w>
专 栏</w>
改 编</w>
B S
高 纯度</w>
厦 门
中 点</w>
芯 片
京 东</w>
泥 土</w>
le x</w>
粗 略</w>
你 家</w>
b ar</w>
从未 见过</w>
贪 婪</w>
以 求</w>
排 泄</w>
修 整</w>
捐助 国</w>
友 善</w>
试 论</w>
法 对</w>
节 水</w>
内 饰</w>
他 州</w>
韦 斯特</w>
货 物
熄 灭</w>
中央 电视台</w>
溶解 性</w>
Pro duc
四 项</w>
6. 8</w>
AR T</w>
N ew</w>
日 渐</w>
概 算</w>
投资 决策</w>
4 13</w>
珠 海</w>
精 炼</w>
小 狗</w>
舒 适度</w>
2 2%</w>
迷 失</w>
门 锁</w>
oo l</w>
燃气 轮机</w>
G F
奶 牛</w>
菲 尔</w>
基 建</w>
滴 加</w>
莱 斯</w>
汽 油
疗 程</w>
可 扩展性</w>
本报 讯</w>
信 封</w>
SE C</w>
多种 类型</w>
干燥 器</w>
R O</w>
随 著</w>
环氧 乙烷</w>
T a</w>
召 唤</w>
计算 所</w>
藻 类</w>
自然 环境</w>
非 共和国</w>
时 分</w>
警 卫队</w>
别无 选择</w>
会 场</w>
机械 化</w>
二 维
尼 加拉
减 持</w>
荧 光
苏 里
考 虑
温度 计</w>
信 托
较 慢</w>
说 谎</w>
矿 物
酸 甲酯</w>
支 气管
范 式</w>
木 地板</w>
测 井</w>
必要 措施</w>
传动 轴</w>
K 2</w>
安德 鲁</w>
推特 上</w>
橱 柜</w>
授 课</w>
度 法</w>
f ig
环 糊精</w>
第一 款</w>
调 整
敬 意</w>
周 后</w>
复 印</w>
利润 分配</w>
扩散 器</w>
立方 体</w>
并 排</w>
尼加拉 瓜</w>
Mg SO4</w>
黄 瓜</w>
I t
闭 塞</w>
各 业</w>
增强 型</w>
fi g</w>
呼 声</w>
始终 保持</w>
功能 块</w>
彩色 图像</w>
PC M</w>
喷 头</w>
做 爱</w>
M AP</w>
共 享
实 体
华 侨</w>
三 类</w>
抗 癌</w>
两 台</w>
R 7</w>
思 科</w>
向 阀</w>
不 结
伦 比</w>
出版 商</w>
附 注</w>
斯德哥尔 摩</w>
行政 当局</w>
牛仔 裤</w>
分 形</w>
华 德</w>
j o
A K</w>
俄 国</w>
M al
精 通</w>
见 表</w>
晋 级</w>
分 部</w>
小 子</w>
爆炸 物</w>
猎 人</w>
同 轴
粘 连</w>
第六 条</w>
螯 合剂</w>
投 保</w>
一站 式</w>
一 两个</w>
20 mm</w>
合作 项目</w>
另一 边</w>
M ess
住 宅
青 岛
E MI</w>
中 之
C ookie</w>
英语 翻译</w>
隔 间</w>
裂 变</w>
摇 滚</w>
人 脸
按 揭</w>
哲 学家</w>
en d</w>
选 题</w>
I IS</w>
共青 团</w>
冰 雪</w>
G T</w>
防 御
激动 人心</w>
2 400</w>
生命 科学</w>
架 飞机</w>
销售 量</w>
P MOS</w>
石 蜡</w>
私 人
慢 性病</w>
刑事 责任</w>
党 委书记</w>
低 端</w>
光 圈</w>
菜 肴</w>
经理 人</w>
温 泉</w>
波纹 管</w>
人脸 识别</w>
饮 水</w>
市 级</w>
药 房</w>
电子 系统</w>
3 38</w>
规范 性</w>
A 型</w>
合 规性</w>
代谢 物</w>
50 7</w>
初始 值</w>
严 密</w>
领 事
90 8</w>
DS L</w>
ig n
而 生</w>
拼 写</w>
4 K</w>
管 腔</w>
3 9.
新 任</w>
分 庭</w>
wit h</w>
峡 谷</w>
加 以
进口 商</w>
站 立</w>
等 效
t o
扳 手</w>
中 日
铆 钉</w>
树 突</w>
输入 输出</w>
E l</w>
蒙 德</w>
激 怒</w>
往复 运动</w>
卷 轴</w>
正 时</w>
m y</w>
接 地
法 特</w>
不 已</w>
接触 面</w>
s p</w>
H CV</w>
祷 告</w>
g i
承 接</w>
巴 西
1 H</w>
夺 得</w>
刚 开始</w>
刚 刚开始</w>
先进 性</w>
西门 子</w>
人行 道</w>
大 熊猫</w>
19 68</w>
边 沿</w>
建 国</w>
口 碑</w>
小 肠</w>
F DMA</w>
Ag ent</w>
叶 酸</w>
插 图</w>
十字 架</w>
爱 丁
剖 宫
坚 硬</w>
产品 价格</w>
同轴 电缆</w>
我 方</w>
跌 倒</w>
充 填</w>
武汉 市</w>
补 编</w>
贫困 人口</w>
披 萨</w>
五 分之一</w>
开 挖</w>
药 理学</w>
第六 届</w>
热敏 电阻</w>
雨 量</w>
T 4</w>
Fr amework</w>
母 语</w>
工程 技术</w>
金 黄色</w>
奇 数</w>
b r</w>
奖 牌</w>
成 熟
盐 酸盐</w>
en a</w>
基本 概念</w>
党 组</w>
生命 力</w>
残 差</w>
患 上</w>
太阳 系</w>
剖宫 产</w>
明显 降低</w>
往 复</w>
无法 控制</w>
表 决权</w>
切 开</w>
航天 器</w>
赠 款</w>
涡 旋</w>
各行 各业</w>
猩 猩</w>
邮 编</w>
再 者</w>
海 藻</w>
有 期徒刑</w>
计算机 技术</w>
倒 车</w>
常务 委员会</w>
y l
诊 断
输 液</w>
承 保</w>
of f</w>
18 9</w>
汽 轮机</w>
哥 华</w>
检 讨</w>
科 医生</w>
C U
温 哥华</w>
宏 伟</w>
助 长</w>
门户 网站</w>
购买 者</w>
Ap ache</w>
间 歇
游 艇</w>
地 铁
急 于</w>
责任 人</w>
期货 市场</w>
可 供</w>
二手 车</w>
拉 夫
D a</w>
戊 二烯</w>
肥 胖
预 料</w>
f e</w>
mi R</w>
硅 橡胶</w>
渗透 到</w>
足 轻重</w>
纬 度</w>
眼 部</w>
本地 化</w>
预测 性</w>
母 体</w>
马 尼
顺 差</w>
这 比</w>
物理 学家</w>
刺 穿</w>
电话 会议</w>
毫 米
教育 局</w>
二维 码</w>
沿 岸</w>
S ur
参 会</w>
失 眠</w>
免 费
剑 桥</w>
拉 开</w>
怎 样
性 疾病</w>
根 部</w>
扩 张
si s</w>
20 50</w>
谈 过</w>
放 进</w>
构 架</w>
M il
申 诉人</w>
R ich
2 43</w>
哀 悼</w>
怎样 才能</w>
12 V</w>
位 角</w>
律 师
严格 控制</w>
先 导</w>
SIM 卡</w>
支 护</w>
打 架</w>
5. 7</w>
奖 杯</w>
领导 班子</w>
就 行</w>
消耗 量</w>
甲 酸酯</w>
氨基 甲酸酯</w>
黑 山</w>
绝 不会</w>
货 量</w>
递 减</w>
加 倍</w>
地 标</w>
筹备 工作</w>
无 障碍</w>
参考 文献</w>
沃 斯</w>
即 时
被 忽视</w>
外 债</w>
硅 化物</w>
安 倍</w>
别 说</w>
实验 性</w>
压 倒
递 归</w>
放射 治疗</w>
我 花</w>
声 源</w>
自 杀
Dri ve</w>
D B2</w>
孵 化</w>
in ter
读 写</w>
肺 动脉</w>
暗 杀</w>
老 朋友</w>
检察 机关</w>
锥 体</w>
坏 事</w>
顶 视图</w>
自然 保护区</w>
环 己
考 古
痕 量</w>
摇 摆</w>
考 研</w>
凉 爽</w>
AR S</w>
左 心室</w>
内 燃</w>
CE S</w>
检 出
城乡 居民</w>
特 种
碳 氢
Wat ch</w>
背 景
起 首</w>
档 位</w>
鸡 尾
每 桶</w>
第二 代</w>
主 营</w>
加 之</w>
无家可 归</w>
看 成</w>
二 乘</w>
e o</w>
若干 个</w>
LD L</w>
笑 声</w>
k i</w>
万 多</w>
情报 局</w>
EC G</w>
车 体</w>
说 来</w>
数据 总线</w>
执行 机构</w>
主 管
转 折
分 解
乘 积</w>
大 专</w>
科学 依据</w>
惠 普</w>
促 请</w>
涨 价</w>
漂 洗</w>
开 学</w>
聚 集体</w>
国家 有关</w>
8. 3</w>
安德 森</w>
权 证</w>
活 泼</w>
当 场</w>
S K</w>
不可 分割</w>
显 卡</w>
内 生</w>
殖 民</w>
怀 特</w>
f li
W 1</w>
N o</w>
驱动 电流</w>
附 上</w>
发 率</w>
打 扫</w>
关 门</w>
前 向</w>
调查 报告</w>
获得 者</w>
O FF</w>
更 要</w>
理 智</w>
D AC</w>
巴 菲特</w>
以上 学历</w>
沙 子</w>
一 等奖</w>
露 面</w>
动 用</w>
常 任
折 现</w>
打 扮</w>
减 速
盛 大</w>
动力 系统</w>
PL L</w>
菌 素</w>
单 抗</w>
丙烯 酸甲酯</w>
P ress</w>
大 得多</w>
供 货</w>
价 钱</w>
bu g</w>
Q R</w>
线 段</w>
碳氢 化合物</w>
之 声</w>
流 浪
就 位</w>
基准 利率</w>
淀粉 酶</w>
洽 谈</w>
数百 个</w>
浴 袍</w>
切割 机</w>
致 死</w>
I X
品 味</w>
如 需</w>
停 下</w>
s w
塑料 袋</w>
p re
低 剂量</w>
导 者</w>
关键 性</w>
迪 克</w>
炒 作</w>
气 量</w>
援 助
控制 点</w>
吸收 光谱</w>
集中 精力</w>
之 急</w>
云 端</w>
现 将</w>
从那 以后</w>
表 态</w>
警 卫</w>
b r
z z
光 度法</w>
商 誉</w>
ro n</w>
虚 弱</w>
0 S</w>
不 大</w>
海 中</w>
中 用</w>
合法 化</w>
解 压缩</w>
格 外</w>
压 紧</w>
L O</w>
渗 入</w>
f in
G O
大 分子</w>
l b</w>
清 新</w>
有效 途径</w>
偶 数</w>
Pla y</w>
互 锁</w>
ak e</w>
中 西医</w>
年 收入</w>
二 次
牛 仔</w>
化 肥</w>
作 弊</w>
朝鲜 民主主义
海 平面</w>
顺 畅</w>
c d</w>
P l</w>
感 恩
密歇 根
右 眼</w>
小 偷</w>
个人 所得税</w>
欧洲 委员会</w>
履 约</w>
司 令</w>
痉 挛</w>
小 瓶</w>
贝 叶
装 在</w>
蜘 蛛</w>
p e</w>
长 得</w>
劫 持</w>
橄榄 油</w>
倒 数</w>
梗 塞</w>
上 述
2 30
导 数</w>
连 任</w>
第 十</w>
重大 进展</w>
氮 氧化物</w>
路 基</w>
金 价</w>
海 尔</w>
基础 性</w>
优 质
解剖 学</w>
爸 爸
爸爸 妈妈</w>
特 人</w>
佩 克</w>
正弦 波</w>
吸烟 者</w>
情 侣</w>
卡 拉
处理 厂</w>
3 44</w>
增长 点</w>
五 金
Mac Book</w>
起 落
基 坑</w>
干 线</w>
汇 流</w>
人员 伤亡</w>
实 效</w>
圆 圈</w>
T B
大 蒜</w>
5 32</w>
负载 平衡</w>
非 晶硅</w>
强 加</w>
贝叶 斯</w>
磁 芯</w>
拐 角</w>
功率 因数</w>
吉 利</w>
技术 性</w>
改 组</w>
焦 炭</w>
M l</w>
搞 定</w>
调 配</w>
燃料 箱</w>
气 息</w>
平方 英尺</w>
估 计数</w>
视 性</w>
几内 亚
g re
治 党</w>
最高 人民法院</w>
霍 华德</w>
财 力</w>
压 裂</w>
流 畅</w>
萨 拉</w>
左 眼</w>
前 不久</w>
猛 烈</w>
手术 室</w>
i er</w>
搬 家</w>
0.0 3</w>
新 药</w>
彩 虹</w>
西 装</w>
小 吃</w>
曲 折</w>
合成 树脂</w>
PD P</w>
商 标
青春 期</w>
民 用
ro m</w>
价格 指数</w>
无 与
访 华</w>
虚 构</w>
无与 伦比</w>
葡萄 牙
播 种</w>
持 有者</w>
e B
印刷 机</w>
歧 视性</w>
An g
17 0
嘌 呤</w>
本 案</w>
Vo IP</w>
辩 称</w>
方 面
相 色谱</w>
双 酚</w>
巡 视</w>
充分 体现</w>
领事 馆</w>
凹 进</w>
军 用</w>
中 枢</w>
水 槽</w>
离子 束</w>
氰 胺</w>
裸 片</w>
F L</w>
仍 旧</w>
长 寿</w>
害 人</w>
TF T
龙 头
算 子</w>
三 聚
越 野</w>
共 鸣</w>
A k
图像 文件</w>
Bus iness</w>
西 安市</w>
时 常</w>
大 都会</w>
每 一件</w>
感恩 节</w>
辩 护
好 奇
12 10</w>
浸 没</w>
T PS</w>
迁移 率</w>
素 酶</w>
传递 函数</w>
胡萝 卜</w>
控制 参数</w>
F CC</w>
总 人口</w>
审 查
测 评</w>
万 股</w>
职 能
信息 中心</w>
精 氨酸</w>
可 折叠</w>
丛 林</w>
乳 头</w>
R l</w>
更 为重要</w>
液 聚合</w>
老 大</w>
类 化合物</w>
d is
斯 图
一 副</w>
率 地</w>
入 睡</w>
火 箭
皮质 激素</w>
PS K</w>
门 窗</w>
踏 上</w>
店 里</w>
掩 护</w>
辅导 员</w>
刻 度</w>
CL I</w>
冰 川</w>
肥 皂</w>
阵 线</w>
纳 斯</w>
南京 市</w>
湿 式</w>
纤维 蛋白</w>
物业 管理</w>
消息 来源</w>
全 部
s o
阿姆斯特 丹</w>
生物 素</w>
根本 利益</w>
上 瘾</w>
il la</w>
Qu ery</w>
t i</w>
好奇 心</w>
主 旨</w>
仲 裁
向 着</w>
有 太多</w>
独 有</w>
入 院</w>
跳 动</w>
考虑 一下</w>
循环 系统</w>
C y
长 三角</w>
lo b
fi le</w>
青 海
民 法</w>
第二 位</w>
圆 顶</w>
金属 元素</w>
相 距</w>
有 成效</w>
电 致</w>
买 房</w>
同 一天</w>
压 阀</w>
带 式</w>
用 过</w>
路 灯</w>
se c</w>
境 界</w>
余 时间</w>
渔 民</w>
清 扫</w>
Pow er</w>
动 量</w>
遗 体</w>
发行 股票</w>
下 以</w>
衰 期</w>
车 程</w>
有点 像</w>
大气 污染</w>
共产 党员</w>
K W</w>
硬 件
骚 乱</w>
求 和</w>
多 万元</w>
可 卡因</w>
依 存</w>
马 车</w>
讯 息</w>
蠕 变</w>
投 向</w>
弹 出</w>
密封 材料</w>
交易 成本</w>
相互 尊重</w>
半 衰期</w>
8 4
重 均</w>
J u
全 套</w>
酒 精
特征 值</w>
原 文</w>
独 资</w>
政府 首脑</w>
机 会
搭 档</w>
供 暖</w>
布 雷</w>
天 体</w>
G E
参考 点</w>
全 日
公司 股票</w>
西 南部</w>
p se</w>
天 地</w>
园 艺</w>
原 点</w>
en e</w>
28 %</w>
仇 外</w>
a u</w>
镜 面</w>
昏 迷</w>
不 宜</w>
向 往</w>
里 约
赫 尔
庚 烷</w>
特征 提取</w>
应 从</w>
L I</w>
冒 犯</w>
便 秘</w>
Ale x
凑 型</w>
IS IS</w>
壁 厚</w>
储 蓄
紧 凑型</w>
拿 下</w>
C Y
甜 味剂</w>
纳米 比亚</w>
亿 万
爱 因
爱因 斯坦</w>
班 车</w>
性 骚扰</w>
第四 条</w>
抗 击</w>
高 产</w>
马 桶</w>
安全 部门</w>
报 警
行 者</w>
M X</w>
境 地</w>
会 费</w>
激励 机制</w>
全球 定位系统</w>
棕 榈
极 为重要</w>
嘴 里</w>
在 建</w>
职业 道德</w>
停 顿</w>
形 图</w>
地 去</w>
罗 伯
28 8</w>
病 毒性</w>
周 转
盘 式</w>
N R</w>
TE M</w>
P aul</w>
纸 币</w>
5 V</w>
优先 股</w>
ID S</w>
通 性</w>
隐 喻</w>
眼 神</w>
牢 牢</w>
权 力
突 触</w>
2 G</w>
纪 律
认真 对待</w>
一 口气</w>
空 燃</w>
当地 政府</w>
在 线
无 情</w>
静 音</w>
烃 类</w>
条 码</w>
看 得
流 场</w>
光 谱仪</w>
150 0
幽 门</w>
7 60</w>
花 粉</w>
专 属</w>
争 辩</w>
竭 尽全力</w>
坦 言</w>
教学 法</w>
D O</w>
识别 系统</w>
Wor d
又 称</w>
坡 度</w>
参考 资料</w>
热 闹</w>
b ur
中介 机构</w>
1. 00</w>
公 关</w>
SM TP</w>
文 稿</w>
之 差</w>
房 产
发 散</w>
组 成员</w>
纪念 馆</w>
碳 酸钠</w>
纸 箱</w>
创 建
谈 判
微 胶囊</w>
合 线</w>
核 定</w>
无 用</w>
反 倾销</w>
I AM</w>
花 卉</w>
希 特勒</w>
关键 在于</w>
开 出</w>
T H
pri se</w>
灾 后</w>
18 7</w>
拍 卖
CN T</w>
餐 饮
分 派</w>
p i</w>
tr l</w>
国际 劳工
不负 责任</w>
总 决赛</w>
阳 区</w>
上 空</w>
风 景
个 州</w>
流 出物</w>
T A
钓 鱼
以 为
非 金属</w>
雷 锋</w>
直 角</w>
贸易 法</w>
L IN
立 式</w>
M U</w>
G o
公共 利益</w>
on g
责任 制</w>
益 生
激 起</w>
5 mg</w>
葡 聚糖</w>
阿 萨德</w>
红 外光</w>
撤 军</w>
奥尔 良</w>
户 口</w>
服务器 端</w>
获得 最佳</w>
献 给</w>
水 池</w>
5 25</w>
开 闭</w>
放 学</w>
而 后</w>
参 谋
T el
煤 气</w>
审 讯</w>
每 天
历 经</w>
园 林
海 外
公 有制</w>
刷 子</w>
旗 舰</w>
部 中</w>
深 深
体 操</w>
蚊 子</w>
em s</w>
19 65</w>
结构 单元</w>
热 熔</w>
颅 脑</w>
提 示
抛 物
驾驶 者</w>
问 下</w>
吉尔吉斯 斯坦</w>
9 60</w>
有 事</w>
休 斯顿</w>
统治 者</w>
骗 局</w>
日 产</w>
注册 商标</w>
调 味
相关 系数</w>
一百 万</w>
股份 制</w>
单 调</w>
甘 氨酸</w>
带 隙</w>
Ed ge</w>
V ir
共 处</w>
试 用
微 机</w>
刑 罚</w>
竞 标</w>
汉 姆</w>
前 排</w>
细胞 周期</w>
六 名</w>
Mar k</w>
白 痴</w>
机 壳</w>
海 口</w>
一 夜</w>
勤 奋</w>
出 乎
our ce</w>
风 湿
财政 收入</w>
千 元</w>
ou ch</w>
送 货</w>
肖 像</w>
编码 数据</w>
三 中全会</w>
d ep
上 车</w>
机 上</w>
购房 者</w>
电话 机</w>
1 202</w>
凡 是</w>
IS P</w>
收 于</w>
三 维
R PM</w>
朝鲜民主主义 人民共和国</w>
平 行
海 岸
两 相</w>
技术 参数</w>
留 意</w>
驾驶 室</w>
可 行
补 救
建筑 设计</w>
e a</w>
动 词</w>
菲利 普</w>
全 心
吸 水</w>
严重 威胁</w>
明确 指出</w>
有色 金属</w>
H el
降 准</w>
抗 日
9 7
由 此
货 款</w>
动 议</w>
元 旦</w>
高尔夫 球场</w>
征 集</w>
CN. 4</w>
履行 职责</w>
3 54</w>
密码 子</w>
牧 场</w>
转折 点</w>
10 mg</w>
胡萝 卜
仅 限</w>
一 阵</w>
明确 提出</w>
相 中</w>
架 子</w>
树 上</w>
ti ons</w>
明尼苏 达州</w>
近 红外</w>
历史 学家</w>
关 机</w>
提 琴</w>
讲 师</w>
活动 家</w>
马 里兰
腺 病毒</w>
主 党</w>
塔吉 克斯坦</w>
IC U</w>
进 军</w>
杭 州市</w>
两 步</w>
系统 工程</w>
熔 丝</w>
第七 届</w>
暴 行</w>
绳 子</w>
美 景</w>
办公 楼</w>
法 论</w>
传 染</w>
赛 场</w>
奉 行</w>
说 服
航天 局</w>
别 忘
真 主党</w>
传送 器</w>
预 付</w>
仍 会</w>
海 湾
中 山
6. 6</w>
中之 重</w>
移 植
入射 角</w>
余 量</w>
率 领</w>
面 值</w>
傅 立
长 方形</w>
集中 式</w>
好 了
9 12</w>
凹 凸</w>
重 中之重</w>
一个 个</w>
外 伤</w>
l in</w>
问 过</w>
3 62</w>
科技 成果</w>
方 法论</w>
联合国 教科文组织</w>
库 珀</w>
威尔 逊</w>
27 4</w>
防 爆</w>
亚 人</w>
第二 步</w>
第二 名</w>
规模 化</w>
别忘 了</w>
m m2</w>
细 小</w>
ti me</w>
50 9</w>
系统 管理</w>
闯 入</w>
荣 誉
18 a</w>
增 持</w>
试 管</w>
转 会</w>
四 是</w>
盛 会</w>
效 性</w>
9 6%</w>
3. 9</w>
感到 遗憾</w>
半 数</w>
U P</w>
多 用户</w>
县 委</w>
车 顶</w>
连接 线</w>
战 机</w>
废 水处理</w>
数 量级</w>
名 册</w>
开发 银行</w>
尚 无</w>
以 赴</w>
勒 索</w>
渐 变</w>
先 知</w>
库 尔
全力 以赴</w>
打 球</w>
实习 生</w>
零 点</w>
世界 观</w>
波 动性</w>
En g
马 尔</w>
开关 电源</w>
可 口
of t
肝 功能</w>
每 台</w>
明显 提高</w>
冲 浪</w>
知识 经济</w>
本 节</w>
达 标</w>
Z r</w>
妇 科</w>
计算 环境</w>
学 分</w>
冰 冷</w>
g ro
左 翼</w>
节 流阀</w>
点 半</w>
磁 通量</w>
贮 藏</w>
外汇 市场</w>
氮 化
扔 掉</w>
违 约
防 卫</w>
跑 车</w>
PC T</w>
内 斯堡</w>
静 下来</w>
19 61</w>
傅立 叶</w>
诉 诸</w>
抓 握</w>
村 官</w>
废 墟</w>
性 研究</w>
可行 性研究</w>
统 称</w>
印 花</w>
例 证</w>
不足 道</w>
约翰 内斯堡</w>
后 备</w>
肝 病</w>
来 信</w>
40 9</w>
请 教</w>
肾上 腺</w>
类 型
P al
an i
其 他
弱 化</w>
负 相关</w>
革命 性</w>
应 得</w>
巨 型</w>
精 度高</w>
H ad
迪 斯
战斗 力</w>
仪 器
必 备</w>
核 糖
气 机</w>
限 制
十 届</w>
m V</w>
肉 瘤</w>
监 测器</w>
药 业</w>
病 史</w>
化 酶</w>
所 为</w>
an k
填 满</w>
领 会</w>
第十 届</w>
附 有</w>
玩 得</w>
迷 宫</w>
追 赶</w>
银 河</w>
低 调</w>
观 设计</w>
Found ation</w>
网络 资源</w>
4 500</w>
土 木
该 省</w>
诅 咒</w>
eN ode
内 源性</w>
西 红
息 息
序 言</w>
红 素</w>
高 校
无 功</w>
撤 消</w>
N et</w>
放 出</w>
停 放</w>
诉讼 法</w>
到 时候</w>
国 度</w>
浸 出</w>
微 不足道</w>
降 噪</w>
M R
定 额</w>
施 压</w>
形 式
减 震</w>
乔 布斯</w>
拳 击</w>
绵 羊</w>
毛 病</w>
内 以</w>
房 东</w>
血 腥</w>
宣 誓</w>
B R
A ML</w>
选 区</w>
指导 意义</w>
热 敏</w>
J P</w>
牲 畜</w>
争 执</w>
m ar
S co
贸易 战</w>
社会 科学院</w>
层 用</w>
侦 察</w>
奢 侈</w>
软 硬件</w>
经营 权</w>
冷 空气</w>
HD L</w>
判 别</w>
后 排</w>
证明 书</w>
帝 国主义</w>
外交 关系</w>
P ort
民 政
补救 措施</w>
钻 机</w>
. 3</w>
表现 形式</w>
获 奖
根 治
高 额</w>
制 作
al se</w>
资源 部</w>
加 法</w>
主 控</w>
观察 团</w>
远 地区</w>
振 奋</w>
看 望</w>
不良 影响</w>
超 大</w>
基本 权利</w>
一 段
wor k</w>
可 追溯</w>
100 6</w>
电 热水
电热水 壶</w>
比 绍</w>
先 驱</w>
林 业
互联 互通</w>
只 用</w>
ec tion</w>
阿拉伯 叙利亚
阿拉伯叙利亚 共和国</w>
模 数
公 路
击 手</w>
倡 导者</w>
图 片
非 小</w>
阿拉 法特</w>
第三 层</w>
新 版</w>
投 行</w>
匮 乏</w>
觉 醒</w>
绅 士</w>
黑 名单</w>
分 数
自然 科学</w>
上述 情况</w>
汉 族</w>
预 警
着 火</w>
预 充电</w>
银 色</w>
各族 人民</w>
孤 单</w>
十二 个</w>
露 营</w>
选 举
200 00</w>
色 差</w>
U MTS</w>
13 B</w>
可 执行
氧化 应激</w>
各 不相同</w>
反 演</w>
越 长</w>
草 图</w>
S W</w>
之 情</w>
曲 目</w>
驻 车</w>
子 带</w>
爱 荷
海 滨</w>
应 答
说服 力</w>
in k</w>
排 球</w>
置 换
空 中
倍 率</w>
对 华</w>
亿 吨</w>
et t</w>
息息 相关</w>
d l</w>
黎 明</w>
银行 业务</w>
发 酵
生物 量</w>
打 滑</w>
分之 三</w>
负 电极</w>
作 业
it t
傍 晚</w>
优越 性</w>
巡回 赛</w>
小 孔</w>
再 用</w>
s et</w>
校 友</w>
客户 关系</w>
俄 勒
有 空</w>
最终 目标</w>
新 品</w>
同 情
I K
碎 石</w>
千 万
彼此 之间</w>
机械 加工</w>
谈 及</w>
当 做</w>
普通 话</w>
服务 商</w>
抗 拉
干 式</w>
习惯 于</w>
高 龄</w>
两 款</w>
b p</w>
留 住</w>
很久 以前</w>
便利 化</w>
膀 胱
说 起</w>
批 处理</w>
f a
临 时
et h
形 术</w>
中 原</w>
难 受</w>
d el
M ME</w>
圣诞 老人</w>
苏 丹
置换 术</w>
波 特
Na H
皇 后</w>
西红 柿</w>
令人 遗憾</w>
A MD</w>
签 署
严 厉
海 豚</w>
调 剂</w>
民 意</w>
起 泡</w>
钦 佩</w>
密封 环</w>
民主 化</w>
学 前
遍 历</w>
远 距离</w>
指 着</w>
私 钥</w>
商 界</w>
接触 角</w>
全日 制</w>
3 75</w>
获得 成功</w>
24 %</w>
信号 源</w>
总 署</w>
印度 洋</w>
女 神</w>
纤维 材料</w>
持久 和平</w>
要 花</w>
li e</w>
佛 山</w>
六 方
LD AP</w>
密歇根 州</w>
氏 菌</w>
不 法
功能 强大</w>
两 分钟</w>
羽毛 球</w>
ad a</w>
SA R</w>
活动 状态</w>
水 污染</w>
耐 高温</w>
低 时</w>
19 64</w>
fli x</w>
油 厂</w>
数字 助理</w>
个人 数字助理</w>
步 长</w>
摇 臂</w>
东 方
升 华</w>
顶 盖</w>
2 3%</w>
小 鸟</w>
为 力</w>
管理 部</w>
个 省</w>
无 关
先 例</w>
E VA</w>
纪念 品</w>
胡萝卜 素</w>
吸 血
全 资</w>
利 兹</w>
翼 片</w>
建 交</w>
天 猫</w>
亲 吻</w>
下 一
Lin k</w>
认 罪</w>
底 下</w>
复杂 化</w>
行政 处罚</w>
滑 移</w>
b ase</w>
关 乎</w>
I b</w>
电 光</w>
i g</w>
缘 故</w>
绝缘 性</w>
M bps</w>
党的 领导</w>
3 1
食品 药品</w>
I d</w>
哪 种</w>
M 2M</w>
全力 支持</w>
存储 容量</w>
求 职
工商 银行</w>
尼古 丁</w>
三 亚</w>
无 刷</w>
绿 地</w>
B MI</w>
我 妈</w>
吸血 鬼</w>
S e</w>
高等 学校</w>
装 卸</w>
付 诸
龙头 企业</w>
大 都</w>
洪 都
连 串</w>
开 盘</w>
is e</w>
方面 面</w>
方 方面面</w>
施 肥</w>
不 人道</w>
赞助 商</w>
管理 工具</w>
工业 革命</w>
全 天</w>
检查 一下</w>
投 掷</w>
当 代
偷 走</w>
这 两项</w>
美国 市场</w>
万 能</w>
27 6</w>
令人 信服</w>
B 3</w>
阵 营</w>
届 满</w>
雷 诺</w>
增 效</w>
支 队</w>
威斯 康
t d</w>
品 位</w>
世纪 末</w>
标 头</w>
分 批</w>
扩 频</w>
期 日</w>
逆 差</w>
ati ve</w>
致 病</w>
机 房</w>
全 意</w>
鸡尾 酒</w>
多 通道</w>
远 高于</w>
____ ____
戴 着</w>
尊 重
H R
脚 下</w>
映 体</w>
特 遣队</w>
制冷 系统</w>
20 24</w>
新 奥尔良</w>
H a
会 员
米 歇尔</w>
隐 形</w>
绩效 考核</w>
6. 7</w>
试 点
通讯 员</w>
IE EE</w>
草 稿</w>
贴 合</w>
国际劳工 组织</w>
点 到</w>
内 幕</w>
防 滑</w>
近 况</w>
无 能
踢 球</w>
起落 架</w>
选 为</w>
供 给
e h
四 分之三</w>
到 期日</w>
安 心</w>
应 立即</w>
钞 票</w>
顶 峰</w>
法兰 克
中东 地区</w>
空 格</w>
死 于</w>
数据 字</w>
散 射
可 变
传 言</w>
水 文</w>
植 株</w>
心 目</w>
Applic ation</w>
认真 学习</w>
组 委会</w>
首 饰</w>
山 地</w>
官 僚
志愿 人员</w>
最低 水平</w>
民意 测验</w>
克 什
Hot el</w>
卫 视</w>
喀 布尔</w>
Su n</w>
脑 海</w>
2 300</w>
成品 油</w>
经营 性</w>
房 屋
各 有</w>
全心 全意</w>
充 斥</w>
at ed</w>
篮 板</w>
SS I</w>
房 租</w>
外 包</w>
6 25</w>
肇 事
成 绩
mi RNA</w>
颗粒 状</w>
全 息
17 9</w>
十二 条</w>
R X</w>
IN G</w>
服务 公司</w>
无线电 波</w>
读取 数据</w>
考 量</w>
支 路</w>
控制 线</w>
亦 可</w>
配 重</w>
重 结晶</w>
3 17</w>
罗 德
贸易 区</w>
中 途</w>
太 原</w>
棵 树</w>
2 1%</w>
液压 泵</w>
滑 石</w>
四 方</w>
皱 纹</w>
无 比</w>
百万 计</w>
之 星</w>
跌 至</w>
扎 根</w>
存 活率</w>
中 非共和国</w>
出乎 意料</w>
受 害</w>
AC L</w>
世 锦赛</w>
求 是</w>
致 冷</w>
振 动
CH2 Cl2</w>
可 图</w>
杜 绝</w>
划 定</w>
疾 病
Not e</w>
织 品</w>
邮 局</w>
调 解
杀 戮</w>
音 箱</w>
坯 料</w>
交 警</w>
两 根</w>
W B</w>
软件 设计</w>
斐 济</w>
集中 度</w>
质 瘤</w>
抛 出</w>
扇 形</w>
克 雷
b a</w>
We st
稀 有</w>
甘油 酯</w>
户 籍</w>
内 存
I DC</w>
课 时</w>
f lash</w>
出 名</w>
参加 者</w>
储 备
不 知道</w>
A r</w>
长 途
合 体</w>
正 视图</w>
告 警</w>
二 酯</w>
无能 为力</w>
第二 级</w>
援助 团</w>
当 前
深 信</w>
L M</w>
楼 盘</w>
NH 3</w>
贫困 户</w>
公立 医院</w>
or d
耐 腐蚀</w>
印第安 人</w>
血 统</w>
政策 性</w>
与 时
入 学
第一 代</w>
抗拉 强度</w>
大 腿</w>
迅 猛
Enter prise</w>
摸 索</w>
母 婴</w>
服务 费</w>
当 务
f ace</w>
县 域</w>
财 经
毫米 波</w>
克 劳
U pd
更 名</w>
战略 规划</w>
病 灶</w>
派 生</w>
IC C</w>
7. 8</w>
总 能</w>
省 去</w>
糖 醇</w>
非常 容易</w>
分 泌
当务 之急</w>
我 去</w>
带 我去</w>
国际 奥委会</w>
十 天</w>
角 线</w>
透明 性</w>
四 点</w>
胶 质瘤</w>
密 尔顿</w>
喉 咙</w>
os hop</w>
A f
赛 因</w>
休息 室</w>
90 5</w>
心 功能</w>
杉 醇</w>
大会 堂</w>
分数 线</w>
公开 市场</w>
6 11</w>
引 诱</w>
T or
Ga As</w>
报 废</w>
安 南</w>
求 职</w>
19 66</w>
古 典
侯 赛因</w>
优 良
筹 款</w>
理 化</w>
实 测</w>
乘 法器</w>
U C</w>
该 镇</w>
忠 诚
n M</w>
R NA
m ol
PH Y</w>
源 地</w>
欣 慰</w>
甜 点</w>
数 周</w>
时 装
行 径</w>
k ey</w>
R ad
所 要</w>
中国 日报</w>
牛 市</w>
混 杂</w>
t or</w>
欢 呼</w>
下 落</w>
虹 膜</w>
多种 多样</w>
RA N
海 牙</w>
歌 唱</w>
飞 跃</w>
盗 版</w>
疲 惫</w>
P K</w>
所 学</w>
数 为</w>
产品 线</w>
it al</w>
工业 园区</w>
反 驳</w>
合理 化</w>
生态 学</w>
贴 近</w>
前 面板</w>
末 期</w>
In v
贴 纸</w>
审计 报告</w>
监 局</w>
圈 子</w>
太 少</w>
主 线</w>
恒 温</w>
加 里</w>
三聚 氰胺</w>
C MS</w>
天 冬
紫 杉醇</w>
传 导性</w>
理 所
o k</w>
电 价</w>
名 录</w>
V T</w>
清 漆</w>
m y
二甲基 甲酰胺</w>
农业 大学</w>
私 下</w>
X I</w>
米 亚</w>
氟 化物</w>
loc k</w>
海 洛
5 21</w>
纳 斯达
耐 用性</w>
毛 衣</w>
判 例</w>
轴 箱</w>
俱 进</w>
崩 解</w>
司令 部</w>
核 计划</w>
家 务</w>
财政 部长</w>
迅猛 发展</w>
流 体
造 影剂</w>
法律 顾问</w>
液晶 电视</w>
三 者</w>
刘 易
第五 条</w>
M w</w>
教 养</w>
高 价</w>
从业 者</w>
继续 执行</w>
重 伤</w>
地 震
新 德里</w>
预 置</w>
水 龙头</w>
安 迪</w>
热 导率</w>
及 时
请 求
指纹 识别</w>
那 场</w>
放 电灯</w>
总 成本</w>
国家 主权</w>
材 料
S ub
黑 色
Sec ur
X 3</w>
充电 电流</w>
时 有</w>
失 败
圣 彼得
腐 败
更 佳</w>
IO N</w>
白 剂</w>
定 做</w>
回 归
出 为</w>
耻 辱</w>
能量 消耗</w>
自 尊</w>
离 合</w>
无 尽</w>
氧化 酶</w>
摔 倒</w>
芽 孢</w>
正 电极</w>
兵 团</w>
常规 武器</w>
妓 女</w>
概 览</w>
就 读</w>
化 钠</w>
X box</w>
灵 顿</w>
19 30</w>
报告 书</w>
7 C</w>
两 件</w>
洪都 拉斯</w>
专 访</w>
Net flix</w>
丁 烷</w>
夺 走</w>
无关 紧要</w>
3 51</w>
W AP</w>
重要 途径</w>
学 士</w>
团 购</w>
真 是
耶 稣
喝 一杯</w>
为 民</w>
勘 察</w>
与时 俱进</w>
出 血
H i
医 改</w>
期 末
焙 烧</w>
便 会</w>
坦 率地</w>
Bu il
周 长</w>
弃 权</w>
坏 消息</w>
石 灰</w>
近 视</w>
对 角线</w>
绩效 评价</w>
核 磁共振</w>
议 会
网 卡</w>
H yp
以 约</w>
6 15</w>
斯蒂 芬</w>
土耳 其
六方 会谈</w>
势 垒</w>
15 a</w>
第四 节</w>
日 落</w>
丑 陋</w>
缓 释</w>
构成 威胁</w>
下 个</w>
落 户</w>
国际 金融</w>
PC B
Me OH</w>
独 裁
操作 方法</w>
手 写</w>
J ames</w>
协 会
之 道</w>
微 电子</w>
入 口处</w>
色 板</w>
愈来 愈</w>
吉 布
颁奖 典礼</w>
交 响
这么 久</w>
换 热</w>
序列 化</w>
古 怪</w>
6 80</w>
Inter n
十 七</w>
一 堂</w>
W 2</w>
做 梦</w>
瘢 痕</w>
抗 炎</w>
刘易 斯</w>
好了 吗</w>
构造 函数</w>
人口 老龄化</w>
所 作
亚 地区</w>
汽 化</w>
硝 酸
安全 局</w>
木 头</w>
抬 高</w>
百 货</w>
维吾 尔
m i</w>
测试 数据</w>
册 子</w>
F B</w>
高 能</w>
礼 拜</w>
所作 所为</w>
万 达</w>
读 卡
认 知
可 不是</w>
y le</w>
总 而言之</w>
Ma x
气 密</w>
三 乙胺</w>
视 窗</w>
高中 生</w>
架 结构</w>
预测 值</w>
孟 买</w>
拥 有者</w>
玩 法</w>
si RNA</w>
埃 尔
加 共和国</w>
数千 名</w>
贵 阳</w>
抛 售</w>
PC C</w>
. 5</w>
每 晚</w>
万 台</w>
y n</w>
保 湿</w>
布 伦
泉 水</w>
并不 知道</w>
内 含</w>
过 低</w>
冠 脉</w>
Pat h</w>
D u
立 柱</w>
纳斯达 克</w>
卤 代</w>
合同 法</w>
一 连串</w>
方 言</w>
口 罩</w>
7. 6</w>
碎 屑</w>
爱丁 堡</w>
借 用</w>
B al
组 学</w>
出口 国</w>
可 再生</w>
墓 地</w>
投 融资</w>
必 需
ic ation</w>
安东 尼</w>
不 育</w>
卡 盘</w>
解 析
很 差</w>
定 型</w>
18 A</w>
追 捕</w>
北 卡罗来纳州</w>
19 62</w>
对 人</w>
50 00
席 卷</w>
脑 部</w>
学 说</w>
or s</w>
限制 器</w>
12 5
儿 女</w>
被 占
被占 领土</w>
G U
酸 酶</w>
深深 地</w>
4 52</w>
跨 过</w>
随 地</w>
流 通
一 手</w>
悬 崖</w>
主 机
腺 瘤</w>
熟 练
忠诚 度</w>
后 院</w>
红十字 国际
红十字国际 委员会</w>
4 42</w>
玻 片</w>
机 柜</w>
结晶 度</w>
安全 装置</w>
晶 状体</w>
置 信度</w>
10. 5</w>
海峡 两岸</w>
二 线</w>
隐 式</w>
六 种</w>
各种 因素</w>
系列 产品</w>
罪 恶</w>
磷酸 酶</w>
多边 贸易</w>
毫无 意义</w>
地铁 站</w>
福 尔
土木 工程</w>
拆 下</w>
G ar
D r
N I</w>
该 处</w>
致 病
渔 船</w>
太 空
层 层</w>
第六 次</w>
变 现</w>
19 58</w>
由 本</w>
专 为</w>
寂 寞</w>
fi eld</w>
2 68</w>
纯 水</w>
越 低</w>
懈 努力</w>
不 懈努力</w>
道 琼斯</w>
二十 世纪</w>
B el
跨 学科</w>
有 近</w>
分 选</w>
透明 质</w>
网络 地址</w>
人民 日报</w>
交叉 点</w>
农 历</w>
极 小</w>
y ou</w>
A li
老 家</w>
极 少</w>
启 动器</w>
海洛 因</w>
B it
50 mg</w>
界 线</w>
职 等</w>
出 人
果 糖</w>
引 爆</w>
圆 桌
离心 机</w>
多 孔
s o</w>
常见 问题</w>
F BI</w>
加勒比 海</w>
举 个</w>
斯 勒</w>
大 叫</w>
20 b</w>
地 处</w>
高 涨</w>
住 民</w>
降 低
耐 火
国际 事务</w>
陈 代谢</w>
软件 程序</w>
新 陈代谢</w>
un d
B 2B</w>
8 60</w>
随 时
长 征</w>
行 中</w>
阿拉伯 人</w>
被 害人</w>
山 顶</w>
人 寿</w>
国 立</w>
8. 4</w>
空 运</w>
N av
多米尼 加共和国</w>
C an
P an
泡 沫
19 48</w>
几内亚 比绍</w>
罗 德</w>
电源 开关</w>
吹 塑</w>
变 差</w>
4 mm</w>
圆桌 会议</w>
社 交
旺 盛</w>
高 手</w>
端 口号</w>
伏 特</w>
任何 一方</w>
关键 时刻</w>
IC H</w>
CD R</w>
发展 潜力</w>
精神 疾病</w>
环境 监测</w>
忍 不住</w>
警察 部队</w>
唾 液</w>
隐 蔽</w>
数以 百万计</w>
详细 分析</w>
气 缸盖</w>
塔 尼亚
合成 器</w>
di t</w>
矿 床</w>
Wh ats
骑 行</w>
戴 维</w>
录像 带</w>
资本 化</w>
工 期</w>
娠 期</w>
妊 娠期</w>
g er</w>
起 重</w>
门 限</w>
SC P</w>
我 司</w>
利用 效率</w>
输 尿管</w>
国民 议会</w>
海 关
和 表</w>
军 团</w>
操纵 杆</w>
药 店</w>
对 点</w>
十 分钟</w>
ht ml</w>
用 语</w>
特 区政府</w>
广播 电视</w>
业 态</w>
议 长</w>
马尼 拉</w>
舞 会</w>
领 事</w>
高等 法院</w>
编码 序列</w>
p ol
电 报</w>
S 12</w>
凯 利</w>
汉 密尔顿</w>
并 存</w>
镶 嵌</w>
推 动力</w>
布莱 恩</w>
法兰克 福</w>
标 明</w>
S t</w>
19 %</w>
满 分</w>
事 迹</w>
N H</w>
总体 规划</w>
数据 库
该 区</w>
乘 车</w>
止 血</w>
平均 年龄</w>
12 8
副 会长</w>
T X
月 末</w>
欧 佩克</w>
h i</w>
高速 缓冲存储器</w>
故 乡</w>
石 材</w>
侧 链</w>
不良 贷款</w>
管 材</w>
uc k
好 不好</w>
伊 尔</w>
分 列</w>
本报 记者</w>
E PA</w>
弹 力</w>
IC E</w>
成 形术</w>
周边 地区</w>
饰 品</w>
赞 誉</w>
可 信度</w>
出 庭</w>
开 火</w>
管 件</w>
不 成
繁 重</w>
L AN
升降 机</w>
il le</w>
k o</w>
. %</w>
热点 问题</w>
期 盼</w>
分 销商</w>
提高 认识</w>
压 强</w>
单 片</w>
误 会</w>
原 价</w>
第九 届</w>
D on
L F</w>
缺 乏
消 退</w>
免疫 力</w>
越 小</w>
意 志
攻 坚
c e
退 缩</w>
圣 节</w>
m g
90 3</w>
深入 分析</w>
A K
走 开</w>
通行 证</w>
转 交</w>
精神 文明</w>
压缩 比</w>
香港 特别行政区</w>
丝 氨酸</w>
政 协
冷冻 干燥</w>
O D</w>
限 量</w>
倾斜 角</w>
饱 受</w>
发 式</w>
倍 增</w>
m ac
宴 会</w>
亚 群</w>
以 该</w>
尼 派</w>
造 林</w>
电力 公司</w>
控制 部件</w>
防 盗</w>
解 体</w>
该 层</w>
体 层</w>
老 龄</w>
民 政</w>
H U
立 案</w>
et s</w>
F il
已 达</w>
策 略
梗 阻</w>
变 质</w>
I 2</w>
供 求</w>
转 换
退 税</w>
截 断</w>
庭 院</w>
价 款</w>
2 37</w>
霉 菌</w>
NF L</w>
万 圣节</w>
遇 难</w>
数据 格式</w>
保 监会</w>
4 34</w>
衣 架</w>
算 例</w>
刷 毛</w>
卡梅 伦</w>
顺利 进行</w>
密切 联系</w>
D BC</w>
ool s</w>
工作 日内</w>
塔尼亚 胡</w>
内 塔尼亚胡</w>
不 觉</w>
胡 子</w>
搞 好</w>
决 不</w>
预 估</w>
司法 机关</w>
储 藏</w>
G o</w>
振 动器</w>
F 3</w>
损 害
损害 赔偿</w>
右 上角</w>
c a</w>
ar ch</w>
布莱 克</w>
该 县</w>
草 酸</w>
摩 尔多
光 器</w>
ul t
F EC</w>
D LL</w>
计算 资源</w>
解 开</w>
11 a</w>
PV A</w>
只 想</w>
常 量</w>
上 升
惠 及</w>
鸿 沟</w>
三 农</w>
盘 价</w>
逊 尼派</w>
EC S</w>
说得 对</w>
罗 斯
库 尔德</w>
RO M
益生 菌</w>
吗 啡</w>
修 道
提供 数据</w>
党和 政府</w>
脱 气</w>
插 入物</w>
开 除</w>
U l
货币 基金</w>
蠕 虫</w>
柔 和</w>
酚 醛树脂</w>
银 监会</w>
护理 人员</w>
脑 损伤</w>
指挥 部</w>
房地 产业</w>
臀 部</w>
a 2</w>
抓 取</w>
敬 畏</w>
坏 人</w>
4 9.
税 制</w>
SO I</w>
池 塘</w>
转移 酶</w>
薄 壁</w>
转 递</w>
珊 瑚</w>
帷 幕</w>
扶 贫
城镇 居民</w>
十 三届</w>
庄 园</w>
利益 冲突</w>
登 机</w>
引 述</w>
I d
数字 视频</w>
不 忘</w>
暑 期</w>
卡 罗</w>
夺 冠</w>
五 金</w>
原 住民</w>
民 调</w>
报 送</w>
系列 赛</w>
CD 8</w>
覆盖 面</w>
海 内外</w>
换 算</w>
一 整套</w>
增 补</w>
补 助
简 单
叶绿 素</w>
新闻 社</w>
il y</w>
时 速</w>
am a</w>
宽 恕</w>
庄 严</w>
新闻 界</w>
涉 案</w>
实践 证明</w>
佩 斯</w>
泰 晤
避 难
阿拉 斯加</w>
前 身</w>
太 尼</w>
C d
吃 掉</w>
安 大
疏 忽</w>
发 力</w>
化学 电池</w>
奴隶 制</w>
宇 宙
PU SCH</w>
莞 市</w>
深入 开展</w>
器 皿</w>
生长 发育</w>
长 途</w>
我 读</w>
修 养</w>
排 气口</w>
忙 于</w>
全 美</w>
h r</w>
十二 月</w>
凯 文</w>
2 1a</w>
3 56</w>
信号 转导</w>
芬 太尼</w>
变化 趋势</w>
H ub</w>
羧 甲基</w>
另一 家</w>
广 西
微 细</w>
身 影</w>
款 额</w>
原 装</w>
进 气门</w>
纯 净</w>
相 册</w>
大 灯</w>
国际 性</w>
加 紧</w>
工人 阶级</w>
必需 品</w>
东 莞市</w>
瑟 琳</w>
电 费</w>
事业 部</w>
遥 测</w>
沃尔 沃</w>
取 值</w>
莱 特</w>
小 厨房</w>
con t
平 价</w>
忽 然</w>
磺 酸盐</w>
vi v
屈 服
中 称</w>
答 辩</w>
能 级</w>
氧化 钛</w>
吞 噬</w>
俯 瞰</w>
V PC</w>
P ay
电动 工具</w>
专 职</w>
转 盘</w>
NA T</w>
车 展</w>
线 型</w>
乙醇 胺</w>
瑞 典
U AV</w>
那 会</w>
R u
犯罪 分子</w>
地 步</w>
西 瓜</w>
影 视
HD R</w>
迅 猛</w>
分 多址</w>
疑 似</w>
避难 所</w>
晚 宴</w>
仅 如此</w>
兰 德</w>
艾 哈
方 药</w>
c p
粉 色</w>
或 用</w>
就 医</w>
自然 语言</w>
连 贯</w>
浙 江
排 空</w>
摇 动</w>
负债 率</w>
电 工</w>
w in
痤 疮</w>
含 氮</w>
拉 出</w>
车 牌</w>
水 疗</w>
病原 菌</w>
拥 护</w>
获 胜者</w>
眉 睫</w>
c ess</w>
天文 学家</w>
G W
S l
CL K</w>
4 28</w>
不 计</w>
马来 酸</w>
网络 管理</w>
精 油</w>
现 成</w>
其 以</w>
拔 出</w>
违法 犯罪</w>
项目 名称</w>
实践 经验</w>
CO D</w>
奇 特</w>
界 人士</w>
T H</w>
夏 令
名 誉</w>
环境 光</w>
头 皮</w>
得 主</w>
s h</w>
徽 章</w>
事 发</w>
免 遭</w>
镇 流器</w>
可 降解</w>
在 眉睫</w>
vi ew</w>
ref ox</w>
襟 翼</w>
I U</w>
颠 倒</w>
勉 强</w>
出 新</w>
P 4</w>
科 室</w>
幽 灵</w>
27 %</w>
特别 强调</w>
初 选</w>
th at</w>
检查 点</w>
并 会</w>
田 纳
巴 赫</w>
工程 机械</w>
h am</w>
AST M</w>
每 一项</w>
迫 在眉睫</w>
T x</w>
10 6
DR X</w>
11 B</w>
X L</w>
消防 安全</w>
管理 条例</w>
注 塑
会计 核算</w>
2 29</w>
控制 板</w>
工具 箱</w>
系统 集成</w>
30 A</w>
该 条</w>
时 许</w>
固 体
S RAM</w>
裸 露</w>
金属 表面</w>
一 分</w>
资 产阶级</w>
助 推</w>
情 愿</w>
不 仅如此</w>
if i</w>
10 50</w>
在 校</w>
举 止</w>
潜在 地</w>
国家 机关</w>
假 说</w>
B G</w>
B ox</w>
受益 者</w>
补 给</w>
绿 茶</w>
洛 特</w>
衰 减
十 几年</w>
兆 瓦</w>
C le
纪 检
送 回</w>
商 铺</w>
分离 出来</w>
5 g</w>
访问 者</w>
缴 付</w>
19 63</w>
牙 医</w>
竞 技
浴 盆</w>
兼 并</w>
方 程
串行 总线</w>
d b</w>
庆 典</w>
频率 响应</w>
建 于</w>
卡 斯
E X</w>
产品 销售</w>
萨 尔</w>
化 身</w>
铣 削</w>
繁 琐</w>
深 色</w>
开 局</w>
靴 子</w>
普 顿</w>
老 式</w>
恒 温器</w>
身 心
痴 呆
量 子
煤 灰</w>
a in</w>
丝 绸</w>
关键 点</w>
例 所</w>
中央政治 局</w>
硫化 氢</w>
型 期</w>
公司 地址</w>
特 纳</w>
牛 津</w>
贩 毒</w>
综 上所述</w>
F ar
配 电网</w>
HD D</w>
转 型期</w>
息 肉</w>
单 位
身 处</w>
0 9
组 播</w>
痴呆 症</w>
公 立</w>
说 完</w>
技术 标准</w>
同一 性</w>
4 90</w>
伊拉克 人</w>
阿 波
市场 占有率</w>
北 大</w>
伸 缩
凯 瑟琳</w>
6 7%</w>
行 之
剧 情</w>
遗 弃</w>
D l</w>
A X</w>
坏 血
部 份</w>
误 导性</w>
驱 使</w>
10. 0</w>
小 行星</w>
交 出</w>
17 A</w>
欺 负</w>
交 叠</w>
核 苷</w>
招待 会</w>
工作 电压</w>
机械 手</w>
全息 图</w>
假 冒</w>
走 到</w>
生产 国</w>
护 者</w>
金融 时报</w>
距 离
呼 气</w>
闪 速</w>
am s</w>
精 华</w>
华 北</w>
光 合</w>
资源 共享</w>
某 事</w>
基因 突变</w>
交易 平台</w>
捉 到</w>
希 伯
方向 性</w>
总 有
8 203</w>
广 域网</w>
格 拉斯</w>
晚 报</w>
山 东
主 动性</w>
N R
呼吸 系统</w>
发起 人</w>
国内 法</w>
二 异氰酸酯</w>
外 卖</w>
近 乎</w>
硅 酸</w>
20 nm</w>
29 2</w>
外 加</w>
ell o</w>
Sk ype</w>
用 尽</w>
末 日</w>
询 价</w>
差 异性</w>
批发 市场</w>
卡 斯</w>
i k</w>
香 糖</w>
系统 管理员</w>
垂 体</w>
主 演</w>
神经 细胞</w>
做 个</w>
.. ...</w>
四 驱</w>
糖 蛋白</w>
硅 层</w>
曲 轴箱</w>
第七 条</w>
曲 棍
快 要</w>
苯二 甲酸</w>
出 任</w>
公 职人员</w>
L ev
二 世</w>
趋 向
能源 消耗</w>
突破 性</w>
自 主权</w>
丁 酸</w>
十字 路口</w>
推 入</w>
承 租人</w>
风 光</w>
华盛顿 邮报</w>
包 商</w>
警 长</w>
us t</w>
小 册子</w>
d s
炼 油厂</w>
税 前</w>
D V</w>
胸 腔</w>
清 偿</w>
R N</w>
堡 垒</w>
昨天 晚上</w>
琥珀 酸</w>
mA h</w>
8 14</w>
肇事 者</w>
烟 道</w>
汽车 产业</w>
保 姆</w>
ist ic</w>
我 军</w>
事 关</w>
获 准</w>
这 门</w>
批评 者</w>
多 根</w>
万 科</w>
越 南
科技 进步</w>
总有 一天</w>
C it
灌 装机</w>
si c</w>
3 55</w>
不可 否认</w>
EC M</w>
银 河
一 性</w>
口 香糖</w>
腐 烂</w>
点 数</w>
按 计划</w>
相对 运动</w>
电 学</w>
E cli
美好 生活</w>
4 31</w>
In d
血管 病</w>
奥 兰
氢 酶</w>
发展 权</w>
V L</w>
27 1</w>
充 值</w>
后 述</w>
弗 里</w>
实 现
首 都
驾驶 舱</w>
CA R</w>
年 终</w>
曲棍 球</w>
骨 细胞</w>
油 画</w>
天 前</w>
公 然</w>
er o</w>
时间 延迟</w>
青 蛙</w>
行之 有效</w>
载 于</w>
新 城</w>
扭 力</w>
组织 部</w>
油 性</w>
保 单</w>
不 顾</w>
情 况
h o</w>
弗吉 尼亚</w>
世 人</w>
努力 学习</w>
布鲁 克林</w>
越来越 少</w>
芯片 组</w>
连锁 店</w>
日 出</w>
叉 车</w>
阴 茎</w>
诱 人</w>
大 不列颠</w>
反对 者</w>
电 离
副 教授</w>
一 并</w>
DM SO</w>
抗 战</w>
围 巾</w>
治疗 师</w>
整 齐</w>
20 mL</w>
户 型</w>
二 季度</w>
面 条</w>
留 存</w>
助 人</w>
县 城</w>
里 斯
聚 四氟乙烯</w>
理所 当然</w>
奥林匹 克
大 时</w>
繁 多</w>
水 率</w>
相 干
紧 邻</w>
东北 地区</w>
空 洞</w>
嘴 巴</w>
职能 部门</w>
降 幅</w>
壁 部</w>
州 政府</w>
闻 到</w>
时 髦</w>
超 标</w>
新 冠</w>
Phot oshop</w>
圆 弧</w>
反 叛</w>
巧 合</w>
PT C</w>
有害 物质</w>
同情 心</w>
乐 于</w>
o x
很 久</w>
诺 夫</w>
斯坦 福
for m
B ri
青 藏
直流 电源</w>
战 绩</w>
相 近</w>
产 儿</w>
2 63</w>
项 下</w>
20 B</w>
脱 氢酶</w>
举 足轻重</w>
28 5</w>
16 B</w>
这 话</w>
it ed</w>
气 隙</w>
不 禁</w>
贷 款人</w>
ou t
减 振</w>
申请 书</w>
调 指出</w>
强 调指出</w>
东 路</w>
一 幕</w>
响 起</w>
青 铜</w>
水 手</w>
诺贝尔 奖</w>
自由 贸易区</w>
C RS</w>
投 机
野 兽</w>
交流 电</w>
5 26</w>
转 角</w>
私 权</w>
D U</w>
硬 化
电 晕</w>
热 心</w>
干 涉
7 16</w>
大 豆
长 距离</w>
7 22</w>
ar is</w>
tro l
十 足</w>
B 型</w>
B B
AC .
修 订
底 壁</w>
外 力</w>
不 言
1 120</w>
放 在
坩 埚</w>
普 斯</w>
两 面</w>
一 年级</w>
一个 点</w>
小型 企业</w>
挫 败</w>
乳 胶</w>
高速 铁路</w>
SEQID N0</w>
生物 膜</w>
太 过</w>
积极 探索</w>
失 灵</w>
不 罚</w>
售 货
不足 之处</w>
形 变</w>
疑 虑</w>
干 机</w>
谋 划</w>
电子 信息</w>
总 分</w>
协 力</w>
爱 丽丝</w>
接 送</w>
R ub
莎 拉</w>
4 S
实 事
实事 求是</w>
语 气</w>
受 限于</w>
2 10
瞳 孔</w>
硅 藻
1 200
高 大</w>
网 易</w>
在 座</w>
圣 保罗</w>
纠 结</w>
那 不
Wil li
新鲜 空气</w>
it a</w>
二 个</w>
苏 宁</w>
保护 器</w>
点 对点</w>
大 连
转 债</w>
E EP
耐 火</w>
敏 锐</w>
掉 落</w>
空 腹</w>
我 发</w>
转移 性</w>
第八 届</w>
音乐 节</w>
禁 区</w>
甘 露</w>
3 3.
楼 宇</w>
框 架结构</w>
un t
上 安装</w>
N N</w>
提 成</w>
这 要</w>
祖 细胞</w>
水 泥
解 吸</w>
放射 性
捕 捉到</w>
硅藻 土</w>
凹 入</w>
用户 手册</w>
ri c</w>
p ort</w>
特 色
喝 咖啡</w>
骨 质
联 轴
at es</w>
外 商</w>
公平 竞争</w>
2 6%</w>
ec k</w>
追 随</w>
搞 砸</w>
很 感兴趣</w>
三 菱</w>
书面 形式</w>
暴 露出</w>
你 去</w>
0 10</w>
铁 磁</w>
避 孕</w>
多 一点</w>
毁 坏</w>
梵 蒂
G a</w>
开 立</w>
C trl</w>
紧密 结合</w>
贝 拉</w>
拉 萨</w>
车 窗</w>
F ab</w>
话 语
9 40</w>
ma s</w>
十 一月</w>
创造 条件</w>
3 6.
en ti
W W
4. 9</w>
机 载</w>
19 40</w>
for m</w>
呼 叫
本 机</w>
夫 斯基</w>
反 式</w>
Ecli pse</w>
p e
羽 毛</w>
桂 林</w>
新 月
南 部
一 排</w>
斯 敦</w>
便利 性</w>
地 面
男女 平等</w>
谢 谢您</w>
里 森</w>
海 边</w>
流动 资金</w>
复 查</w>
除 尘</w>
获奖 者</w>
读卡 器</w>
时 为</w>
EC 2</w>
特 意</w>
外国 投资</w>
一 百</w>
下 沉</w>
皮 带轮</w>
樱 桃</w>
傲 慢</w>
初 中
村 子</w>
越 是</w>
非 正规</w>
28 4</w>
撤 退</w>
19 7</w>
国 别</w>
单 曲</w>
技术 规范</w>
交 点</w>
胶 束</w>
趋向 于</w>
军 委</w>
SO D</w>
仿 真
亚 基</w>
关联 性</w>
A ir</w>
杂 草</w>
花园 里</w>
P art
录 音
止 动</w>
联 手</w>
林 斯</w>
名 声</w>
交换 意见</w>
衣 室</w>
明 明</w>
元 前</w>
明 细</w>
宠 物
3 8%</w>
金属 线</w>
al s</w>
国 产
棘 爪</w>
主 存储器</w>
责任 心</w>
积极 开展</w>
0. 3%</w>
推 特</w>
充 裕</w>
跟踪 器</w>
特 价</w>
密封 圈</w>
带 子</w>
异 地</w>
3 8.
吸收 器</w>
大 笑</w>
骨 科</w>
内部 监督</w>
英 格兰
菌 性</w>
该 病</w>
光 辉</w>
肾 小球</w>
IPv 4</w>
漫 步</w>
勇 于</w>
布鲁 斯</w>
充 电站</w>
视 作</w>
CC C</w>
束 器</w>
神经 病</w>
仅 示</w>
已 故</w>
快 餐</w>
推 介</w>
调 色板</w>
装 载
公 务</w>
早 上
基 调</w>
为 空</w>
早上 好</w>
下 用</w>
明 翰</w>
历 来</w>
测 度</w>
置 疑</w>
濒 危</w>
西 蒙</w>
读 过</w>
几 张</w>
复 活
无 限期</w>
美国 国务院</w>
工程 造价</w>
十六 届</w>
6 70</w>
香 肠</w>
笼 子</w>
真是 太</w>
澳 门
融 资
吉 米</w>
精 细化</w>
基 苯</w>
克什 米尔</w>
U 1</w>
指导 思想</w>
呼 唤</w>
江 南</w>
实 况</w>
水 基</w>
法 索</w>
1 104</w>
错误 信息</w>
信息 管理系统</w>
it or</w>
构 筑</w>
日 光</w>
系统 配置</w>
保 留
珠 三角</w>
浇 铸</w>
养 生</w>
学前 教育</w>
国家 联盟</w>
拉 登</w>
成 语</w>
随时 随地</w>
加 拉</w>
p 53</w>
公立 学校</w>
来 宾</w>
史 诗</w>
着 重于</w>
党 政
加 达</w>
异 位</w>
出 身</w>
阿 德
昌 市</w>
五 岁</w>
水 电站</w>
赛 德斯</w>
炸 机</w>
减 振器</w>
& &</w>
存 眷</w>
基因 座</w>
每天 晚上</w>
批 判
中心 点</w>
发 动
发展 壮大</w>
100 mg</w>
单 播</w>
处 方药</w>
借 钱</w>
隐 形
西 藏
充分 认识</w>
财政 年度</w>
d en</w>
g et</w>
end er</w>
资 管</w>
贫 民
获 释</w>
绝 不能</w>
牵 引力</w>
软 弱</w>
操作 数</w>
光 吸收</w>
敌 意</w>
同 行业</w>
拖 累</w>
不 信</w>
职业 培训</w>
卷 筒</w>
生 机</w>
梅 赛德斯</w>
同 种</w>
性 关系</w>
媒体 文件</w>
PD SCH</w>
党 校</w>
盘 中</w>
来 时</w>
3 6%</w>
Wor ks</w>
5 13</w>
闭 幕</w>
奥 克兰</w>
ISO 9001</w>
灰 度
看 一看</w>
时 变</w>
噻 吩</w>
al a</w>
偏 爱</w>
ep h
六 次</w>
放 慢</w>
五 一</w>
透 性</w>
低 噪声</w>
s el
x x
花 纹</w>
木 马</w>
amb da</w>
高峰 期</w>
办 案</w>
舒 张</w>
19 56</w>
一 夜
h e</w>
会 展
V H</w>
U ber</w>
自 主
急 诊
20 23</w>
100 g</w>
刑事 诉讼</w>
甲基 丙烯酸甲酯</w>
哈 哈哈</w>
3 41</w>
遮 盖</w>
罗 拉</w>
赖 斯</w>
N BC</w>
勒 姆</w>
招 聘
Z r
28 6</w>
荷 兰
赌 注</w>
语言 学</w>
保持 沉默</w>
16 b</w>
膨胀 阀</w>
童 工</w>
露 天</w>
n ing</w>
端 板</w>
国际 足联</w>
抗 坏血
西 路</w>
高 尚</w>
脑 海中</w>
耐 力</w>
南部 非洲</w>
疯 子</w>
和平 利用</w>
肠 胃</w>
Fi refox</w>
投资 额</w>
长 于</w>
伯 明翰</w>
铜 合金</w>
公 元前</w>
航空 器</w>
第十 四条</w>
水 杨
最 深</w>
汶 川</w>
印 制</w>
a o</w>
南 市</w>
台湾 当局</w>
文件 类型</w>
盘 点</w>
情 绪
腰 带</w>
文化 部</w>
一分 钱</w>
AP EC</w>
菜单 项</w>
申请 表</w>
修道 院</w>
余 年</w>
Bas ic</w>
里斯 本</w>
马里兰 州</w>
一 想</w>
数据 服务</w>
唯 物
Word Press</w>
F ET
综合 利用</w>
安东 尼奥</w>
光 芒</w>
Pet er</w>
传送 数据</w>
素 体</w>
源 化</w>
共 振
奖 品</w>
十 四</w>
不 前</w>
布 拉</w>
招 致</w>
MC U</w>
量 生产</w>
批 量生产</w>
支持 率</w>
克 莱</w>
无 规</w>
身心 健康</w>
周 缘</w>
铃 声</w>
这 所</w>
卡 扎
坚持 不懈</w>
相似 之处</w>
恭 喜</w>
远 见</w>
13 73</w>
在 子</w>
粘 弹性</w>
四 级</w>
从 严
克 森</w>
10 12</w>
导 热性</w>
友好 关系</w>
资产 重组</w>
雅 加达</w>
随 附</w>
新 一届</w>
附连 到</w>
何 塞</w>
洗 发
Q C</w>
十几 岁</w>
w ifi</w>
异 丙
音频 文件</w>
世界 冠军</w>
军 区</w>
细胞 核</w>
内 华
骑 马</w>
偿 付</w>
建立 联系</w>
J 2
艰 辛</w>
失 利</w>
矿物 油</w>
特 立
完 好</w>
约束 条件</w>
费 尔
土 库
长 春
10 ml</w>
T O</w>
弗 拉
本 院</w>
世 俗</w>
东 盟
艰 苦
立法 机关</w>
符合 要求</w>
分子 生物学</w>
螺 丝
喷 气</w>
学 界</w>
调节 阀</w>
美 化</w>
客 气</w>
相互 依存</w>
泛 滥</w>
付 出
车 内</w>
结晶 性</w>
抗坏血 酸</w>
电子 邮件
互 惠</w>
R NC</w>
P I
职 场</w>
营 销
保持 架</w>
二 期</w>
正 品</w>
害 羞</w>
出 让</w>
一 律</w>
可口 可乐</w>
指 肠</w>
固定 化</w>
搜 救</w>
百 叶
车 臣</w>
十五 届</w>
拉 杆</w>
电 车</w>
切 实际</w>
琥 珀</w>
帕金森 病</w>
信息 产业</w>
质 检</w>
爱荷 华州</w>
接 件</w>
圣彼得 堡</w>
模式 识别</w>
N D</w>
S PS</w>
in c
K g</w>
2 80
as c
孕 产妇</w>
水 平面</w>
说 些</w>
大气 层</w>
数 均</w>
泰晤 士
余 下</w>
畜 牧业</w>
稳定 器</w>
参考 价值</w>
l o</w>
引 言</w>
无 穷
Z ig
档 次</w>
莎 士
十二 指肠</w>
中 队</w>
混合 气</w>
相 接</w>
语 音
表现 出色</w>
莎士 比亚</w>
交 会</w>
贝尔 格
贝尔格 莱德</w>
隔 绝</w>
润滑 脂</w>
氢氧化 钾</w>
奋 斗
维 拉</w>
补偿 器</w>
回 暖</w>
前 药</w>
留 出</w>
裁 剪</w>
绝 经</w>
据 我
据我 所知</w>
抗日 战争</w>
调 试
米 饭</w>
人 参</w>
依法 治国</w>
L oc
oun t</w>
椎 体</w>
b le</w>
7. 5%</w>
积极 主动</w>
海岸 线</w>
百叶 窗</w>
六 年级</w>
画 出</w>
3 2%</w>
相 称</w>
选 购</w>
码 率</w>
S G</w>
桑 德斯</w>
SO AP</w>
入 点</w>
伊拉克 政府</w>
巴 尔</w>
不 成</w>
用 处</w>
看 器</w>
检查 站</w>
常 务</w>
mm Hg</w>
瑕 疵</w>
动力 源</w>
应答 器</w>
中国 电信</w>
资 委</w>
3 80
烧 蚀</w>
A u
半 成品</w>
13 10</w>
昆 士
那不 勒斯</w>
查 看器</w>
对 非</w>
批判 性</w>
主办 方</w>
高 频率</w>
水 解
好 得多</w>
n ey</w>
个 字符</w>
节 课</w>
借 给</w>
珠 粒</w>
J PEG</w>
永 续</w>
教 士</w>
监察 员</w>
灌 装</w>
220 V</w>
因 涉嫌</w>
光 催化</w>
婴 儿
无 级</w>
该 车</w>
隆 起</w>
法 医</w>
二 人</w>
无 罪</w>
原油 价格</w>
更 衣室</w>
印度 人</w>
Mar t
吵 架</w>
不 切实际</w>
13 b</w>
督 导</w>
f alse</w>
油 管</w>
行 预</w>
自 助
长 安</w>
星 巴克</w>
合格 率</w>
食 物
法 郎</w>
画 布</w>
用 手</w>
捐 献</w>
上 衣</w>
社会 工作</w>
CN. 9</w>
3 c</w>
最 短</w>
9. 2</w>
八 届</w>
干燥 剂</w>
丹 尼</w>
60 7</w>
散 装</w>
氰 基</w>
视频 文件</w>
庇 护
当 由</w>
遇 难者</w>
爱国 者</w>
g u
河 道</w>
全 家</w>
管 人</w>
N b</w>
抵 抗力</w>
安 防</w>
子 层</w>
中 信
C .1</w>
更 新
付出 代价</w>
3 7%</w>
M ike</w>
领 空</w>
百 计</w>
爸 妈</w>
曼 城</w>
富 士
太平 洋
卡扎 菲</w>
股份 公司</w>
0.0 1%</w>
f e
Vi ew
更 难</w>
100 mL</w>
带 回家</w>
打 动</w>
世界 纪录</w>
清洁 器</w>
加工 过程</w>
自 营</w>
HV AC</w>
二氧化 硫</w>
生物 化学</w>
牙 周
投票 权</w>
笔 试</w>
人 间</w>
接收 端</w>
可 笑</w>
花 键</w>
终 生</w>
预警 系统</w>
糖 化</w>
抗 拒</w>
后 门</w>
S 8</w>
胶 水</w>
山 姆</w>
压倒 性</w>
从严 治党</w>
普 拉
看 病</w>
满 贯</w>
深 海</w>
病 历</w>
前 馈</w>
幼 虫</w>
天 上</w>
云 中</w>
稀 缺</w>
不 说</w>
灰度 级</w>
双 人</w>
北 欧</w>
贝 宁</w>
ic e
可 压缩</w>
at h</w>
使用 方便</w>
W P
木 制</w>
H E</w>
树 枝</w>
I e</w>
牛 排</w>
复 发率</w>
运动 鞋</w>
滴 滴</w>
掩 饰</w>
统计 数字</w>
温 差</w>
w as</w>
X 4</w>
都 柏林</w>
肌 瘤</w>
AS T</w>
极 低</w>
下一 阶段</w>
管 式</w>
鲁 棒</w>
油 量</w>
阿 巴斯</w>
晚 安</w>
受 阻</w>
再次 发生</w>
严 肃
si on
三 分</w>
年 长</w>
解 冻</w>
菜单 中
菜单中 选择</w>
一 键</w>
数 十</w>
四 肢</w>
un c
剧 场</w>
以 北</w>
下 角</w>
9 2%</w>
如 由</w>
R DS</w>
洛 伊
亚太 经合组织</w>
布 基
正常 人</w>
榜 单</w>
收 购
功能 区</w>
R LC</w>
迁 徙</w>
紧 接着</w>
洞 察
空 军
苏 珊</w>
增 设</w>
一 则</w>
作 曲
地理 信息系统</w>
1 302</w>
象 限</w>
动态 变化</w>
企 鹅</w>
简 约</w>
牧 民</w>
信 任
28 00</w>
烘 干</w>
温度 场</w>
横 幅</w>
产业 政策</w>
中 外
字 样</w>
糖 苷
点 儿</w>
广 度</w>
住 在一起</w>
4 35</w>
威士 忌</w>
for d</w>
隐 私权</w>
夫 兰</w>
下拉 菜单</w>
p c</w>
封闭 式</w>
食 者</w>
国 资委</w>
22 A</w>
轻 轻
烘 干机</w>
均 等</w>
努力 提高</w>
迷 路</w>
2 d</w>
广 东
岗 位
权 主义</w>
首 付</w>
主 动
系统 结构</w>
乙 炔</w>
高 可靠性</w>
一 身</w>
牛 津
警 务</w>
c n
轰 炸机</w>
跳 转</w>
出人 意料</w>
0 3
发 芽</w>
H F
结 婚
第 一项</w>
流 利</w>
洞察 力</w>
自 一人</w>
今年 年初</w>
电 筒</w>
风 湿</w>
亲 近</w>
SY S</w>
另一 半</w>
低 音</w>
酒 店
腺 苷</w>
独 自一人</w>
新 政</w>
寿 险</w>
马拉 维</w>
热 情
应 变
T om
AR P</w>
肿 块</w>
皮 下
性能 指标</w>
19 51</w>
选 型</w>
坚持 下去</w>
W D</w>
映 异构</w>
意大利 语</w>
对 映异构</w>
链 球菌</w>
隔离 墙</w>
2 h</w>
归 根
沉 没</w>
含 碳</w>
万 桶</w>
积分 器</w>
有利 可图</w>
所 见</w>
AT E</w>
奢 华</w>
潜 水
大 陆
组织 化学</w>
时 滞</w>
或 图</w>
成 长
难 怪</w>
连 通性</w>
NH S</w>
几 小时</w>
编 排</w>
全 氟</w>
后 缘</w>
押 金</w>
抵 触</w>
强烈 建议</w>
绳 之以
绳之以 法</w>
还 示</w>
o o</w>
管理 软件</w>
列 于</w>
丽 莎</w>
受 精</w>
10 80</w>
望 值</w>
传 闻</w>
啤 酒
旅 费</w>
私营 企业</w>
判 刑</w>
搅 动</w>
透 析
无法 访问</w>
工 信
sk i</w>
主 人
物理 性能</w>
10 30</w>
脱 氢</w>
R x</w>
党 风
标 语</w>
俄 克拉
人 源化</w>
假 想</w>
纳 法索</w>
管 网</w>
全 党</w>
避 险</w>
铝 箔</w>
摇 头</w>
大 发</w>
布基 纳法索</w>
名 昭
互 补
J S</w>
辛 基</w>
棘 轮</w>
盛 宴</w>
大 都市</w>
原 稿</w>
信 机</w>
外交 大臣</w>
疲 倦</w>
改 写</w>
遗 嘱</w>
数据 网络</w>
巡 回</w>
放 热</w>
食 欲</w>
投 注</w>
金 币</w>
比 利</w>
伽 马</w>
欧 国家</w>
被 选为</w>
第一 行</w>
无 产阶级</w>
试验 机</w>
买 下</w>
钻 井
圣 地</w>
B .
科 比</w>
政治 上</w>
在 政治上</w>
4S 店</w>
杀 人
张 开</w>
经济 合作
倍 体</w>
石 英
长 假</w>
支 原体</w>
中华 文化</w>
炉 子</w>
六 边形</w>
中 年</w>
计算机 软件</w>
冲 刺</w>
说 真的</w>
贝 利</w>
滑 行</w>
造 粒</w>
康 复
寄 给</w>
南 瓜</w>
有 幸</w>
收 录</w>
可 仅</w>
加工 性</w>
万 余
探 员</w>
大 通</w>
K ey</w>
4 c</w>
罗 夫</w>
Whats App</w>
外 勤</w>
R i
杂 质
24 a</w>
期 望值</w>
小 城镇</w>
h s</w>
标准 差</w>
常 年</w>
厌 氧</w>
RO I</w>
周 到</w>
6 24</w>
二 等奖</w>
IF I</w>
姚 明</w>
联 接器</w>
环境 友好</w>
胃 炎</w>
稳 步
人 格
淤 浆</w>
随身 携带</w>
d ata</w>
J os
E O
公 会</w>
y m</w>
杂 货
DR M</w>
汗 水</w>
3 46</w>
心肌 细胞</w>
无机 酸</w>
头 顶</w>
in f
土 著
盛 行</w>
十 几个</w>
青岛 市</w>
喝 醉</w>
2 600</w>
了 个</w>
四 季</w>
抽 查</w>
帮 派</w>
南 美洲</w>
匆 忙</w>
每 吨</w>
B M</w>
创造 者</w>
9. 1</w>
头 疼</w>
世 代</w>
军事 力量</w>
心 思</w>
旺 季</w>
下 称</w>
出资 额</w>
v a</w>
无 风险</w>
蒸馏 塔</w>
G i
R 8</w>
下 单</w>
12 20</w>
诚 地</w>
细 心</w>
足球 比赛</w>
线 路
g e
8 C</w>
it i
新 华</w>
艾哈 迈
起 搏</w>
智 商</w>
切 入点</w>
难 于</w>
中所 含</w>
0. 10</w>
软件 系统</w>
债 市</w>
方 可</w>
四 人</w>
t 3</w>
尖 瓣</w>
0. 35</w>
4 2%</w>
应用 层</w>
金融 公司</w>
六 大</w>
至 此</w>
头 条</w>
事 件
b 2</w>
远 景</w>
北 极
快捷 方式</w>
邪 教</w>
偏振 片</w>
廉 洁</w>
冠军 联赛</w>
导 丝</w>
一 月份</w>
氧化 铁</w>
两 支</w>
信 通</w>
采购 商</w>
保障 性</w>
调 和</w>
之 心</w>
管 家</w>
g s</w>
里 根</w>
出 入境</w>
小 车</w>
Con trol</w>
乔 丹</w>
19 59</w>
灭 活</w>
复活 节</w>
缝 合线</w>
农村 妇女</w>
Power Point</w>
Doc um
固 然</w>
高 山</w>
不 肯</w>
瓦 纳</w>
封 电子邮件</w>
亲 节</w>
G D
消毒 剂</w>
艺 人</w>
视 网</w>
CR T</w>
海洋 环境</w>
通 勤</w>
实 实</w>
仅 当</w>
W C</w>
内 心
中国人民 大学</w>
含 硫</w>
热烈 欢迎</w>
吸 热</w>
金属 丝</w>
移 居</w>
致 力</w>
双 侧</w>
救 生
6 mm</w>
严 禁</w>
遵 照</w>
签 订
服务 供应商</w>
他 来</w>
时 向</w>
NaH CO3</w>
速 度
可 否</w>
打 入</w>
100 8</w>
演 绎</w>
泌 尿
民 生
场 外</w>
梵蒂 冈</w>
这 些年来</w>
or a</w>
层 楼</w>
粉 体</w>
意 外
抗 压
营业 税</w>
断 裂
L y
G er
演 说</w>
位 列</w>
第十 一届</w>
作曲 家</w>
用户 组</w>
炸 毁</w>
沙 市</w>
制 图</w>
著作 权</w>
臭 名昭
结构 式</w>
等 价
道 具</w>
元 法</w>
硝 化</w>
马 士
栅 栏</w>
时 捷</w>
体 腔</w>
环 球
奴 役</w>
节 能
三 重</w>
联 席会议</w>
族 自治
at t
第 五个</w>
供 电
三 年级</w>
开 户</w>
总统 大选</w>
pd f</w>
f i</w>
浇 注</w>
油 压</w>
第三 名</w>
改 建</w>
C SC
隐形 眼镜</w>
分 值</w>
意 向
性 生活</w>
阴 极
路易斯 安
东 耶路撒冷</w>
M i</w>
平均 数</w>
倒 退</w>
多 变</w>
倒 下</w>
情 怀</w>
保 时捷</w>
走 高</w>
压 接</w>
断 开
断开 连接</w>
领 带</w>
病 患者</w>
数百 万美元</w>
视觉 效果</w>
外 罩</w>
SE T</w>
发 电量</w>
UN IX</w>
蒂 姆</w>
醋 酸
生物 学家</w>
完全 符合</w>
G ol
异 丁烯</w>
双 轴</w>
广告 商</w>
Con fig
接 待
不知 不觉</w>
拼 命</w>
15 B</w>
第六 章</w>
数 百</w>
比 喻</w>
拐 点</w>
报 刊</w>
亿万 富翁</w>
W ar
溶 质</w>
毫不 犹豫</w>
人 寿
空气 压缩机</w>
人寿 保险</w>
产品 规格</w>
红 光</w>
阻 抗
全 人类</w>
批 复</w>
高度 评价</w>
M ap
Lin k
田 径</w>
浦 东
塞 子</w>
合 乎</w>
量 身</w>
下 台</w>
On line</w>
缘 由</w>
最 远</w>
一 试</w>
巴 巴
卡 住</w>
LD PE</w>
W T</w>
PP O</w>
洞 察</w>
传 真
巴 里</w>
R y
A ES</w>
省 会</w>
沃尔 夫</w>
故 事
共 模</w>
滚 动轴承</w>
成 使</w>
限 流</w>
20 ml</w>
球 状</w>
检查 员</w>
马尔 代
文本 文件</w>
滑 雪
幻 觉</w>
另一 组</w>
y w
经济 上</w>
摩 纳
在 经济上</w>
大 额</w>
欢迎 您</w>
系统 分析</w>
N IC</w>
根 深
发言 权</w>
学习 型</w>
访问 期间</w>
给 付</w>
庇护 所</w>
抓 手</w>
打 磨</w>
当 以</w>
人权 宣言</w>
组 份</w>
大学 毕业</w>
于 助人</w>
乐 于助人</w>
秘 诀</w>
Ch rist
3 5.
金 率</w>
民 办
上 周末</w>
日益 严重</w>
铁 素体</w>
不 懂</w>
优 势
人 均
不 均</w>
L 4</w>
三 岁</w>
非 传统</w>
韦 尔</w>
F u
蒸 汽
算 出</w>
拼 搏</w>
高 能量</w>
n o</w>
轻 便</w>
单 向阀</w>
单 体
任 用</w>
澳大利亚 人</w>
脊 椎
工业 区</w>
送 交</w>
空 转</w>
症 结</w>
F a
宝 藏</w>
停 产</w>
B en
两 块</w>
严重 破坏</w>
膀胱 癌</w>
格 子</w>
积 液</w>
财 税</w>
移动 式</w>
亲 本</w>
AR C</w>
磁 控
王 室</w>
马 达
T e</w>
球 场上</w>
洛 尔</w>
结 肠炎</w>
收 费
IG F</w>
边 境
安全 阀</w>
短 于</w>
青 霉素</w>
图 文</w>
溶剂 化物</w>
手 掌</w>
陡 峭</w>
咀 嚼</w>
减 低</w>
提 述</w>
求职 者</w>
G I</w>
国 界</w>
s m
0. 45</w>
首 选项</w>
德 曼</w>
减 法</w>
揭 开</w>
多 头</w>
信 函</w>
面 体</w>
一 個</w>
挥 舞</w>
继续 加强</w>
阻抗 匹配</w>
城市 群</w>
矿 区</w>
磁 盘驱动器</w>
回 火</w>
b i
吸 纳</w>
份 子</w>
L ee</w>
第一 张</w>
门 前</w>
李 先生</w>
大 满贯</w>
4 3%</w>
褶 皱</w>
靶 细胞</w>
变化 规律</w>
切 碎</w>
化 验</w>
糖 类</w>
HT TPS</w>
中 线</w>
克 劳</w>
表 面上</w>
新 近</w>
实 时性</w>
在 表面上</w>
ig h</w>
改革 方案</w>
苦 苦</w>
D CT</w>
B ack
细 丝</w>
乳 液聚合</w>
让 你
桌 面上</w>
分 阶段</w>
伤 者</w>
K er
哈尔 滨
颤 动</w>
四 分</w>
收发 信机</w>
单体 单元</w>
还 价</w>
残 骸</w>
保 质
N SC
狗 狗</w>
R 0
百 货
法 外</w>
松 症</w>
象征 性</w>
自 卫</w>
大 衣</w>
辞 去</w>
储 液</w>
骨质 疏
骨质疏 松症</w>
单 胞
工 委</w>
国 力</w>
内 毒素</w>
保 温
中 使</w>
玛丽 亚</w>
擅 自</w>
一 时间</w>
输 卵
拿 来</w>
G 4</w>
液 流</w>
描述 性</w>
新 世界</w>
多 斯</w>
香 气</w>
参谋 长</w>
le n</w>
颤 抖</w>
盟 运动</w>
爆炸 性</w>
天 候</w>
不结 盟运动</w>
G L
核 桃</w>
f il
导 流</w>
从 主</w>
永 久
冠状 病毒</w>
鼻 炎</w>
二手 房</w>
房 贷</w>
郑 州市</w>
欧 安
盲 人</w>
出 卖</w>
爆 震</w>
HT C</w>
第九 条</w>
t ics</w>
敌对 行动</w>
其 一</w>
所 罗
马达 加
10 nm</w>
局 部
单胞 菌</w>
标 牌</w>
力 图</w>
蒂 固</w>
议会 选举</w>
i ence</w>
侧 重</w>
牙 膏</w>
我 怕</w>
迎 合</w>
讲 故事</w>
偷 偷</w>
顾 及</w>
联 刚</w>
中 频</w>
重大 贡献</w>
格 拉</w>
履 带</w>
方 人</w>
根深 蒂固</w>
乌鲁木 齐</w>
在 技术上</w>
党风 廉政</w>
开 具</w>
巴尔 的
分 束器</w>
巴 拉圭</w>
德 利</w>
准备 金率</w>
人 要</w>
ph a</w>
端 处</w>
活 体</w>
背 上</w>
面 子</w>
尼日 尔</w>
保护 法</w>
两 位数</w>
驻 扎</w>
珊 瑚
联 用</w>
s a
定 义
威斯康 星
节 距</w>
大 风</w>
100 A</w>
突 显</w>
u al
粉 煤灰</w>
移动 用户</w>
图 样</w>
助 攻</w>
专 线</w>
共 生</w>
这 艘</w>
一 席
一 棵</w>
质 化</w>
订 货</w>
标 书</w>
an ge</w>
芭 蕾
解释 一下</w>
有 氧</w>
纳米 材料</w>
内 管</w>
纤维 网</w>
4 50
跳 闸</w>
控股 公司</w>
m et
无 序</w>
引 资</w>
两 到</w>
消 极
法 等</w>
工程 质量</w>
喇 嘛</w>
大 洲</w>
脚 趾</w>
急 剧
急剧 下降</w>
学 龄
过 往</w>
触 敏</w>
千 人</w>
离子 源</w>
再也 不会</w>
制作 方法</w>
伯 克</w>
克 利</w>
70 7</w>
模数 转换器</w>
外 墙</w>
各向 同性</w>
酗 酒</w>
人 称</w>
破 碎机</w>
平 息</w>
共振 频率</w>
调查 表</w>
价 键</w>
红 线</w>
T RA
Cli ent</w>
侵 权
浮 选</w>
氟 化
AS H</w>
吸 管</w>
si g</w>
青海 省</w>
话语 权</w>
游 击队</w>
掩 埋</w>
头 晕</w>
入 围</w>
上 尉</w>
躲 避</w>
圣 战</w>
井 筒</w>
H 4</w>
管理 费用</w>
加 热
动 向</w>
遗 迹</w>
套 环</w>
摇 滚
eg r
日 到</w>
钓鱼 岛</w>
网 吧</w>
药 代</w>
画 画</w>
中国 外交部</w>
K o
神经 功能</w>
块 状</w>
培训 中心</w>
感染 率</w>
推进 剂</w>
审 评</w>
九 届</w>
S VM</w>
该 局</w>
看 涨</w>
服 药</w>
正 压</w>
实际 意义</w>
c ep
马尔代 夫</w>
跨 越
循 证</w>
抱 负</w>
实 事</w>
多 组</w>
0.00 5</w>
h er</w>
C. 2</w>
b s</w>
螺旋 形</w>
配 比</w>
初 衷</w>
生殖 器</w>
王 星</w>
热 空气</w>
探 险</w>
经济 委员会</w>
警 报
收 视
喝 水</w>
疱 疹</w>
消息 传递</w>
S ar
江 市</w>
预 备
现 时</w>
布 利</w>
鲸 鱼</w>
发 声</w>
裁 判
竖 向</w>
开 着</w>
一个 多月</w>
预算 外</w>
船 体</w>
找 回</w>
索 取</w>
推进 器</w>
不断 创新</w>
自 决</w>
澳 元</w>
续 航</w>
三 通</w>
每 名</w>
D e</w>
3 200</w>
ur a</w>
问 题
万 年</w>
接受 者</w>
抓 住
记忆 力</w>
B N</w>
胆 汁</w>
lig ht</w>
Conn ect</w>
设备 齐全</w>
马达加 斯加</w>
d ev
过 失</w>
描 绘
该 书</w>
镇 静</w>
多 聚</w>
3 2.
菱 形</w>
申 明</w>
文献 资料</w>
坠 落</w>
但 应</w>
安全 检查</w>
钢 丝
望 未来</w>
展 望未来</w>
信息 量</w>
通 关</w>
怀 念</w>
en se</w>
和 子</w>
格 拉斯
双 重
代 号</w>
29 9</w>
Te am</w>
移 开</w>
收 看</w>
成 就
居 留</w>
A Z
隔离 器</w>
狼 疮</w>
美国 联邦</w>
密 西西
社 论</w>
主 编</w>
ot e</w>
支 腿</w>
话 筒</w>
局 局长</w>
环境 卫生</w>
王 先生</w>
高层 建筑</w>
审 阅</w>
十 分之一</w>
A SC
办 好</w>
哈 马</w>
蝙 蝠</w>
药 筒</w>
产品 类别</w>
n ull</w>
承载 能力</w>
内 源</w>
华 夏</w>
拼 图</w>
丹 佛</w>
三 峡
东 海</w>
申请 者</w>
普 敦</w>
普 利</w>
南 路</w>
实现 目标</w>
钙 化</w>
勋 章</w>
营 救</w>
过 错</w>
入 到</w>
3 19</w>
手 电筒</w>
家 门口</w>
从 源</w>
滑 板</w>
形 体</w>
生 猪</w>
沿 其</w>
弹性 元件</w>
料 斗</w>
沙 坦</w>
默认 设置</w>
印第安 纳州</w>
1 12
编码 方案</w>
教 区</w>
明 市</w>
上 移</w>
N d</w>
双 相</w>
T ra
0. 9
性 爱</w>
SN P</w>
耶稣 基督</w>
科学 性</w>
R ec
走 动</w>
匹 兹
人均 收入</w>
麻 省
理论 体系</w>
千 兆</w>
维 持
字 形</w>
喷 枪</w>
置 入</w>
储 物
28 1</w>
伦 萨</w>
核 酸酶</w>
7 11</w>
文件 大小</w>
恳 求</w>
挥 发
高 岭
网 购</w>
混 入</w>
市场 主体</w>
i f</w>
提 条件</w>
惠 民</w>
C. 3</w>
国防 军</w>
7 15</w>
过 快</w>
考 评</w>
一 时期</w>
池 中</w>
合 酶</w>
输卵 管</w>
螺 杆菌</w>
多 酚</w>
m s
O 4</w>
一夜 之间</w>
实施 细则</w>
S ATA</w>
血 糖
建设 银行</w>
两 轮</w>
折 算</w>
10. 1</w>
上 赛季</w>
狐 狸</w>
8. 8</w>
大 奖
脉 管</w>
谦 虚</w>
投影 机</w>
C MC</w>
每 场</w>
Un iver
于 本</w>
自 带</w>
专 卖
炫 耀</w>
皮 炎</w>
哌 啶</w>
联合国 总部</w>
不 堪</w>
紧密 联系</w>
狂 欢</w>
工信 部</w>
点 上</w>
北 非</w>
9. 0</w>
腹 板</w>
选 址</w>
ap h
M e</w>
C 8</w>
重点 项目</w>
半 乳糖</w>
居 中</w>
高 估</w>
报 社</w>
原 产地</w>
联轴 器</w>
5 ml</w>
超 低</w>
克里 斯
火 爆</w>
比 索</w>
19 47</w>
纪检 监察</w>
6 32</w>
书面 通知</w>
非洲 人</w>
短 裤</w>
评论 员</w>
明显 增加</w>
四 位</w>
运 维</w>
T al
奥 利
待 处理</w>
晶 态</w>
万 户</w>
serv er</w>
可 读</w>
新 规</w>
戴 上</w>
当 有</w>
中 关
英 联邦</w>
外汇 交易</w>
犯罪 活动</w>
支 柱
H. 264</w>
拖 曳</w>
行动 者</w>
第三 阶段</w>
海 里</w>
差 示</w>
德 州</w>
改 制</w>
康 涅
全 天候</w>
烹 调</w>
内 蒙古
我 错</w>
失 禁</w>
诺 言</w>
天 鹅</w>
塔 架</w>
布 里</w>
收 盘价</w>
互补 性</w>
e p</w>
集 电体</w>
ou g
管理 机制</w>
深 水</w>
失败 者</w>
脚 踝</w>
H u
抗 静电</w>
吸 水性</w>
收视 率</w>
AC C</w>
消 声器</w>
活 门</w>
乘 数</w>
眼 下</w>
违 纪</w>
自动 检测</w>
康涅 狄
j i</w>
安全 事故</w>
费 力</w>
有 素</w>
网络 攻击</w>
扇 门</w>
首 家</w>
1 204</w>
烟 花</w>
Bro w
烟 囱</w>
骨 盆</w>
挣 钱</w>
A E
而 图</w>
里 昂</w>
板 式</w>
原 样</w>
大 中型</w>
绪 论</w>
女 装</w>
组 化</w>
悬 而
突 击</w>
木 板</w>
0.0 4</w>
异 戊二烯</w>
热 力</w>
悬而 未决</w>
不 等式</w>
佛罗 伦萨</w>
批评 家</w>
g o
电 导体</w>
发送 者</w>
传 球</w>
射 门</w>
H V</w>
讲 话
甲 醚</w>
工作 面</w>
敞 口</w>
碳 源</w>
推 文</w>
脆 性</w>
S ARS</w>
紧迫 性</w>
奇 怪
人民 共和
链 中</w>
ou s</w>
40 00
Po st
主机 名</w>
公 募</w>
不断 加强</w>
电 烧</w>
绒 毛</w>
族 自治区</w>
冷 漠</w>
鲜 艳</w>
印 章</w>
李 鹏</w>
CA T</w>
传动 比</w>
一年 一度</w>
分 包商</w>
口 市</w>
倒 置</w>
架 上</w>
4 44</w>
大气 压力</w>
高 炉</w>
脓 毒症</w>
心 爱</w>
5 1%</w>
前 提条件</w>
工 匠</w>
Pla y
e k
长 链</w>
重大 意义</w>
con fig</w>
水 浴</w>
我 见</w>
服务器 之间</w>
复印 机</w>
税务 局</w>
献 血</w>
氯化 铵</w>
早 产儿</w>
多 台</w>
冷却 空气</w>
超 前</w>
g o</w>
肥胖 症</w>
打 折</w>
M ul
黄 素</w>
他 家</w>
之 多</w>
C op
分 叉</w>
19 57</w>
布鲁 克</w>
红 酒</w>
积 压</w>
威 慑</w>
五 届</w>
C d</w>
管 内</w>
居 高
19 54</w>
区 位</w>
出 对</w>
发 育
蒙 皮</w>
职 工
风 筝</w>
赶 快</w>
科 恩</w>
普 及
大奖 赛</w>
估 量</w>
格拉斯 哥</w>
上 场</w>
经 典
组 间</w>
ch er</w>
德 班</w>
博士 生</w>
接 字</w>
下 会</w>
游 乐
民 党</w>
B re
欧洲 议会</w>
S ou
断 器</w>
摆 放</w>
三 线</w>
脑 膜炎</w>
训练 有素</w>
弹 头</w>
R V
耗 材</w>
寿 命
串 口</w>
匹兹 堡</w>
闸 门</w>
法律 文书</w>
招 收</w>
转 发给</w>
之 战</w>
实 训</w>
本 年度</w>
扑 克</w>
一大 堆</w>
白 菜</w>
27 8</w>
肯 塔
中 约</w>
O l
穷 国</w>
加 盖</w>
福 布斯</w>
冈 州</w>
以下 几点</w>
法 线</w>
阻燃 性</w>
星 际</w>
伪 装</w>
2 39</w>
政 法
紧急 状态</w>
解 离</w>
反 感</w>
卫生 部门</w>
旗 舰
获 知</w>
尊重 人权</w>
G 3</w>
企 事业</w>
审查 会议</w>
精确 性</w>
特征 分析</w>
图像 识别</w>
有所 提高</w>
Comm un
脑 组织</w>
目 视</w>
不及 待</w>
100 mm</w>
神 父</w>
H Z</w>
军 舰</w>
驱逐 出境</w>
1 M</w>
节省 时间</w>
立足 于</w>
7 80</w>
数据 资料</w>
朝 阳区</w>
耶 夫</w>
义 词</w>
F E</w>
G H</w>
0 6
金属 片</w>
物理 地址</w>
流 化</w>
沙 发
公 元</w>
搅拌 机</w>
榜 首</w>
云 母</w>
容 错</w>
外 籍</w>
圣 灵</w>
剪 贴
热 轧</w>
实 处</w>
轮 驱动</w>
基 文</w>
网络 应用</w>
人 去</w>
限 位</w>
弓 形</w>
il ity</w>
迫 不及待</w>
海洋 生物</w>
凹 坑</w>
3 64</w>
顿 饭</w>
Tech n
真 诚地</w>
瑞 安</w>
业务 量</w>
带 你去</w>
mol %</w>
马其 顿</w>
22 b</w>
吃 晚饭</w>
共 价键</w>
3 72</w>
养 活</w>
面 膜</w>
多 线程</w>
殖民 化</w>
居 家</w>
线性 关系</w>
关 上</w>
室 友</w>
专业 性</w>
不容 忽视</w>
改 变
屋 里</w>
广 州
应用 型</w>
工商 管理</w>
R SSI</w>
G LP</w>
运 往</w>
俄勒 冈州</w>
S l</w>
这 太</w>
40 a</w>
非 裔</w>
管 脚</w>
当 对</w>
海 伦</w>
生理 盐水</w>
大 赦</w>
艺术 节</w>
复 古</w>
哪 些
端 到</w>
流 派</w>
显 像</w>
命 中
玛 格
布雷 顿</w>
乳 清</w>
赘 述</w>
变 异性</w>
素 食</w>
古 城</w>
常任 理事</w>
巴 厘
多 用途</w>
ro p
田 野</w>
预 售</w>
时间 常数</w>
或 水</w>
相 乘</w>
继承 人</w>
居民 消费</w>
千 计</w>
实 地
五 年级</w>
裁 谈会</w>
但 会</w>
f ac
交 战</w>
D a
竞技 场</w>
相 通</w>
知 觉</w>
人权 法</w>
B r</w>
惩 治</w>
功率 密度</w>
世界 遗产</w>
社区 卫生</w>
多 发</w>
潘 基文</w>
对 口</w>
皮肤 病</w>
贡献 率</w>
纠 缠</w>
奏 效</w>
采样 率</w>
继 任
29 3</w>
布 达
端 壁</w>
物 以</w>
过 电压</w>
源 文件</w>
浦 东</w>
4 8%</w>
身 穿</w>
偏 高</w>
电路 设计</w>
S et</w>
维 网</w>
双 眼</w>
之 大</w>
安 宁</w>
抗压 强度</w>
即 用</w>
车 床</w>
衷 心</w>
静 置</w>
烟 台</w>
委员 长</w>
整 机</w>
it e
显示 信息</w>
翘 曲</w>
插 塞</w>
巴厘 岛</w>
理 事长</w>
督 察</w>
多 数
折 衷</w>
安全 法</w>
分 会</w>
几 句</w>
库尔 德
氢 化物</w>
竞 价</w>
sh ell</w>
中 秋
j ect
臭 氧
群众 路线</w>
内 卢</w>
改 成</w>
受 雇</w>
保健 品</w>
9. 3</w>
热 内卢</w>
打 通</w>
美元 汇率</w>
养 育</w>
第二 批</w>
研究 会</w>
存储 模块</w>
p g</w>
人 与
v id
长 的</w>
9 8.
损 失
足 球队</w>
中 学
淋 浴
他 們</w>
相 爱</w>
而 上</w>
包 中</w>
eNode B</w>
万 维网</w>
降 雨量</w>
里约 热内卢</w>
光 电子</w>
专家 系统</w>
苏丹 政府</w>
邮政 编码</w>
隔 热
紧紧 围绕</w>
基本 功能</w>
陀 螺</w>
货物 运输</w>
双人 床</w>
私 家
R TP</w>
鼓 掌</w>
内 脏</w>
3 2a</w>
折 叠
100 3</w>
ma in</w>
全 能</w>
消 散</w>
保 龄
偏 远地区</w>
装载 机</w>
引 向</w>
亚 运会</w>
亚历 克斯</w>
分 包</w>
W L</w>
摩纳 哥</w>
单 点</w>
筛 网</w>
好 几
加 扰</w>
al d</w>
赛 后</w>
偏 头痛</w>
AP C</w>
2 x</w>
呼吸 机</w>
Ge or
总 长度</w>
配 管</w>
着色 器</w>
技术 改造</w>
埃 里克</w>
诚 挚</w>
综合 治理</w>
码 本</w>
顽 固</w>
附 着力</w>
羞 辱</w>
Mod el</w>
Rev .1</w>
胰 岛</w>
低 效</w>
炮 弹</w>
邀 请
多 钱</w>
4 36</w>
审计 师</w>
巡 逻
教学 内容</w>
摄影 机</w>
帕特 里克</w>
珠 子</w>
导 入到</w>
p or
形 环</w>
华 南</w>
亚 砜</w>
n y</w>
恋 者</w>
业 已</w>
去 除率</w>
保险 金</w>
w indows</w>
发表 意见</w>
曼 斯坦</w>
土库 曼斯坦</w>
S ig
中国 社会科学院</w>
静脉 注射</w>
之 力</w>
j a</w>
巴尔的 摩</w>
电子 政务</w>
混合 型</w>
非 常规</w>
识别 方法</w>
蒙 特</w>
操作 温度</w>
3 4.
皇 冠</w>
生长 激素</w>
产品 组合</w>
屋 子</w>
s en</w>
切 线</w>
数字 电视</w>
挑 剔</w>
Intern ational</w>
10 80
间歇 性</w>
检出 率</w>
烈 士</w>
以 太</w>
高 空</w>
受 不了</w>
中小 学生</w>
T LS</w>
背 侧</w>
级 分</w>
距离 处</w>
兰 氏</w>
七 天</w>
联 苯</w>
急 性
重要 环节</w>
输送 带</w>
中继 站</w>
年 化</w>
最新 消息</w>
不可 逆转</w>
韦 斯</w>
艺术 作品</w>
攻 略</w>
尘 埃</w>
举 行
本 性</w>
初始 状态</w>
T ri
辛 勤
蓄 积</w>
回 想</w>
模 型
悲 痛</w>
国际 收支</w>
真 核</w>
过渡 期</w>
变 窄</w>
滑 架</w>
象 棋</w>
GN SS</w>
写 信
4 4%</w>
数以 千计</w>
别 处</w>
逃 生</w>
联 锁</w>
没 想</w>
广播 节目</w>
主 体
木 星</w>
诽 谤</w>
高等 院校</w>
曾 多次</w>
四 季度</w>
先 验</w>
9 4
C 02</w>
PC S</w>
And re
外 人</w>
移 走</w>
冬 奥会</w>
斯坦福 大学</w>
阿 片
G MP</w>
t 1</w>
自 学</w>
气 性</w>
亲 眼
风 貌</w>
年龄 组</w>
3 1.
短 板</w>
工作 文件</w>
塞 人</w>
回 馈</w>
四 倍</w>
西 斯
降 临</w>
获取 信息</w>
K OH</w>
求 得</w>
鲁 特</w>
每 张</w>
地质 灾害</w>
处理 剂</w>
数十 名</w>
掠 夺</w>
最 先</w>
生 境</w>
精 益</w>
滤 饼</w>
刮 刀</w>
真实 世界</w>
7 18</w>
夯 实</w>
再 融资</w>
轻轻 地</w>
萌 发</w>
生活 费</w>
旅游 景点</w>
职业 病</w>
旦 大学</w>
复 旦大学</w>
Q AM</w>
蓝 天</w>
央 企</w>
人工 神经网络</w>
混 溶</w>
异 质性</w>
UT RAN</w>
补助 金</w>
成功 经验</w>
口 音</w>
值 中</w>
一 秒</w>
状 况
怀 着</w>
角 部</w>
革 兰氏</w>
E qu
银河 系</w>
缝 线</w>
客 运
奇怪 的是</w>
购物 者</w>
肉 眼</w>
100 nm</w>
黄 斑</w>
无 意识</w>
and roid</w>
靶 点</w>
5. 00</w>
为 数
户外 活动</w>
一席 之地</w>
B i</w>
es k</w>
200 nm</w>
AD A</w>
核 可</w>
s ys</w>
这 幅</w>
教 版</w>
搞 清楚</w>
法拉 利</w>
片 刻</w>
学生 会</w>
硅 油</w>
纳米 级</w>
斯 诺</w>
接 轨</w>
褪 色</w>
教育 资源</w>
腰 椎间盘</w>
垃圾 桶</w>
出 货量</w>
人民 银行</w>
拉 尔</w>
弗 里
小 岛</w>
V 3</w>
以 致
可 抑制</w>
定居 者</w>
大 夫</w>
双 折射</w>
f re
俯 仰</w>
30 mm</w>
一 丝</w>
穴 位</w>
并 称</w>
GN D</w>
新 几内亚</w>
夜 里</w>
易 燃</w>
何 况</w>
工作 频率</w>
孔 板</w>
Q 3</w>
等效 电路</w>
大 型
多 模</w>
技术 开发区</w>
V ol
司法 部长</w>
胆 管</w>
8 16</w>
和 源</w>
填 报</w>
肛 门</w>
助 学</w>
6 2
废 话</w>
基本 特征</w>
刑事 案件</w>
丙 型肝炎</w>
分 心</w>
企业 级</w>
新 来</w>
止 损</w>
城市 居民</w>
G lob
迷 信</w>
le v
指 称</w>
化学 性质</w>
老 爸</w>
不能 不</w>
sk y</w>
下 级</w>
开发 工具</w>
出 局</w>
29 %</w>
S MA</w>
非 盟</w>
外 贸
印 记</w>
电路 系统</w>
性别 歧视</w>
LD PC</w>
一 阶</w>
方 位角</w>
打 进</w>
青 色</w>
边界 条件</w>
检 验
玛格 丽
同性 恋者</w>
代 尔</w>
财 物</w>
可 向</w>
封 盖</w>
两 件事</w>
三 到</w>
块 体</w>
AP U</w>
E PC</w>
西 海岸</w>
无 声</w>
反 垄断</w>
签 下</w>
回忆 起</w>
走 低</w>
出 入</w>
甘 蔗</w>
征 程</w>
公 爵</w>
逐 一</w>
直 线
几 十个</w>
Had oop</w>
师 资</w>
王 朝</w>
连 杆
地 平线</w>
A Y
多 天</w>
W IFI</w>
表 扬</w>
聚 类
戈 登</w>
f er
禁 忌</w>
及 早</w>
一个 半</w>
第一 次世界大战</w>
E 3</w>
否 决权</w>
首 府</w>
卷 烟</w>
ro b
开 阔</w>
小组 赛</w>
会 因</w>
肺 泡</w>
委 托
互 感器</w>
亚 麻</w>
频 分</w>
念 头</w>
提出 申请</w>
5 28</w>
X Y</w>
12 50</w>
送 来</w>
超 薄</w>
牙 龈</w>
29 5</w>
级 党委</w>
各 级党委</w>
L PS</w>
丝 杠</w>
t A</w>
树 叶</w>
离心 力</w>
审 判
听 证</w>
金 星</w>
Joh n
经贸 关系</w>
立 面</w>
N B
十 八
风 口</w>
华 纳</w>
测 系统</w>
反 腐</w>
一 环</w>
近 似
吉 隆
配 景</w>
法 中</w>
博 茨
室内 空气</w>
参赛 者</w>
世界 人权宣言</w>
管理 费</w>
天然 橡胶</w>
连接 结构</w>
结 点</w>
创 作者</w>
W A</w>
吊 销</w>
卡 扣</w>
钟 表</w>
起 居室</w>
DO M</w>
皮 特</w>
现实 主义</w>
技术 指标</w>
19 46</w>
环境 保护
长 效</w>
杀 伤性</w>
24 7</w>
唤 起</w>
AL D</w>
其 能</w>
压 抑</w>
SS ID</w>
击 球</w>
返 回
肾 炎</w>
保险 柜</w>
Upd ate</w>
亚太 经
战 时</w>
ad d
饥 荒</w>
大 屏幕</w>
近 两年</w>
等价 物</w>
P s</w>
C ur
伊 斯</w>
房 主</w>
势 图</w>
光 大</w>
M FP
记 卡</w>
饰 演</w>
桁 架</w>
骆 驼</w>
旋转 式</w>
体育 赛事</w>
半 夜</w>
篮 球
J on
0.0 5%</w>
连接 性</w>
脂肪 肝</w>
水杨 酸</w>
聚类 分析</w>
核心 网</w>
大 为</w>
察 觉</w>
元 组</w>
住 户</w>
地 平</w>
候选 者</w>
F v</w>
软件 产品</w>
里 人</w>
墙 体</w>
两 部</w>
田纳 西州</w>
S b</w>
写信 给</w>
皇 室</w>
分析 模型</w>
联 塞</w>
唐 山</w>
下 半场</w>
特 里
派 别</w>
J B</w>
精神 状态</w>
宣 读</w>
饮食 习惯</w>
传统 产业</w>
氧 原子</w>
减 产</w>
问 世</w>
压 入</w>
AP S</w>
珊瑚 礁</w>
轮 流</w>
吉隆 坡</w>
女 巫</w>
絮 凝</w>
火 力</w>
病 害</w>
支气管 炎</w>
总 裁
决策 树</w>
税 局</w>
特立 尼
边 上</w>
笑 了
高 三</w>
相 撞</w>
气象 局</w>
缔 合</w>
贫民 窟</w>
无 误</w>
懒 惰</w>
D 4</w>
C BS</w>
雇 佣
基 底层</w>
不 雅
声 望</w>
见 度</w>
议 书</w>
la s</w>
9 3%</w>
子 句</w>
多 为</w>
俯 视</w>
搞 笑</w>
隶 属</w>
瓦 特</w>
社 科院</w>
内 斯</w>
吲 哚</w>
常 会</w>
加 强
交互 作用</w>
巴 马州</w>
兴 建</w>
龙 虾</w>
年 薪</w>
功 课</w>
PP I</w>
电 导</w>
时间 差</w>
t ra
聚 乳酸</w>
加拿 大人</w>
资 银行</w>
心动 图</w>
安全 部</w>
光 斑</w>
不 景气</w>
F O</w>
交 接</w>
干 活</w>
根 基</w>
样 条</w>
月 饼</w>
伦 敦
幕 墙</w>
去 往</w>
交 代</w>
V GA</w>
Str ing</w>
侵权 行为</w>
口 译</w>
企 稳</w>
LU N</w>
鳞 状</w>
能 见度</w>
胆 红素</w>
程序 包</w>
有 不同</w>
骨 料</w>
糖苷 酶</w>
准备 就绪</w>
详细 资料</w>
此 类
冰 上</w>
小 提琴</w>
出 演</w>
冶 炼</w>
些 年</w>
己 经</w>
非常 明显</w>
臭名昭 著</w>
对 模型</w>
南 大学</w>
光 谱法</w>
未 见</w>
体育 锻炼</w>
19 55</w>
卡斯 尔</w>
i SCSI</w>
5 1
邓小 平
邓小平 理论</w>
无线 电话</w>
观 望</w>
前 门</w>
本 应</w>
溶 出</w>
浮 点</w>
正 直</w>
技术 咨询</w>
0 4
卢 布</w>
过 长</w>
重大 项目</w>
表面 温度</w>
氧化 镁</w>
小 丑</w>
G et
合 在一起</w>
长 短</w>
中华 人民共和
巨 星</w>
列 示</w>
酝 酿</w>
小 得多</w>
宣传 教育</w>
H ouse</w>
时 至</w>
即时 消息</w>
标 度</w>
安 区</w>
吸 力</w>
同 源性</w>
服务器 发送</w>
A MI</w>
五 项</w>
风湿 性
风湿性 关节炎</w>
冰 冻</w>
继任 者</w>
英国 广播公司</w>
红 旗</w>
克利 夫兰</w>
过 滤
帕 克</w>
阿片 类</w>
长 处</w>
提 单</w>
客 体</w>
加 薪</w>
劳动 法</w>
信 力</w>
H I</w>
熔 断器</w>
写字 楼</w>
酒 石
虫 病</w>
聚 在一起</w>
运行 状况</w>
Sa aS</w>
走 势图</w>
光 度计</w>
专项 资金</w>
3 M</w>
比 例
回 返</w>
垫 子</w>
流 浪</w>
相 成</w>
爵 士
处理 机</w>
天主 教徒</w>
好 久</w>
用 工</w>
柔 韧性</w>
出口 处</w>
光 通信</w>
心 肺</w>
宁 波
血 肿</w>
寄生 电容</w>
价 差</w>
解 脱</w>
新 英格兰</w>
S an</w>
死 因</w>
避孕 药</w>
证券 法</w>
解放 思想</w>
孔 洞</w>
生产 方式</w>
省 钱</w>
冲击 波</w>
走 近</w>
O PE
G ri
道 尔顿</w>
砂 岩</w>
总 价</w>
香 槟</w>
私 立</w>
上 合</w>
前 走</w>
中 位数</w>
直 到
直到 现在</w>
V SS</w>
环 素</w>
石 棉</w>
大 喊</w>
博茨 瓦纳</w>
L l</w>
无 创</w>
乏 力</w>
六 角</w>
混合 气体</w>
科技 股份</w>
应 予</w>
金正 日</w>
惩 处</w>
防 务</w>
施工 现场</w>
品 格</w>
公共 财政</w>
如 实</w>
周转 率</w>
SO 2</w>
最 难</w>
无 烟</w>
M as
财政 赤字</w>
免疫 学</w>
液压 油</w>
S r
B E
超 细</w>
叠 置</w>
检 察</w>
安 康</w>
东 区</w>
乳 头
第三 国</w>
短 片</w>
19 52</w>
耐 压</w>
25 mm</w>
地 段</w>
远 远
数控 机床</w>
同 名</w>
蒙特 雷</w>
原 籍</w>
等 距</w>
本 钱</w>
日 间</w>
度假 胜地</w>
一 谈</w>
二 零
脊椎 动物</w>
交通 安全</w>
d b
过敏 反应</w>
绿 灯</w>
微 克</w>
瓦 片</w>
斯特 罗</w>
奥斯 汀</w>
数据库 系统</w>
第十二 届</w>
涂 装</w>
外 资企业</w>
疤 痕</w>
M AC
田 间</w>
公共 关系</w>
院 所</w>
之 王</w>
传 授</w>
欧安 组织</w>
即 期</w>
Wor ld</w>
钛 矿</w>
Cor r
水 蒸汽</w>
刺激 性</w>
团结 起来</w>
蛋白 激酶</w>
头 像</w>
救 出</w>
安 培</w>
犯 错</w>
上 用</w>
沙 星</w>
音 符</w>
中央 军委</w>
5 62</w>
出 货</w>
着 重
脱 除</w>
建 华</w>
论 者</w>
涉 足</w>
北 斗</w>
红 十字</w>
咽 癌</w>
装 订</w>
防 尘</w>
总裁 兼</w>
向 东</w>
公益 性</w>
C 12</w>
SE L</w>
100 5</w>
Rob ert</w>
29 8</w>
时间 轴</w>
夹 角</w>
稳定 增长</w>
8 mm</w>
矩 器</w>
信息 流</w>
C ore</w>
Dev elop
请 假</w>
低 氧</w>
哈 里斯</w>
成 败</w>
25 7</w>
佐 治亚州</w>
太 慢</w>
单 晶硅</w>
航天 飞机</w>
病 原</w>
Auto CAD</w>
驾 照</w>
期货 交易</w>
奋斗 目标</w>
基因 工程</w>
刑事 法庭</w>
讨 价
取 胜</w>
巯 基</w>
销 钉</w>
讨价 还价</w>
业务 部门</w>
H am
3 48</w>
北 区</w>
中 且</w>
G R</w>
3 66</w>
聊 天
响应 速度</w>
参 保</w>
富 豪</w>
变 矩器</w>
L td</w>
巨大 变化</w>
O N
感 谢
3 7.
外 形
搬 到</w>
耽 误</w>
il s</w>
压 花</w>
免疫 组化</w>
经 共体</w>
受 制
应用 程式</w>
外形 尺寸</w>
宣 讲</w>
s m</w>
3 58</w>
童 话</w>
破 产
宽 泛</w>
相 辅
触 控
追 回</w>
谷 氨
立法 机构</w>
互 操作性</w>
不 向</w>
集 结</w>
这 辈子</w>
八 项</w>
蓄 能器</w>
阻 挠</w>
聊 聊</w>
运行 机制</w>
某 项</w>
后 置</w>
一 览
关注 点</w>
这 颗</w>
复 仇</w>
Sol aris</w>
相辅 相成</w>
推 到</w>
之 手</w>
杰 出
M 4</w>
摩 西</w>
di s</w>
出 汗</w>
因 果</w>
枯 竭</w>
L ist</w>
某种 原因</w>
h el
CN KI</w>
皮 瓣</w>
鸭 子</w>
较 厚</w>
ph p</w>
利息 收入</w>
辩护 律师</w>
标 价</w>
失 配</w>
育 儿</w>
失 落</w>
加 尔
泪 水</w>
公 信力</w>
中关 村</w>
时 使</w>
环境 质量</w>
放 手</w>
年 产</w>
排 气阀</w>
音 速</w>
麦 芽</w>
效 仿</w>
专 心</w>
花 生
挽 回</w>
外 环</w>
萨 姆</w>
杂货 店</w>
上 床</w>
加 索</w>
毛 细</w>
力 气</w>
短 程</w>
彻底 改变</w>
偏 航</w>
新加 坡
含 水层</w>
3 4%</w>
指令 集</w>
递 给</w>
成 套</w>
R PC</w>
外 媒</w>
弗朗 西斯</w>
十 名</w>
九 龙</w>
教育 厅</w>
滑 冰</w>
农业 银行</w>
5 90</w>
密 苏里
半 自动</w>
税务 总局</w>
珍 妮</w>
结构 特征</w>
保 暖</w>
沙发 床</w>
全 书</w>
灌 输</w>
系统 化</w>
接 连</w>
24 h</w>
2 60
妥善 处理</w>
负 值</w>
学术 研究</w>
SS H</w>
手 部</w>
色 温</w>
录 用</w>
5 52</w>
萨 拉
cm d
金正 恩</w>
监视 系统</w>
3 1%</w>
线路 板</w>
先 是</w>
夹 带</w>
耗 资</w>
停 火
鼓 舞
洛 克
受 托</w>
该 院</w>
征 地</w>
一 滴</w>
下 载
胜 过</w>
根治 术</w>
27 3</w>
th er
牢 房</w>
y e</w>
扣 留</w>
域 控制器</w>
交通 拥堵</w>
一 元</w>
新 南
民 俗</w>
d 2</w>
不 齐</w>
酒石 酸</w>
藏 族</w>
牛津 大学</w>
A .
5 mL</w>
H e</w>
亚太经 社会</w>
干燥 机</w>
吸 湿</w>
上 要</w>
销售 价格</w>
清 空</w>
哈 尔</w>
N at
言 不
牛 皮
os s</w>
10 g</w>
计算 能力</w>
海 淀
转 发器</w>
班 加
路易斯安 那州</w>
种族 隔离</w>
华 东</w>
戊 烷</w>
多 价</w>
w ay</w>
欧 文</w>
犹 他州</w>
p c
石油 化工</w>
抛物 线</w>
头 号</w>
调 味</w>
怪 异</w>
T P
19 53</w>
税 额</w>
理想 信念</w>
干涉 仪</w>
农村 居民</w>
h er
委 派</w>
热 压</w>
9 14</w>
增 资</w>
中日 关系</w>
天文 台</w>
信托 公司</w>
交易 价格</w>
抗 衡</w>
民族 和解</w>
主题 公园</w>
CA P</w>
检查 组</w>
科技 大学</w>
小 康</w>
币 种</w>
人 以</w>
O L
DC S</w>
版本 号</w>
植 入
资本 金</w>
7 70</w>
24 9</w>
暂 行</w>
默 默
野 餐</w>
数据 安全</w>
合 肥
旋 涂</w>
合 唱
消费 税</w>
V C
0. 50</w>
水 平
呼叫 者</w>
自 家</w>
马士 革</w>
碰 巧</w>
大 马士革</w>
转 股</w>
烯 丙基</w>
Ob ject</w>
Ph il
柱 形</w>
聚 光</w>
5 34</w>
不 尽
底 薪</w>
D ep
喷 泉</w>
co mm
干 脆</w>
闪 闪
缸 内</w>
c at</w>
Analy tics</w>
洗衣 房</w>
Mat lab</w>
SD N</w>
所 提</w>
梅 尔</w>
通 车</w>
健康 成长</w>
制 件</w>
七 八
舞 者</w>
h u
肖 特
厨 具</w>
民事 诉讼</w>
来 得</w>
市政 厅</w>
一百 年</w>
讲话 中</w>
综合 体</w>
在 讲话中</w>
专卖 店</w>
条 形</w>
晶 种</w>
试用 期</w>
亮 氨酸</w>
IS T</w>
27 00</w>
20 mg</w>
4 6%</w>
原 理
Sa f
销售 点</w>
SQ L
政协 委员</w>
双 向
l i</w>
长 效
长效 机制</w>
清 华</w>
悬 停</w>
被 叫</w>
姓 氏</w>
超 人</w>
年 终
公共 行政</w>
柔 软
钢丝 绳</w>
诺 斯
支持 物</w>
堕 落</w>
载 玻片</w>
脉 宽
脉宽 调制</w>
股 权
股权 结构</w>
滨 海</w>
波特 兰</w>
Am er
埃 德
二 年级</w>
it le</w>
徒 步
陛 下</w>
布里 斯
SD L</w>
拷 贝
s ub
刮 板</w>
钠 盐</w>
常 州</w>
I A
正 要</w>
统一 战线</w>
前 辈</w>
不 怎么</w>
PC A</w>
责 备</w>
和平 谈判</w>
穿 梭</w>
V IE
5. 9</w>
华盛顿 州</w>
党和 人民</w>
中所 载</w>
0. 8
U ML</w>
29 4</w>
装 甲
G PC</w>
焦 油</w>
ag es</w>
茅 斯</w>
窗 外</w>
白 云
榴 弹</w>
重 生</w>
责 怪</w>
薯 条</w>
脑 病</w>
圆 满</w>
ap e</w>
钙 素</w>
环境 空气</w>
天 文</w>
休 闲
S U</w>
新 型
M VC</w>
慈善 事业</w>
[...]
