</S>
the
,
.
of
and
to
a
in
is
@-@
for
The
that
&quot;
be
on
with
)
(
or
as
are
an
by
&apos;s
it
I
can
from
at
you
In
not
this
was
may
have
:
has
which
one
will
more
first
/
1
also
system
other
time
such
A
but
said
all
we
data
?
about
;
device
than
-
its
2
their
invention
It
been
used
second
were
between
he
present
when
method
they
control
example
two
so
This
&apos;t
information
into
your
some
China
new
out
people
there
development
embodiment
according
up
use
high
3
any
if
only
%
each
should
his
do
through
process
10
wherein
power
had
our
based
after
4
layer
no
like
my
would
&apos;
5
For
least
claim
work
same
If
who
unit
further
year
signal
these
We
using
different
then
years
As
very
number
me
value
what
surface
them
group
most
over
You
end
many
made
user
material
light
part
well
embodiments
including
water
shown
described
above
set
make
market
He
management
need
FIG
level
provide
image
6
good
include
important
because
current
under
way
order
world
three
where
20
provided
know
includes
network
United
her
another
structure
temperature
To
could
how
being
...
S@@
state
application
operation
support
Chinese
within
portion
just
during
case
must
side
s
step
rate
!
When
having
12
long
pressure
economic
see
area
type
low
life
position
But
7
company
now
service
countries
still
want
circuit
she
us
even
quality
C
line
take
technology
both
processing
8
international
means
right
view
get
those
display
At
non
don
30
formed
treatment
while
before
form
apparatus
country
100
communication
change
air
analysis
less
However
body
government
And
him
various
output
results
industry
re@@
day
point
e.g.
amount
large
comprises
back
region
business
main
un@@
financial
States
energy
small
without
think
possible
research
flow
model
effect
：
able
cell
P@@
D@@
11
source
addition
&#91;
T@@
products
B@@
&#93;
direction
i
voltage
design
paper
human
&apos;re
content
gas
public
element
15
product
member
does
production
function
following
On
go
security
construction
9
study
increase
period
field
social
performance
M@@
There
14
According
help
growth
L@@
input
last
film
&apos;m
sensor
particular
shall
much
national
methods
They
improve
range
per
report
become
related
H@@
B
reference
G@@
higher
third
own
connected
After
memory
b
substrate
here
50
base
C@@
access
Figure
lower
acid
specific
section
off
down
vehicle
speed
better
party
test
devices
F@@
16
comprising
provides
result
composition
computer
conditions
key
problem
risk
N@@
whether
since
children
patients
systems
Committee
environment
R@@
A@@
V@@
did
against
term
heat
accordance
services
supply
problems
great
preferably
mode
shows
cells
mobile
module
found
configured
solution
o
law
cost
13
transmission
metal
real
plurality
What
single
local
place
storage
object
component
every
K@@
contact
engine
total
education
oil
future
around
resources
situation
size
known
next
certain
materials
electrode
say
frequency
free
liquid
investment
health
four
With
Nations
too
best
find
e
40
block
selected
terminal
weight
in@@
project
That
corresponding
space
18
An
due
channel
policy
economy
cases
areas
enterprises
working
components
open
top
effective
women
equipment
home
characteristics
received
going
role
groups
General
rights
old
full
implementation
added
needs
companies
E@@
general
price
optical
am
drive
associated
show
°
applied
give
man
22
students
major
D
New
members
mechanism
s@@
server
phase
always
changes
person
connection
times
W@@
response
necessary
protection
force
put
reaction
P
media
ate
elements
controller
via
n
relevant
making
24
O@@
required
activities
electronic
These
p@@
come
$
given
days
increased
reduce
obtained
below
er
cooperation
called
art
25
d@@
ability
limited
program
o@@
configuration
So
target
measures
determined
active
operating
t@@
really
food
safety
software
valve
name
hand
foreign
suitable
forward
common
school
city
interface
She
basis
machine
car
together
available
ensure
along
Council
global
team
Therefore
meeting
special
family
t
few
housing
21
plate
video
g
file
performed
herein
several
left
again
age
money
assembly
-@@
front
held
face
plan
trade
&apos;ll
building
electric
detection
cross
State
fluid
greater
room
motor
&apos;ve
parts
play
fuel
values
capital
compound
frame
experience
ing
etc
lot
continue
interest
One
among
opening
cannot
multiple
ed
k@@
start
US
especially
requirements
five
medium
All
particularly
percent
filter
political
promote
create
impact
es
levels
c
transfer
code
e@@
basic
n@@
60
things
head
battery
17
central
location
Research
signals
station
internal
points
table
let
preferred
game
training
thereof
often
look
whole
efficiency
past
wireless
200
article
3@@
thus
never
&gt;
million
E
N
core
message
factors
0
additional
yuan
strong
similar
standard
digital
little
semiconductor
Beijing
short
issues
address
taken
course
directly
4@@
_
already
driving
stage
reform
respect
cause
aspect
list
generally
ratio
applications
International
University
relationship
fact
capacity
ers
+
I@@
determine
containing
today
care
attention
carbon
kind
difference
y@@
electrical
National
recent
agent
T
medical
significant
Objective
told
R
resistance
action
reduced
How
y
mixture
types
blood
external
i@@
property
activity
distribution
.@@
series
screen
g@@
X
love
combination
ation
color
hours
difficult
account
center
might
improved
2@@
resolution
disease
diagram
x
hard
average
got
length
request
issue
shape
S
early
achieve
Development
Thus
decision
polymer
exchange
m@@
ated
al
By
compared
board
fully
land
something
organic
half
No
m
pay
meet
J@@
big
developed
society
demand
Internet
comprise
switch
forming
ating
b@@
potential
traditional
features
properties
until
stored
subject
d
self
community
generated
wall
users
months
words
why
L
32
manner
path
defined
providing
enterprise
away
5@@
Party
call
resin
l
positive
effects
terms
illustrated
26
carried
receiving
19
=
understand
scale
cancer
axis
mm
M
culture
23
normal
expected
manufacturing
condition
located
established
load
read
lead
--
physical
simple
an@@
believe
included
efforts
thing
developing
Group
strength
relatively
upper
far
technical
relative
processor
Based
once
receive
solid
di@@
outer
status
close
operations
feel
measurement
income
Government
cultural
seen
volume
steps
either
units
functions
class
charge
parameters
de@@
overall
legal
claims
makes
outside
history
bank
event
F
upon
private
industrial
6@@
distance
therefore
anti
sample
site
clinical
later
appropriate
monitoring
complete
allow
l@@
&amp;
c@@
p
110
desired
arranged
environmental
individual
focus
share
however
mainly
job
r@@
fixed
Mr.
disclosure
natural
relates
pattern
primary
v@@
projects
progress
f@@
prevent
military
panel
multi
inner
U.S.
O
existing
World
phone
regions
platform
28
Since
dis@@
stability
theory
chamber
didn
U@@
practice
run
ates
done
al@@
says
node
System
respectively
magnetic
proposed
31
matter
bit
clear
week
Commission
h@@
conductive
return
President
easy
thickness
combined
Although
costs
i.e.
South
substantially
keep
Y@@
enough
exemplary
heart
move
gate
Some
showing
concentration
others
domestic
V
particles
yet
cover
aspects
sequence
loss
Security
increasing
lines
across
stop
ring
coating
Then
consumption
shaft
index
online
knowledge
Further
mean
My
expression
American
generation
predetermined
120
minutes
red
en@@
steel
young
glass
evaluation
People
layers
protein
sales
uses
80
funds
direct
month
comprehensive
resource
organizations
regional
designed
caused
am@@
integrated
men
personal
From
session
page
tell
70
angle
OF
thought
coupled
child
learning
on@@
7@@
examples
degree
Secretary
tax
took
maximum
ago
purpose
significantly
house
implemented
insurance
102
drug
a@@
came
police
taking
needed
controlled
movement
tool
link
chemical
database
credit
oxide
bottom
assets
guide
measured
patient
G
staff
Study
perform
box
error
build
card
allows
1@@
Now
factor
TV
300
six
policies
doing
algorithm
carrier
In@@
mentioned
effectively
strategy
billion
won
road
teaching
thereby
port
produced
considered
European
prices
sure
disposed
chain
ch@@
reason
sub@@
institutions
develop
Abstract
longer
leading
hope
influence
k
equal
90
8@@
pre@@
innovation
live
standards
City
Department
images
inside
Z@@
u@@
text
English
thermal
ways
scientific
negative
cent
Because
night
*
strengthen
led
&lt;
driver
Abstr
processes
turn
approach
implement
achieved
X@@
Management
language
living
peace
rural
select
parties
original
complex
reduction
reported
sent
，
sheet
heating
changed
actual
question
im@@
radio
Japan
introduced
ting
Hong
Analysis
entire
mass
First
client
selection
。
prepared
ine
final
pump
cooling
stock
office
diameter
edge
rules
principle
it@@
During
at@@
Re@@
While
ts
w@@
laser
forms
ground
previous
reports
st@@
compounds
joint
modern
search
try
carry
secondary
friends
population
setting
prior
check
discussed
34
customers
date
release
went
Kong
transmitted
created
Do
respective
ro@@
professional
maintain
10@@
document
fiber
near
referred
co@@
Each
9@@
More
threshold
27
rates
tube
lens
ted
obtain
illustrates
news
contains
conventional
itself
mechanical
nuclear
beam
ID
noted
touch
en
book
35
post
resulting
ic
organization
sense
although
host
pixel
wide
usually
sh@@
bring
cycle
feature
Central
likely
detected
z@@
Shanghai
stable
actually
looking
ar@@
independent
traffic
instance
audio
war
fourth
review
commercial
capable
produce
gear
issued
advantages
understanding
window
command
asked
easily
science
sub
serious
ations
or@@
array
Bank
delivery
learn
closed
pre
er@@
Such
version
camera
deal
hot
42
ab@@
typically
H
perspective
h
continuous
plane
500
establish
portions
reducing
sides
catalyst
almost
rapid
stream
remote
Office
running
store
everyone
Example
over@@
solvent
ad@@
regard
sound
responsibility
&apos;d
con@@
concept
May
36
Also
door
currently
white
Application
choose
banks
planning
customer
scope
&apos;@@
urban
formation
Our
useful
buy
ac@@
dynamic
micro@@
Y
Assembly
relations
practical
started
inter@@
injection
virtual
cities
THE
forces
moving
nature
Table
importance
workers
Republic
plant
detail
parameter
limit
ant
variety
noise
statement
contract
task
click
description
separate
Technology
ever
zone
accounting
improving
cut
container
recording
de
parallel
larger
antenna
largest
rather
removed
re
damage
determining
spring
advantage
width
generate
soon
initial
silicon
switching
administration
Furthermore
hole
poly@@
determination
department
rotation
crystal
displayed
bus
techniques
competition
interests
regulations
improvement
add
responsible
computing
skin
son
June
divided
agreement
104
Ministry
solve
High
specified
sector
functional
enter
channels
opportunity
as@@
j@@
works
bed
hold
procedure
starting
avoid
assistance
DC
r
placed
apply
J
poor
Company
arrangement
follow
ic@@
increases
Province
goal
record
K
presence
ator
failure
files
imaging
enhance
sensors
personnel
sources
structures
ri@@
depth
talk
cable
FIGS
emitting
treated
attached
listed
motion
protect
context
green
mounted
density
transport
rise
controlling
Africa
balance
fields
send
ti@@
variable
advanced
reached
double
Accordingly
band
showed
crisis
testing
safe
becomes
towards
Article
conversion
events
disclosed
benefits
death
mother
wheel
U
saw
fire
150
maintenance
adjustment
communications
33
u
Well
involved
March
quickly
um
Europe
requires
idea
July
fund
web
goods
Convention
C.
transistor
29
visit
departments
press
leaders
December
compositions
unique
doesn
ar
45
fast
Keyword
understood
formula
completed
leave
require
objects
tissue
enable
cylinder
completely
black
write
studies
markets
bar
president
supported
parents
Keywords
item
America
official
comes
excellent
please
ask
preparation
though
rule
constant
Service
400
released
integration
lost
states
illustrating
indicated
investors
takes
installed
everything
trend
130
continued
win
analyzed
behavior
linear
Co
measure
positions
middle
hardware
flexible
radiation
x@@
52
smaller
2008
models
Fig
built
solutions
establishment
contain
items
column
Other
ly
es@@
brought
affect
officials
recovery
Is
bad
Information
wanted
highly
ings
co
debt
gene
Many
engineering
19@@
exhaust
als
UE
Of
collection
rear
W
Li
September
travel
claimed
generator
electrodes
mg
hospital
plans
Windows
director
Economic
38
Why
prevention
reach
draft
receiver
significance
word
morning
true
th@@
stress
tools
beginning
affected
details
Q@@
vehicles
music
modified
chip
consider
2000
adhesive
saying
per@@
adopted
wire
round
coming
automatically
is@@
pass
44
ol@@
lack
bearing
anything
Control
rest
instead
agricultural
specifically
connector
promoting
sp@@
causes
sufficient
strategic
mind
approximately
gap
II
sectional
generating
button
thinking
act
supporting
reading
Asia
thin
Design
spirit
Data
January
discharge
behind
expressed
pro@@
North
laws
inspection
plastic
torque
industries
His
identified
si@@
agents
0.@@
f
ag@@
benefit
kinds
former
Conference
41
Center
IP
supervision
technologies
allowed
asset
themselves
immediately
trying
Moreover
particle
connecting
rich
annual
oxygen
payment
Law
matrix
om@@
brand
18@@
tic
reporter
gradually
aqueous
April
changing
automatic
pipe
background
Another
shaped
choice
refers
map
began
ten
procedures
questions
transformation
opportunities
estate
recently
principles
domain
reasons
net
surfaces
sustainable
efficient
technique
vertical
concerned
adjacent
salt
figure
composite
alone
someone
characterized
beautiful
expansion
structural
fine
contained
style
trading
minimum
places
cold
conference
documents
detailed
financing
Here
God
college
alternative
le@@
ans
china
hydrogen
actions
growing
framework
explore
insulating
assessment
voice
deep
wave
nothing
calculated
manager
tions
paid
infrastructure
stay
el@@
opened
daily
mixed
weeks
happy
getting
ot@@
powder
buffer
instructions
critical
2010
lives
cutting
woman
provisions
characteristic
transmit
ap@@
administrative
programme
nearly
presented
success
combustion
ink
actively
charging
Japanese
ur@@
diagnosis
cash
investigate
civil
website
lo@@
printing
driven
identification
hour
wind
October
turned
106
measuring
arm
samples
accuracy
evidence
East
father
ion
facilities
Al@@
identify
tourism
became
dimensional
option
offer
positioned
RE@@
investigation
em@@
nm
coil
heavy
widely
correct
committee
remove
Taiwan
conducted
realize
1.@@
transition
piece
sets
controls
schematic
fall
written
poverty
remain
views
November
therapy
diseases
previously
et
pointed
LED
onto
examination
remains
Human
pulse
India
differences
Russia
skills
membrane
late
ul@@
ds
supplied
decided
holding
picture
depending
risks
pair
profile
）
simulation
2015
48
met
molecular
monitor
2007
height
packet
Conclusion
installation
2005
（
Co@@
authorities
Please
package
aluminum
Oh
se@@
logic
moved
speech
coupling
gain
track
performing
challenges
court
successful
clean
z
tri@@
profit
Under
Your
51
ST@@
li@@
plasma
employees
occur
Special
le
York
detecting
employment
budget
die
Preferably
conflict
Let
experts
representative
Korea
to@@
op@@
transaction
converter
persons
ends
2016
August
priority
shares
intermediate
otherwise
brain
el
highest
operate
waste
determines
sensitive
story
format
whose
moment
binding
2009
ml
gave
An@@
ous
adjusted
ors
networks
feed
Examples
Methods
gold
Next
master
handle
participate
2006
Social
employed
save
vacuum
simply
Education
electrically
13@@
emergency
announced
sodium
note
calculation
Even
contents
floor
healthy
recognition
writing
represents
IN@@
Bureau
followed
feedback
century
62
hydraulic
112
eyes
Congress
#
quite
ite
delay
intended
consumer
ice
options
latest
Union
46
54
101
ons
trust
disk
facing
v
seat
drugs
cleaning
transparent
Institute
promotion
clearly
greatly
answer
historical
owned
Its
throughout
vector
serve
37
detector
News
Note
fl@@
medicine
Russian
timing
learned
paragraph
games
agreed
De@@
consumers
AC
compensation
brake
210
il@@
popular
pl@@
12@@
season
15@@
programs
labor
receives
separation
finally
Wang
transmitting
huge
indicates
match
Web
Ch@@
king
schools
sports
degrees
140
follows
DNA
mL
capacitor
Not
studied
protocol
Alternatively
passed
African
dielectric
Network
detect
64
Organization
ec@@
ter
creating
Con@@
ded
ent@@
wrong
corporate
province
et@@
square
nation
update
56
foundation
concern
bi@@
extent
yield
comparison
sensing
published
eight
teachers
friend
bond
anti@@
seal
55
weapons
producing
Can
attack
numbers
amino
alloy
mechanisms
exercise
shift
Most
ding
essential
purchase
tasks
played
climate
transportation
zero
dry
entry
Association
cloud
ready
3D
opposite
clock
default
2004
Use
Through
indicate
pH
2003
2014
heard
School
der
eye
2017
represented
0@@
ex@@
explained
po@@
shared
registration
tumor
tr@@
Two
quarter
yl
distributed
ization
actuator
Li@@
intensity
antibody
0.05
purposes
2012
connect
Once
seems
toward
rotor
ent
era
observed
objective
iron
ase
eat
scheme
sometimes
Pro@@
violence
earlier
seven
Health
Microsoft
reporting
regular
continuously
aid
adding
finance
mo@@
ally
occurs
consideration
extend
character
14@@
tank
decrease
Server
16@@
Rights
\
est
lock
cars
smart
messages
flat
43
mon@@
2011
signed
student
ance
leadership
75
ordinary
reasonable
operational
yourself
2018
ling
par@@
Yes
wear
ing@@
advance
recognized
blocks
ia
wants
technological
theoretical
108
Finally
maintained
Industry
row
export
Where
2013
raised
Results
adjust
Q
carrying
solar
compression
Ar@@
virus
separated
mounting
guarantee
analyze
sealing
ph@@
agencies
inlet
killed
allowing
increasingly
television
pain
mission
En@@
confidence
arms
hands
ative
bodies
British
Don
recorded
drop
sign
hotel
adapted
infection
experimental
launched
Germany
majority
exposed
strengthening
belt
Administration
modules
coal
multi@@
copper
wife
ones
remaining
university
be@@
oriented
blue
entered
suspension
contrast
guidance
soil
goals
stand
players
remember
optimization
sea
playing
worth
peak
believes
gives
girl
trans@@
derived
felt
Minister
piston
February
Court
programmes
pollution
Xi
horizontal
ators
offers
bonds
secure
micro
scene
transferred
IC
perfect
fight
turbine
outlet
accounts
ter@@
introduction
discussion
ON
enjoy
ray
interference
probably
regulation
rubber
ideas
continues
else
appear
extending
positioning
Using
Power
PC
dose
ology
print
acids
Road
wish
break
France
stated
reactor
instrument
ha@@
2001
reality
atmosphere
loop
player
heated
ball
sleep
biological
Method
approved
lighting
nitrogen
ship
applying
correction
Just
marketing
sharing
72
Fund
border
cavity
concrete
expand
id@@
Step
raw
linked
longitudinal
Israel
regarding
teacher
ants
reliability
Sh@@
train
Today
stores
letter
facilitate
fundamental
600
participation
settings
closely
bone
Science
65
spread
soft
counter
families
te@@
proportion
acts
plants
id
Zhang
tests
French
accurate
ecological
estimated
Public
flows
becoming
app
sized
2.@@
animal
operator
differential
indicating
incident
dried
hear
Iraq
discuss
Ex@@
ies
2002
leader
decisions
conduct
aircraft
pharmaceutical
20@@
th
fibers
roller
typical
super@@
saving
protective
extended
species
equity
realized
governance
Only
equipped
Construction
holes
Mar@@
RF
fault
recommendations
extremely
collected
gonna
village
wavelength
currency
intake
nodes
hit
bridge
emission
Yeah
relation
stations
dollars
MS
vibration
58
exist
segment
injury
202
no@@
AND
earth
ment
bl@@
executed
himself
CO@@
worked
skilled
reliable
supports
survey
books
enhanced
interaction
qu@@
visual
ized
processed
EU
recommended
ton
ob@@
District
locations
peripheral
mixing
agency
exposure
removal
successfully
pixels
ed@@
except
ol
manage
severe
subsequent
effort
220
weather
directed
61
election
Apple
challenge
acceptable
depends
communicate
us@@
curve
Board
St@@
Australia
passage
West
sites
sections
quantity
acquisition
execution
amplifier
under@@
orientation
Key
Effect
axial
0.5
reflected
consisting
IN
wait
indicator
approval
strategies
pilot
vessel
prediction
53
17@@
handling
95
gender
criminal
Dis@@
individuals
applicable
random
giving
portable
town
County
dead
ness
fan
ver@@
female
equivalent
grow
static
extension
surgery
articles
talking
tive
fifth
interview
effectiveness
watch
w
registered
accept
ak@@
mis@@
returned
ad
creation
rod
happened
senior
No.
powerful
knew
percentage
patterns
films
meaning
se
tion
overseas
rapidly
anyone
records
lose
printed
liver
partially
kept
causing
chance
library
abroad
decreased
amounts
forth
out@@
biggest
circumstances
terminals
summer
House
ch
difficulties
trial
cl@@
Ltd
delegation
and@@
fair
105
enables
securities
calls
organized
maintaining
author
treating
residents
achievements
hair
allocation
compressor
coefficient
composed
Foreign
identity
observation
Z
London
seconds
beyond
correlation
pin
hi@@
links
opinion
losses
IT
vi@@
tried
ical
obvious
os
39
Western
plug
alcohol
requested
covered
steering
goes
spot
temperatures
interior
acute
authentication
baby
um@@
Business
menu
crime
born
probe
raise
title
possibility
reception
firm
ong
transmitter
corresponds
thousands
AN@@
coated
Services
scanning
ps
implementing
governments
partners
coordination
drawing
Car@@
Ro@@
encoding
adjusting
Trump
jobs
representatives
permanent
Project
concerns
illegal
audit
confirmed
broad
freedom
convenient
instruction
CPU
ties
practices
optionally
114
concentrated
car@@
Trade
inter
chapter
spectrum
CH@@
charged
Before
decline
experiment
friendly
requests
Additionally
min
ang
mutual
alkyl
focused
sell
Asian
ir@@
meetings
circuits
relating
represent
meters
researchers
commerce
fell
extends
nursing
died
citizens
Second
revenue
committed
slow
cm
ics
evaluate
famous
electron
blade
Di@@
architecture
dependent
gel
sc@@
extraction
Member
mask
AP
grid
engaged
~
Th@@
shell
250
copy
provincial
loan
serving
tree
elastic
returns
ist
mail
submitted
ically
define
Are
UN@@
refer
rotating
career
animals
Any
Financial
universities
barrier
failed
reflect
telephone
induced
formulation
Exchange
reporters
delivered
nozzle
begin
symptoms
statistics
tested
66
tracking
definition
indicators
non@@
contacts
Un@@
assigned
myself
UK
appears
requirement
kg
occurred
doctor
capabilities
graph
offset
faster
appearance
grade
consistent
chief
provision
awareness
filled
Among
pe@@
sold
Google
pad
looks
atoms
activated
coding
AC@@
outputs
loans
lamp
ters
College
entity
cadres
IC@@
Ad@@
couple
nucleic
businesses
analyzes
Three
drain
SP@@
do@@
packaging
he@@
Canada
Women
oral
sing
ard
broadcast
ahead
partial
mental
isn
br@@
inserted
00
bits
Mr
Model
intelligence
armed
chronic
farmers
simultaneously
install
ne@@
expect
performs
locking
preventing
ang@@
notice
st
TI@@
duty
Communist
ism
LE@@
defense
slightly
county
oc@@
duration
generates
destination
103
ality
122
score
intelligent
flight
conditioning
ING
polymerization
0.1
Plan
route
deposition
alization
•
welding
terrorism
launch
hybrid
Provincial
spend
scan
plays
Report
polymers
absorption
limiting
stopped
conductor
describes
Water
res
man@@
3.@@
walk
justice
vision
displays
believed
operated
optimal
electricity
Gu@@
express
spent
bo@@
Global
topic
transactions
register
River
reverse
com@@
waiting
exchanges
weak
preceding
electromagnetic
happen
160
elderly
Mo@@
looked
lithium
theme
competitive
minute
deputy
stocks
basically
ity
masses
sale
ren@@
contribute
attacks
completion
Friday
log
Municipal
Le@@
Air
feeling
ty
disc
mold
chart
repair
AR@@
Chen
Liu
rising
programming
disaster
email
commitment
Both
innovative
interested
therapeutic
authority
circuitry
branch
izing
fish
identifier
ms
assist
girls
screw
&#124;
helps
walls
regulatory
sl@@
reduces
drawings
stem
visible
AD@@
western
Iran
RO@@
willing
named
speak
ful
Day
Monday
emerging
the@@
measurements
threat
fit
uniform
warning
German
ten@@
des
desirable
replaced
variation
association
prepare
dream
contribution
fresh
precision
instruments
vote
les
bio@@
situations
logistics
push
leads
literature
AT@@
utilized
tech
sending
ports
Ab@@
certificate
ker
campaign
RA@@
query
legislation
av@@
phenomenon
washed
ho@@
Obama
matching
interval
War
substance
immune
ut@@
ve
explain
capability
dual
consists
genetic
factory
figures
intervention
ying
85
photo
sensitivity
wiring
amine
vary
63
plates
Field
properly
clutch
Protection
army
for@@
enforcement
ins
monetary
teams
agriculture
47
coverage
arrangements
introduces
cap
Director
efficacy
30@@
string
spatial
join
connections
ke
82
statements
interesting
Affairs
criteria
smooth
sed
straight
serum
mirror
updated
rooms
res@@
1000
cellular
matters
symbol
talks
diabetes
CD@@
truth
2019
CT
funding
ber@@
inorganic
jointly
indication
ered
groove
advantageous
finished
mine
capture
proteins
ses
forced
agenda
distal
chairman
molecules
1,@@
204
SE@@
selecting
root
Palestinian
rotational
frames
gone
suggested
sex
cylindrical
converted
HIV
2020
initiative
names
friction
AL@@
vice
See
Tr@@
encourage
Daily
seek
rail
classification
moves
Working
replace
logical
satellite
timely
combinations
ai
bag
speaking
auxiliary
humanitarian
buildings
warm
academic
computers
yesterday
proper
cluster
surrounding
ended
seem
68
seriously
appreciated
fill
manual
meter
circular
puts
chloride
protected
electro@@
shareholders
treat
accident
Every
ensuring
Time
expensive
stack
ceramic
deployment
couldn
Agency
functionality
ages
og@@
planned
division
aged
unless
affairs
wrote
synthesis
contributions
III
Washington
objectives
knows
extracted
activation
dialogue
ester
incorporated
hydro@@
star
Middle
exists
holder
provider
download
welcome
partner
au@@
Year
ving
Festival
stages
machines
bandwidth
standing
ore
slot
socialist
notes
boy
easier
molecule
tu@@
Per@@
lateral
outstanding
characters
aware
74
chosen
Test
IS@@
stroke
resistant
normally
wood
pieces
entering
bound
me@@
180
managed
57
pool
Shenzhen
wt
analog
steam
nor
viscosity
diode
manufacture
ideal
AS@@
310
directions
800
drying
leaving
constantly
statistical
League
novel
internet
Al
1.5
recognize
expert
exactly
Bo@@
street
insulation
acetate
representation
isolated
banking
embedded
participants
sequences
Tuesday
calcium
exchanger
settlement
Free
μm
educational
ence
ou@@
utilization
rec@@
dioxide
af@@
acquired
secretary
layout
loading
victims
compressed
preferable
introduce
mark
Se@@
dedicated
mining
ary
Non
faces
preparing
lung
maybe
Engineering
rare
daughter
washing
shot
Due
compliance
ethyl
constructed
movable
Be@@
temporary
cards
passing
independently
116
dark
modulation
71
starts
suggestions
dollar
ah
SO@@
keeping
officers
twice
proposal
hereinafter
sectors
soluble
Energy
velocity
servers
ethnic
designated
ill
Olympic
projection
relief
Pacific
candidate
joined
usage
fabric
silica
served
ions
wasn
cr@@
Programme
1999
Quality
back@@
forest
az@@
complicated
IL
supplies
agree
filtered
husband
male
aimed
bar@@
category
clients
repeated
responsibilities
porous
thank
semi
experienced
Clinical
Open
engagement
sleeve
Specifically
ancient
49
bu@@
pages
integrity
switches
selling
park
gets
ders
ves
commonly
Over
UN
sun
expanded
wealth
reflection
etching
cathode
Wednesday
700
ER@@
Those
onic
emissions
fighting
AP@@
ze
oxidation
youth
EN@@
SC@@
tea
storing
trip
closing
manufacturers
Thursday
pictures
tip
communities
gu@@
kids
AIDS
displacement
district
Who
tire
S.
cooled
robot
engage
dimensions
chinese
establishing
IS
ks
Hospital
White
50@@
owner
island
artificial
milk
draw
concerning
executive
deliver
respond
4.@@
wafer
appeared
negotiations
su@@
yl@@
so@@
Action
coffee
navigation
coordinate
transform
kill
bonding
sampling
corrosion
Korean
boundary
tin
Great
trigger
forget
movie
nine
acting
Type
ously
ethylene
Red
sts
modes
Select
..
foot
Their
turning
str@@
ast@@
bill
ak
volatile
talents
import
230
pure
fat
afternoon
Medical
INVENTION
Games
synthetic
carefully
Manager
fun
ments
Home
conductivity
silver
count
reservoir
downstream
obligations
sexual
Bar@@
76
transmits
tag
guy
ep@@
focusing
aim
Hu@@
modification
organs
flash
race
relay
sorry
enzyme
stirred
up@@
John
photo@@
Amazon
covering
expenses
Com@@
Art
dispersion
batch
identifying
specify
birth
behalf
observe
unable
scientists
hundreds
dangerous
Inter@@
shopping
--@@
dimension
despite
gr@@
ents
dr@@
92
ked
instances
ox@@
ping
DE@@
aging
targets
surgical
flowchart
magnet
eliminate
signs
corruption
spending
MP@@
os@@
ological
Parties
existence
valid
ering
breast
broken
kitchen
removing
Agreement
IP@@
OS
302
roll
judicial
bought
errors
gi@@
expectations
ER
raising
opinions
parking
mainland
implementations
infrared
conclusion
anode
classes
deposit
license
Qu@@
ge@@
ste@@
certainly
depicted
Act
Academy
methyl
decades
survival
heater
adverse
centre
economies
manufacturer
institutional
football
yellow
Figures
Safety
dissolved
replacement
ill@@
Ac@@
mapping
te
printer
Americans
Britain
rotary
password
deposited
uc@@
ai@@
listen
′
translation
fixing
Arab
rats
stone
monomer
attitude
AR
ge
involves
subjected
helped
automobile
targeted
sw@@
inflation
bacteria
SQL
segments
ble
psychological
strict
Sunday
absolute
agreements
FI@@
fr@@
synchronization
Earth
receptor
Democratic
PO@@
accepted
extra
template
occurrence
revealed
Patent
ME@@
rely
discovered
impossible
loaded
electrolyte
Similarly
deeply
go@@
closer
peptide
lies
flexibility
der@@
dec@@
quick
ash
club
ster
un
ci@@
cur@@
feet
molding
har@@
wh@@
shock
00@@
59
municipal
Protocol
ene
specification
afraid
wheels
end@@
SS
south
estimate
Part
sum
ear@@
acceleration
involving
identical
Chairman
administered
reactions
accurately
schedule
attempt
necessarily
cartridge
vapor
EC@@
alignment
winter
enabled
USB
affecting
Securities
overcome
phones
addressed
profits
bilateral
hyper@@
78
tomorrow
describe
residue
drink
2A
worry
206
beneficial
therein
stressed
offered
Food
Israeli
ID@@
GDP
photos
decide
Last
99
Support
passenger
substances
essentially
charges
obtaining
fees
Click
comments
sive
brother
reactive
promoted
ize
relationships
pretty
UV
incidence
Embodiment
201
alized
mouse
configurations
helping
covers
bear
haven
tor@@
Hey
Guangzhou
truly
titanium
Si@@
achieving
entities
dust
ane
nice
rose
north
skill
principal
separately
cool
Children
colors
ell@@
advice
ry
proliferation
notification
Android
ery
Effects
84
86
fear
Street
captured
Good
Investment
correspond
insert
ma
circulation
marriage
ably
Look
fans
copolymer
111
filtering
soldiers
limits
democratic
tension
000
cor@@
ens
houses
frequently
pressing
Italy
orders
absence
Su@@
radial
ra@@
metallic
federal
patent
plus
hearing
stainless
browser
collect
latter
braking
talent
fiscal
managers
directors
missing
evening
mice
Forum
Meanwhile
experiences
chromatography
Guangdong
Product
calibration
inventory
independence
religious
discusses
packets
NO
tape
productivity
IT@@
pi@@
illustrate
strain
protecting
ig@@
AL
we@@
Market
experiments
Ms.
alarm
corner
ian
namely
refrigerant
sugar
ines
fashion
ambient
concepts
metals
bathroom
strive
adopt
calculate
minister
CD
serves
needle
troops
Like
iz@@
exhibition
40@@
discrimination
Finance
Cup
dog
considering
greatest
valuable
peaceful
older
antibodies
124
manufactured
deformation
strip
Process
sixth
guiding
Park
finding
candidates
attribute
25@@
foam
heads
atory
flowing
24@@
universal
audience
genes
representing
α
faced
pick
discipline
diffusion
selectively
courses
work@@
thereto
advertising
67
comfortable
civilization
Pakistan
reflects
pull
PC@@
eventually
cache
newly
all@@
sort
intellectual
compare
uplink
sions
amplitude
excess
variables
keys
exceed
combat
outcome
decoding
Lo@@
glucose
Industrial
readable
1998
01
strictly
probability
Pre@@
millions
competitiveness
label
ao
drawn
summary
adequate
isolation
diagnostic
attachment
solved
periods
conducting
verification
den@@
Jinping
5.@@
Or
residual
filters
Implementation
governmental
Maybe
2.5
els
sends
enhancing
96
optional
origin
airport
custom
substantial
perhaps
acoustic
shan
moisture
clothes
ati@@
rice
Afghanistan
consequences
enabling
routine
passes
aw@@
Mexico
cellulose
crude
tor
applies
ley
wet
Okay
Treatment
impedance
fatty
fee
filling
ass@@
extract
consensus
married
Invention
calling
grain
liability
pack
crimes
England
zing
2,@@
categories
ther@@
partnership
seeking
studying
batteries
RS
Description
shop
gh@@
gl@@
edges
syndrome
Executive
lights
restricted
remained
stronger
Facebook
drum
wine
arrived
combining
inverter
Sub@@
Br@@
98
320
ites
valves
wouldn
81
investigated
Cor@@
Cl@@
cul@@
SS@@
ceremony
secret
ise
antigen
mid
offices
Mon@@
suggest
fed
jiang
aperture
auto
substituted
apart
grown
signaling
rescue
100@@
Area
teeth
212
entitled
®
extensive
exceeds
song
runs
subjects
Federation
estimation
LO@@
du@@
war@@
Her
provinces
nations
ver
exit
analyzing
sizes
AS
happens
BS
fruit
buying
Generally
folder
ay@@
spray
Brazil
ational
Compared
Access
degradation
1A
118
Code
Technical
fi@@
Third
neural
ler
reaches
complexity
drivers
invest
Governments
approaches
cre@@
Yang
brands
Evaluation
platforms
obviously
magnesium
submit
ie
alize
ownership
exports
winding
AM@@
OK
circle
damaged
depend
132
participated
proof
hopes
machinery
accelerate
Have
88
satisfaction
locked
polymeric
meant
ru@@
tab
continuing
ultrasonic
spoke
RMB
false
debate
zinc
casing
trouble
toner
forum
Bi@@
rain
familiar
sky
slowly
flange
seeing
thread
allocated
resolve
moral
trends
firms
CPC
microwave
household
affects
rolling
Resources
gases
Environmental
decreases
addresses
creative
binder
hub
94
Singapore
est@@
TS
primarily
aforementioned
politics
sur@@
electronics
MO@@
strongly
contracts
Sea
guidelines
colleges
annular
neuro@@
demands
CE@@
Police
RNA
Life
reflective
240
Saturday
railway
Name
mouth
indeed
ether
Mc@@
encoded
ve@@
PL@@
apparent
operates
mar@@
judge
vast
marked
304
la@@
Policy
reaching
reforms
elections
concentrations
cam
ure
leakage
×
He@@
Paris
urgent
Me@@
Mobile
User
excessive
illumination
bias
varying
nitride
inch
Take
radi@@
SI@@
execute
ach@@
variations
managing
secured
democracy
scheduled
futures
OR@@
narrow
73
reconstruction
polypeptide
fo@@
guys
ending
efficiently
170
rel@@
hollow
salts
115
Cultural
ot
Cooperation
Ti@@
perpendicular
Claim
commands
sufficiently
ni@@
whereby
parent
retail
CC@@
hong
mostly
Kingdom
welfare
melt
improves
410
worldwide
sliding
eating
ches
burden
por@@
waves
autonomous
ships
utility
presents
laboratory
initially
underlying
adoption
ching
resonance
okay
sion
resolutions
tis
alism
proved
bur@@
investments
speaker
numerous
invited
ats
CP@@
purified
seed
ath@@
min@@
restaurant
upstream
nickel
attended
substrates
expanding
icon
slide
openings
curing
tend
symbols
owners
AB@@
posts
informed
mi@@
lowest
correctly
evaluated
Col@@
carcinoma
hidden
zones
Reform
carbonate
epoxy
equation
tons
Secretariat
river
satisfied
gen@@
watching
ow@@
mmol
lived
Spain
prevented
visited
ant@@
turns
dem@@
resistor
reader
numerical
Enterprise
convert
aligned
mixtures
ideological
bright
piezoelectric
Youth
quantitative
backup
fusion
ey
saved
ely
steady
Thank
feeding
migration
adhesion
Teaching
cooperate
pricing
Spring
sol@@
insertion
Federal
liquidity
ina
pace
MA
entrance
km
centers
stator
lift
participating
sessions
busy
operators
institution
collective
ars
mat@@
tors
viewing
displaying
rock
View
met@@
flag
boost
tics
California
prove
TH@@
thick
reserve
territory
Prime
cast
ultrasound
suddenly
leaves
adapt
aromatic
subsequently
Environment
restrictions
Get
ind@@
availability
sheets
Performance
inputs
filtration
LCD
revolution
ched
directory
findings
decoder
0.01
decade
ff@@
falling
asking
formal
ved
ev@@
ranges
Tianjin
detects
super
TO
of@@
AD
empty
Did
downlink
rigid
recommend
tur@@
208
definitely
capacitance
ns
languages
ber
Har@@
tourists
aims
proposals
About
dialog
terrorist
IM@@
ay
struggle
carriers
ingredients
solving
hydrocarbon
Ji@@
ess
optimize
happiness
emitted
zed
difficulty
ain
creates
Real
ongoing
Work
defines
equality
whom
immediate
od@@
engines
purification
El@@
modify
environments
produces
drinking
Indian
iPhone
discovery
repeatedly
algorithms
shapes
configure
Chapter
ax@@
sit
pregnancy
waveform
Declaration
officer
largely
beauty
newspaper
Instead
spokesman
verify
Standard
Unit
oma
bro@@
elected
tubular
Man@@
US@@
ease
switched
regarded
brings
tic@@
bringing
ists
lie
privacy
enti@@
IV
air@@
foregoing
doctors
Section
strengthened
header
west
ide
feelings
Political
drives
regardless
Review
adhere
Sp@@
Despite
southern
inflammatory
6.@@
formulated
demonstrated
lever
XML
macro
consecutive
suffering
catheter
comparative
ases
aren
payments
unified
floating
mandate
yes
125
depression
diesel
qualified
comfort
sk@@
Sun
ES
extreme
evolution
23@@
diversity
reset
fail
402
ud@@
humans
Po@@
adi@@
pharmaceutically
campus
optimized
melting
polyethylene
vocational
powers
Dr.
explanation
magnitude
calculating
involve
defects
conduit
gun
paying
exploration
violations
initiatives
superior
wound
Online
graphics
ES@@
1997
rotate
Shi@@
CS@@
tables
saturated
muscle
marine
ade
delete
assess
GPS
Make
conjunction
sealed
codes
employee
ethanol
pipeline
finish
CT@@
marks
tolerance
Image
missions
bonded
ali@@
zhou
winning
earthquake
jet
presentation
Five
realization
crucial
77
pu@@
Centre
ranging
paths
compatible
β
del@@
ca@@
cu@@
Right
Ne@@
suspended
bid
offering
Chongqing
split
Risk
conducive
united
stories
mix
San
&apos;an
reviewed
worse
movies
accordingly
hurt
conflicts
02
east
meat
frequencies
Recently
91
ordered
globalization
Sciences
Add
miles
attributes
60@@
concluded
ile
Students
fix
transistors
focuses
assumed
precursor
peoples
doubt
ular
windows
200@@
blocking
dropped
PD@@
Ma@@
Several
victory
aries
phosphate
DESCRIPTION
adapter
val@@
Bush
limitation
cured
proximal
entirely
finger
List
planet
portfolio
dy
interfaces
labour
diet
Low
121
Tri@@
comment
ung
consultation
requiring
earnings
Digital
water@@
confirm
Civil
AI
den
thanks
fly
wires
forecast
seemed
abuse
Representative
mineral
pitch
structured
ial
arrow
Zhejiang
facility
MS@@
discussions
permit
derivatives
resist
recommendation
prison
dinner
homes
vital
additive
Come
holds
scheduling
Hotel
hand@@
integrate
tour
thermoplastic
favorite
transformer
serial
sulfate
polyester
Sichuan
Ca@@
Force
fraction
possibly
schematically
Commerce
illustration
sister
powered
rectangular
83
injured
integral
holiday
estimates
atom
API
·
etc.
preliminary
naturally
battle
cup
balanced
inf@@
judgment
Formula
ances
rows
ou
Sch@@
upgrading
CL@@
roads
Lu@@
comprised
upgrade
accessible
constraints
my@@
insufficient
clothing
dealing
randomly
sanctions
renal
pr@@
viewed
officially
adaptive
aff@@
discloses
bs
walking
comparing
signature
28@@
solvents
recess
Division
begins
RAM
savings
；
pulmonary
passengers
compact
4A
grass
margin
bath
desire
panels
predicted
R2
suction
illustrative
rent
tically
ish
additives
considerable
versions
lu@@
regime
Long
harm
pen@@
ser@@
Whether
proceeds
Am@@
leg
abnormal
regularly
ised
selective
AT
ging
IL@@
developers
mer@@
iting
guests
Software
transparency
mature
,000
updates
ale
coordinated
catalytic
methanol
hundred
responses
CA@@
taste
Products
roots
dosage
processors
11@@
Change
taxes
spaced
transceiver
painting
silicone
cerebral
opposition
minimize
dance
achievement
deployed
Region
ii
combine
bing
pressed
potentially
planar
ning
AN
mal@@
encoder
organ
ON@@
kilometers
rating
humidity
assembled
loved
smoking
assay
destruction
fewer
twenty
gre@@
miss
columns
anniversary
slurry
arrested
radius
sitting
fer@@
ue
firmly
350
authorized
ignition
monitored
FOR
126
As@@
Stock
3A
tight
Yet
Related
OR
separator
ly@@
ourselves
bigger
ere@@
1995
Wu
insulin
disorder
trees
Shandong
s.
crystalline
vulnerable
ann@@
bor@@
Comparative
tubes
Culture
curved
facts
1996
PS
sil@@
107
Turkey
keyboard
readily
uncertainty
sentence
wing
fied
automation
Mission
telling
potassium
Foundation
her@@
constitute
−
kong
worst
outdoor
Si
shield
Consequently
defining
appeal
routing
ED
stars
Building
gateway
recovered
ming
guess
hospitals
whatever
col@@
CO
Without
Panel
guided
tablet
precise
DS
Different
Par@@
manually
coronary
cooperative
restore
grasp
cycles
developments
collaboration
suffered
begun
modeling
attract
signing
entertainment
Islamic
interactive
whereas
tion@@
pos@@
northern
Hebei
thoughts
pri@@
appreciate
encryption
fac@@
Times
designs
salary
adults
的@@
Space
EL
Reporter
customs
Zone
procurement
apartment
acrylic
duct
careful
Pe@@
specialized
prosperity
Army
attracted
Christmas
Sometimes
accumulation
convenience
complications
monthly
disabled
For@@
ft
dri@@
PE@@
induction
neck
laid
Will
TO@@
mountain
commodity
Belt
mesh
sting
regulator
ana
empirical
brightness
Typically
garden
900
hu@@
Small
compartment
alk@@
chips
ran
ac
bracket
Create
Be
graphic
alternatively
organize
tone
providers
socialism
expenditure
diplomatic
wonderful
No@@
128
PS@@
danger
Station
radical
ey@@
Set
spiritual
Airport
SA
prospects
hua
angles
ys
Poly@@
breaking
sustained
guard
unknown
collecting
Fe@@
Spanish
SA@@
hydroxide
artery
phases
injected
emphasized
fe@@
flux
MP
lam@@
organizational
suggests
ently
adult
derivative
drilling
reflecting
opposed
boss
modifications
kit
discharged
beams
lin@@
enters
demonstrate
FC
paint
eng@@
mono@@
Museum
mathematical
2B
intensive
colleagues
stick
specifications
passive
il
downward
bending
yang
developer
ick
Experimental
sharp
fuzzy
catch
worried
ST
flame
Sol@@
PA
Value
roles
collector
rotated
vaccine
Strategy
listening
ke@@
R1
weekend
respiratory
shooting
Cloud
examined
Go
IR
attend
Ri@@
can@@
topics
＇
reserves
gradient
mid@@
matches
executing
losing
summit
26@@
revised
22@@
PCR
belongs
putting
Summit
contacting
Check
omitted
economics
streams
vascular
award
graphical
inhibitor
iso@@
native
Anti
occupied
emulsion
script
tissues
inches
cameras
ement
initiated
regression
rational
filler
Rec@@
acceptance
Jiangsu
assume
deviation
Local
MAC
q
circumferential
tract
massive
eng
mobility
falls
ner
icity
Australian
Preparation
surfactant
wild
talked
Wall
bit@@
arc
helpful
ticket
Latin
Studies
cuts
27@@
partition
sen@@
automated
Community
consultations
chemistry
lay
killing
suppliers
Structure
duties
disorders
Yu@@
converting
deposits
peacekeeping
ong@@
0.2
bottle
exception
comply
eth@@
93
polarization
tional
tunnel
hy@@
trace
BO@@
lists
chemicals
05
shorter
Pi@@
form@@
AM
post@@
beat
interpretation
ear
80@@
listing
ads
engaging
bul@@
checked
Fi@@
nearby
1994
fitting
Production
oven
appropriately
journey
Equipment
Justice
boys
Electric
neither
comprehensively
shut
hoped
Media
multimedia
doped
manifold
69
introducing
utilizing
thesis
Press
issuance
0.0@@
ls
Xinjiang
focal
limitations
Best
pension
atic
Everyone
ok@@
tly
j
1.0
threats
Green
Patients
encouraged
refractive
loads
indoor
ned
roof
proximity
Hence
reputation
ets
Zealand
510
fin@@
spectral
da
Referring
wise
Micro@@
additionally
lots
NO@@
hate
pur@@
Thailand
automotive
furnace
bulk
exterior
Taking
thousand
cy@@
Systems
NE@@
Theory
Jo@@
q@@
Jin@@
bands
So@@
legitimate
TR@@
imported
prime
EM@@
scholars
sounds
appreciation
invested
broke
intention
philosophy
absorbing
transducer
pairs
ute
coolant
spots
screening
comp@@
sal@@
advantageously
PR@@
205
demonstration
ening
originally
04
Society
Embodiments
？
ation@@
ta
SD
Upon
construct
ast
Tourism
thi@@
metadata
7.@@
vitamin
inventive
predict
Index
treaty
depicts
nerve
def@@
seventh
neutral
wider
Pl@@
weapon
stuff
systematic
faith
fracture
itation
molded
Im@@
cord
letters
Java
absorbent
Egypt
periodic
counter@@
Current
3,@@
Bur@@
seats
snow
professor
,@@
emotional
profound
SD@@
residential
tively
Room
C1
usual
accomplished
improvements
mer
214
retention
adjustable
professionals
head@@
utilize
headquarters
ain@@
simplified
quantum
prominent
conservation
Capital
CC
shoes
Mi@@
closure
landscape
merely
pregnant
scores
CA
ae
modernization
ma@@
nut
Agricultural
bases
alkali
friendship
fails
hal@@
scenario
gift
resulted
containers
promise
spaces
PM@@
pulses
smoke
lid
cement
1.2
Properties
ising
proud
330
inc@@
fitted
classified
Urban
ammonium
hom@@
recover
Regional
Go@@
collision
Basic
CON@@
meets
communicating
contemporary
undertaken
Vice
afford
Planning
113
marker
suspected
ultimately
Indonesia
lets
wearing
moon
cal@@
sun@@
frequent
Still
142
complementary
trac@@
tray
nano@@
unemployment
hence
Gr@@
variant
ya
announcement
accumulated
appliance
attempts
stirring
disarmament
Ltd.
refugees
anc@@
ges
Training
trafficking
cont@@
SE
ATION
hai
union
attach
down@@
gains
harmonious
actors
mol
operative
deepening
civilian
Private
truck
Four
varied
occurring
disposal
Following
.com
commission
Innovation
Computer
pole
Str@@
teach
Zhou
legislative
CO2
trained
fragment
commitments
sand
unity
Italian
shoulder
404
ination
vitro
des@@
Constitution
Sports
Corporation
Measures
mor@@
multilateral
Clinton
Chief
Min@@
Various
SH@@
timer
defect
ick@@
movements
encountered
Video
ash@@
Sal@@
Xinhua
resolved
declared
wash
cultivation
angular
87
accompanying
microphone
boxes
coat
brief
admitted
Hu
op
accidents
discrete
alert
referring
eastern
David
Tibet
caught
operable
97
certification
vessels
relate
vigorously
cyclic
rings
excited
Rapporteur
returning
134
King
boards
dispute
Insurance
RFID
hypo@@
dispersed
suffer
enhancement
supplier
tower
ori@@
Bu@@
ban
feasibility
IF@@
none
amazing
502
DI@@
Syria
disadvantages
arrival
emphasis
fying
protocols
monomers
connects
examine
bars
attractive
infected
appointed
tonight
standardized
polar
elevator
Family
productive
Land
420
PE
venture
voltages
temporarily
glycol
transformed
grant
301
WTO
Dell
flowers
assemblies
addressing
blind
finite
sm@@
ides
taiwan
anywhere
thinks
statistically
precisely
grew
casting
land@@
paste
heritage
Simulation
Monitoring
ica
imposed
hum@@
ole
Chengdu
ky
ingly
disputes
radar
Search
obligation
church
CR@@
Operation
particulate
rehabilitation
Trans@@
hinge
306
strait
supplying
momentum
vegetables
administering
stood
fluorescent
cooking
arts
violation
directional
hotels
writer
tivity
harmful
summarized
2.0
203
foods
ams
founded
Meeting
delayed
gravity
tical
ulation
AG@@
cognitive
Ver@@
£
±
UR@@
grams
equally
ements
tens
dates
Bl@@
amorphous
sulfur
inform
EN
absolutely
jo@@
countermeasures
ture
traveling
indigenous
distinct
Administrative
fu@@
widespread
boat
pads
exceeded
29@@
acquire
RC
ail
ari@@
Oil
prescribed
regulating
ju@@
donor
supposed
valuation
pigment
imagine
intervals
Hall
accompanied
8.@@
Cre@@
ency
ap
ris@@
vectors
pursue
epidemic
Machine
oring
Which
om
welcomed
cat@@
proposes
bore
dynamics
enthusiasm
Light
Treaty
slope
expertise
analysts
shear
slots
clearance
mount
vinyl
antennas
grooves
formulations
】
residence
shipping
mortgage
exciting
toxic
ess@@
ei@@
360
cardiac
satisfy
Prevention
branches
Device
accused
ventilation
ruling
capsule
USA
marking
4,@@
inal
【
Ireland
breakfast
contrary
furniture
ened
sink
mit@@
Ni@@
CS
granted
joining
dated
urbanization
choices
dad
liabilities
SEQ
victim
inv@@
presidential
essence
our@@
publication
investor
permission
opens
hardness
deleted
ist@@
BACKGROUND
waveguide
resins
yi
Cy@@
orthogonal
feasible
Professor
ach
escape
tensile
viral
pushed
mortality
Optionally
ingredient
doors
File
recombinant
encrypted
Jesus
ots
1,000
activate
Cr@@
Xu
restriction
junction
PA@@
Ma
infections
tobacco
Electronic
legs
exact
ride
stationary
selects
reproduction
Download
PRO@@
streets
Black
geometry
DO@@
tier
treatments
binary
adds
regulated
trillion
conversation
migrant
off@@
abilities
Mode
Vietnam
wi@@
propylene
personality
neighboring
Communication
atomic
wake
funded
accounted
Cross
cure
Malaysia
sti@@
placement
ino
fraud
LTE
ours
Dec@@
lessons
Does
console
Chemical
Fl@@
carries
ka
verified
videos
priorities
differentiation
poly
publicity
declined
Within
interact
acy
bin
hem@@
chains
Steel
pins
indicative
belong
analyses
exhibit
physiological
varies
papers
ASEAN
minor
enemy
VI
fluorescence
prevents
Ste@@
Nanjing
apps
Ob@@
fatigue
uan
feels
dent
strike
Journal
@
nervous
checking
axially
judges
alive
membership
bypass
adsorption
med
constitution
Class
farm
if@@
Multi
edit
amplification
1993
confident
decreasing
star@@
URL
upward
109
briefly
crack
Sino
bas@@
Er@@
tw@@
worker
bacterial
coatings
Price
wage
Mor@@
SU@@
queue
152
accelerated
hall
diluted
purchased
fired
Saudi
pat@@
5A
Medicine
Big
websites
kidney
spl@@
birthday
distortion
Authority
Intel
linking
bo
2a
Series
1B
Discussion
regulate
mention
eliminated
retaining
Rural
imp@@
highway
destroyed
coefficients
PH@@
tired
clo@@
influencing
10.@@
suit
beverage
courage
cher
ure@@
s.@@
cheap
Subsequently
ji
peer
Commissioner
visits
Guide
tap
Radio
ranking
79
loc@@
consciousness
Bluetooth
....
Anti@@
ine@@
conclusions
cotton
soul
desktop
motors
overlap
ret@@
tumors
pathway
polishing
throttle
recited
checks
quiet
ensures
urged
Advisory
Modern
wedding
alleviation
planes
assistant
Regulations
LC
Ge@@
che@@
receipt
Suitable
tourist
idle
Na@@
makers
dependence
strange
cables
ell
sis
ra
Sha@@
dress
partly
ust
implant
ped
Jiang
courts
Vi@@
reinforced
Or@@
10,000
hypertension
ens@@
radially
sought
microns
blades
punishment
tells
contributed
coils
Cap@@
ultra
atmospheric
gasoline
deaths
BP
Mechanism
nonlinear
tie
PD
lifting
ger@@
LEDs
coordinates
discount
graduates
carboxylic
axes
moderate
cabinet
annex
Line
SC
SP
Practice
Master
MHz
gastric
222
fication
minority
latch
blocked
rated
Joint
tough
Main
ov@@
stimulation
swimming
responsive
rac@@
classroom
ancy
happening
committees
Library
L.@@
starch
Iraqi
Program
optimum
guaranteed
Influence
gray
visitors
21st
compatibility
Supreme
lenses
top@@
connectors
placing
Millennium
nutrition
SW@@
Chang@@
Post
ose
recruitment
UNDP
inert
Her@@
Henan
Legal
Do@@
Especially
CP
injuries
sight
walked
ake
jurisdiction
CE
coach
aviation
gained
appointment
villages
photosensitive
totally
voting
belief
luminance
Gas
editor
voluntary
unsaturated
pressures
preparations
bre@@
Island
pulled
Deputy
synchronous
Ukraine
landing
subscriber
functioning
answers
ili@@
BC
hoping
Eastern
inevitable
Inspection
kers
Del@@
exclusive
Huang
Standing
programmable
tro@@
Reference
workpiece
sick
ths
pore
ards
reviews
03
storm
imports
vers
89
gathered
robust
volunteers
historic
Met@@
preset
spacer
predefined
prognosis
Background
Characteristics
curriculum
missile
George
TC
constituted
ultimate
gross
mistake
filed
dreams
enlarged
izer
rack
Em@@
liner
tooth
alizing
playback
entrepreneurs
eighth
irradiation
ocean
shower
matched
subframe
instant
polyurethane
infarction
freely
Comprehensive
LE
theories
illness
proceedings
450
gn@@
giant
meal
flying
ger
separating
deepen
DVD
axle
thereon
references
Criminal
apparatuses
buttons
5,@@
civilians
Sudan
mu@@
elling
70@@
programmed
mistakes
wishes
blank
mom
TA
households
declaration
unnecessary
Show
Republican
taught
U.
solids
Ni
Premier
Source
li
avoided
Nor@@
Compound
metric
drill
Besides
foil
pedal
35@@
editing
desk
Guangxi
adjustments
tickets
oxides
networking
1.1
textile
refused
men@@
barrel
geographical
stri@@
EX@@
fishing
dic@@
Senate
warned
Fujian
312
displaced
administrator
retain
habits
obstacles
bolt
speeds
inclined
Lake
diamond
classic
purchasing
app@@
stacked
hide
premise
Ser@@
sen
Yu
vo@@
individually
tile
decomposition
trials
conveyor
accommodate
syn@@
setup
Peace
06
outcomes
tering
pres@@
Love
Soviet
Thanks
GB
San@@
smile
pursuit
diverse
guest
younger
clamping
sible
repeat
FIGURE
pivot
ex
To@@
1992
nanoparticles
acet@@
router
wisdom
she@@
lowered
ppm
6A
reinforcing
machining
Growth
overnight
19th
ratios
postoperative
texture
religion
influenced
appliances
Indeed
museum
proportional
rat
CN@@
Greece
We@@
Film
osis
Learning
pal@@
pers
hepatitis
honest
authorization
purity
shielding
ty@@
S1
subset
int@@
transverse
chambers
Currently
ited
2D
ROM
Commercial
excitation
EL@@
corrected
sted
ammonia
PP@@
implications
Lord
describing
pose
leaf
favorable
Star
Additional
que
grinding
anchor
dominant
Fi
luxury
SUMMARY
concentrate
Up
pped
fallen
HP
herself
satisfactory
ran@@
Channel
graduate
ass
CF@@
amide
260
noticed
gaps
secretariat
pipes
Unfortunately
ultraviolet
Syrian
Defense
Internal
fastening
eling
sweet
everywhere
renewable
injector
documentation
livelihood
spo@@
controllers
rid
UL@@
Net
131
pe
Hunan
photovoltaic
confirmation
asi@@
competent
fluids
Xin@@
Determination
diffraction
ils
IA
crazy
Olympics
artists
Status
Yunnan
dye
Pr@@
equilibrium
hydroxy@@
Paul
ji@@
Visual
barriers
ack
Philippines
Mil@@
disasters
Property
cap@@
profiles
buyers
Platform
1990
analytical
chemotherapy
Ho@@
lifetime
Team
Find
ven@@
ables
History
chose
alkaline
ged
pping
routes
ok
tradition
songs
colour
tives
3.5
Remove
populations
Summary
laminated
occupation
ward
Val@@
TION
anxiety
CH
clamp
alternate
yn@@
visiting
Lin
CI@@
schemes
Drug
broader
tail
HO@@
remarkable
slip
lying
fold
earn
lunch
alia
ionic
speakers
accessories
ro
towns
lipid
retained
Cu
oph@@
Secondly
Charter
enc@@
proceed
Enterprises
para
hood
Michael
likes
burn
surveillance
A.
izes
council
plating
Self
penalty
spacing
BA
stimulate
sup@@
sec@@
ory
optic
catalysts
worthy
istic
bags
Port
reply
Switzerland
sole
arbitrary
suspect
everybody
rental
Linux
underground
216
transferring
Hong@@
authors
Dynamic
mainstream
stakeholders
realizing
brush
Expression
Companies
TC@@
Pol@@
handled
butyl
0.3
hearts
inhibit
tablets
Te@@
explosion
cervical
shadow
nose
Xiao
surprised
elevated
Zhao
sy
UI
patch
surprise
shed
Gen@@
discover
cer@@
pan@@
Traditional
deficit
myocardial
sovereignty
Wei
sport
camp
restructuring
fragments
μ@@
involvement
4B
nano
explains
shortage
termination
wages
festival
cultures
Processing
nit@@
Hainan
e.@@
reads
Number
Permanent
Ju@@
Perhaps
zer
plot
impacts
clip
3B
bearings
arrest
Wi
IG@@
sudden
counties
socket
ao@@
survive
contacted
fabricated
certificates
advances
dispensing
copies
lending
multilayer
136
mutually
cat
gesture
propose
behaviour
lawyer
ometer
owing
outlook
ranked
cultivate
Netherlands
finds
blow
spare
ware
MA@@
buyer
Base
mixer
connectivity
ah@@
Town
Higher
Later
CEO
threaded
Document
glasses
inclusion
explaining
installing
Northern
realistic
Texas
dynamically
suppressed
paragraphs
mes@@
190
transit
.1
databases
Storage
magazine
610
comm@@
Cuba
stops
lasting
Ber@@
assessed
SL@@
Rules
ium
precipitation
solder
wa@@
electrochemical
cross@@
fifty
evaporation
gar@@
updating
reagent
bedroom
stands
volatility
euro
interactions
sequentially
qing
au
projected
vent
converts
prospect
Detection
Total
Materials
wei
refrigerator
Geneva
Hz
Wuhan
ff
forever
emerged
consent
m2
employing
DP
parks
Ru@@
readers
ame
collapse
jump
di
diabetic
integer
ama
Mongolia
rendering
wonder
Tur@@
opposing
missed
att@@
locally
proxy
AV@@
integrating
S2
Du@@
methyl@@
UL
amp@@
highlight
chlor@@
necessity
ECU
ham
expense
anymore
inflammation
encouraging
residues
elongated
08
triggered
posted
unprecedented
employ
smartphone
cardiovascular
picked
tru@@
pen
beach
investigations
drag
chi@@
Los
Level
308
OH
subsidies
centres
compete
alloys
Southern
searching
TFT
bil@@
flood
Us
medi@@
Mac
rectification
vivo
Advanced
bubble
dies
Dr@@
dat@@
capturing
rays
spherical
alpha
}
9.@@
blend
Music
wired
packages
{
delegations
coded
comparator
maintains
Framework
oscillator
ow
fluctuations
deterioration
choosing
thermo@@
ME
Configuration
mountains
prefer
ir
wheat
pushing
gang
burst
300@@
markers
but@@
123
telecommunications
incoming
minimal
SM@@
Between
mood
ton@@
designing
burning
rotates
metabolism
preference
Hel@@
hex@@
Flow
arrive
permits
yields
ech@@
angry
lucky
overview
withdrawal
James
holders
20th
Sorry
lin
tracks
fruits
corn
1.3
ple@@
layered
crash
ee
centralized
consistency
ect
ities
delivering
precious
maximize
heavily
18th
Natural
microprocessor
ne
uh
invasive
relatives
immun@@
Fourth
Lu
similarly
intr@@
Given
Kosovo
react
dogs
incentive
sh
assisted
informal
Cal@@
tends
absorb
sign@@
gro@@
dy@@
formulate
reinforcement
At@@
argument
comparable
restaurants
deeper
artistic
leverage
consist
etch
throw
optimistic
pickup
anger
impurities
recipient
cargo
immuno@@
ys@@
transmissions
volumes
Algorithm
ce
DL
fil@@
Tokyo
flower
Congo
acc@@
1st
hydrophobic
honor
esters
L1
Supply
RT
PRE@@
auto@@
atively
ears
handed
zz@@
ignored
144
cleaner
pleased
elsewhere
transfers
laminate
135
propagation
oid
Experts
acetic
Having
chair
PR
Award
inhibition
contributing
league
generations
indirect
Start
Cs
Mal@@
MD@@
tags
shoot
memories
differ
guarantees
tendency
Ren@@
Tribunal
Zhu
resonant
Mer@@
promised
entrepreneurship
kid
safeguard
adaptation
sees
fingerprint
Professional
promoter
、
actor
ums
criticism
modulated
elled
sn@@
qualification
protrusion
602
permitted
ED@@
enter@@
workshop
504
Depending
fermentation
childhood
ax
ef@@
Sustainable
NA
tom@@
correlated
gears
sad
Super@@
fabrication
assignment
low@@
diodes
promotes
validity
murder
Ethernet
engineers
surplus
compensate
pot
cooler
ENT
suicide
diagnosed
blog
destroy
fairly
capacitive
bleeding
posed
coastal
Active
aggregate
vitality
pm
Cell
premium
calm
periphery
drops
90@@
34@@
Han
negotiation
substantive
ster@@
pocket
unlikely
deals
Content
formats
regeneration
recommends
absorbed
curable
Fed
rejected
denied
pul@@
polypropylene
acrylate
Language
Large
Angeles
macro@@
Agriculture
Case
Oracle
targeting
401
sir
340
athletes
subsystem
Though
PT@@
physically
pro
FA
accessed
hosted
Hangzhou
bol@@
circles
charger
phosphorus
capacitors
gs
Nuclear
incidents
ha
seller
520
ack@@
phenyl
406
Accounting
chassis
nucleotide
shifting
ce@@
labeled
pol@@
extrusion
Man
publicly
ore@@
contemplated
ading
evaluating
Xiao@@
horse
meaningful
are@@
Ba@@
cake
deficiency
elimination
yu
enclosure
Bill
electrostatic
sum@@
successively
defence
awarded
shops
responded
Canadian
vegetable
alumina
Resource
thermally
HPLC
diagrams
Moscow
cri@@
damping
publishing
pumps
immigration
Kar@@
Wh@@
shouldn
Relationship
CI
borne
Autonomous
beings
ayed
iness
eggs
arrays
shortcomings
personally
Credit
smoothly
beta
Cancer
Mao
somewhat
specially
Jian@@
Railway
gated
Ms
und@@
not@@
ISO
HTTP
DS@@
highlighted
crew
pursuant
lab@@
plenty
throughput
Progress
arrange
ref@@
artist
sat
expressing
diaphragm
universe
walks
importantly
identifies
maps
HD
medication
lowering
varieties
cylinders
equ@@
UNICEF
animation
6,@@
Material
chat
hor@@
suitably
Game
Bri@@
Laboratory
spin
decoration
gra@@
emergence
quantities
founding
Problems
evil
harmony
conductors
LAN
eless
Military
ministry
fitness
Would
evaporated
trusted
tes
bird
mel@@
Shaanxi
constitutes
scattering
keeps
sphere
permeability
DM
avoiding
accelerating
Fu@@
industrialization
spiral
ban@@
oils
acted
impairment
Optimization
inductor
Transport
211
belonging
violent
Branch
Statistics
Log@@
scanner
℃
basketball
seeds
A1
wastewater
trench
12.@@
hardly
eNB
isation
spinal
Det@@
commodities
5,000
scored
watched
methodology
maker
pan
emitter
PM
votes
frozen
complaints
challenging
rollers
Argentina
Greek
ces
balancing
adopts
bi
MRI
rot@@
em
ences
deploy
TP
2nd
arising
requesting
surrounded
Xi@@
broadcasting
sin
detention
initiate
Islands
computed
mines
servo
curves
Function
sharply
Single
patterned
ta@@
suppress
lands
Bro@@
Bal@@
ish@@
Pro
infl@@
backed
bladder
IBM
Comparison
bin@@
arm@@
warehouse
magnets
spreading
aden@@
seismic
Young
pillar
voters
ba
vicinity
aming
flights
36@@
Expo
edi@@
Lebanon
inherent
eliminating
stomach
impression
enzymes
ecosystem
flu@@
Session
roughly
inclusive
Multi@@
500@@
1991
accountability
Wireless
calendar
Can@@
Ku@@
malignant
governing
ur
internationally
Bay
shifted
districts
plunger
subsidiary
biomass
gener@@
Yesterday
calculates
CM@@
bent
discharging
Integrated
cam@@
overhead
rough
crowd
VM
crystals
facial
abrasive
qui@@
sake
hell
knowing
ate@@
ella
bicycle
observations
EC
packing
ceiling
Yan@@
weighted
Supervision
P1
physics
buried
Gaza
Blue
Gl@@
waters
ET
boundaries
durability
Very
exhibits
anes
ography
Top
token
considers
bling
Temperature
Reserve
ser
planetary
Tim@@
430
hormone
undertake
brown
baseline
alternating
condenser
stepped
ninth
plastics
Florida
Multiple
answered
Automatic
ender
Sweden
conveying
accommodation
chicken
cheng
Mu@@
restoration
distillation
.2
modifying
glad
Members
dial
Tell
PCB
ethics
Christian
encounter
IE@@
Twitter
scenarios
Regarding
teenth
span
Dong@@
reservation
stayed
microscope
Countries
dare
Looking
vertically
molten
Contract
Primary
outline
wanna
232
streaming
C2
by@@
coast
transplantation
evaporator
Bre@@
maturity
threads
hydrophilic
sia
lubricant
UT
enting
resident
exchanged
Fr@@
kin@@
indirectly
crankshaft
laptop
kin
rotatable
ologic
sem@@
capita
domains
ome
Assessment
D.
breakthrough
Ap@@
GE
initiator
petroleum
currencies
MB
Nan@@
bureau
investing
proven
drainage
ids
O2
simulated
popularity
healthcare
pile
soci@@
Child
T1
ple
olefin
journal
Engine
thoroughly
outbreak
grounds
duc@@
temporal
leg@@
executable
fibre
pneumatic
Democrats
prompt
backward
reveal
Early
sor@@
Labour
leather
grassroots
combines
bon@@
Macao
Otherwise
Anhui
severely
behaviors
molar
TE
lawyers
TCP
curvature
removable
screws
ains
Database
Virtual
gathering
folded
swing
actuation
HTML
fingers
shelf
monitors
FIELD
viruses
Hello
somebody
VR
ared
birds
colored
stiffness
Enter
executes
indexes
sof@@
Fo@@
shi@@
expressions
offline
sponsored
Guizhou
Suppliers
carriage
succeed
arise
enjoyed
affordable
gradual
reflector
Hol@@
securing
gg@@
pay@@
Read
invite
Myanmar
deemed
HE@@
revolutionary
hydroxyl
uring
gri@@
rarely
advertisement
golden
linkage
contamination
yan
Pan@@
differently
consumed
norms
yst@@
modulus
libraries
retirement
tips
real@@
Sil@@
SI
5G
Yangtze
Pres@@
acquiring
Could
branched
PP
Parliament
pp@@
classical
224
apoptosis
suppression
slave
Caribbean
sidewall
appraisal
fixation
demonstrates
Tom
whenever
dium
entries
ices
chest
doses
foot@@
actuators
dental
Shanxi
accelerator
humanity
cream
Knowledge
YOU
book@@
calculations
recycling
subscription
solenoid
associate
bind
gh
clusters
bidding
sy@@
villagers
periodically
aliphatic
eness
intra
Tre@@
preventive
fierce
pointer
squ@@
associations
ll@@
steadily
cracking
DB
é@@
cli@@
Yan
performances
joy
equations
pop
ups
OFDM
modulator
ier
Point
rises
Ir@@
citizen
Jack
exploitation
Figs
dying
circulating
bomb
Chicago
conditioner
freeze
dly
NATO
Factors
lab
gather
Investigation
issuing
designer
solubility
GM
mut@@
Village
tilt
systemic
curative
departing
loose
harder
supplement
simultaneous
Net@@
ron
R3
cholesterol
FO@@
IR@@
electro
beer
ication
tab@@
Major
peptides
Measurement
handover
backing
spark
suited
IB@@
hydrocarbons
stopping
psychology
nutritional
dish
Arabia
dealt
versus
dom@@
overlapping
literary
organizing
Republicans
oting
Operations
gates
ford
peroxide
Zhi@@
warming
planting
vacation
Fer@@
ministers
weights
variance
dividend
bers
crossing
151
partnerships
DR@@
propaganda
ush@@
persistent
graphite
fate
Help
exceeding
recession
lamps
Scientific
constitutional
greenhouse
270
ave
inquiry
woven
Regulatory
play@@
Box
eable
urine
jun
162
eted
Gre@@
probes
countryside
Nigeria
Color
settled
WHO
creativity
unchanged
emotions
donors
grateful
resume
fever
ace
Cur@@
lubricating
SN@@
tim@@
saturation
distinguish
Hy@@
liked
Outlook
knife
ink@@
manipulation
IV@@
preferences
ishing
favor
St.
pending
geographic
aling
Disease
Lee
loo@@
Por@@
Trust
boiling
Applications
aggregation
consuming
album
biology
eli@@
dozens
Loc@@
zo@@
Transfer
impurity
convex
Rem@@
remind
CSI
nominal
embodied
MPa
Remote
E.
lip
producers
intense
Rel@@
inhibitors
MT@@
L2
hook
releasing
healing
mill
rolled
la
&apos;clock
carbide
Give
grating
Old
hang
etched
alist
mRNA
lac@@
TF@@
shots
ny
urge
convention
toilet
occasion
ail@@
Feng
breeding
sensed
pet
Rome
knee
p.m.
sters
hi
mate
ately
incorporate
breathing
MB@@
bills
motivation
communicated
allo@@
aking
profitability
penetration
safely
lat@@
terrible
Gi@@
ws
IM
consulting
ette
TE@@
modular
Initiative
Form
fastest
robots
Wen
meth@@
Hubei
exercises
grand
ese
gaseous
replacing
glut@@
™
Distribution
ented
Off@@
Alliance
copyright
locate
Bridge
Choose
clarify
counting
sively
determin@@
convergence
RP
Ben@@
Electro@@
benchmark
customized
Phase
IF
lane
Mag@@
Should
berg
awards
Sales
ulated
154
aring
inevitably
Sc@@
conduction
worn
aside
Muslim
Poland
314
invalid
tuning
PLC
invasion
max
stimulus
tre@@
hol@@
pointing
mini
hel@@
affinity
executives
prize
unexpected
pon@@
zoom
She@@
surge
Vocational
resultant
kes
motherland
copolymers
5B
qi
headed
Pressure
xin
teen
reserved
boiler
Book
fre@@
e.
dro@@
shareholder
accessing
eu@@
resilient
bri@@
hasn
shutter
fake
infectious
MI@@
styles
engineer
asthma
threatened
EV@@
condensation
synthesized
rs
tered
Core
currents
retrieval
pa@@
replication
uniformly
ACK
invitation
Ti
interconnect
xi
218
Gar@@
dating
unstable
oning
sustainability
ub@@
activating
endo@@
tide
Changes
validation
enormous
reasonably
Yuan
mathematics
Smart
witness
412
insulator
producer
Combined
Ordinance
alleged
joints
mutation
PWM
circumference
criterion
compulsory
ab
refrigeration
Ed@@
maritime
lev@@
Fe
orderly
visa
leak
S3
ignore
Royal
é
decoded
Thereafter
guilty
influences
conservative
indispensable
dressing
lesson
photoelectric
absorber
admission
constituting
extraordinary
tran@@
Sur@@
add@@
golf
Studio
geological
cho@@
anyway
crosslinking
intangible
leisure
100,000
yeah
asted
responding
tures
DM@@
ye
tra@@
pounds
rendered
permissions
Normal
PDF
relax
crops
Deng
perfectly
CNN
angi@@
Plant
nan@@
ples
consolidated
eous
Up@@
restrict
3.0
magic
voted
oun@@
Long@@
terminated
here@@
wholesale
volunteer
likelihood
sewage
Peter
somewhere
Qing@@
membranes
alliance
unusual
PI
App
Turkish
Pal@@
aded
blockchain
wavelengths
intestinal
lady
journalists
Customer
ols
305
Full
debts
VE
vulnerability
idi@@
bal@@
inventors
oxy@@
tanks
tears
consequence
conferences
EP
convinced
cancel
facilitating
138
GA
Inner
Goals
specifies
feng
Play
netizens
couples
kets
tied
risen
compares
crop
uni@@
obesity
Op@@
Conclusions
influenza
asting
ays
7A
cle@@
strains
Preferred
hose
sheath
thirty
oper@@
lengths
Install
retrieve
Again
IoT
ures
screens
garbage
141
taxi
aying
Everything
controllable
commit
envelope
delays
bles
ners
amed
ries
Communications
endothelial
polarity
projections
governor
ici@@
3rd
smell
Double
pac@@
FL@@
summarizes
ney
implantation
emp@@
ble@@
resistive
fluor@@
710
celebrate
collar
labels
Sam@@
exam
extracts
Heat
xi@@
2C
platinum
quoted
2b
Unlike
prop@@
AWS
hero
prohibited
eter
Pat@@
downloaded
bra@@
acidic
Air@@
severity
selector
sa
pleasure
diversified
pores
unlike
defend
noting
blo@@
Jing@@
firmware
LS
egg
computation
2.2
Xia@@
Crime
Norway
Along
na
stuck
Miss
publish
loves
geo@@
induce
fu
oming
Jiangxi
tle
pressurized
folding
evident
Yi
Song
constraint
brothers
facilitates
relying
one@@
exploded
tries
toxicity
Qi@@
Common
primer
ades
valued
im
brine
fies
toluene
touched
2.1
Surface
restored
positively
Personal
altered
check@@
resonator
slight
issuer
inverse
arbitration
FT
funny
BR@@
disclose
Treasury
cyclo@@
dering
Out@@
aryl
internally
ious
pic@@
T2
translated
Ko@@
Tian@@
regards
PV@@
spec@@
Silk
lifestyle
stro@@
4.5
Welcome
Smith
transient
ham@@
FS
halogen
Error
scenes
xing
Impact
Car
38@@
considerations
Super
702
slice
arian
2,000
Client
spoken
lake
Alibaba
Hon@@
fairness
Economics
pent@@
allies
newspapers
viewer
Gold
backlight
territorial
easing
Agent
assign
clause
char@@
popul@@
Han@@
legacy
117
formally
asts
applicant
preferential
4th
drama
AA
A2
annealing
earned
sa@@
sion@@
optimizing
singing
traction
scattered
Wen@@
spindle
moiety
dev@@
undoubtedly
ko
sibility
Hydro@@
apple
cut@@
wearable
reproductive
elasticity
Iranian
balloon
elastomer
pumping
Grand
lease
promising
nozzles
ental
apertures
Comrade
gauge
extr@@
Georgia
Mark
electrons
suite
detectors
Motor
303
ano
undergoing
divide
concave
Cost
explicitly
Store
drinks
purchases
moments
6B
Liaoning
Cro@@
gaming
exploring
fulfill
hydrolysis
recall
Likewise
Afghan
reliably
perception
mild
communicates
.5
Prior
analyzer
sleeping
mapped
cope
luck
ony
jacket
Chi@@
oscillation
Update
ide@@
van@@
adopting
cobalt
UNCTAD
mankind
mediated
possibilities
optim@@
Cas@@
ich@@
prostate
ous@@
metastasis
TA@@
Display
preservation
folk
silane
premises
fuels
ker@@
surfactants
stabilize
hu
guides
genic
Save
a.m.
hometown
itable
dining
Sir
antly
cumulative
breath
capacities
Tax
Nevertheless
regulators
cited
Compl@@
monopoly
win@@
obstacle
macroeconomic
stipulated
zation
blast
genome
ecting
inhibiting
metabolic
Work@@
settle
Toilet
factories
Web@@
interfere
tires
researcher
Watch
geometric
aluminium
commercially
09
disadvantage
PER@@
thrust
bubbles
Southeast
establishes
phenomena
Lin@@
dividing
receptacle
yen
1990s
506
0.4
CM
workflow
restart
Tang
Shu@@
13th
Yong@@
logy
modem
consolidation
My@@
Sk@@
Excel
Specific
Me
transporting
orange
IO@@
biennium
Rate
Labor
springs
styrene
Delta
cra@@
withdraw
any@@
Qingdao
07
recognizes
wor@@
packed
portal
islands
Physical
Overall
pathological
Fifth
tennis
ranks
rank
Palestinians
gging
Countermeasures
nobody
han
variants
fuse
assi@@
junior
Pri@@
viewpoint
lesions
py@@
avi@@
launching
Settings
attacked
Arts
turnover
thr@@
Installation
staying
trap
Cu@@
aining
winner
Things
Map
virtually
durable
Brown
ining
Users
33@@
Memory
parliament
DETAILED
progressive
reward
breakdown
cleaned
liquids
integrally
EM
juice
sputtering
Particularly
dam@@
cry
implements
hosts
ace@@
intersection
balls
borders
backbone
CPPCC
tioned
contr@@
dozen
AI@@
scaling
Officer
ues
considerably
Standards
submission
distances
chances
HC@@
ll
everyday
BL@@
capillary
dominated
Bor@@
Ig@@
fin
512
Housing
rap@@
Connect
pneumonia
ss@@
Au@@
604
advancement
spir@@
Diagnosis
glyco@@
501
cro@@
Portugal
Fire
receptors
impose
Don@@
questionnaire
stabilizing
Strategic
obtains
sentenced
constructive
interpreted
organ@@
receivable
201@@
uck
SF@@
Electrical
1.4
situated
sheng
constructing
coherent
eligible
designers
messaging
don@@
drought
Climate
Wei@@
ideology
admit
Mechanical
arity
eting
WLAN
Is@@
hard@@
urea
advancing
odd
ologists
ket
hash
Jordan
withstand
mM
Zhong@@
minds
B.
entation
topology
standby
Mrs.
HA
logging
edition
Blood
investigating
Detailed
Economy
distribute
failures
set@@
DC@@
firing
Vienna
pil@@
215
infusion
Samsung
mes
12th
boot
clarity
usable
diver@@
preserve
sintering
shake
ligand
adhered
encourages
completing
tionally
Ming
ment@@
chemically
620
sli@@
iPad
Iron
photoresist
Mountain
detergent
politicians
bet
fastener
transported
Learn
grip
Res@@
Bosnia
bytes
146
broadband
SR@@
crystallization
recalled
Similar
Fre@@
408
Emergency
stresses
amendment
incomplete
AV
550
tan
analyte
gastrointestinal
emphasize
Hor@@
intermediary
ruled
reacted
astr@@
Put
disabilities
Ambassador
tant
sequential
8A
Page
bot@@
Hi
Coun@@
connotation
fellow
lim@@
centered
lining
phrase
nor@@
buses
fluorine
solely
notify
Ocean
Direct
ained
Putin
phot@@
neighbor
Back
immunity
assumption
rope
bian
OLED
Ps
inputted
IMF
highlights
PET
servants
Czech
Manufacturing
interrupt
instability
abdominal
interlayer
Six
hui
torture
dissipation
incorporating
od
ank@@
Metal
inspired
AF
1200
MM@@
complement
mothers
oh
MIN@@
short@@
CCTV
harmonic
beacon
elevation
freezing
relaxed
mir@@
Gulf
founder
van
7.5
decisive
standardization
TING
continent
fire@@
D1
Mac@@
atives
gifts
infant
ensured
tal
ss
outlined
aggressive
4a
bat@@
cloth
black@@
Independent
Kim
conver@@
Site
blame
characterised
defeat
contradictions
stupid
bread
surely
La@@
Wu@@
peri@@
pho@@
Auto
20,000
B1
FET
extracting
ket@@
kinase
ural
PG
Carbon
Covenant
gearbox
situ
band@@
antibiotics
tungsten
welcomes
Literature
dot
chromium
ischemia
ounding
beads
terrorists
gun@@
Experience
tapered
heading
0.8
Tibetan
amid
dense
Wi@@
apparently
continuity
allegations
welded
amplified
accomplish
Object
akes
uniformity
bled
Ha@@
Drive
merger
mechanically
ington
discussing
10th
La
P2
Guo
positional
habit
fluoro@@
Belgium
Order
chlorine
pig
autumn
writes
FA@@
ther
expects
competitors
War@@
orth@@
compromise
NT
va
Hi@@
det@@
Wal@@
aer@@
Club
plenary
complaint
Remember
refugee
employers
peaks
aerosol
aesthetic
Mary
seize
Keep
DE
tongue
new@@
316
tuberculosis
ozone
Notice
reconciliation
delicious
ank
configuring
stent
apped
homogeneous
BRIEF
fal@@
3000
MOS
Until
net@@
analyst
Cri@@
133
cores
cone
Rob@@
ety
presenting
lumen
Coal
riding
atics
bolts
sing@@
ographic
emotion
Jilin
Ke@@
consolidate
Movement
scenic
weekly
revision
alists
Ag
queries
Contact
fore@@
Survey
deb@@
www.@@
segmentation
Guinea
plural
gam@@
environmentally
floors
eve
neighborhood
unclear
.3
weren
expectation
successive
laundry
marrow
trajectory
mercury
EGR
stones
beijing
irrigation
alter
offence
dor@@
collectively
mp@@
passion
synchronized
existed
port@@
closest
elongate
convey
WeChat
seals
Cisco
50,000
ym@@
Annex
payload
simplify
je@@
surprising
pays
Donald
maxim@@
compl@@
interviews
ovarian
prote@@
shirt
shaping
interim
Tong@@
aster
Ten
lit@@
personalized
protruding
Universal
weld
polynucleotide
damages
802
Unless
Valley
emit
dignity
syringe
ified
Advantageously
taxation
Golden
bus@@
wells
prone
writers
dispenser
Interface
ylation
visibility
supporters
ire
upcoming
tiny
attending
tam@@
fluoride
tin@@
definitions
similarity
GHz
Somalia
champion
epi@@
Hun@@
Jerusalem
145
tremendous
repeating
startup
constituent
ener
arg@@
322
well@@
revenues
outward
amp
onset
retro@@
civilized
ich
auction
willingness
SR
refined
280
operatively
dissolution
undesirable
disappeared
paging
centrifugal
airflow
incentives
legally
login
boron
presses
exc@@
BT
clay
clicking
recurrence
prisoners
replied
1.6
suggestion
Promotion
atin
musical
beliefs
stabilization
Christ
tensions
Ph@@
Over@@
Optional
uncertain
Zheng
dividends
studio
Task
territories
dam
Country
Cha@@
refuse
explosive
RA
recycled
Synthesis
mil@@
abandoned
retired
Address
trademark
qualitative
Integration
DA@@
relevance
5th
strips
Church
hur@@
Yi@@
OFF
Cr
ribs
MR
coupler
outputted
Azure
Plus
hierarchy
iii
Listen
excluding
explored
insisted
accessory
predictive
develops
shar@@
congestion
contributes
phenol
Boston
440
Ra@@
Traffic
hemorrhage
Firstly
wax
7,@@
GC
com
ome@@
descriptions
methane
Starting
alcohols
Introduction
Hai@@
doc@@
regret
vari@@
DNS
VO@@
girlfriend
log@@
pane
breaks
consistently
Fil@@
nationality
conf@@
argue
panic
icated
electrolytic
Des@@
reg@@
1980s
slider
carb@@
strap
gram
perceived
acknowledged
uk@@
pulling
differs
credentials
abstract
Ta@@
DSP
blowing
chocolate
sincere
Harry
illicit
Ham@@
viable
amin@@
thyroid
Sin@@
treaties
devoted
Hereinafter
cheaper
ET@@
Kenya
Card
clinic
mol@@
Vehicle
lovely
attenuation
offshore
chem@@
32@@
argued
ility
37@@
ga
NOx
Care
Layer
morphology
Tu@@
bike
racial
polyamide
finals
demanding
ectomy
Sierra
latency
45@@
ski
11.@@
microbial
substitution
outs
Item
tall
LD
stretch
registers
remarks
advisory
Taliban
globally
Xiamen
Jewish
anybody
innocent
doping
stat@@
qualifications
long@@
CVD
shi
El
quarters
burned
ablation
rush
influential
Manchester
ani
Limited
Solution
assurance
corners
phosphor
titles
156
advertisements
dirty
owed
530
5.0
ians
microcontroller
sol
Contractor
Men
cigarette
trapped
Version
beds
ben@@
Bs
systematically
liber@@
ecology
R4
droplets
besides
virtue
HS
assessments
emia
provisional
ocy@@
Swiss
Monetary
pop@@
ventricular
DA
credibility
10A
proc@@
vapor@@
mayor
Sun@@
mandatory
Directory
Filter
4.0
bly
exclusively
flu
tized
lic@@
Prince
sovereign
ner@@
neighbors
plan@@
protrusions
CB@@
breach
undergo
generic
boom
Tom@@
median
nat@@
laying
composites
maternal
graft
consume
ogenic
FOR@@
forests
inspections
metrics
plain
Chile
ath
Mod@@
appended
ki
ram
flip
hierarchical
incurred
anticipated
disposable
Try
charity
asks
Sri
possess
borrowing
Gansu
Intelligent
hair@@
Century
certified
interpolation
tariffs
passages
ailed
Luc@@
Export
themes
sciences
Pen@@
conform
ocytes
immigrants
defl@@
alised
Robert
mole
vein
Satellite
zhong
Sensor
Node
qualities
smallest
cancellation
Stop
benzene
spraying
hot@@
dear
221
Francisco
son@@
ata
Square
outlets
collaborative
subsection
flap
insoluble
mur@@
Exhibition
TI
Johnson
ight
guns
fur@@
hazard
distant
hetero@@
Madrid
god
kernel
trains
PV
GP@@
detained
ABS
seminar
praised
hip
hepatic
Marketing
coli
Cells
debris
path@@
lubrication
expenditures
Dynasty
Key@@
manganese
sequ@@
Accessories
departure
Ur@@
Dad
Front
correcting
1000@@
championship
tot@@
EG@@
rim
sequencing
sin@@
ep
registry
0.6
226
holidays
earnestly
intergovernmental
employer
occasions
grades
protest
.The
Express
upload
wounded
cents
observer
coalition
stabilized
FM
economical
0.00@@
Star@@
enrollment
inate
liable
enclosed
pit@@
alling
render
conclude
Nature
stolen
promises
gotta
inform@@
mac@@
arc@@
seeks
projector
inst@@
ville
bones
eller
ign@@
breaker
bes
assure
attaches
clustering
WiFi
shafts
architectural
Scotland
strengths
Mom
interviewed
Chamber
berry
gli@@
relics
honour
LD@@
lows
retrieved
occupy
shoe
interconnection
Signal
Obviously
permanently
respected
1500
GaN
Bel@@
traces
genuine
Adobe
hazardous
PVC
Decision
gamma
ater@@
owns
ode
benz@@
missiles
patents
Sy@@
Developing
rpm
lation
docking
spectroscopy
icate
Comp@@
preview
Logistics
QU@@
attempted
rigidity
resort
dairy
pper
fibres
rocket
hosting
excluded
pharmac@@
noble
phosph@@
expounds
anth@@
ills
PID
prec@@
Usually
attaching
Kuwait
UNESCO
IB
Jun@@
Senior
Tor@@
venue
bend
graphene
allocate
Little
painful
Controller
organisms
strings
clubs
Actually
generators
rods
vol@@
fluctuation
suspects
person@@
computational
2.4
LI@@
Wait
225
Colombia
cosmetic
seized
scroll
Da@@
forwarding
notified
Speci@@
slower
milling
thorough
sand@@
FD@@
attracting
sophisticated
ion@@
inadequate
incredible
praise
coaxial
transcription
NH@@
yours
Hand@@
conveyed
tious
weakness
alleviate
ada
reversed
ero@@
marry
syntax
assuming
Estate
nationwide
nuts
reacting
fc
GS
analysed
insulated
rain@@
complexes
negotiate
Mat@@
accepting
workplace
EA
dryer
progression
reagents
impe@@
Bangladesh
CDMA
polarized
tain
Ford
pin@@
Reuters
damper
homework
minorities
logs
120@@
rape
UEs
sec
Zi@@
experiencing
Marxism
thereafter
hanging
payable
prosecution
prosperous
lion
RT@@
expose
mutations
fertilizer
resolutely
mellitus
ethical
correspondence
trauma
medicines
1989
Jin
......
ut
Not@@
1.8
Staff
reproducing
Football
divorce
iled
Timor
autonomy
consciously
dissemination
Being
approve
dramatic
oth@@
es.
Works
Jones
End
silent
2-
fucking
struck
corporations
nom@@
ined
migrants
exported
Lim@@
approaching
Navy
counts
specimen
asc@@
comrades
polycarbonate
Said
toiletries
dishwasher
SMS
with@@
verse
mould
read@@
ily
tear
oul@@
bel@@
Def@@
Laser
idation
nucle@@
Queen
optically
ov
Je@@
inheritance
bell
Dar@@
poured
deflection
photography
Peking
48@@
poses
tation
illa
packaged
Sec@@
flav@@
fears
Tools
Features
SM
CR
APK
compute
hydroxy
Austria
scared
biased
microstructure
stabilizer
psych@@
Testing
Martin
rectifier
freight
indices
aids
nov@@
workshops
stipulates
sided
interconnected
judged
dramatically
ischemic
Call
grains
Qinghai
pulley
gran@@
pigments
cracks
atten@@
traders
FR
zes
jin
charts
consult
Ag@@
405
resi@@
graduation
Huawei
Fan
threatening
han@@
On@@
VPN
grave
medicament
Operating
164
UNHCR
cit@@
GO@@
mo
Word
Assistant
fundamentally
flow@@
babies
Exc@@
aldehyde
lifted
Optical
till
2.3
ATE
pit
ished
toll
templates
atically
workload
Mn
Speed
Nothing
TER@@
RS@@
enn@@
minerals
mobilization
abundant
Heating
LY
enemies
enriched
satellites
remotely
worm
CMOS
Fin@@
Selection
microcomputer
litigation
altitude
wen
rup@@
locks
Block
disks
bankruptcy
ylene
transforming
employs
ith
Ter@@
Rot@@
Live
Listing
combating
HF
gating
cabin
speculation
.4
jac@@
Vic@@
cushion
Agenda
izations
foreigners
struggling
tan@@
Coordination
Finland
Edit
cop@@
compiled
Regulation
D2
theft
phy@@
5.5
AE
upgraded
imbalance
medal
Frequency
observers
orifice
prevalence
Draft
flo@@
Ki@@
172
Path
opathy
finishing
Module
fam@@
trucks
radiator
starter
reveals
past@@
sintered
Out
bucket
bowl
GUI
Ecological
euros
tightening
rotatably
actuated
sanitation
publications
Heart
respondents
Sub
quo
tiles
roughness
spe@@
11th
possession
Cable
insured
Has
QoS
lob@@
drift
cin@@
Date
ometric
projecting
impressive
SO
alternatives
decides
zi
Editor
sle@@
circulated
5000
intrinsic
sync
logo
occupational
repository
dB
hat
155
directing
forgotten
favour
dishes
3,000
fibrous
infants
inten@@
dian
wars
alkyl@@
engages
summarize
spectra
rib
collagen
Gener@@
inated
nutrients
wid@@
inserting
concert
witnesses
207
shifts
flavor
tertiary
Consumer
Yellow
polyvinyl
mating
distinguished
bridges
3.2
urinary
tender
hydrochloric
punished
Palestine
sorting
therebetween
atom@@
tenth
sensi@@
biasing
Annual
ric
ini
subway
Soil
cook
Post@@
Earlier
Down@@
sco@@
attributed
abide
phen@@
disable
Pur@@
demanded
650
nasal
multicast
Lei
Dutch
promptly
CAN
japan
shortly
intent
aiming
societies
Population
contour
bio
raises
commissions
coll@@
Speaking
redundant
liquor
ei
Sar@@
toy
gay
rer
releases
cationic
muscles
Garden
mobilize
rep@@
Hyper@@
hazards
DR
porosity
relies
utilizes
cing
township
pa
Future
uneven
neurons
endpoint
LA
controversial
iOS
Dr
epithelial
Explorer
Transmission
COM
boyfriend
sel@@
Radi@@
Headquarters
raz@@
lattice
Cold
reportedly
cage
Sign@@
aggression
perimeter
ric@@
benign
sul@@
them@@
assessing
parity
differentiated
750
ML@@
sustain
810
depressed
Details
innovations
lip@@
ologically
brilliant
supplementary
AU@@
filing
Transportation
olds
commander
deck
mal
ek
cancelled
ification
Doppler
waterproof
Bio@@
Airlines
Uh
hedge
assumptions
conventions
drove
inclination
scoring
antimicrobial
Situation
translate
echo
forty
bottles
toys
violated
aps
suggesting
soldier
OBJECTIVE
unions
exten@@
intends
NFC
conscious
gent
Liquid
polymerizable
drew
Ts
508
chaos
graduated
DO
selectivity
fought
dichloromethane
earliest
fits
Sydney
M2
billions
deadline
apo@@
Denmark
MEMS
7th
kettle
sto@@
compensated
graphy
Output
Resistance
vacuo
non-
720
ara
announce
gers
asser@@
specificity
Berlin
tropical
amines
icons
Size
failing
cardi@@
Cambodia
B2
Identification
Run
rushed
cation
242
tian
aw
impl@@
harness
arguments
Role
estimating
Response
anhydride
inging
stake
elastomeric
strikes
Inter
NA@@
Bon@@
dered
subsidy
The@@
Venezuela
Audit
Coast
endless
hire
crown
spr@@
criticized
Claims
Issues
gasket
MIMO
oms
actu@@
touching
urgently
red@@
creditors
704
Mars
rebound
institute
rop@@
Marine
economically
rub@@
edly
jie
imagination
crises
Mul@@
Account
scopic
Leone
bra
receivers
pursuing
Corporate
arrows
Forest
banned
recognizing
Colleges
Jud@@
harvest
polypeptides
Sul@@
actuating
arily
socio
15th
Bei@@
specifying
TRA@@
assembling
801
localization
milli@@
New@@
tization
Effective
corporation
6.5
explanatory
graphs
entrepreneurial
eren@@
assisting
jing
laugh
custody
Link
disability
MC
lover
coordinating
erosion
wil@@
Northeast
dysfunction
dness
Television
Mad@@
pollutants
prompted
148
Nursing
simplicity
innovate
Bul@@
ART
cultured
Customs
Mother
Thereby
arthritis
direc@@
bush
irregular
yeast
oned
GIS
dangers
ected
dist@@
gum
ests
oldest
Tai@@
za
basket
remainder
0.7
3a
restraint
contractor
Think
Perspective
y.
Ping
silence
ashed
Char@@
cancers
MD
ICE
ential
contradiction
WH@@
var@@
Inv@@
evenly
draws
slit
Xiang@@
CAD
NEW
entrusted
Winter
acupuncture
grey
cursor
cm2
CAR@@
tournament
synchron@@
ometry
Share
poll
microorganisms
plas@@
wavelet
Mike
Principles
cent@@
Cyprus
URE
longest
subjective
cubic
Thermal
acetone
EMC
confused
hexane
honey
213
FPGA
fri@@
allergic
substitute
Δ@@
ejection
Command
illing
311
impeller
disciplines
WITH
terminate
Shower
terror
anesthesia
BM@@
Cases
MENT
azole
identifiers
Options
DI
Micro
filtrate
SH
＂
pride
ater
Rio
eline
yer
lactic
secrets
precipitate
crank
VA
.I
inci@@
entary
rid@@
Guang@@
rejection
sixty
MR@@
fiers
Rwanda
Maintenance
pulp
sulfide
GF
inspiration
Mo
Revolution
1100
anhydrous
killer
inations
Mess@@
ratings
17th
External
recesses
cruise
mr
costly
washer
ala
marginal
chapters
economists
ective
ghua
Bas@@
hun@@
interventions
hungry
Short
yarn
therapeutically
Under@@
grants
yard
mers
cour@@
shit
Ly@@
suppressing
byte
3.1
amended
iter
AB
Target
modern@@
Scheme
ashing
lightweight
ature
conceptual
fem@@
spinning
Power@@
meth
RE
colorful
tox@@
Rather
les@@
aut@@
mic@@
clin@@
quit
openness
Relations
hin@@
LP
prolonged
rolls
sons
sam@@
burner
mag@@
Certain
safer
Thai
fixture
powders
stepping
anch@@
consequently
declining
Import
exhibited
BBC
meals
passivation
mu
dable
buffers
unavailable
permeable
unfair
profitable
diff@@
403
manages
414
denotes
bipolar
Strengthening
Ds
outputting
Analy@@
effected
get@@
acquisitions
eti@@
initiation
airline
Never
Stu@@
strongest
Body
stimulating
forestry
quantization
shorten
aided
kHz
Procedure
wooden
dictionary
bun@@
nurses
airbag
detectable
annually
Flights
conce@@
eff@@
key@@
U.N.
TER
negatively
abortion
izable
disappointed
ems
time@@
profession
align
Factor
127
explicit
Shi
acr@@
inger
resolving
xy
itor
fier
amendments
Travel
briefing
Ger@@
triggering
ares
respects
6th
illed
lar@@
3.3
mul@@
letting
refresh
appearing
competence
assured
proximate
ACE
nights
malicious
scopy
inverted
reflux
roc@@
Asset
N2
disappear
NC
swe@@
cavities
XP
dummy
evolved
protests
enhances
cas@@
ame@@
iling
Open@@
depositing
age@@
fractures
emulsi@@
popularization
main@@
reviewing
inary
judging
smo@@
gen
filament
Text
ole@@
thir@@
adequately
9th
tackle
captain
119
Nepal
constrained
bundle
homogen@@
saline
competing
601
Persons
Bitcoin
ca
Mus@@
decorative
intravenous
Hollywood
Exploration
Partnership
COMP@@
400@@
vaccines
tangible
NOT
pancreatic
hadn
VD
coherence
idine
valent
rene
initialization
attempting
HT@@
ologist
Considering
prof@@
witnessed
formaldehyde
ze@@
VEGF
sentences
BE@@
Atlantic
DRAWINGS
after@@
imprisonment
morph@@
Acid
stamp
cyto@@
taining
campaigns
NGOs
ordering
Paper
copied
Haiti
Intelligence
insist
SEM
ailing
bonus
ader
stranded
encing
dealers
helical
DMA
participant
posing
SAP
orbit
surveys
diplomacy
relaxation
256
nonwoven
Rom@@
Palace
F1
LIN@@
1988
massage
furthermore
injecting
chol@@
plated
traded
Fault
apping
Statement
otic
Vol@@
γ
undergone
inks
ALL
ph
7B
Tour
ML
Xiaoping
blower
strand
dietary
implanted
entr@@
Inc
counted
antioxidant
13.@@
withdrawn
spectrometry
Activities
decent
icing
Gao
restricting
Banks
Mel@@
charm
mud
Banking
Head
GSM
Inf@@
William
singer
yp@@
sterile
loving
DN@@
Was
reiterated
distinction
wind@@
kar@@
aine
likewise
susceptible
clearing
H2
Zedong
disturbance
ken
expiration
Cash
Manual
destructive
rounds
viewers
M1
versa
depreciation
soybean
fins
arization
emphasizes
deserve
16th
approximate
Activity
ough
ADC
silicate
Heilongjiang
mas@@
unwanted
alo@@
presently
Fair
9A
Zn
emerge
electoral
Thomas
conical
incorrect
hydrogenation
recovering
UNEP
Hot
inductive
undergraduate
Tra@@
Location
shui
val
odi@@
ramp
Money
Competition
nearest
Kin@@
fused
photograph
ITY
TN@@
recessed
Max
grows
sine
offensive
sludge
therefrom
exp@@
void
Kazakhstan
forecasting
Circuit
isocyanate
hydrate
alli@@
aerospace
SIM
boring
IPO
handheld
Liang
cutter
ag
there@@
lighter
compliant
IE
Automobile
propyl
inequality
bold
Disarmament
jail
adhering
conditioned
helicopter
606
farming
Acute
deny
Previous
asis
lean
compressive
Mid@@
protects
bench
scientist
Assistance
Course
PCI
asymmetric
gal@@
Empirical
inkjet
000@@
ato@@
Lanka
posture
surprisingly
tible
Teachers
speci@@
elementary
din@@
prototype
referenced
exposing
shore
234
vin@@
deformed
voices
Representatives
UT@@
lymph
wings
notably
182
esophageal
Dam@@
Tran@@
oxidizing
font
med@@
hon@@
Pu@@
Wil@@
FE@@
visualization
transmittance
&apos;S
hypothesis
questioned
rebels
Researchers
searches
mile
TD
fragile
indications
Financing
solves
scanned
broad@@
Red@@
ques
part@@
esti@@
EF@@
classmates
ells
suff@@
Recent
gly@@
craft
organism
perspectives
camps
TH
ko@@
elec@@
ee@@
zhi
CCD
shipment
VII
pinion
Mis@@
slides
reactors
tum@@
visually
arterial
municipalities
staining
supervisors
criminals
NASA
basin
zeolite
pine
Gal@@
oration
mediation
prob@@
meanwhile
ured
rivers
relieve
asphalt
declare
interrup@@
sheep
capsules
mates
polyol
lif@@
dots
dopant
tele@@
bac@@
Wat@@
cultivated
ord@@
Shenyang
coun@@
folders
Directors
baseband
gratitude
Age
Provide
Win@@
Student
adversely
eries
FBI
Generation
linker
characterization
minimizing
subsidiaries
confusion
motorcycle
row@@
cataly@@
chi
romantic
heterogeneous
insight
forcing
picking
episode
proves
palladium
cc
escent
hygiene
ashes
Mining
wins
xiang
ands
Vis@@
observ@@
Numerical
ails
hill
tubing
Celsius
twin
contraction
reminded
thirds
Vari@@
252
itary
premature
tec@@
metres
desert
Qing
Sto@@
C3
Simple
cycl@@
TIONS
hiding
Reading
ethyl@@
eric
Uni@@
retardant
converters
horizontally
firstly
dict@@
hydrochloride
cassette
silk
12A
assault
fridge
unacceptable
Others
Ram@@
dyes
Governor
decom@@
ogen
xia
windings
encapsulated
Ci@@
D2D
Follow
IEEE
ought
Almost
intend
Water@@
delivers
Herzegovina
SN
asses
simulate
Nowadays
TB
odic
Croatia
Summer
acquires
PF
Gene
rounded
harsh
LA@@
practitioners
Cl
lined
tariff
mitigate
vir@@
gged
endogenous
fulfilled
ylated
Alzheimer
negotiating
hunger
21@@
Letter
carbon@@
vel@@
analytics
HD@@
oids
multiplexing
Serbia
fabrics
yun
colon
Peru
lig@@
theater
Bra@@
radioactive
leukemia
asp@@
Zhengzhou
Father
Organic
tragedy
doubled
nur@@
resistors
Protein
TL@@
heaven
quietly
globe
mot@@
microscopy
MM
lum@@
worries
SiO2
undertaking
asia
quartz
hired
interrupted
enjoying
ffs
attraction
rechargeable
multinational
diversification
FDA
arithmetic
Oc@@
fetal
notch
noon
^
distr@@
Fol@@
nail
adv@@
adjusts
triple
argon
ester@@
8th
Yun@@
WO
fibrosis
0.25
vic
break@@
snow@@
oxidative
Load
Ethiopia
TNF
educated
a.@@
traits
reproduced
Input
RN@@
scenery
minimized
attorney
sender
lag
coagulation
contaminated
rad@@
asynchronous
dong
Bus
Employment
refractory
Ministers
sm
teachings
slowdown
spi@@
sampled
Lab@@
distributor
upset
fossil
painted
FF
sou@@
adhesives
luggage
mic
fabricating
SG@@
tem@@
equivalents
ew
Whatever
Income
traditions
inspected
fun@@
epitaxial
Domestic
IDs
loyalty
ested
cav@@
SAR
NMR
alities
Harvard
39@@
borrow
magne@@
Forces
discre@@
ceramics
Registration
advocate
trim
USD
HR
elegant
blown
supervise
Chain
dge
raft
eager
prescription
Richard
Opinions
oured
renewed
extruder
fax
1980
organisations
defective
entropy
binds
Beach
tra
turn@@
Charles
granules
extensively
tune
ifying
Adv@@
deletion
oste@@
constructs
notifications
Factory
630
nylon
Official
GE@@
anda
Solutions
3G
penalties
alisation
vendor
UD@@
aker
rails
tightly
Stability
applicants
Zhen@@
arr@@
swelling
Conditions
psycho@@
STA
zh@@
opponent
Fast
SYSTEM
inspect
RRC
integrates
Used
Discrimination
Sample
foster
preparatory
wan
beneath
polysilicon
conjugate
igh@@
urges
guards
symmetric
SharePoint
warranty
mere
organisation
Component
175
1.7
attitudes
treasure
locating
centuries
predicting
Dem@@
elongation
appro@@
advised
stretched
merge
stopper
doubts
3C
competitions
referendum
conformity
triangular
shutdown
arch@@
ased
hoc
polarizing
ows
damaging
MI
nie
Capacity
Dream
pig@@
exerted
scratch
preserved
faults
ful@@
colorectal
Certificate
ti
Dalian
VC
decode
AW@@
house@@
ck
Request
Photo@@
you@@
constitu@@
thrown
redundancy
frameworks
G2
atr@@
Green@@
Tool
ises
safeguarding
Flash
ball@@
ELISA
nucleotides
fighters
oll@@
schema
55@@
posi@@
robotic
physician
emo@@
gall@@
158
rainfall
wrapped
Yugoslavia
collapsed
haptic
garage
Yao
encies
accumulator
Composite
esis
Uganda
Pharmaceutical
lacking
stretching
irradiated
Strait
seasons
induc@@
tread
Dun@@
burg
omy@@
twelve
fulfil
travelling
Problem
continuation
Yang@@
enrich
sentiment
pseudo
poetry
runtime
escal@@
removes
sho@@
Exemplary
ki@@
161
G1
Hem@@
distinctive
acknowledge
elle
oli@@
diameters
oppose
drafting
interpret
nanotubes
ren
Mg
jury
ories
Brief
Darfur
drunk
Sho@@
broadly
ini@@
nurse
author@@
Resolution
540
incremental
extruded
hen@@
coins
matic
Edition
Virginia
lasted
cleared
Recovery
licenses
pleasant
insul@@
Fourier
Fu
Grid
BE
stein
Terrorism
distilled
8B
exam@@
polyimide
PB@@
Weapons
halt
http
eption
Barcelona
ribbon
invisible
glue
kinetic
utes
Articles
ideals
assays
stereo
abnormality
smartphones
Rice
II@@
conjugated
Event
monoclonal
platelet
dirt
whilst
violate
searched
poisoning
kick
mirrors
Joe
feedstock
Fig@@
extensions
essing
accession
flue
Magnetic
UM
dancing
stre@@
assing
droplet
Hum@@
internationalization
oversight
balcony
rey
listened
catalog
wet@@
tal@@
caring
Edge
illegally
behavioral
365
casualties
cute
handles
hao
nar@@
coloring
IAEA
METHOD
reorganization
MT
icating
orph@@
defeated
forgot
tured
inductance
bead
Suzhou
blended
agrees
44@@
unilateral
whis@@
Host
Switch
tabs
latex
Connection
reject
isolate
vibrations
pink
spacious
tetr@@
literacy
dilution
Cam@@
circul@@
simpler
subregional
obstructive
pragmatic
claiming
ard@@
dedication
PDCCH
sional
Channels
let@@
unlimited
metering
iter@@
clouds
wa
home@@
Scientists
cautious
Che@@
remembered
Prize
laterally
neo@@
Harbin
manifestations
mandates
ption
166
foaming
genetically
beef
list@@
pledge
mammal
molybdenum
achieves
transitions
centr@@
suppose
Liberia
KE
saves
Brazilian
show@@
shaking
holdings
But@@
Plenary
investigators
downturn
Mol@@
configurable
airlines
Improvement
vitamins
110@@
Add@@
resumed
intim@@
polyolefin
uo
vel
Fri@@
speeches
contracting
stu@@
nonvolatile
YouTube
uts
Pa@@
MOSFET
Rs
sacrifice
settlements
forefront
Nobel
neutr@@
snap
digestion
canc@@
ager
jewelry
Dong
motive
Brand
Jun
oxidized
concurrently
Mur@@
throat
SIP
conditional
fillers
fighter
Aviation
resection
FAO
anterior
contest
curtain
ocyte
1C
lawsuit
370
exhausted
Phone
ere
disciplinary
Toyota
racing
WE@@
tening
laparoscopic
HCl
Forms
brakes
licensing
228
Spr@@
30,000
notebook
Optim@@
Far@@
convicted
Resi@@
unite
Mg@@
congress
condensed
rabbit
sofa
vigorous
vendors
da@@
communic@@
fleet
garment
ferences
icit
0.001
usion
Libya
pathways
incubation
4.2
fol@@
urgency
intuitive
defendant
CNC
incubated
bie
float
Medium
Bol@@
Flat
drawbacks
cel@@
retailers
pain@@
celebration
aka
ambitious
Parts
excuse
nation@@
deficiencies
rhythm
infinite
Cardi@@
parasitic
14th
Morocco
NB
paintings
piano
Message
turbocharger
gy
Henry
venous
optics
colon@@
Against
ications
nitrate
mad
cadre
rocks
denoted
ston
N1
Fiber
Mail
deeds
alongside
Except
Carolina
catering
ICAL
dom
economist
902
165
conveniently
dependency
appetite
endorsed
ush
critics
examining
presidency
repayment
nest
1a
Peng
wo@@
amm@@
Requests
Ali@@
cru@@
mechanics
specialist
angled
olefins
Deep
flask
accountable
MAN@@
vic@@
efs
tel@@
uration
uncomfortable
arch
fires
unfortunately
Rule
gently
opponents
sty
pot@@
dropping
HB@@
dle
Tea
law@@
Teacher
Euro@@
Ad
Biological
ayer
DB@@
aggregated
stock@@
jumped
quota
inge
324
eco
loops
CN
rejuvenation
conscientiously
lan@@
ght
loud
documented
accumulate
315
weighting
visu@@
specimens
gang@@
Silicon
lacks
int
bears
Together
forums
TM
Someone
budgets
blending
ald
facilitated
monoxide
impressed
fer
Jac@@
reuse
zy
ault
Really
600@@
implies
Produc@@
seating
Notes
renewal
HBV
cheese
batt@@
ena
arises
pulsed
aches
enforce
crane
crying
bedrooms
run@@
Fixed
VIII
Collection
liberalization
reperfusion
crosslinked
emails
resem@@
inactive
tain@@
ition
extrac@@
mitigation
ached
null
dialysis
Trading
engineered
Syn@@
Non@@
inducing
cyber
creditor
HARQ
sely
waist
0.9
vul@@
put@@
sweet@@
ministries
wizard
RAN@@
spar@@
pets
inhibited
secretion
tability
shallow
1986
ound
Catholic
materi@@
licensed
153
obli@@
Santa
ali
CK@@
shortened
northeast
distributing
99.@@
UNFPA
Fine
symmetrical
Interest
reunification
Xu@@
respon@@
resistivity
purely
AG
Reports
convertible
offs
Roman
san@@
143
R5
confidential
freedoms
cease
trunk
Left
Bar
vis
Universities
brave
Typical
preamble
Observation
Close
fertility
ules
tory
badly
Coll@@
C4
Irish
Fuel
merchants
PN
invented
militants
amplifiers
analyse
Heritage
pec@@
quan
DF
potent
debugging
910
weighing
expresses
Behavior
sunlight
pillars
forecasts
ora
climb
aching
CL
ced
Eng@@
Bec@@
Descri@@
804
travels
1985
Failure
renovation
fortune
Ensure
math
inferior
stal@@
ano@@
sor
Mass
exclude
一@@
photographs
insights
poles
contaminants
anionic
sidewalls
GPU
Hungary
pigs
Ga@@
stance
bulb
mysterious
e-
BMW
exclusion
web@@
museums
mat
．
meteorological
supermarket
enic
dressed
deadly
stably
radicals
interfering
Baghdad
therapies
realizes
Sand@@
Gra@@
itting
vas@@
prism
Voltage
semantic
bearer
seri@@
Wind
luc@@
keen
tracked
Making
destiny
etic
airports
scales
CF
terri@@
Animal
disconnected
Gender
conviction
Hill
Pearl
polis
8,@@
laundering
revol@@
Query
uck@@
wherever
Mexican
donation
impulse
Sn@@
asleep
Den@@
asylum
Assets
sac@@
transitional
Marx
PU
nutrient
6a
Buy
adjuvant
feeder
4.1
spokesperson
rob@@
dumping
sian
contractors
CK
icide
kins
tun@@
foundations
curb
constituents
oline
Glass
Overview
14.@@
rant
numerals
discrimin@@
Fal@@
turing
passport
Solid
free@@
eled
encapsulation
ects
icians
symptom
SMEs
zhen
Sim@@
ghts
opaque
Marxist
statutory
fts
Cheng@@
ply
Na
allowance
OD
rally
numeral
equitable
seasonal
inexpensive
15.@@
joke
Gran@@
multiplexer
thor@@
clockwise
techn@@
Angola
1987
Lower
ambassador
dispersing
temple
myel@@
divider
coarse
Pre
Ah
contrac@@
ICT
onin
yers
Shen
sulfuric
wetting
Pan
Highway
Mine
IX
PT
diluent
chrome
navi@@
weakened
phenyl@@
idal
audiences
PEG
Establishment
reductions
rival
inversion
abrasion
fang
LL
side@@
sioned
ridge
winds
representations
prints
pilots
Architecture
m3
wu
fro@@
biochemical
glob@@
reservations
collabor@@
EtOAc
ui
Black@@
bean
interposed
sincerely
Python
quanti@@
318
researches
externally
mystery
prosecutors
antibiotic
Voice
securely
debtor
Pay
Improve
wished
symmetry
422
eye@@
lips
keyword
lightning
practicing
Egyptian
arti@@
shocked
airplane
sisters
Path@@
copying
itating
Associated
precipitated
4b
2O
asing
sponsors
soup
UNIDO
tac@@
solidarity
F2
Much
fantastic
winners
HK
localized
TIC
occasionally
repay
earning
passageway
inject
scans
err@@
inity
alkylene
hr
scre@@
Setup
countless
gan
Meth@@
texts
wr@@
exert
absent
fibro@@
WTRU
antigens
Chair
Workers
human@@
patterning
uncle
transgenic
Machinery
sealant
normalized
PO
umin@@
SSL
mentally
Battery
gotten
mailbox
SCO
striving
505
380
168
TCM
electronically
initiating
Bible
Pot@@
modal
linearly
CRC
Ge
wit@@
Chronic
Sa@@
deliberately
crowded
delegates
builds
subframes
ari
merchant
tern@@
impaired
backs
SF
farmer
enjoyment
sterilization
slowed
squares
Muslims
Records
lumbar
threw
Secondary
pledged
reforming
EE
ng
Ret@@
observing
231
automobiles
ves@@
alog@@
insiders
unreasonable
assumes
omer@@
reduc@@
Improved
reck@@
Brussels
Place
elite
cosmetics
unlock
clarified
WO@@
IDE
intact
Chang
licence
offences
Creating
dupl@@
rou@@
attributable
Guidelines
cot@@
Turn
scripts
hist@@
dre@@
indium
Requirements
excellence
pap@@
Recalling
sorts
liter
Sym@@
Expert
arized
exceptional
ogram
Turning
tism
Educational
contractual
Refer
featured
Qin
Costa
spacecraft
fungal
vely
priced
150@@
RGB
St
iliation
alls
fatal
flush
wang
None
heal
administrators
alternately
cladding
thematic
IO
expandable
rem@@
Networks
9,@@
irr@@
Fun@@
deciding
Release
morality
knock
Steve
incorporation
housed
JavaScript
MC@@
fasteners
Jews
surround
encode
vable
meantime
affiliated
ministerial
ind
demodulation
sey
Flo@@
ematic
thresholds
opera
wirelessly
Saint
NBA
Ben
farms
wallet
organo@@
0C
snapshot
Improving
cultivating
encompasses
Ox@@
methylene
plasmid
micron
WS
vit@@
bug
Hom@@
usher
Jintao
airway
Burundi
polysaccharide
lottery
disgu@@
M.
fog
lay@@
Zh@@
wholly
eral
OP@@
wondering
supervisory
siveness
histor@@
retainer
cy
Qi
naked
etal
devi@@
suspicious
Sam
ection
scal@@
BI
lonely
perf@@
undertakings
moreover
Element
restoring
Bob
destinations
Experiment
174
scri@@
hunting
Romania
Delete
mess
Injection
209
706
sizing
heroes
outwardly
cycling
tled
entirety
footprint
catching
Wales
1978
Average
repetition
Hotels
oth
Rev@@
Portuguese
swear
Wo@@
luminescent
distributions
continually
ouring
eradication
Final
sures
photodiode
forwarded
Plastic
suits
sch@@
Solar
onate
obstruction
chron@@
arranging
Zo@@
reminder
G20
Jackson
ock
parliamentary
suspend
ita
Subject
hn
telecommunication
bow@@
Vs
Jan@@
meta
undermine
tioning
Poverty
Qatar
splitter
inhibitory
boosting
Ask
depicting
eliminates
navigate
416
Williams
Luo
inating
Telephone
cles
sman
colli@@
pork
Often
masters
belts
derive
pathogenesis
Position
documentary
digit
traumatic
limb
crossed
transitory
hab@@
shelter
inappropriate
Budget
ja
formulating
Reduction
nas@@
Week
Genetic
specialty
Mas@@
slowing
Important
underwater
cookies
Basin
critici@@
recorder
Embassy
MPEG
predic@@
livestock
waveforms
endoscope
Mediterranean
1970s
deci@@
tub
Electronics
Calculation
spite
ancing
serv@@
boats
Audio
potato
dys@@
kiss
mechan@@
leasing
posterior
mammalian
608
CTION
grouping
envisaged
pep@@
aria
iodine
fractions
dele@@
capit@@
shortest
OUT
MO
ts@@
aire
practiced
landed
Complete
mergers
examinations
norm@@
Maritime
bunch
paper@@
brick
μg
Ang@@
skeleton
Dubai
wedge
THF
bacterium
Scale
192
closet
localities
yed
App@@
customize
waited
soccer
certainty
threaten
dig@@
appoint
neighbouring
malaria
612
faction
Photo
Clo@@
shuttle
nec@@
toughness
rist@@
selectable
Jiang@@
Liberation
unauthorized
You@@
reciprocating
biopsy
coin
Stress
excessively
loyal
460
radiotherapy
Schedule
adap@@
Changsha
cats
wearer
Components
Fire@@
emergencies
TR
Dim@@
onom@@
Hope
banner
vane
widths
grounding
Drugs
handler
exemplified
confined
ections
cigarettes
Xing@@
somehow
ICC
applicator
fa
voc@@
shrinkage
Period
Moon
persist
mentality
notion
FP
booster
duplicate
Bir@@
sim@@
Stre@@
modest
Lao
corrupt
inconsistent
stadium
sus
P.
agon
sweat
Liverpool
inhal@@
Weibo
arriving
FD
speeding
Molecular
Apparatus
auditing
beside
HT
salaries
authenticity
appeals
variability
spontaneous
striking
etric
Sen@@
Jim
vag@@
benefited
Su
substituents
glory
bis@@
fy
Bai@@
hits
itch@@
overlay
imperative
Consultative
poultry
aur@@
Efficiency
16.@@
avoidance
racism
omas
Ningbo
vers@@
peers
allegedly
Legislative
wai@@
Sem@@
communist
Elimination
pools
Armed
gaining
premier
pursued
obstruc@@
gger
ele@@
wildlife
254
t.@@
recipients
Years
vibr@@
dents
convened
Hamas
patience
aves
colony
bet@@
stic
barely
RED
Os@@
TT
workforce
succeeded
biometric
tax@@
siloxane
onal
occupying
Tower
SiC
Gets
T3
art@@
canal
butadiene
japanese
sperm
march
Seven
attenu@@
sulf@@
politically
adver@@
prerequisite
Wel@@
bull
dashed
ials
236
ousness
wealthy
VER@@
iller
damn
Ol@@
MW
sensory
2.6
glycerol
Belarus
stating
diarrhea
Nobody
Tsinghua
Swedish
10B
Bao@@
minus
satisfying
jack
Too
235
inertia
Huang@@
feed@@
multiplier
generous
atable
shanghai
understands
suc@@
Dan@@
overload
interruption
biodiversity
Wor@@
zirconium
femoral
polymerase
expecting
ori
vs.
robustness
cou@@
elect
tractor
embassy
primers
ied
Parameters
satisfies
stairs
knob
pref@@
breakthroughs
P.@@
icking
Aluminum
hurry
trailing
ump
2030
Heavy
Statistical
broker
ait
AFP
6.0
originating
partitions
phthal@@
Classification
compatriots
tionary
villa
du
modulating
precursors
dimen@@
purge
Cat@@
Demand
Frank
traveled
beating
urethane
talented
horses
beaten
shoulders
bow
mad@@
Structural
1984
venues
turbines
viscous
Build
palm
halide
xian
assemble
methacrylate
thicknesses
worrying
volts
wrap
YES
aked
minors
Style
complain
gation
Tro@@
W.
tual
emits
trips
standardize
Disney
Thinking
si
bicarbonate
High@@
practically
abandon
lers
Terminal
Translation
Log
shire
vill@@
Investors
resor@@
shrink
deceleration
expands
514
J.
Promoting
lecture
sit@@
spreads
503
Doc@@
Guo@@
rever@@
Equation
Greater
margins
camshaft
ASE
Cheng
torsion
nitric
lesion
332
masks
commented
biom@@
mutant
merged
PBS
Monitor
Questions
polymerized
rewards
immersed
itate
trick
Arabic
contracted
flour
weaker
Governing
inward
GN@@
ods
seminars
consultant
exchanging
hitting
kV
proprietary
SL
pertaining
Throughout
ferrous
fa@@
Shan@@
clips
cs
ri
sword
booking
eaten
refund
privileges
road@@
Tables
useless
adventure
edible
bert
4C
closes
vial
Preliminary
supervisor
chang
latent
Concrete
accepts
poorly
hemo@@
Taipei
PK@@
Main@@
elev@@
UAV
Ow@@
Removal
funeral
Nearly
correspondingly
Lam@@
mentation
dosing
teenagers
wash@@
atrial
micrometers
downloading
iti
una
tiv@@
prescri@@
advise
oping
risky
5.1
Aqu@@
orally
Azerbaijan
Correlation
ketone
negotiated
bility
rum@@
polystyrene
在@@
accommodating
ulin
effector
denti@@
bombing
C.@@
LES
rest@@
io
comparatively
cooperating
antibacterial
transmitters
firewall
seamless
hyp@@
WAN
Volume
interacting
illary
manifestation
reconstructed
warnings
Ca
Lebanese
mem@@
aerial
plasty
demographic
diffuser
trailer
Cao
820
divisions
compiler
sacrificial
isot@@
99@@
HC
mA
fastened
aces
Shen@@
splitting
master@@
adsorbent
tuned
CY@@
delta
infringement
De
slag
grab
rison
browse
iced
calories
Clean
1982
surgeon
vibrating
substituent
rooted
uphold
polls
underwent
irs
steal
disconnect
degraded
P2P
traditionally
701
stimulated
wel@@
qiang
ice@@
oligonucleotide
compensating
stringent
illuminated
STUDY
SK@@
bite
Modeling
lawmakers
pel@@
LR
Da
Feng@@
english
eves
preserving
crip@@
camp@@
allowable
rigorous
liberal
Job
keywords
inhalation
Equ@@
Chun@@
PL
downs
pockets
bury
Fortunately
Apply
SCR
Technologies
Ming@@
tactics
kindergarten
Infrastructure
gin@@
businessmen
exceptions
motivated
Islam
hereby
afterwards
Chin@@
argues
Domain
Mainland
night@@
triggers
weird
Acceler@@
Maximum
differenti@@
explores
queen
Easy
purple
view@@
Kunming
overwhelming
gambling
Men@@
icks
con
ola
FDI
accelerometer
diffuse
mus@@
ERS
definite
iler
minim@@
ECG
triangle
wore
repaired
vaginal
sni@@
improper
Max@@
explo@@
eccentric
Rock
cell@@
Transformation
tz
granular
inflow
Twenty
avoids
pants
acker
ratified
Macau
custom@@
convince
Specifies
planted
climbing
stays
desirably
intensify
unt
seam
Happy
archives
bud@@
Barack
thinner
oxidant
LU@@
Att@@
slo@@
donated
grand@@
journalist
Emirates
nam@@
Chris
Governance
landmark
survived
Jinan
clean@@
confirms
8.5
Jersey
auc@@
liberation
Ali
owe
ocular
vering
Sure
SOC
inj@@
evolving
predictable
Understanding
sooner
ratification
PU@@
Med@@
wrong@@
Hydraulic
headache
atri@@
STRA@@
tutorial
refining
bromide
Petroleum
occupies
viol@@
ote
ef
vegetation
zhu
evapor@@
yin
logged
astro@@
Play@@
lit
reversing
porters
pound
alistic
sells
hormones
installations
Spirit
sandwich
Xie
attained
smoothing
Composition
Data@@
stag@@
gy@@
deli@@
embrace
priori@@
spacers
bumper
less@@
anian
Title
activists
Algeria
UP
es.@@
tester
Way
discs
urging
Bin@@
leap
Evolution
chromosome
TIVE
speaks
kle
eners
Yemen
recurrent
iteration
thin@@
counterparts
Compounds
insect
1300
spool
lungs
thro@@
Strip
digestive
arly
Recei@@
H2@@
penetrate
Devices
exhibitions
tailored
BL
wrist
inning
ula
grading
dissolving
formulas
aled
erase
acies
Move
flew
Trial
warfare
Interior
ota
tent
uterine
evacuation
wiper
jian
Result
quarterly
Apart
therewith
ip
gie
DN
oxin
chuan
shing
dimethyl
Regardless
3b
sar@@
640
ONE
supportive
swap
tizing
uptake
Prog@@
Lanzhou
grease
Ningxia
aroused
Copy
S4
nationals
collections
brains
flooding
fulfilling
anisotropic
Groups
weak@@
keeper
Focus
bombs
ody
Enh@@
Conversely
tones
Peacekeeping
virtualization
eas@@
Doctor
Ping@@
Chart
su
royal
cytokines
rust
calibr@@
Formul@@
€
Eight
shells
procedural
fundamentals
ASTM
Volkswagen
vaccination
F.
divi@@
Ty@@
adherence
oct@@
bushing
dence
chairs
OP
remuneration
recruited
Clear
stop@@
institutes
defensive
Holy
dissip@@
accompany
perfusion
NET
dissolve
y.@@
remedy
Upper
recogn@@
dimethyl@@
equipments
darkness
palace
exo@@
Eth@@
Nic@@
stere@@
trou@@
favourable
batches
autom@@
tis@@
Sony
Jia
Qin@@
Territory
distress
intensified
featuring
reflectance
Baby
quote
muc@@
soap
Chelsea
Fuzzy
census
protesters
originated
171
till@@
bank@@
ugly
Leading
downtown
ptions
Louis
som@@
rous
Compu@@
conservancy
Images
2.8
2.7
grounded
linkages
ado
tribute
Lewis
Present
bay
137
Milan
albumin
stimul@@
longitudinally
races
hammer
seated
5a
sunshine
Pt
generalized
feeds
hey
inability
atism
Alloy
Land@@
deformable
shipped
Stage
intentions
curious
informatization
developmental
aya
hop
Reporting
dealer
succession
TX
stit@@
valley
flat@@
rein@@
fled
carpet
SB
Setting
fuck
huh
epilepsy
filaments
phosphoric
expired
olin
confrontation
edited
applicability
makeup
Relevant
fills
lend
bamboo
torch
asian
Analysts
compilation
genomic
advocacy
hairdryer
Desk
grandmother
forgive
fast@@
exploit
ounce
stir
punish
problematic
anxious
accommodated
transnational
sulfon@@
pass@@
aver
是@@
adolescents
290
radio@@
promulgated
gluco@@
vocabulary
Serum
Below
spine
sponsor
chen
Dragon
transplant
Return
incorporates
gripping
pretreatment
tops
aspirations
ician
gia
manipulate
retrospectively
conversations
stacking
Conventional
fav@@
Miami
gallery
ude
1010
bitter
Ah@@
advocates
ille
enrichment
Former
duplex
Zimbabwe
provi@@
Ying@@
lipo@@
Question
ile@@
weaknesses
rang@@
topical
faculty
pled
tick
lasers
piping
BY
effluent
punish@@
Lyn@@
archi@@
sellers
infr@@
Len@@
cia
DCM
agging
eu
Answer
senses
Direc@@
SY@@
intermittent
complained
controversy
AF@@
dragon
ison
Initi@@
erup@@
Dear
SB@@
box@@
jia
alcoholic
derer
1979
enzymatic
1002
signatures
power@@
resist@@
inoc@@
acks
K.
gon@@
cooked
safeguards
Consul@@
heights
ili
irrespective
balances
Either
illi@@
uranium
PHP
reliance
antagonist
happily
wards
cem@@
fig
stove
awa
nu@@
differing
disparity
plugs
io@@
lookup
arians
predictions
Mercedes
Lan@@
gentle
favourite
design@@
cattle
neonatal
Championship
ba@@
fulness
luminous
craw@@
Send
321
3.4
persu@@
tomy
itors
citizenship
laboratories
Liber@@
Custom
Overseas
instantaneous
Added
Ash@@
kits
rebel
anol
del
supplemented
masking
GB@@
gar
wounds
AMP
bei
harassment
Hui
accidentally
miracle
calligraphy
simulator
Guests
demonstrating
Ak@@
condem@@
conveyance
inherited
nanoparticle
reasoning
overflow
tial
Bat@@
mast@@
enthusiastic
Columbia
ocar@@
incision
Tao
responds
melted
radiating
hedging
Better
stereoscopic
Arab@@
semester
grace
Coffee
anonymous
Hairdryer
revitalization
renminbi
fines
inserts
Ohio
rationality
Keqiang
223
GW
tail@@
conventionally
earing
Ying
runner
4.3
bec@@
storms
mon
cruel
scaled
adsor@@
harmon@@
ATM
recipe
warmth
Q1
Ker@@
mia
retracted
64@@
fic
pathogenic
Sw@@
loses
4G
regenerative
244
Soft
delicate
oxygen@@
baseball
specialists
confirming
reluctant
vivid
ales
Schools
scalable
brackets
affirmed
Something
Cabinet
Bath
lectures
py
ima
Hua
ageing
tragic
trans
trenches
sprayed
browsing
Neuro@@
ishes
reas@@
microorganism
Brexit
pavement
Counter
lovers
condemned
deputies
fications
sieve
exiting
maneu@@
disruption
construed
wool
129
motor@@
origin@@
isms
4000
lessly
fiable
DPRK
Spectro@@
baking
bump
fluorinated
Sum@@
Publication
Prote@@
Hillary
Player
Mount
won@@
transi@@
continental
polarizer
effec@@
attractions
pt
Movies
Reg@@
governed
bli@@
kang
Tanzania
shocks
Christians
provo@@
Pa
OB@@
challenged
polling
Want
attain
I.
P3
plac@@
imide
pumped
Functional
contingent
honeycomb
beans
Jing
Tesla
Excellent
accord
terrain
rebuild
Quick
pathology
pellets
electromechanical
itated
sorted
Historical
Talk
9B
jaw
Backup
magn@@
Configure
doctoral
Fashion
millimeters
akers
730
reservoirs
approached
answering
Seoul
A.@@
hung
anking
reversible
punch
iers
Sl@@
reactant
jects
literally
Applied
dean
75@@
educate
sal
novels
pressive
0.0
milestone
ament
Adju@@
mond
Projects
DSC
arena
APP
Kyoto
ped@@
SAS
sile
t.
bis
Files
hydrogel
arrives
survivors
numbered
Peninsula
184
Around
cough
furn@@
ify
capitalism
alled
rumors
instructed
GP
4-
Awards
CQI
readings
hn@@
groundwater
coder
ancer
medals
fle@@
Dan
onomic
nitro@@
ention
RI
ABC
sanc@@
thwestern
thick@@
loader
hybridization
where@@
Lev@@
Astr@@
anner
DU@@
stricken
propulsion
quad@@
prefix
vals
thal@@
Sixth
Neural
lasts
Officials
AST
system@@
straw
200,000
yr@@
gic
Acc@@
SCs
V2
zi@@
alle@@
COR@@
Wan@@
contiguous
paren@@
suring
Continuous
proceeding
Engineer
squad
5.2
Always
Diabetes
narrative
Theoretical
47@@
130@@
quasi
impetus
Bangkok
northwest
nal
frankly
sanitary
Ep@@
enjoys
sha
hydride
plum@@
operably
pipelines
Phoenix
scar@@
Victoria
Der@@
incredibly
Gab@@
Cause
001
commun@@
inval@@
equi@@
coc@@
Dual
swim
Xiaomi
850
settling
pesticide
Mob@@
ecosystems
cart
dim@@
3.6
Anyone
see@@
thermoelectric
307
fence
Hybrid
ete
coma
4,000
sten@@
daughters
necrosis
Massachusetts
aqu@@
partitioned
retinal
drow@@
chaotic
ags
deter@@
ERP
grouped
Zhu@@
conducts
veteran
oh@@
Spo@@
temp@@
collateral
ellers
Recognition
tuition
devastating
troop
medications
14A
highlighting
integr@@
Whenever
pause
qiao
ingu@@
tai
american
stom@@
Championships
hospitalization
dementia
resol@@
labeling
Record
Specify
extracellular
simplest
deteriorated
PAR@@
GU@@
Fuzhou
moderately
tack@@
vet
flags
transmissive
oking
fted
moveable
Fc
inous
quotation
Morgan
maj@@
ellar
Mari@@
conc@@
privilege
oked
elaborate
stabil@@
Corps
Wa@@
OECD
Abe
magnification
encouragement
All@@
Shang@@
Repair
flex@@
lesser
olig@@
testimony
throwing
outflow
gan@@
barcode
phil@@
fluidized
beverages
Investi@@
Ⅱ
photographing
Herein
Vegas
excitement
majors
consultants
outsourcing
cirrhosis
tighten
ITO
cham@@
adaptability
cannula
hepat@@
Hardware
Areas
mall
Ax@@
collects
Thought
printers
ather@@
illumin@@
β@@
skirt
need@@
904
NPT
cyclone
calibrated
Half
reinforce
aved
dismissed
polyether
XX@@
Expl@@
continu@@
planets
absor@@
multiplexed
graphically
appl@@
nings
dip
fined
RAT@@
ud
endeav@@
20.@@
THE@@
discarded
Judging
occupant
legend
receivables
ITE
breathe
ulcer
inhibits
ferrite
325
bom@@
Tony
taxpayers
Broad@@
heter@@
Strategies
Orth@@
tations
Nov@@
wanting
Trend
Bulgaria
sorption
immunoglobulin
Sing@@
bronze
DRAM
Tun@@
inspire
recirculation
ethers
shor@@
hydrox@@
vac@@
66@@
insur@@
3-
thicker
instantly
carotid
spectrometer
routed
Qian
altering
recep@@
phased
insolvency
authoritative
addle
Desktop
accesses
Atomic
concurrent
authentic
Friends
12B
mesenchymal
paired
supplements
Death
Anyway
ported
wasted
Fore@@
Peri@@
enrolled
exacerb@@
pathogens
Examination
skip
softening
Wr@@
weigh
etting
Cuban
Increase
echo@@
ez
migrate
sk
quin@@
desires
Forestry
gations
alizes
kil@@
Administrator
donations
anced
armature
outgoing
Deposit
anned
255
caps
gland
Specification
eously
astic
deferred
→
upright
262
brokerage
Changchun
Hal@@
Valve
Dom@@
regi@@
Soon
Promote
Ji
Frame
proportions
forging
peninsula
olo@@
modifier
ona
tieth
gator
B.@@
Taiwanese
eded
duction
inseparable
liquidation
Artificial
Habitat
Pass@@
Sn
mud@@
UE@@
Driver
researched
recycle
aggrav@@
Bay@@
H.
grandfather
insects
six@@
intentionally
recruit
Ric@@
patrol
chess
cinema
penetrating
Tencent
Prof@@
Nanning
Ability
packs
acetonitrile
farmland
persistence
leuk@@
notable
los@@
Pd
broaden
Tou@@
Ari@@
attendance
CRP
3GPP
Re
Consider
gence
arbitrage
Logic
shade
luminescence
credible
nominated
Ul@@
flies
cohesion
silic@@
blends
Jane
sel
warn
Toronto
Que@@
HDMI
Michigan
reside
Grade
vation
plur@@
poli@@
lively
resumption
esses
68@@
176
d.@@
Sher@@
relational
credits
transducers
carcin@@
IgG
Excuse
resilience
aders
cried
Pakistani
unch
PLA
rescued
gal
ylic
nomination
quer@@
figured
topo@@
KE@@
desperate
Living
sticks
randomized
411
Hub
reintegration
overtime
justified
aki
65@@
pray
lobe
Soci@@
legitimacy
iles
Arctic
Everybody
itis
agonist
Ken@@
alien
cm3
dex@@
activator
four@@
oa
frictional
AK@@
technically
quotes
S.@@
］
manship
amy@@
modul@@
pick@@
utilities
Formation
Xiang
ura
Fang
hat@@
testi@@
ania
wastes
glorious
tool@@
Discipline
Mayor
fum@@
Freedom
Champions
v.
Contemporary
cyclical
fiction
uicontrol
Baidu
Interim
Geo@@
［
1.9
sky@@
nan
Poor
wed
reminds
θ
Ka@@
approximation
validate
ree
predominantly
sym@@
incomes
我@@
nevertheless
emer@@
Mes@@
retains
primitive
inertial
Opera
Zheng@@
impregnated
vapour
rivals
MSC
Ye
uploaded
17.@@
Prediction
semi@@
Houston
Parents
amongst
resses
isolating
magnetization
unemployed
invoice
intensi@@
info
Grap@@
clauses
withstanding
icked
sweep
Scott
coke
ech
Reaction
Ecuador
accidental
punc@@
patches
nets
fir@@
Ze@@
lock@@
remedies
pyro@@
ladder
gallium
clues
concluding
Disclosure
fungi
summed
itely
Autumn
ela
assigning
HE
aberration
ake@@
atings
southwest
treasury
school@@
Silver
OL
Shell
reco@@
activ@@
heng
porter
Galaxy
Meteorological
anism
Ess@@
Connec@@
visco@@
ref
dep@@
defending
goodwill
surroundings
cran@@
pedia
nails
Au
diamonds
Bond
percutaneous
Guatemala
perfection
tended
Listed
Indonesian
diagnose
plaque
lipids
X2
counsel
ACS
prospective
Atlanta
Maj@@
Cop@@
biodegradable
mann
ound@@
rescent
iously
renowned
tetrahydrofuran
Add.1
qualify
uniquely
prejudice
adder
boarding
urs
FT@@
shame
duplication
Strong
Steps
Taylor
V1
seemingly
carboxyl
equals
Intellectual
Cambridge
USE
pun@@
thri@@
Ai@@
stan@@
Cluster
quar@@
encodes
BB@@
18.@@
wer
scandal
806
vulcan@@
dispatch
photon
intimate
hiring
compile
326
basement
ops
edema
customary
infiltration
fel@@
Pep@@
ammunition
medicinal
Made
Cent@@
smuggling
conception
Ot@@
far@@
energ@@
recognised
ogen@@
ft@@
advocated
4.4
theses
congenital
ASIC
debut
wat@@
pc
ICs
apartments
stor@@
Ray
d.
Gri@@
commentary
iterative
fli@@
OL@@
train@@
GO
haze
Individual
V.
transfer@@
prospectus
Pack
Scottish
aints
DL@@
wafers
L.
Fox
polic@@
OHCHR
colleague
cDNA
Defin@@
peasants
RB@@
naval
fruitful
May@@
behave
Defence
Bot@@
480
archive
assists
aks
emic
reaffirmed
dotted
electroluminescent
servant
bare
Technological
mented
oxy
Affiliated
metry
Institutions
Weight
smiled
lymphocytes
1981
Gateway
iters
mismatch
explanations
alerts
1970
exchangers
Tab@@
troubles
pesticides
amplifying
warrant
avian
DT
proton
complex@@
cir@@
Polish
57@@
verte@@
alkoxy
color@@
adapting
pel
discriminatory
Allow
RAL
twisted
Contin@@
tolerant
dataset
AGE
gol@@
1967
gym
Dev@@
decay
signalling
dol@@
suspicion
bn
hardening
clearer
605
evaluations
ession
theoretically
normalization
708
capitalist
Documents
histogram
careers
passwords
●
budgetary
spheres
Automotive
devote
Vo@@
hang@@
ander
deserves
Payment
calculator
destroying
analogue
enz@@
Colorado
Ding
C6
surveyed
adheres
dashboard
cathe@@
UNAM@@
UM@@
posting
dop@@
Balance
MAR@@
Tree
gels
geography
Console
toxin
CPI
Run@@
acres
circum@@
holy
Plan@@
intervene
blamed
judiciary
他@@
Samples
CD4
Rest@@
West@@
annotation
inaug@@
manifest
Prefecture
acknowledgement
fool
Initially
otting
dc
Humanitarian
Sheng@@
rers
Econom@@
apar@@
Opening
malware
iv
iff
exits
eping
technicians
openly
Dor@@
Procuratorate
thermosetting
abor@@
weakening
valu@@
neurological
entrepreneur
Surgery
allocating
exemption
entially
IPv6
Near
rupture
sacred
tense
fting
wipe
giants
meanings
RAID
Law@@
alike
Dat@@
11A
hostile
spleen
ferromagnetic
Consumption
multipl@@
rations
Cont@@
battlefield
PCs
INE
marketization
Pollution
affixed
disp@@
nt
tened
Facilities
shu@@
otyp@@
Daniel
stand@@
elapsed
COPD
Mem@@
Cel@@
embryo
kingdom
EST
Manage
Side
completes
Pay@@
cups
borrowed
aug@@
bottleneck
xy@@
quenching
classi@@
-1
activates
deploying
mentioning
flanges
cow
Gates
dump
preform
num@@
followers
utili@@
tap@@
wondered
ress
dead@@
Tel@@
ev
electrophoresis
Hefei
females
retar@@
adviser
Tru@@
moieties
autoimmune
tomography
stiff@@
folks
.NET
retin@@
readout
Inst@@
Ban
govern@@
Responsible
Vitamin
conduits
hemat@@
sci@@
Hep@@
Publishing
angel
augmented
Seattle
pronounced
supervised
Creative
medic@@
Prosecutor
incre@@
billing
phenolic
Custom@@
500,000
addiction
Concer@@
PDA
attacking
manners
powering
Infl@@
Goods
terrace
Namely
ni
stripping
athlete
prohibition
dings
IZ@@
soy
chuck
photoc@@
intrusion
251
audible
opt
88@@
Pentagon
modalities
descriptor
erec@@
possesses
populated
Captain
Nice
Woods
cer
apologize
TiO2
backgrounds
Bou@@
dispensed
coordinator
arsen@@
judgement
Types
attacker
conforms
relocation
kicked
sav@@
Ban@@
succ@@
Equity
Chec@@
lightly
Complex
amer
cortico@@
averaged
Intermediate
Lastly
subscribers
cloning
Profile
ARE
TG
reversal
cha@@
inherit
COP
corridor
Scan
sauce
Taobao
predicts
lymphoma
heav@@
decryption
touch@@
touches
emphasizing
Medi@@
cling
expan@@
zers
counterpart
ballast
prohibit
Website
umbrella
49@@
cherish
anchoring
perpetrators
163
confidentiality
enforced
comb
heaters
encapsul@@
Chemistry
memor@@
suture
OC
sucrose
pris@@
endoscopic
keypad
E.@@
Sti@@
anion
polar@@
1983
microfluidic
Organ@@
Melbourne
Shared
INTER@@
males
plex@@
initi@@
segmented
tv
anatomical
jec@@
drawer
addic@@
cab@@
1b
convening
Down
Mit@@
ladies
magazines
CB
Weather
SV@@
azine
bowel
bitstream
Oxford
scav@@
Coordin@@
True
fork
caus@@
Commun@@
hydr@@
IFI@@
fare
chair@@
headset
APIs
fei
proactive
Islam@@
Back@@
Vietnamese
Cities
SAN
NPC
sexually
boo@@
elaborated
313
6.1
Imaging
Dongguan
eding
compress
aters
colloidal
HPV
anyang
atch
utmost
Serv@@
TY
Aiming
orious
418
Heng@@
corrosive
dock
Tg
immer@@
atal
doub@@
enger
amides
consul@@
rh@@
603
25th
clone
unused
uity
prosecutor
xide
fixes
eternal
Rica
tness
dit@@
Dre@@
CIA
yo@@
omes
NACK
tling
e.g
sty@@
peel
ligh@@
bed@@
Night
fixedly
bidirectional
dropwise
Term
1400
lish
discomfort
zy@@
strands
Computing
vol
oval
solic@@
WOR@@
superimposed
Tech
classifier
nucleus
equalization
Towels
impacted
sits
resides
6.2
los
coexistence
iser
elt
polished
otropic
eman
SW
Gong
appearances
Migration
schedules
reducer
lap
disturbing
ict
plasm
textiles
linearity
Copper
eds
Neither
uation
weighed
financed
aquatic
concerted
Pennsylvania
vastatin
analy@@
Write
surrounds
Cape
servicing
crashed
excavation
40,000
ritis
submarine
Ghana
wishing
Words
Plasma
twentieth
sation
wed@@
NS
Screen
46@@
rying
unwilling
unloading
Vision
scientifically
agglomeration
Shar@@
immersion
viability
protease
Strengthen
combustor
detrimental
HU@@
exhibiting
Empire
chro@@
struc@@
H2O
Compensation
validated
deliberations
RU@@
atures
na@@
ulate
Wake
ont
releas@@
APEC
NMOS
revi@@
stric@@
Whit@@
resignation
Cai
TF
objectively
workstation
condensate
Scal@@
PTFE
GI
uro@@
affair
cast@@
enced
Fab@@
FRE@@
journals
trem@@
scheduler
vil
Boeing
Comm@@
bullet
kW
exercising
920
annex@@
puncture
turmoil
rail@@
KB
discounts
enclo@@
dilemma
rectangle
Ring
reli@@
Hoc
ineffective
cere@@
MAN
juvenile
watches
Original
demolition
tance
actress
vias
authenticated
Mechan@@
mortar
Range
Saf@@
isopropyl
lish@@
firming
Proc@@
Sheet
cognition
ITS
522
til@@
pour
Extraction
Am
impro@@
methodologies
abl@@
Haw@@
dig
Nanchang
bath@@
footwear
Arizona
Adam
Therapy
thy
pes
insists
Crystal
pu
uncertainties
regimes
embargo
Tam@@
Register
Automation
EV
bile
amic
NAND
METHODS
butter
MCU
mium
pairing
oceans
Panama
Dist@@
epo@@
5C
Buddhist
unhappy
fif@@
stenosis
southeast
exogenous
Endo@@
Alex@@
Cath@@
chloroform
precipit@@
gin
ylate
honesty
EB@@
ema
olog@@
telecom
SNR
floods
scalability
martial
6,000
plots
Iv@@
Aff@@
vomiting
stained
cryptographic
minded
icates
blood@@
Chil@@
Guard
Print
Restaurants
navy
Yin
712
ashi@@
Head@@
emul@@
Doha
permitting
passi@@
1960s
lied
Lum@@
sens@@
smen
etes
NaOH
Incidentally
magnificent
mucosa
A3
minimally
Explo@@
rocker
MG
Gang
norm
NG
cus
essay
hydra@@
implicit
civilizations
Insert
Hen@@
217
vocal
FI
Principle
Integr@@
misleading
gloves
grap@@
Rapid
BIOS
&apos;I
eres
ILO
Av@@
liters
manipulated
abundance
Eve
Inclu@@
sorbent
tilted
Tian
Unable
retransmission
Parkinson
needing
Wizard
gut
yoke
onomy
cros@@
placebo
verifying
unmanned
textbooks
Avenue
complication
DCI
Hold
Senator
Raman
Contr@@
Displays
tribunal
shu
lah
abol@@
cath@@
iss@@
associates
malfunction
ligands
Beautiful
cal
fisheries
NF
motions
Phosp@@
R.
separates
L3
tel
thrombosis
Brain
clinics
Regul@@
debug
compromised
vs
provisioning
nic@@
restrictive
Psychological
Linear
Adaptive
7.0
Las
abil@@
diary
oscill@@
empowerment
Replace
venting
Mid
Ori@@
odor
Yong
Delivery
polymorphism
open@@
artifacts
aspiration
fis@@
metro@@
twist
Waste
Plat@@
Flight
Separ@@
jud@@
lian
depths
Discus@@
subcutaneous
tom
Tunisia
reproduce
yo
escaped
examines
Philippine
wal@@
ancestors
Joseph
citric
hes
matrices
185
Evidence
Participants
Temple
kou
hypertensive
exporting
teaches
1.
carbonyl
uric
vity
differentiate
compressing
pupil
stamps
scaffold
Tal@@
follower
thre@@
cab
imagined
worship
ION
dral
Terms
Indigenous
Dep@@
Leaders
marketplace
supernatant
meg@@
CV
imposing
ug@@
oted
cartilage
yielding
izers
hall@@
Taxation
sp
Continue
Know
narrow@@
poorest
Instagram
Elizabeth
Supplier
anny
Dou@@
iction
Nairobi
Py@@
Cap
Him
evolve
ype
divides
dged
plo@@
festivals
nanometers
19.@@
welcoming
Any@@
gla@@
PPP
Ten@@
consisted
lem@@
liberty
fai@@
concentric
2025
drawback
door@@
ull
nel
vin
Xin
sex@@
Processor
pale
Rose
gelatin
Alex
sed@@
Need
cum@@
swept
dimming
kne@@
pression
lt
rabbits
reciproc@@
sticking
Round
cyber@@
millimeter
Technique
Stri@@
flesh
explosives
560
petrochemical
osteoporosis
qin
clever
embryonic
buffered
underneath
disturbed
Os
TL
acity
rel
Including
networked
License
bao
cooperatives
lou@@
Iceland
lia
slices
editorial
bumps
designate
dominate
subtle
Pul@@
inefficient
categor@@
ticul@@
lunar
Liver
simulations
ARY
postal
cracked
Spatial
commencement
chloro@@
depict
outermost
lex
Arti@@
yards
repeat@@
Spe@@
puzzle
516
know@@
scrap@@
amenities
RATION
Existing
compet@@
DV@@
visitor
ually
expedi@@
Camera
embodies
CG
ducts
buffering
parked
Default
passionate
objection
promotional
bathrooms
honored
carbohydrate
hs
aunt
colonial
voluntarily
Van@@
Elements
WA@@
415
Lau@@
assed
Increased
spirits
symbol@@
trav@@
Jian
demonstrations
atherosclerosis
numer@@
designation
tracing
Yo@@
ga@@
oxidase
inventories
ued
olive
customization
govern
Yin@@
oly@@
unexpectedly
cellulosic
finances
photographer
tert
Az@@
prot@@
privately
IES
memorial
skeletal
John@@
baffle
PH
JP
McCain
Pac@@
denial
Category
immobilized
CMP
LNG
incompatible
fi
facilitation
Cir@@
inputting
deleting
241
strati@@
republic
Ideological
blasting
plasticizer
atorial
thumbnail
intentional
cleavage
supplemental
tri
PIN
eigh@@
smiling
nerves
graded
handful
HER@@
estrogen
Nar@@
detached
Basically
alumin@@
tyre
Rats
battles
laughed
Mrs
stamping
Warning
lanes
ector
pelvic
eh
5.3
migr@@
superiority
huang
depletion
aero@@
tery
DAC
Cho@@
1949
importing
LAN@@
ins@@
youngest
Refl@@
pleas@@
ENT@@
isomers
upgrades
gel@@
tactile
Indicators
Stainless
drafted
diethyl
Off
Kir@@
Metro
lamination
Auto@@
pouring
Libyan
tar@@
Cairo
XRD
adequacy
centi@@
Privacy
formatted
disinfection
Sus@@
evolutionary
ativity
Gro@@
hydropower
Territories
Charlie
238
blanket
hear@@
identities
deser@@
tances
align@@
regimen
3.8
terephthalate
kn@@
troubled
Proliferation
OEM
fantasy
repairs
20A
weaken
Customers
TECHNICAL
Personnel
architectures
Provided
usefulness
fore
ANT
vortex
castle
Kennedy
wives
cords
Pic@@
loudspeaker
Identity
dences
MP3
250@@
186
dome
ceasefire
Sli@@
idated
PMI
inventions
occlusion
memorandum
crow@@
thrombo@@
granting
Sor@@
roll@@
acrylamide
leaks
Writing
versi@@
horn
Previously
forwards
agglomer@@
anemia
Program@@
quarantine
prosthesis
fluctu@@
forge
stret@@
lith@@
tum
relied
Cannot
Lead
gestures
Qaeda
psi
CSF
Sharing
pip@@
Differential
irreversible
Bachelor
unpredictable
classify
140@@
frag@@
numeric
compartments
Inside
hinder
multiplied
XI
omer
repairing
RH
Judge
LL@@
charide
sibly
therethrough
collap@@
acti@@
E2
anim@@
staged
functionalized
tex@@
hardened
gluc@@
turbulence
quest
Cher@@
paras
piles
spy
believing
undesired
correc@@
stain
sie
CU
GA@@
PDU
use@@
Bab@@
deficits
Dro@@
nowadays
mammals
oscillating
Soc@@
peeling
laughing
repl@@
engra@@
pivotal
intu@@
lowing
Dynamics
hil@@
repurchase
celebrated
mi
Immun@@
hatred
Touch
HDD
Andrew
har
ophen@@
SEC
Subcommittee
Sept
introduc@@
questioning
realm
interfer@@
CONCLUSION
caution
prevailing
Bearing
recur@@
eci@@
Nokia
Purpose
synchronizing
amps
Secure
Reduce
polycrystalline
Safe
reactivity
scrip@@
ometers
Kit
odds
awesome
WA
sino
bon
step@@
Le
achi@@
pseud@@
spor@@
asymmetry
measurable
ece
alty
Uruguay
procuratorial
inspectors
utter
scholarship
agged
precautions
otomy
sulfonic
icle
13A
pills
WE
ort
Sou@@
disposition
hydroly@@
Bin
dia
sediment
moulding
efficiencies
microspheres
Dest@@
Disaster
swi@@
Human@@
Ukrainian
arbitrarily
essions
agitation
pet@@
ESD
hello
Confucius
pod
ellip@@
dyeing
Shares
alkenyl
Bron@@
Girl
tment
Bud@@
uncture
prin@@
concludes
ato
poem
depen@@
lear@@
Wit@@
crimin@@
prostitution
ambition
oligomer
sunny
schizophrenia
Techniques
arduous
stationed
creatures
emulsions
RI@@
mang@@
fittings
Futures
Ancient
tolerate
barrels
Chairperson
coaches
violating
8.1
pion@@
sang
58@@
liter@@
VP
handsome
anks
conscience
pyridine
Athens
Noting
grasping
omed
ground@@
nephropathy
Lou@@
sidel@@
heterocyclic
BD
Sodium
calcul@@
181
HK@@
178
Significance
Bit@@
advisers
1973
farther
frontier
FL
inhabitants
fibrillation
sta@@
acceler@@
maize
Brun@@
shortcut
CU@@
PUCCH
EPS
MATLAB
registering
Stone
LV@@
arsenic
0.5@@
synchronize
dd@@
depos@@
sies
tility
injections
benefiting
MBA
Addi@@
timetable
excipients
Hard
CH2
ISO@@
LDCs
cytokine
Cour@@
instinc@@
Events
leaf@@
bab@@
chooses
GRA@@
147
uang
algae
odes
temper@@
aspir@@
compan@@
tase
Bone
Sof@@
purifying
squamous
haz@@
realities
fragrance
Provides
yaw
shunt
Hao
Lab
shale
GL@@
spouse
institution@@
directs
Disk
jumping
eg
Et@@
Ice
No.@@
Face
similarities
tou@@
Era
aller@@
aligning
THAT
hemoglobin
interpre@@
staffing
PI@@
Condition
Academic
counseling
petition
grammar
SDK
OIOS
overcoming
graph@@
slept
vens
Damage
enses
RM
stic@@
perforated
Revenue
Say
vered
chrom@@
470
Enjoy
religions
decryp@@
flash@@
cies
Nik@@
Ass@@
Practical
pedestrian
dehydration
contexts
Princess
sweeping
DW@@
Dialogue
pers@@
roof@@
Pump
ATP
Stadium
glance
discontinuous
accessibility
Wide
NAS
Lat@@
mill@@
D3
CSS
respecting
travelers
Amendment
GF@@
intestine
forbidden
junc@@
Rol@@
Window
funnel
Trou@@
mandrel
imitation
downloads
erous
public@@
Delhi
Procurement
germanium
fresh@@
EXAMPLE
sne@@
ballistic
Opens
ration@@
af
symbolic
Increasing
PSA
conserv@@
Um
commissioning
browsers
See@@
milit@@
steep
Enable
tumour
Wol@@
16A
7.2
worlds
vent@@
Southwest
Wave
resting
Noise
spin@@
harvesting
philic
tants
trail
repres@@
mainstreaming
quenched
NY@@
U.S.-@@
Motion
screened
suffers
epitope
Depression
bloody
leys
soldering
digi@@
call@@
sep@@
Format
Medic@@
ern
pub@@
tantalum
ense
Gaussian
impunity
Oriental
Conver@@
unc@@
theatre
Physics
physi@@
Lif@@
fish@@
Van
Appendix
CRM
chimeric
Initial
manpower
diplomats
342
spokeswoman
aj@@
H.@@
promoters
inde@@
cadmium
intracellular
ghost
Feature
ocyan@@
paras@@
nanotube
alteration
drone
midnight
bother
shelves
eddy
​
implantable
altogether
mandated
614
subordinate
Tw@@
dawn
Dean
R6
itual
hop@@
persuade
DER
child@@
Decade
Gate
climbed
­
pizza
Less
suspensions
AIM
illuminating
oneself
tric@@
ancers
cryptocurrency
Fro@@
companion
Located
susceptibility
6b
RNAs
sprocket
excipient
pher@@
fuc@@
liqui@@
disperse
potenti@@
elliptical
aggregates
Cit@@
hopefully
Russians
ANALYSIS
有@@
favored
cave
remarkably
neighbours
Socialist
30th
scarce
formerly
distorted
Modified
justify
Mand@@
SET
tually
424
routines
chromatic
sper@@
thumb
comparisons
cup@@
thy@@
inwardly
Markets
metabol@@
abnormalities
anic
Es@@
pathy
day@@
compos@@
Conservation
S5
Pel@@
pie
ert
Kitchen
901
substitu@@
Clearly
cakes
IGHT
plateau
hospitalized
organizers
routers
ophy@@
Ill@@
cartoon
astronauts
Isolation
mini@@
athy
gas@@
Organizations
contention
Available
IMP@@
utting
digits
episodes
shroud
sensation
Simul@@
lays
interpersonal
propane
Respon@@
anted
exempl@@
combustible
feder@@
Commonwealth
dispers@@
submitting
Refugees
essive
innov@@
overweight
superconducting
SDS
Policies
vinyl@@
formatting
casual
character@@
merits
arose
eld
cube
Day@@
surrender
Audi
Jobs
roph@@
mei
manag@@
Script
chim@@
By@@
pressor
audited
watermark
Driving
mist
Manufacturers
potatoes
straightforward
tending
Les@@
Nation@@
alin
chers
Danish
511
MAT@@
1975
dilute
aning
Wenzhou
rectal
jets
orian
untreated
Preparatory
canceled
Rep@@
FE
MTC
Montreal
dently
compressors
unbalanced
hunt
reiterate
actic
mono
Yuan@@
Strength
oxidi@@
barium
adaptor
heavier
struggled
TDD
8a
ologies
beneficiary
gardens
presentations
tours
discourse
encer
Zemin
Ryan
Jie
Son@@
AME
157
boosted
Miller
potentials
pensions
Adding
Positive
conceivable
Unity
5.4
Funds
Syndrome
Pattern
reson@@
moder@@
flywheel
prince
X1
inland
interbank
aser
implied
Uzbekistan
squeeze
horizon
ticular
Oce@@
humor
indi@@
rubbing
a.
violates
obese
9.5
biologically
woke
Distributed
Telecom
xen@@
trophy
microscopic
Identi@@
oling
widening
Protec@@
Above
menting
89@@
ettes
din
admir@@
Minimum
QR
dus
VB
GL
abolic
ORE
rati@@
erythro@@
railways
nausea
excav@@
dog@@
pathogen
icker
TASK
magical
tained
eth
XX
Clin@@
relaxing
zhang
Template
xin@@
terminating
collim@@
merging
1600
easiest
ghtly
1976
manipulator
NE
352
Asked
Du
7.1
λ
Kur@@
Schem@@
retreat
alge@@
á@@
iro
concessions
Imagine
favor@@
borrower
SOA
elly
ried
bad@@
gentlemen
eland
Virus
berries
proposing
liang
mist@@
Outer
Develop
RB
expectancy
cpc
GH@@
toaster
fur
beneficiaries
encompass
helicopters
4.6
standpoint
IEC
securitization
Shopping
slab
Salt
Responsibility
federation
Email
Jiabao
3.7
detachment
TABLE
Ministerial
lime
throm@@
1.5@@
inviting
manif@@
esh
compens@@
deviations
acu@@
corrugated
Q2
readiness
ather
impart
246
Parti@@
ames
12a
sionally
pouch
averaging
Lung
Getting
diving
DHCP
eag@@
shrinking
Rein@@
Sarah
instruc@@
Smo@@
ltd
corrections
Dow
Jenn@@
Tele@@
knocked
assignments
tar
dest@@
coupon
insider
degeneration
ventures
ever@@
hindered
inflatable
timeline
RAN
horrible
normative
genocide
iPod
critically
OPEC
presidents
gau@@
ENTS
centrifugation
Dele@@
Good@@
mam@@
LY@@
phrases
corneal
stabilizers
repetitive
hydrogenated
Coordinator
Efficacy
thanked
bored
139
tiger
rul@@
pyrolysis
Welfare
edy
Tobacco
discriminate
Meng
decei@@
percep@@
evacuated
Subscri@@
charter
Approach
supercritical
optimism
334
HAN@@
Debt
MME
exu@@
decentralized
Mozambique
asion
prudent
shr@@
unsubstituted
projec@@
Option
amend
proofing
Campus
Authentication
Leste
override
regulates
Bai
Combining
veterans
seekers
ator@@
60,000
Northwest
tify
Violence
fluidic
MMP
jus@@
191
Rap@@
premiums
dispersant
Sel@@
cyclohex@@
LLC
thermic
obs@@
Chu@@
refusal
antioxidants
Es
caller
pandemic
vulnerabilities
racks
432
-I
unanimously
Gol@@
Nine
830
handic@@
cher@@
UPS
Precision
newer
confron@@
UNO@@
deduc@@
UNM@@
TS@@
windshield
charming
tsunami
Diego
Mom@@
profoundly
oblique
Hg
arguing
buo@@
coupl@@
aft
Philadelphia
ankle
pivoting
oxi@@
Bo
embedding
degrading
physicians
sic
titled
fifteen
commissioned
helium
aggres@@
dum
decompression
forthcoming
anatomy
bacter@@
implants
enanti@@
rage
staple
Saharan
dragged
exercised
reconc@@
relieved
boots
Provisions
Items
I.@@
vocation
offerings
portrait
leaching
pioneering
Tumor
NP
Polymer
Benz
broadc@@
newborn
Selec@@
MU@@
67@@
PLL
Puerto
micr@@
iny
entures
successor
strokes
sponge
anna
Ta
Cru@@
SES
disrupt
rides
1-
DIS@@
spect
Euro
walled
fig@@
tices
Purchase
pulver@@
elder
tandem
tern
Manhattan
GOP
dynam@@
volumetric
reacts
Free@@
touchscreen
enacted
renew
Route
Returns
Yahoo
Sport
bribery
ushed
ough@@
bustion
achment
secondly
nes
dispatched
high@@
inic
1004
life@@
peti@@
Clu@@
orientations
Kai@@
aim@@
188
benzo@@
diligence
Basel
volleyball
2021
264
stasis
Imp@@
Concept
affor@@
RD
narrower
tuner
Instrument
amping
inclu@@
nowhere
ron@@
bic@@
6.3
ram@@
blu@@
plun@@
ationally
retrieving
Efforts
professors
densities
Mir@@
ucle@@
PMOS
crushed
Random
obtainable
tetra@@
Border
Vector
absorbs
birth@@
jum@@
FO
mit
Crisis
afr@@
stall
Measuring
par
lo
fried
sulphate
une
LB
parametric
decorated
spectrophot@@
degrade
discretion
outset
asive
ECC
ask@@
FFT
vertex
Supplement
Wilson
parental
evi@@
tow@@
Door
ZnO
detachable
Values
Matrix
subsets
shine
phic
reactants
watch@@
Wall@@
diagonal
instruct
808
6C
bicycles
draw@@
ectors
partitioning
AML
1972
phon@@
arter@@
DD
56@@
Navigation
upwards
mucosal
spectro@@
resettlement
Indic@@
iTunes
correspondent
disappearance
lymphocyte
needles
glomer@@
desertification
screen@@
carbox@@
xml
Recon@@
aud@@
Tit@@
tenure
hed
gradation
warding
Snow
postgraduate
clinically
azol@@
kinetics
和@@
ored
postponed
cooperated
appointments
sch
herbal
Skin
Chlor@@
bular
acin
Aud@@
Pilot
inverting
unlocked
tale
Models
retali@@
Definition
EP@@
debates
crushing
bee
Sat@@
bitcoin
solubil@@
Arsenal
presided
spell
turbo
Parameter
Ful@@
scr@@
electrolysis
axing
interpol@@
genital
jan
walk@@
clic
Bun@@
lawful
publicize
RL
Ide@@
milliseconds
ophthalmic
rot
Activ@@
revit@@
proposition
blessing
paradigm
cleansing
lakes
counters
energized
Fish
centrally
194
-The
ripple
Variable
Printing
hardest
NK
MON@@
goodbye
WebSphere
exquisite
DMF
tonnes
extradition
codec
cortex
MW@@
RAT
Cook
Objec@@
zip
407
Far
captures
ionization
intolerance
Dipl@@
5.6
princess
vicious
origins
0.15
bble
Lincoln
unveiled
corrective
comment@@
allic
Davis
0.02
Vir@@
recalls
SQ@@
Ultra
light@@
coping
invoked
Shel@@
Harmon@@
metastatic
preoperative
awn
dissoci@@
citing
photographic
Running
distributors
apers
anytime
Altern@@
906
Utilization
toms
constr@@
guitar
neglected
EF
toolbar
Light@@
spac@@
monster
300,000
pharmacy
trades
ference
pp
stranger
Serial
deduction
extingu@@
swee@@
lity
705
sugars
flex
cult
shen@@
个@@
ape
benzyl
apples
markedly
cares
aortic
7.4
AK
endocrine
Mini
angiography
subsystems
progressively
dison
analogous
Cameron
Cloud@@
misunder@@
y-
Calls
Mental
anners
interro@@
biotechnology
IMS
pediatric
Removing
FIG@@
burns
Cla@@
increment
HCV
lik@@
NaCl
collectors
Alice
spatially
mp
congratulate
termed
containment
UR
22nd
realised
rests
prayer
exploited
miscible
TRAN@@
obey
evol@@
Saddam
franchise
Holdings
intern@@
stacks
immunization
Recognizing
chil@@
Sound
vanes
declines
motiv@@
Stay
Ling@@
Bed@@
Wood
arities
Calcul@@
refinement
BRICS
ophosp@@
cytes
seas
fat@@
Mod
Haz@@
ign
Packaging
Berk@@
acking
homeless
att
Tag
MV
rev@@
tilting
steril@@
produc@@
Entertainment
consultative
Alarm
pretend
revealing
absorbance
inda
highways
OT
bor
950
affili@@
BU@@
outbound
Establish
328
xes
sectoral
assistants
authentic@@
asters
lobby
judgments
vanadium
monkey
constants
Kun@@
publisher
eradicate
2.9
expressly
razole
tosis
intrac@@
Lang@@
enty
nested
chop@@
Adjustment
Influ@@
healthier
slavery
policymakers
Ground
chor@@
vert
arteries
Sky
sandwiched
ogenesis
mass@@
correctness
Vista
5b
Aspects
multifunctional
awake
Copenhagen
Moving
guo
binders
Tehran
rub
Cra@@
425
oxing
feared
creep
JSON
Lady
onomers
mony
ark
ming@@
colours
yu@@
dissem@@
brist@@
circumstance
recruiting
ridiculous
sprink@@
1974
1D
obliged
panoramic
aned
dispose
Memorial
309
Gear
tak@@
Bow@@
process@@
pepper
chitosan
rheumatoid
retailer
delighted
ado@@
brass
Applic@@
ghe
audi@@
seal@@
spectacular
PN@@
HY@@
Providing
butterfly
brokers
Id
stole
AU
prisoner
towels
sity
Spl@@
anting
substation
construc@@
wav@@
tif@@
noodles
tapping
menus
thermostat
stems
termin@@
Author
intracranial
maleic
wellbore
empha@@
Fluid
detainees
magnetically
E1
Coating
consolidating
concep@@
harvested
PW@@
stunning
mitting
restrained
arri@@
PCC
accompl@@
diagnosing
dicarboxylic
43@@
booked
merit
ETs
replen@@
formations
Cab@@
Xia
Mathematics
parallel@@
acquain@@
poison
ean
agu@@
Senegal
inqui@@
lifelong
shortages
GT@@
butanol
idity
atum
noisy
Jamaica
brushless
ENTI@@
Stor@@
quaternary
Gu
ose@@
Config@@
shocking
celebrities
vertebral
4.8
voy
eration
fascinating
scholar
gaze
245
terminus
characterize
Equi@@
architect
Drawings
amino@@
angiogenesis
ling@@
sympathy
terminology
advent
tus
dispersions
microphones
heart@@
Grad@@
10000
historically
Female
lowers
EMBODIMENTS
terrestrial
sums
attracts
24th
straigh@@
pillow
diagnostics
Pharmac@@
multiplication
aint
redemption
upstairs
mas
SUV
otypes
footage
Verify
cus@@
orchestr@@
objec@@
Track
arium
hesitate
reflectivity
Mark@@
drums
POS
Lon@@
Illustr@@
weekends
ignoring
Lag@@
abuses
lazy
EMI
Fs
murdered
beloved
silicide
peacebuilding
omeric
duck
poll@@
struction
90s
secretly
PHY
Aid
Adap@@
ISIS
28th
BR
pneum@@
700@@
Loss
Developed
vacancy
aerodynamic
subscribe
emperor
crypto
Yield
Objects
revise
27th
audits
Zig@@
yong
escap@@
seas@@
verbal
CH3
Context
1,500
Rubber
deprived
collaborate
faulty
CRE@@
Honda
constructions
delegate
Chad
fractional
6.7
Veget@@
tless
typing
lox@@
hematopoietic
Hei@@
Sources
destined
protein@@
Morning
pyramid
hike
SIN@@
donate
Corp.
interacts
aver@@
functionalities
ven
bloc@@
tokens
frustration
Surve@@
fibr@@
moles
swir@@
mom@@
shielded
pushes
dur@@
HVAC
retire
ilfield
2.
san
commended
colorless
torn
woods
descent
Eventually
imaged
LOW
scrap
tenant
nutri@@
rinse
energies
α@@
celebrating
Navi@@
Abu
Chi
Statute
supermarkets
cular
LTD
Microwave
shipments
VE@@
expires
richer
modulate
cascade
6000
overlaps
physic@@
tg@@
Zambia
NGO
SARS
HS@@
Illinois
tol@@
Seg@@
fashionable
beamforming
gynec@@
fix@@
photographed
extinction
Package
FIFA
CX@@
Consumers
anomaly
Dal@@
MBMS
portr@@
Rooms
tricks
plat@@
VDD
follic@@
bitmap
vap@@
compressible
Girls
gloss
Normally
predecessor
Armenia
zheng
Mah@@
comedy
ylamine
Ren
Developer
Vit@@
common@@
aph@@
bye
Aw@@
FAC@@
10a
beli@@
deteriorate
ballot
idling
CAM
subcarriers
blow@@
committing
propeller
NIC
MAP
multic@@
olytic
icious
Malta
Outdoor
Pb
ulous
seedlings
Mn@@
force@@
Af@@
candy
UST
anonymity
CAP@@
Converter
unhealthy
initialized
Eli@@
aesthetics
richest
Golf
seldom
ovirus
Construc@@
lef@@
joins
percentages
dryness
excit@@
Apartment
VAT
Functions
sporting
Vibration
curiosity
forged
rearward
churches
manifested
bachelor
Drawing
liquefied
stry
technician
Stephen
Salvador
fathers
yn
fats
Reli@@
polluted
Cut
SRS
Tim
sulph@@
lubr@@
ifier
locus
TU@@
imply
singles
clarification
tage
soda
estr@@
cations
crystalli@@
parade
purchaser
Tong
internship
8.0
Shijiazhuang
earthquakes
interferon
buck@@
onia
IFN
achable
LF
bull@@
Managing
merchandise
Thousands
peritoneal
authenticate
Esti@@
tunable
upside
cystic
doctrine
Detroit
t-
Classic
essness
disputed
tapes
ARM
Sab@@
simplifies
rol
transformers
nity
counsel@@
rented
duly
ila
leaking
adsorbed
Leave
mm@@
Stat@@
stripe
covalent
manned
ope
His@@
vian
elles
coincide
treats
amor@@
Mountains
philosophical
slits
humanistic
odor@@
trader
onally
reimbursement
Villa
Interactive
creator
airs
Tan
compres@@
HAR@@
molds
Christ@@
RACH
Sup@@
esteem
FTP
Dry
ICP
switch@@
t2
foremost
announcing
invari@@
cookie
Changing
analytic
Transaction
Alexander
Pin@@
Accounts
condensing
1800
negligible
limbs
Goldman
TTI
REN@@
Suddenly
～
Andy
electrophotographic
K1
lic
VMware
yarns
lan
Merchants
machined
perceive
14B
mortgages
piper@@
lithography
TM@@
Ebola
poet
america
Sav@@
quot@@
Ear@@
restricts
Sale
random@@
pity
LER
LDL
rainy
canvas
Bacter@@
guideline
Diseases
colorant
tightened
scatter
Incre@@
divorced
Wine
aster@@
speculative
counterfeit
narrowed
taper
outlines
AAA
russia
bleed
4.7
finger@@
recurring
Transform
supreme
Gor@@
RO
nicotine
Lithuania
carbohydrates
esty
ushered
Tomorrow
Story
capping
CSRC
Hay@@
Landscape
Tags
blindly
26th
resur@@
interventional
Simpl@@
administer
lun@@
rip@@
23rd
Eritrea
pioneer
heterologous
Mei@@
recoverable
namespace
synergistic
SSD
snacks
xon
Industries
stealing
strateg@@
Extension
wetland
Units
aston@@
liaison
atro@@
industri@@
headers
GPRS
uri
IGBT
particulates
shy
visas
spur
Going
expelled
1H
refine
trash
1960
233
Conduct
und
cep@@
Om@@
dough
Ann@@
retardation
itu@@
6.4
Infrared
cartridges
erroneous
Lighting
QQ
unfortunate
Peacebuilding
Israelis
scar
animated
Unified
screwed
H1
eyel@@
Tool@@
272
linguistic
Wow
ATED
Reconstruction
qual@@
Township
pancreatitis
Jon@@
Mi
filming
DATA
econom@@
maximizing
Côte
Indi@@
preferentially
genius
nesses
champions
versatile
skep@@
1945
Coronary
airspace
lb
aftermath
zo
1102
HV
booming
researching
Particle
ing.
kPa
pupils
N.
rains
amped
Accur@@
Books
illustrations
protectionism
repe@@
torate
cradle
enes
rom@@
polygon
deepened
Chrome
Powder
tensioning
manipulating
rement
symposium
load@@
Luxembourg
Bing@@
academy
username
Registry
tiveness
protector
Corruption
soils
troubleshooting
195
Flu@@
Fir@@
atization
Rong@@
poin@@
gab@@
accountant
anticip@@
frustrated
otype
diversion
PCM
endpoints
ongs
4D
educ@@
mum
tha
humanized
hepatocellular
Sit@@
iner
omers
condolences
Bi
acrylonitrile
Dominican
Macedonia
160@@
european
poems
ele
inspiring
Simon
inspector
billi@@
fame
fragmentation
indic@@
conv@@
jitter
foamed
rig
vibrant
UC
Nat@@
ule
exams
Weekly
Norwegian
icillin
chase
reless
unsafe
sils
Howard
brewing
practi@@
Alk@@
helmet
Basketball
camping
Acquisition
enly
strut
Assuming
acious
duce
aux
bear@@
mark@@
Zhuang
ample
Compare
capitalization
analysing
Flexible
Beyond
accumul@@
fouling
1977
Embedded
8,000
ethylen@@
appropri@@
unitary
Ls
1020
hyperplasia
voids
forec@@
crystallinity
arize
imaginary
replica
Nit@@
15,000
Clause
THIS
listener
thickening
740
esthetic
Analytics
Cou@@
secre@@
care@@
slogan
Ra
deliberate
cousin
citrate
Rail
Bolivia
tu
ression
Independence
sap@@
2500
arthro@@
Lac@@
endangered
aga
coincides
Protective
HLA
Entry
dissertation
Dur@@
CCC
Talking
aths
snake
ho
ea
kitchen@@
Enhanced
Confuc@@
stream@@
naming
Wan
relays
chromat@@
Diagnostic
admire
silly
elemental
Pub@@
formulae
deteriorating
inium
realise
coal@@
ery@@
hydration
iner@@
Motors
Slovenia
Histor@@
eving
exponential
brigade
squi@@
dinos@@
Kevin
sleeves
exi@@
Programming
pill
Curriculum
aerobic
secret@@
Tracking
translucent
bosses
703
regenerated
Immigration
tactical
ange
Isn
Moder@@
flop
anaerobic
robbery
lubricants
disappointing
betr@@
LG
lions
dispense
A4
additions
Dig@@
Hawaii
ira
Potential
2c
powertrain
rockets
degenerative
lysis
imminent
destro@@
DPP
Realization
sounded
1971
lysine
industrialized
pistons
Must
prizes
launches
polyols
shouted
guaranteeing
pellet
laughter
supplem@@
induces
recombination
textbook
reb@@
neglect
stochastic
singular
Na2SO4
opic
marble
Dallas
Jia@@
Quantitative
occupancy
rin@@
Points
upwardly
Influencing
tably
printhead
ambulance
115@@
ALS
amphi@@
refrain
stuff@@
permeation
ama@@
aband@@
Oper@@
restrain
hysteresis
IPS
shut@@
cant
cripts
Ven@@
energetic
initiates
ilateral
perfume
confront
cau@@
refuses
embryos
pursu@@
ultraf@@
deform@@
ackers
neur@@
Journ@@
Care@@
Tow@@
convene
RNC
Employer
prolong
iss
Conduc@@
812
Ce@@
gem
specializing
fireworks
EPA
15A
Facing
disturbances
Zhuhai
gir@@
Explore
magneto@@
Min
lifecycle
vor@@
rankings
sulphur
660
unrelated
tag@@
Experiments
habitat
plex
nish
1110
conqu@@
fic@@
selenium
consulted
dability
Injury
gast@@
intru@@
Instruments
dew
SEN@@
morphological
Relief
terminates
Distance
TED
descriptive
331
departmental
EGFR
brutal
stylus
abutment
receipts
t1
replaces
MFP
appealed
Doctors
flagship
APPLICATION
bu
Avoid
expounded
bail
GH
convincing
Malaysian
regrets
eck
Gly@@
Clear@@
U.S
alline
psychiatric
shirts
trademarks
transforms
prompting
eman@@
augh@@
modeled
GMT
FCC
authorize
Paragraph
bel
Mauritius
tunnels
timestamp
webpage
convection
congressional
Attorney
wolf
foreground
vibrator
Pulmonary
FIGs
tooth@@
isop@@
yro@@
hes@@
Tests
Zhong
patriotism
Intere@@
declarations
bal
nationalities
Pig@@
stum@@
515
plotted
Shipping
Phot@@
gym@@
Sector
evaluates
String
block@@
Statements
erent
Kate
dic
pencil
disper@@
femin@@
strangers
underway
Choice
staging
CH2@@
umes
brid@@
Kelly
refraction
Romney
insecurity
itant
translator
clad
Tex@@
replies
fs
MDA
towers
wee@@
escalation
centimeters
fron@@
minimizes
trough
concentrating
1001
unlicensed
N-
garlic
handset
plu@@
illnesses
discovering
ECB
may@@
recognise
interf@@
arer
Nutrition
imperi@@
patriotic
Democracy
STE@@
pond
inquiries
！
displac@@
Gan@@
Finite
reusable
immunohisto@@
tid@@
friend@@
eurozone
Colum@@
Nick
eg@@
TB@@
Buddhism
digest
requ@@
struggles
reel
Nitrogen
dity
ration
husbandry
rt
MPs
Guan@@
Cameroon
wasting
mod@@
Scope
que@@
celebrity
173
SG
delaying
MAX
ELL
grassland
29th
yoga
dou@@
Govern@@
metallo@@
fireplace
cuisine
dragging
consumes
Apache
Inci@@
honestly
managerial
nell
his@@
beforehand
Observer
tonic
overheating
Picture
awak@@
Jean
Tennis
2O3
basal
elbow
accomplishments
asm
.exe
removably
arming
Advertising
N.@@
bund@@
watering
bic
Zeng
lethal
residing
Wuxi
sect
ady
Mix@@
Qian@@
distill@@
compelling
biotic
unlocking
hereinabove
Prices
stripped
hippo@@
happier
ede
desulfurization
blueprint
way@@
grafting
remin@@
80s
uma
ancies
pyr@@
honorary
bathtub
shareholding
Mali
qualifying
commemorate
dependencies
Consulting
Wardrobe
Suite
monolithic
oscopic
Aer@@
strengthens
dra@@
distor@@
Edward
248
debit
oud
Thirty
Conflict
Cleaning
196
unk
2022
repu@@
veto
socially
predictor
tent@@
KS
arent
rhi@@
polymer@@
wrapping
VS
Innovative
Accoun@@
tagged
spline
andy
pivotally
roaming
competitor
osa
rit
Spi@@
baked
tica
operability
syl@@
chee@@
BMI
7a
Indians
Entrepreneurship
Reci@@
Istanbul
line@@
ade@@
workspace
rhe@@
Autom@@
Son
O3
Yun
Bahrain
financially
vague
Il@@
disposing
superficial
stressing
NOW
ideally
Seeing
FIN@@
Arms
directories
pertinent
WB
indicia
dendritic
locals
beaches
enlargement
diene
facto
itations
Simply
deactivated
tomato
kilometres
biomarkers
chromatographic
staff@@
mour@@
android
lord
Author@@
sound@@
loss@@
ICU
alarms
disagree
provident
alog
Election
zyme
piracy
aper@@
succee@@
Phen@@
round@@
brigh@@
deployments
Dating
Oral
ECM
dormitory
Ratio
arcuate
Cycle
debu@@
latitude
fairy
tackling
ka@@
Breast
tolerances
senti@@
gods
turbo@@
PDP
shifter
politician
domin@@
fading
deal@@
hybri@@
Pope
eta
spends
Provider
Jeff
stun@@
GT
resigned
toring
antisense
ICH
prevalent
Transitional
comrade
jam
emitters
clashes
390
zom@@
pi
enlightenment
CV@@
affection
seafood
haw@@
ameli@@
maternity
sionary
osity
aving
bitch
stearate
DB2
finalized
seven@@
Intervention
synthesi@@
erts
chari@@
istically
ami
ight@@
gentleman
Plas@@
fasting
cysteine
imag@@
AX
Plate
bridging
Combination
bankers
ornam@@
interrogation
pertains
rix
ptive
Haikou
tyrosine
evacu@@
Carrier
sketch
Crown
RR
Propaganda
Maria
Conserv@@
downwardly
iv@@
Fit@@
aze@@
lee
lactose
Exercise
cl
mountainous
Hand
overlapped
Divi@@
countermeasure
devil
toe
approxim@@
advocating
LO
aspirin
revenge
mathem@@
reflections
empire
byp@@
replicated
RY
sincerity
Contracting
indexing
Compliance
outpatient
UNIT@@
lead@@
clamped
mun@@
ua
不@@
itively
Oxygen
Pudong
disadvantaged
Stockholm
queues
tastes
rectify
procur@@
quet
Concerning
yles
replicate
Gui@@
refl@@
vo
dos
Sign
apology
invites
Gam@@
Mass@@
hypothe@@
ava
timeout
VoIP
clicks
prepolymer
dynasty
housings
overcomes
149
caption
translating
awful
Operational
pid
whit@@
OA
dominance
Junior
Here@@
prepares
subjecting
take@@
exhaus@@
jurisdictions
Bloomberg
Qaida
Ron@@
distingu@@
Circular
sinusoidal
Fifty
aste
turbulent
Fluo@@
organised
transfusion
6.8
attachments
occlu@@
Anna
RPM
kindness
accustomed
crackdown
Slovakia
了@@
parallax
breadth
Kuomintang
stron@@
Degree
defenders
unpleasant
imagin@@
Selected
Late
Reaf@@
ylo@@
Battle
jar
brac@@
Ampl@@
interleukin
Procedures
dum@@
aline
crosstalk
otted
1950
embro@@
academ@@
CAS
Cultivation
Mapping
TGF
precoding
Restric@@
palette
centric
smokers
casino
11B
horror
flexibly
Fran@@
Plateau
Issu@@
tryp@@
Theater
sms
cornerstone
midst
&apos;T
chun
Camp@@
323
Hague
VLAN
ception
Spac@@
Decides
Gorges
Jiu@@
vern@@
1950s
Leadership
teenager
ution
idate
glac@@
conspiracy
Intergovernmental
ushu
SION
sepsis
Serb
warmed
chaired
trop@@
WC
than@@
yclic
Walking
whist@@
exclu@@
suspending
Bran@@
Pyongyang
zoo
embarrassed
ationary
amusement
learners
onics
clonal
Extended
inherently
Nag@@
regain
caching
hexagonal
Pipe
Equality
sculpture
verdict
ANCE
illus
transduction
Array
agic
Catalyst
electroplating
Al2O3
confronted
aken
Tai
angina
awed
asy
commut@@
Brian
77@@
Diff@@
killings
lement
Forward
yel@@
blur
journalism
yle
Hamilton
inconvenience
compar@@
ressive
weed
pse
Principal
Recom@@
deton@@
stab@@
melamine
alanine
kilograms
achievable
perioperative
Talent
Password
UDP
tolerated
ASP
800@@
oily
accusations
Intern@@
horsepower
delim@@
FB
CN.4
wan@@
elabor@@
pharmacological
Hot@@
bps
shook
aliens
mobilized
UNODC
Jur@@
deionized
diminished
inaccurate
consol@@
proving
homo@@
epit@@
elu@@
ris
Thirdly
editors
chat@@
threatens
Restaurant
CDs
Blair
zemin
toothbrush
iors
immigrant
pening
ejected
doms
chunk
knees
518
WW@@
unification
Ethics
summar@@
dont
Facility
depleted
stiff
thelium
acetyl@@
narrowing
buc@@
Uncle
tia
cached
Magic
Taiyuan
ocation
Static
King@@
Authorities
Ray@@
Elderly
Optimal
aper
Jam@@
alphab@@
timber
Rain@@
understandable
participates
exempt
invoices
Tot@@
Sensi@@
1969
FROM
Robot
idly
spike
Diversity
disclo@@
TEM
bromine
Mini@@
photonic
charitable
tough@@
substitutions
&apos;Ivoire
mph
toxins
aler@@
genetics
coerci@@
cared
Simultan@@
C5
bugs
isopropanol
Se
noticeable
chann@@
interstitial
estion
discer@@
Deci@@
mouth@@
charides
a-
adjuster
sensible
tedly
xylene
hostage
Stanley
Nor
Vertical
manu@@
misunderstanding
appealing
7.3
resign
seawater
cans
embarked
exporters
pler
Outside
leaked
ially
Textile
spill
ohmic
contempl@@
spa
Enforcement
Moun@@
cool@@
ation.
Stanford
liness
checkpoint
scopes
Contrac@@
labelled
strang@@
T4
ection@@
selections
Brother
proliferative
Wire
polite
chang@@
foams
Particip@@
CAL
aric
freed
bronchial
postpartum
denote
holistic
transponder
branching
reused
onaire
Band
endurance
your@@
partisan
Dark
Wind@@
336
Inventory
gastro@@
aic
ellular
opy
invoke
behavi@@
subcarrier
Bet@@
clero@@
unrest
Eric
stereo@@
MeOH
glaucoma
714
probable
Cer@@
fetus
food@@
TEN@@
Dance
rectified
defendants
infin@@
WEB
scary
surveying
redox
hness
HR@@
instrumentation
magnet@@
lact@@
floc@@
neighbour@@
scrambling
Regions
Kerry
Cham@@
COMM@@
autism
cheating
Person@@
sailing
furnished
Cad@@
melon
Tangshan
Uber
reaffirm
miniature
Const@@
homeland
Characteristic
Discovery
Kansas
Constitutional
yao
″
NV@@
.dll
encapsulating
Impl@@
bunals
Cerebral
acne
intra@@
whoever
Tajikistan
syrup
Sleep
warmly
horri@@
underside
í@@
polysiloxane
esting
onym
hybridi@@
MySQL
trium@@
gma
sati@@
notifies
oligonucleotides
616
retrospective
vine
HDL
10,@@
cin
loid
Appl@@
911
regul@@
Viol@@
articulated
outreach
Ion
uti@@
rationally
aven@@
isol@@
Estonia
Reader
icop@@
leased
Civilization
hopping
mar
upl@@
622
lenders
iable
Worl@@
alterations
grow@@
insurer
europe
rophy
calor@@
photodetector
breath@@
estimator
lapse
periodon@@
fancy
ELECT@@
prestigious
421
Wolf
chasing
warri@@
malnutrition
Behind
founders
eleventh
vide@@
deg@@
illusion
Rad@@
Tours
Guiyang
trait
Germans
Perfect
downhole
Programs
applause
Cooling
cruc@@
wick
yielded
Nonetheless
destabil@@
flaws
even@@
neuron
ja@@
lei@@
Kids
telescope
Tunnel
Generator
Provisional
Merkel
flushing
5mm
CES
rotationally
CD8
Bao
sali@@
Straits
gor@@
ik@@
lap@@
resisting
Duke
Radiation
som
hackers
yd
steer
attenuated
endorsement
Carlo
functionally
≤
solvency
dil@@
discounted
inventor
sinus
85@@
Broadcasting
disappointment
junk
Popular
interchangeably
ticism
Welding
Emperor
lawn
RLC
Minnesota
mobilizing
S6
maximal
coff@@
ift
salad
tall@@
antic
803
Visit
aceous
List@@
faithful
seriousness
porting
Andre@@
lor@@
emancip@@
him@@
elution
telephones
asym@@
latching
pollutant
Multimedia
SON
Nam
sab@@
Americas
tist
lately
LM
dimin@@
hobby
Cotton
glow
lengthy
agonists
butylene
lai
SPEC@@
rough@@
grids
simplifying
Kr@@
Anderson
Sets
219
prevail
professionalism
laptops
Resin
IIS
endowment
Patri@@
canister
ectin
repeats
conve@@
Lock
directive
SERV@@
Semiconductor
Bring
comput@@
deepest
waits
Reservoir
rais@@
aide
transp@@
BA@@
orn
Comments
limiter
fers
foli@@
corro@@
butene
halogenated
omet@@
FP@@
ture@@
adapters
Colom@@
SK
Positioning
Fort
ip@@
tro
iliary
Judicial
steroid
Zero
endure
specialization
Organisation
PF@@
scrutiny
Iowa
524
Biom@@
auditors
deceased
Correspon@@
sivity
Maryland
downstairs
length@@
Fac@@
embarrassing
aforesaid
trustee
lignin
ularly
Invest@@
lacked
outdated
physiology
Sequence
Column
colonies
Tem@@
prosthetic
communicatively
apex
0,@@
disrupted
onium
Ther@@
bler
Moore
这@@
tress
drastically
corrupted
tici@@
clocks
edic
jam@@
etch@@
Forex
specul@@
smarter
uph@@
endometrial
year@@
towel
mim@@
Montenegro
T.
injectors
ku@@
Latvia
PSK
Lig@@
R7
statue
EMENT
qi@@
oo
bargaining
organizer
briefed
orbital
Alternative
Tank
annoying
slip@@
265
cloned
335
compassion
illuminate
Ultimately
Fres@@
pur
Fa@@
Challenge
Kai
Jeff@@
insectici@@
Ki
MCS
skull
deficient
businessman
miR
HA@@
encrypt
Somali
rectifying
Monte
Schedul@@
wallpaper
shining
genre
subprogramme
associating
Bad@@
mpic
backwards
Link@@
WN
premi@@
lec@@
routinely
tioner
pyrrolidone
irrelevant
gypsum
cessation
abused
function@@
korea
Length
prisons
fraction@@
Registrar
quotas
pest
priest
neutron
Cooperative
solidification
MIC@@
PCT
traced
COMPO@@
surpassed
programmer
metallurgy
gust
undergoes
Supporting
biop@@
Hundreds
URI
seizure
ethane
DISC@@
typhoon
fru@@
sourcing
agen@@
inos
sockets
Liu@@
KING
Carter
Biology
ida
805
FER@@
unting
Leon@@
powdered
encryp@@
Pap@@
ju
Ell@@
retina
eld@@
GRE@@
conforming
PB
narco@@
disproportion@@
CLI
tracker
extra@@
rhetoric
conceived
shortening
confi@@
vowed
Mixed
respiration
monopoli@@
andan
Ev@@
rish
TOR
Diamond
mattress
6.6
appreci@@
ache
worl@@
biomedical
tium
532
gos
lounge
practitioner
reciprocal
Reducing
Hypo@@
930
Represents
decentralization
gear@@
ski@@
Xian@@
phony
centrifuge
fertilization
backside
rebuilding
eing
Spec@@
labs
227
Fully
Suppl@@
umbilical
1900
slaves
elty
ambitions
crafts
ethn@@
SVM
Excellency
3.9
Swe@@
Fundam@@
cane
Forecast
Failed
UMTS
Were
quantify
ashamed
datas@@
Nazi
gens
Guidance
ribo@@
morbidity
full@@
CAT
policeman
gram@@
Ω
bovine
Compositions
Floor
258
complainant
Munich
clari@@
TIONAL
inates
rence
lymph@@
ino@@
ting@@
optoelectronic
Negative
refin@@
doubling
ring@@
platen
inking
usability
hereafter
Gross
centering
melanoma
pornography
heparin
miners
ROI
inher@@
pests
unlawful
bang
brain@@
coincidence
qian
inflated
preschool
urry
aboard
thouse
electr@@
purifier
sounding
thank@@
that@@
Zr
protrudes
frog
borrowers
tuber@@
Swit@@
Got
Rus@@
slipped
carboxy@@
fixtures
eptive
peasant
broadcasts
Acting
Eleventh
sable
IST
amplify
centerline
macrophages
leveling
transfection
Participation
CMS
426
inges
builders
nouri@@
Farmers
tailor
acyl
Doing
Lun@@
Advantages
29.@@
synergy
transform@@
Whole
transceivers
hint
vi
sparse
decomposed
Hard@@
Jose
epidemiological
prompts
Powell
offenders
eeds
gorgeous
ONS
Maker
Reduc@@
antiviral
McDonald
RESULTS
Copyright
eutenant
neoplasms
unfavorable
HL
Compact
Brit@@
Vehicles
Huai@@
socks
DMSO
sculp@@
Mongolian
holographic
enumer@@
selfish
Speech
aments
helper
crankcase
VIP
zirconia
intensities
PROCE@@
Psychology
ember
OD@@
coup
carbonaceous
photons
glove
righte@@
M2M
AH
agus
elli@@
Certification
commerci@@
spam
communi@@
exped@@
moun@@
aly@@
Snap@@
Edinburgh
Ai
hypoxia
rib@@
amycin
Convert
dar@@
ACC
po
hills
icket
ferred
credited
successes
demodulator
method@@
taxpayer
ARC
Arbitration
expon@@
unreacted
Thor@@
Provi@@
Steering
13B
Determine
sate
tightness
s-
ylon
overly
Retail
atric
liu
Ya@@
IU
ARA@@
Gs
anding
overex@@
crum@@
mileage
digitally
infertility
Bom@@
Albania
withdrawing
galvan@@
neg@@
accomplishment
biting
Twelfth
Rab@@
abdomen
tise
Thin
Hydrogen
dramas
covalently
stering
rinsing
belonged
Ross
inlets
M3
enders
UNMIK
Roma
informing
Thanksgiving
Targ@@
polygonal
sq@@
Naz@@
nM
transformations
expander
revolutions
revolution@@
Zhongshan
polynomial
Same
Yue
vents
owning
finely
acetyl
WD
Residents
backdrop
che
Critical
iodide
biomarker
dial@@
inscri@@
Electr@@
mess@@
congratulations
musicians
hated
polysaccharides
phospho@@
Bathroom
olysis
oks
hearings
ABLE
ü@@
183
Bell
Elev@@
Infection
Inc.
ship@@
kidnapped
logistical
subunit
glycer@@
Issue
Hepatitis
anthropo@@
blockade
protrude
carbonates
pir@@
hegem@@
Spon@@
awaiting
cyan@@
fostering
bour
tles
frontal
tification
Vancouver
articul@@
ati
interlocking
Philosophy
EMS
ledger
UND@@
commend
ein
plugged
fluidly
truncated
sent@@
lem
resc@@
Secret
gasification
275
Bah@@
disman@@
Verification
arrears
Meas@@
austen@@
1968
circulate
drank
Tol@@
perpetr@@
onry
hardship
comfor@@
slidably
LT
collisions
570
Certainly
Exp@@
sadness
neutralized
quantitatively
elastically
harmless
Oversight
market@@
locomotive
54@@
militia
unremitting
Europeans
cen@@
tizer
unsuccessful
Chen@@
tensive
≥
alarming
G.
onboard
ironing
28.@@
confusing
plugin
verifies
Menu
Top@@
Ning
muffler
Graph@@
ees
ener@@
Rational
CONTROL
onization
ratchet
Hua@@
propagating
ambiguous
photolithography
airborne
Oscar
eship
S7
mail@@
Built
encounters
essly
chickens
icles
GaAs
Consolid@@
Rou@@
1202
visor
desc@@
chatting
SRAM
peng
adul@@
arrests
collimator
candi@@
fraudulent
Significant
Liang@@
Legis@@
shadows
rab@@
finder
bonuses
Boo@@
discoveries
sucked
fiber@@
Medicare
wis@@
initiators
˜
circumferentially
Amsterdam
AIR
sioning
Fat@@
Cataly@@
Cui
etics
Zhang@@
Kyrgyzstan
Bissau
individu@@
Arthur
semiconductors
accumulating
develop@@
thful
MY
0.75
identifiable
unify
HSBC
Partner
demobilization
refusing
interconnects
ophthal@@
completeness
galac@@
SMTP
complimentary
dup
adhe@@
host@@
prog@@
graduating
Holding
TRE@@
parliam@@
omics
G.@@
tren@@
anne
chiral
blogs
cycli@@
telec@@
will@@
ycle
pling
intermediates
hus@@
iti@@
trapping
widget
crush
boot@@
heel
20s
acked
constructor
Eur@@
cardboard
overhaul
allergy
geometrical
servic@@
Ultrasonic
exci@@
Gon@@
Johannesburg
prototyp@@
icheng
Tob@@
ichlor@@
alt
computerized
Ie
erased
flora
guang
IA@@
Spir@@
tang@@
arers
galaxy
pg
ometr@@
hectares
revel@@
Saving
traff@@
hull
IQ
logistic
disconnection
Dai
intermediaries
Sm@@
deducted
Committees
iris
Rico
bleaching
U.@@
warrants
lofty
icin
adenocarcinoma
contactless
PRODU@@
creature
urable
negoti@@
erson
catastrophic
lu
ECT
scholarships
Least
aping
F.@@
refu@@
HV@@
Prepare
Designer
Had
eleven
phosp@@
tised
ock@@
sparked
subtraction
thfully
Class@@
expire
Plug
Chan
Hus@@
Train
Rehabilitation
Probably
Lian@@
trustworthy
AMD
exporter
bounds
413
Zn@@
Observatory
Advances
recipes
ensis
cle
Kit@@
essed
OM
Orleans
chin@@
Announcement
Ling
buck
overdue
legendary
uminescence
unswervingly
motherboard
catastrophe
fus@@
Sev@@
connectable
digging
SME
rounding
bursts
gem@@
acous@@
empirically
Deep@@
sson
Chro@@
Currency
Evening
Vacuum
distinguishing
welling
Predic@@
multiplying
green@@
neat
indul@@
grasped
Instance
dging
wart
courtyard
Lithium
fon@@
counterclockwise
SIM@@
CAR
nightmare
volcan@@
gad@@
privileged
foreseen
rescu@@
Import@@
Tiger
jun@@
Nu@@
artillery
Disclosed
fishery
APs
sewing
Originally
hotspot
glit@@
quantified
Resol@@
viewpoints
Patient
Modification
Tissue
endometri@@
Einstein
explor@@
erg@@
underlined
istics
longevity
UAE
embolism
Regular
ORT
261
sights
hurts
icidal
yngeal
jiang@@
installer
Known
Vladimir
cann@@
dichlor@@
heric
abolished
Mirror
ello
bride
Orange
card@@
guang@@
flowed
heterocy@@
EVA
redistribution
Tx
Heads
Tan@@
Ia
Exam@@
zer@@
crypto@@
Purification
thermistor
supporter
fres@@
Workshop
Diesel
sche
totic
8.2
Tip
vise
microporous
ascertain
Carri@@
5.7
Measure
Parallel
legality
swarm
Cin@@
rehear@@
inconvenient
ye@@
tary
fortunate
repeater
universally
playground
polynucleotides
thoracic
allocations
laun@@
amounted
ause
cord@@
uss
remedi@@
integrator
840
spotted
Info
Packet
opted
assigns
7.6
question@@
Serbs
Naturally
extre@@
refres@@
266
strives
body@@
builder
End@@
bir@@
cows
LDAP
Gil@@
porcelain
hou@@
flooring
teens
Filling
notices
muscular
mosqu@@
Cli@@
lug
grabbed
2050
reformed
kills
Launch
ible
Cognitive
ycl@@
Separation
3d
onymous
ofthe
agile
downside
Treas@@
cycloalkyl
alise
Pulse
allied
story@@
contextual
ounced
newest
Amended
fetch
Interaction
derness
Assad
167
Kid@@
imperfect
volati@@
claimant
veterinary
noises
cantilever
Steam
BASED
unqualified
220@@
1024
80,000
fade
neut@@
tlement
Marg@@
luxurious
halls
Zinc
publishers
Tube
Charg@@
NT@@
poster
altar
earth@@
Kal@@
Centers
unto
creators
stration
Sad@@
Fusion
homologous
Ok
euro@@
stipul@@
TIES
campaign@@
insti@@
hopeful
Peoples
Anything
Density
credential
wild@@
escence
bp
ejector
anticipate
Bil@@
Hui@@
cad@@
cutaneous
refriger@@
Jong
calcined
violet
forensic
Mouse
len@@
aniline
Newton
Book@@
alment
plasia
decon@@
firearms
PDSCH
educators
Cul@@
Inn
ICS
Screening
intran@@
translational
theorem
Ar
rho@@
AZ@@
decimal
STAT@@
Laden
smu@@
prudence
ob
Days
Attention
sapphire
¬
och@@
thermometer
vism
WT
flooded
507
Returning
5.8
humanities
inspecting
solo
jokes
eved
malls
perforation
entations
rebounded
ruin
india
defended
chewing
correlations
submissions
guilt
attackers
HMD
anxi@@
inception
trics
Pipeline
Sanya
guide@@
Actions
Archi@@
necessities
cine
lipoprotein
rought
Requi@@
oligomers
Refrigerator
glim@@
otherapy
transfected
mills
weigh@@
anisotropy
7.8
FF@@
pressur@@
bankrupt
SOI
necess@@
Boat
bodily
unequal
Boy
Ball
dissatisfaction
culturing
198
nac@@
bids
essional
distinc@@
coaching
disturb
slopes
908
NR
Angle
ku
Hang
deserved
Roc@@
Allen
acre
admi@@
pledges
repell@@
inflows
irre@@
condens@@
impregnation
hemodialysis
Beauty
PhD
pinch
divalent
summing
Method@@
lagging
Fresh
sustaining
aren@@
appings
dark@@
racist
raid
cabinets
Agents
test@@
temper
disseminate
enqui@@
RX
Switching
decodes
dimer
193
decoupling
Wars
Severe
recordings
carton
Mono@@
solidified
livelihoods
Friendship
gus@@
phe@@
lender
ceased
ordinarily
glo@@
Eye
clue
persist@@
wideband
diaper
flakes
collec@@
Hitler
cytometry
们@@
Bali
Bad
Laos
Adjust
Antonio
notation
fasc@@
caten@@
translates
Christianity
exer@@
ury
interchangeable
exual
sales@@
self@@
Civ@@
simul@@
hen
cafe
aul@@
cop
Mw
synthesizing
dialec@@
ement@@
offense
moistur@@
conjugates
Employees
echn@@
emon
comic
responsiveness
emis@@
Quick@@
ican
diffusing
Sensing
suitability
lithographic
NFL
5-
regret@@
arizing
nesty
Trop@@
wiped
59@@
irrational
twins
Aircraft
headphones
Liberal
282
parenteral
clones
mated
802.11
MES
Qiu
genesis
instanti@@
alternator
wood@@
Transp@@
hopper
Passenger
Dol@@
bat
plasmic
icon@@
sclerosis
budgeting
inver@@
fit@@
adolescent
endor@@
F3
infiltr@@
cerebrovascular
abovementioned
rebel@@
pron@@
exaggerated
Negoti@@
esthe@@
SID@@
pati@@
occasional
Corrosion
adh@@
rus
Geological
amel
IAM
Asp@@
Yor@@
cocaine
paraffin
Stabil@@
stipulate
Reporters
nou@@
APU
Arm@@
runway
RF@@
sleep@@
amen
Adhe@@
aneously
338
1.25
grief
attered
Applying
possessed
discour@@
Swimming
nonionic
Woman
microbes
engers
imbalances
Foshan
brushes
ISM
Clark
Healthy
js
eluting
kan@@
dul@@
Bide@@
One@@
pharmaceuticals
monot@@
ECO@@
Levels
Retro@@
thers
Cele@@
Kang
Deployment
■
orial
p53
chel@@
masked
1210
Ex
ension
ontology
recreational
Ign@@
Mic@@
ALE
Native
pyri@@
suburbs
VL
radiated
eties
peacefully
Vill@@
mastered
fort
inverters
isotope
GET
inquire
mycin
entan@@
tying
Cran@@
ae@@
peanut
famili@@
commits
802.@@
illo@@
DING
municipality
ND@@
interfacial
eukaryotic
PUSCH
Graduate
esoph@@
cutoff
Blu@@
Yugoslav
SCP
architects
concerts
cers
FEC
transc@@
12.5
344
conductance
adic
codeword
ed.
oul
claim@@
Rock@@
granulation
7C
screenshot
ANY
7,000
Buddha
MET@@
Chap@@
Lane
rescence
solute
fear@@
Pass
bellows
intervening
Appeals
PVA
cook@@
jig
thered
Reser@@
residency
sexy
fracturing
Upload
Portal
dislocation
submerged
shoot@@
ix
Ga
spreadsheet
announcements
Gray
atories
swine
Vel@@
kilometer
immense
η
Leader
nationally
itably
Linen
breed
Loan
eventual
Netflix
ANG@@
devised
meticulous
elaboration
ridges
wears
agon@@
phenotype
uterus
Fortune
piercing
chill
uclear
wines
marriages
quantized
Camp
airy
VIEW
253
volunte@@
guerr@@
Didn
waveguides
caffeine
Stream
LI
Container
Archives
aux@@
versely
fuselage
BB
Pursuant
TY@@
ral
Patrick
lemon
umb@@
onian
reluctance
sour
MgSO4
notifying
equalizer
feast
Marriage
tings
inbound
foun@@
Telecommunications
staring
insomnia
twelfth
Institutional
mitochondrial
aba
drip
Oxide
academics
Neu@@
hooks
paradise
surviving
phenols
IK@@
Gard@@
multitude
CBS
Chat
Tradi@@
Cutting
Gordon
Susan
Rho@@
um-
Synchron@@
slipping
LORD
Reliability
championships
Relative
spun
gul@@
mobil@@
breakage
Tax@@
zzle
eps
Syst@@
dipole
CLK
CDC
Cover
parame@@
solemn
constipation
sist@@
instructs
glycemia
δ
parsing
poorer
manipul@@
brazing
ascer@@
separ@@
enture
signaled
bering
codi@@
cub@@
legislature
expl@@
esc@@
Revised
abduc@@
Transition
hies
thief
abs
portfolios
Differences
amph@@
discharges
Nicaragua
veins
sourced
inum
W1
trivial
angu@@
outdoors
lifes@@
Understand
Causes
Confi@@
Interpretation
agog@@
bores
unforgettable
ilian
ana@@
toilets
Tao@@
Difference
onite
Valentine
fingerprints
genotype
tribal
1965
8.3
Mater@@
irreplaceable
paraly@@
VH
Apps
Commander
Symp@@
prognostic
Kabul
helpless
Specifications
astric
ressed
fertilizers
param@@
Modify
bioactive
WIN@@
cytotoxic
shaken
keynote
senile
simulating
D.@@
cong@@
radiant
oxal@@
NR@@
Arafat
ILL
Deli@@
basics
mails
methacrylic
sians
18A
PTC
Pool
strained
aura
pointers
profession@@
iraq
COS
squeezed
fall@@
kidding
flames
Gaz@@
underwear
record@@
sail@@
Fei
arginine
agr@@
Browser
geopolitical
aggre@@
Marshall
Owner
questionnaires
-2
arial
catalyzed
ECS
Shift
statin
Viet
mont
Ve@@
ond
Escherichia
Induced
quick@@
Namibia
U1
Venice
mega
Alan
migrated
spect@@
subtracting
conflicting
oon
xim@@
Austrian
argo
ghui
unfamiliar
Pricing
inspi@@
DRX
modelling
diets
Dri@@
Rich
ó@@
Button
torsional
crosses
Whereas
K2
pering
Gallery
Physi@@
Mach@@
zable
Gas@@
jeopardi@@
commanders
Conversion
mach@@
iri@@
mast
THER
partments
referen@@
onically
Jason
8b
Aerospace
Avi@@
pollen
pto@@
180@@
chromic
Dalai
ferroelectric
Campaign
Eigh@@
theastern
inference
1961
depl@@
Goal
1006
ASS
endanger
Khan
heal@@
Achiev@@
foreseeable
Novel
imposition
ouse
ligation
membered
seng
virtu@@
Jimmy
Bus@@
accep@@
defaults
orous
travelled
AC.@@
inciner@@
wardly
Sle@@
69@@
solidi@@
buil@@
contactor
Lenovo
antic@@
oti@@
Ultrasound
ero
imin
Universe
Nom@@
Congres@@
steroids
Push
DEV@@
sened
thiol
goat
elop@@
wave@@
Vul@@
heptane
ppy
Truth
iterations
CITIC
Qiang
Adviser
playlist
stimuli
pancreas
oleic
belly
yogurt
baggage
ACT
Upgrade
OH@@
testosterone
endot@@
teenage
wheelchair
renamed
compaction
neuronal
talc
rist
redirect
bid@@
auth@@
Sequ@@
ISP
GEM
hardships
nant
Wid@@
243
Root
oter
Kan@@
hyalur@@
bombings
CER@@
YOUR
opioid
pol
Grand@@
highs
Democrat
particul@@
sai
θ@@
bim@@
atin@@
instrumental
Buffett
unpaid
jer@@
Rail@@
db
Di
civic
markings
Mut@@
HO
Via
bins
lactate
Behavi@@
Indiana
promin@@
pylori
buys
coral
CN.9
Mice
perfecting
912
gravitational
explosions
Establishing
Objectives
immunogenic
logically
SOD
MIT
NH3
olic
phosphor@@
apper
cocoa
Browse
habit@@
169
withdrew
buckle
anning
commanded
replaceable
spontaneously
ghtful
beha@@
bable
Let@@
sors
grape
soot
159
Renmin
desic@@
dreamed
25,000
romance
Seller
Veter@@
punching
Owing
reshap@@
pedestrians
Gun@@
Fang@@
photom@@
Charge
popu@@
drones
Few
disabling
sticky
Opportunities
pow@@
supr@@
tdown
criticize
Plants
bes@@
amid@@
demultiplex@@
42@@
trusts
MIC
rigi@@
franch@@
athletic
Some@@
magistr@@
auditory
grafted
intellectuals
Implement
Carcinoma
Revolutionary
eles
Affected
urated
asone
Creation
Zha@@
Lar@@
lyrics
carot@@
deceler@@
cons
alleg@@
Evalu@@
alis
chelating
cannabis
Retri@@
Sex
telephony
terns
Alli@@
homogeneity
atical
Resp@@
therefor
quadrature
ranged
OSCE
stakeholder
Capac@@
blew
dub@@
stakes
ARD
code@@
ONG
archae@@
Sr@@
confinement
guardian
elastomers
stoichiometric
continents
jan@@
Bayesian
histo@@
corona
jeans
subnet
Nec@@
rogen
stripes
traps
wording
flashing
worsening
Thoughts
Need@@
vehicular
Officers
corpor@@
pronunciation
teammates
breastfeeding
Expressway
yearly
clash
militant
Beam
dresses
depress@@
mits
quantification
headlines
Inhi@@
scrolling
detective
dehydr@@
354
Apk
asserted
sail
finishes
Benefits
sue
expen@@
elephant
advertisers
extremist
complaining
Particular
sunset
bioreactor
Jet
defender
encephal@@
arious
bevel
HIGH
marathon
reconfiguration
retrac@@
hurricane
Holiday
Pos@@
Feed
bot
preclu@@
Surgical
assem@@
semiconduc@@
irritation
aureus
senator
Possible
parse
zen
Oregon
homos@@
tainment
verses
addres@@
Eu@@
Jan.
wholeheartedly
tes@@
sulfonate
wrest@@
quicker
Virgin
washers
Acci@@
fan@@
Ever
echan@@
org@@
tee
ungong
enhancer
causal
Shui
meditation
Characterization
lingu@@
microparticles
beats
Shor@@
combatants
NHS
soft@@
ANG
SPS
isomer
MONUC
Beng@@
Dispu@@
divergence
sta
Snow@@
grandparents
hun
JO@@
lippers
reconstruct
admits
i.e
NOTE
xyl@@
lace
anno@@
Ster@@
stamped
allele
plaintiff
Hussein
coinci@@
simplification
Watson
icient
fia
Hind@@
Alaska
permissible
disengaged
stray
beam@@
haem@@
albeit
enta
Hop@@
ante
adren@@
Farm
scor@@
Actu@@
wol@@
factions
Anthony
CTS
fores@@
rification
cerium
propagate
vig@@
Male
Eco
tomb
lessness
paints
VI@@
bou@@
Volunteer
Wild@@
sung
NU@@
lamp@@
Hospit@@
structuring
valence
defe@@
hospitality
irregularities
eed
ove
stine
choke
hid
emulsifier
Dak@@
alley
gance
asse
Consensus
Nur@@
boun@@
shel@@
Portable
ott
tex
CIS
Emerging
Ss
objections
Song@@
Enlightenment
cataract
jur@@
ambi@@
cris@@
amateur
Mainly
Probe
17A
Cryp@@
ö@@
Colonel
snack
extru@@
sued
ght@@
chr@@
ASH@@
laminating
brew
menopausal
reiterates
AY@@
Honey
Bosnian
solvate
constellation
repatriation
antagonists
marital
xia@@
persisted
intraocular
misconduct
dances
UNRWA
prosecuted
opers
precedent
denying
sives
pus
allowances
biocompatible
intersect
jade
whitening
restarted
subprime
Guiding
Clock
TVs
decree
knitted
fidelity
dres@@
bulbs
obl@@
Siemens
clamps
tories
Fox@@
hydro
WAP
liners
subparagraph
spanning
steels
statute
straw@@
Achi@@
Atmosp@@
Quantum
16B
ophil@@
GR
1964
cd
academia
tang
Wild
plain@@
shading
ratify
offsets
Ba
Recommendation
refreshing
Theatre
Trends
miner@@
brighter
gyroscope
1c
coccus
prohibits
Design@@
utely
Outstanding
dll
Rac@@
Netanyahu
disrup@@
Ontario
toler@@
Cylin@@
oic
arrhythmia
Kat@@
Jiaotong
ruler
Fle@@
KOH
Challenges
Wisconsin
Renew@@
specif@@
cereal
d-
custo@@
charg@@
ject
Laws
investig@@
unconscious
bru@@
tunneling
deform
aspar@@
tails
aur
gm@@
1,2
showcase
uries
diol
subsi@@
Calcium
THER@@
Approximately
angzhou
Wiki@@
downwards
advisor
Thre@@
alliances
yant
Guardian
twi@@
Cover@@
SU
assive
0.03
Mei
mm2
bounded
correlate
Preview
bum@@
desorption
Cd@@
Meet
1700
dermal
smoothness
fragmented
fibroblasts
Urumqi
metabolites
Ton@@
crowds
dens@@
Mineral
Politics
Sina
Xbox
ruthenium
4.9
apparel
skirts
commend@@
nanocryst@@
afforded
awkward
embrac@@
fluoro
contributor
oke
greening
Jan
deliber@@
impartial
oidal
rebounds
comfortably
nip
NAL
reac@@
LOG@@
isra@@
standalone
toothed
exagger@@
asty
vie@@
12b
analog@@
despair
Bowl
reimbur@@
myth
362
interpreting
Get@@
Sco@@
Estimation
esterification
cow@@
ORY
20B
ority
diplomat
overlooked
Provision
oni@@
sinking
NSCLC
inib
peacekeepers
slim
cliff
Wheat
sme@@
bricks
gins
Nano
900@@
volcanic
Lubr@@
nem@@
Settlement
deprivation
78@@
Partners
lash
unsustainable
progres@@
fights
Agre@@
Jack@@
spouses
Layout
kis@@
Cere@@
ressing
patri@@
descending
dopamine
enriching
Sky@@
boxing
unaware
Bob@@
requi@@
Techn@@
Wear
perceptions
escort
intelli@@
piez@@
dao
programmers
hinged
complem@@
squee@@
outbreaks
Schol@@
germination
concealed
yue
Heter@@
345
motives
Conventions
changeable
imagery
dicate
thood
chef
concentrates
D.C.
embolization
galvanized
MAC@@
Cat
indu@@
177
monkeys
kidneys
Canal
jour@@
GR@@
film@@
instructor
Way@@
abad
forcibly
arbitr@@
avirus
biotics
entertaining
imetry
Rescue
Rx
detec@@
ickers
Faced
Cen@@
Te
otes
max@@
Commodity
titude
fen@@
sig
oscopy
buddy
increments
bronchi@@
525
complies
atized
ingress
siRNA
uncovered
electrophoretic
Vie@@
Harris
miserable
glycine
ferral
Argentine
Dec.
ALT
assass@@
Brake
NOS
gency
propanol
kindergartens
pinned
509
coloured
W2
verb@@
grim
274
Pension
widened
FLU@@
GRO@@
nap@@
618
heartbeat
Buff@@
RESEARCH
septic
guarded
heroin
flavon@@
Ninth
yle@@
Francis
SYS
Inform@@
wardrobe
Believe
streamline
controll@@
Rear
philosop@@
opharyngeal
Exclu@@
760
arid
Peng@@
assurances
ventilator
cesarean
gue
trim@@
LT@@
Moz@@
uel
Brad@@
edul@@
panda
awing
aneurysm
Suggestions
methylation
320@@
metallization
omen@@
eased
cyte
3.
chequ@@
Polymer@@
umab
allevi@@
Looks
1373
opathic
restraining
iltration
granite
Chromatography
sulfo@@
antagon@@
ignorance
fluo@@
volt@@
tattoo
reason@@
thly
vious
Pit@@
choline
Brothers
progresses
Theme
STO@@
HDR
mosquito
interoperability
segregation
atite
wrec@@
stylish
pacing
Grey
AO
Emer@@
Rang@@
Castle
deriving
OPE@@
scrat@@
upholding
malign@@
ALD
ardo
Kh@@
acles
Macro@@
Indicator
cholec@@
reti@@
RES
omethyl
surpass
handoff
tose
Shin@@
grocery
metastases
Utili@@
exes
alien@@
impermeable
GNSS
uable
Protect
Prague
statistic
celebrations
Amy
compromising
workloads
jo
Surprisingly
Oct.
Sop@@
ventil@@
equities
trays
uary
AY
Belgian
MU
Shan
Playing
fermented
Seventh
bottom@@
Sachs
rinsed
mighty
Zr@@
1104
DD@@
stirrer
Identify
Tar@@
retrieves
Apparently
experim@@
osteoarthritis
Electromagnetic
1966
roadside
middleware
alian
lau@@
neo
shrimp
precau@@
zhuang
burdens
seizures
cuff
rotors
enteric
HI
1948
wn
recharge
columnar
Speaker
cip@@
Radar
metro
geo
Dil@@
signment
medial
uristic
-20
Annan
SOAP
Eclipse
evers
fractal
409
Gy@@
underestimated
orifices
unreliable
urit@@
mounts
interconnecting
auditor
Attribute
permeate
BM
symp@@
人@@
preservatives
CATION
propo@@
analgesic
perturb@@
MATION
Bang@@
ing.@@
cardiomy@@
shank
pawl
angel@@
writ@@
orthop@@
honey@@
Gluc@@
propri@@
Implementing
indexed
ampl@@
group@@
painter
terr@@
Firefox
ferr@@
pand@@
dissipating
loneliness
No.1
iconic
ruins
aud
perseverance
ept
Satur@@
frightened
overcapacity
osine
vacant
archaeological
emotionally
disappears
Subst@@
vey
backups
surviv@@
MOV@@
Emission
buty@@
chy
warehouses
maid
anni@@
Fab
liposomes
Institu@@
xx
tomatoes
adi
itability
Join
ffle
sno@@
ICRC
backhaul
CMC
Ideally
mination
striker
combin@@
Lay@@
mercy
Guarantee
aton
opor@@
Hopefully
fonts
4S
Utility
chap
justification
611
cryogenic
stro
BN
pist@@
eNodeB
HCC
2000@@
Bee
perme@@
selec@@
sluggish
accelerates
amortization
turally
denom@@
times@@
Decoction
Aut@@
Allocation
aulted
decoction
Adult
allized
Ran@@
NBC
Petersburg
WL
dev
impres@@
standings
daytime
unavoidable
Bacillus
S11
bullets
exposes
humble
come@@
hologram
duo@@
kee
sickness
yan@@
Compati@@
uous
hydrothermal
fasci@@
Bhut@@
menstrual
ENCE
soared
Albert
aissance
candle
otation
interdisciplinary
Matt
cements
cyclohexane
dwell
liv@@
whatsoever
Courses
Pun@@
acceptor
cyclodextrin
mix@@
shad@@
artificially
extractor
CAL@@
demonstrators
shearing
Citiz@@
ital
oath
condemn
retard@@
doll
Whe@@
Beginning
requisite
Rog@@
crucible
chin
meteor@@
Success
Risks
1962
korean
halfway
voter
ais@@
hydrated
uments
Murray
Fiji
emaker
tec
nanowires
flaw
revisions
BG
polyesters
Titanium
hertz
Organized
ghted
anomalies
polymerisation
Repeat
educating
accountants
sume
brittle
Virtu@@
Maps
fungus
Label
zel
199
inductors
synap@@
Presidential
cricket
Appeal
mediate
electri@@
mary
burnt
insisting
Lines
enligh@@
STI@@
Semi
degrad@@
west@@
auspices
embo@@
serine
Volunteers
found@@
broth
pherical
greetings
neutralization
warran@@
452
eclip@@
stat
opposes
C.1
uncommon
meaningless
contestants
Id@@
jungle
peculiar
prospec@@
DRA@@
AQ@@
Kang@@
Founded
580
plantation
diamine
Recep@@
VPC
30A
policemen
odox
combiner
CRS
supervising
itic
bies
amy
straps
8C
capped
442
heroic
pois@@
hinges
Potter
Moh@@
millennium
eton
Fis@@
bered
triethylamine
MODE@@
hydrogen@@
Appropri@@
trag@@
Protocols
0.005
Austin
smooth@@
harmonics
Sensors
eluc@@
fric@@
lumin@@
systolic
reconnaissance
prevent@@
521
analogs
Uy@@
Jama@@
Cob@@
genus
ethylenically
humidi@@
8000
Frankfurt
STRUCT@@
tides
pack@@
textual
unicast
pha@@
hockey
Dra@@
docum@@
UPD@@
bob@@
Combat
ml@@
scare
6.9
unidirectional
dispersible
Origin
Thermo@@
Pack@@
NI@@
embody
humane
240@@
Pneum@@
Shim@@
logarith@@
progenitor
glycerin
tapped
coconut
attendant
87@@
lys@@
titanate
Subsi@@
ancheng
nosis
000,000
oney
prosecute
tensioner
BEST
turbocharged
Hur@@
amylase
eks
deactivation
Kim@@
Ha
takeover
diffused
clutches
tempered
structurally
sover
aby@@
Yel@@
shouting
ennial
Sexual
eats
pal
Matthew
subregion
Brow@@
distributes
Uses
ASH
Reas@@
Rich@@
lingual
flammable
photoreceptor
markup
oligosac@@
Nissan
petrol
decol@@
proph@@
multiplex
Continuing
Manila
biz@@
dive
achi
allets
Balk@@
learnt
905
Faso
Blo@@
Burkina
434
Conservative
16a
embark
ppet
caregi@@
AND@@
VT
switchable
commenced
P2@@
sorbit@@
rude
exacerbated
dl@@
Notification
Set@@
crashes
Household
jealous
Lic@@
capacit@@
asymp@@
boycot@@
Brooklyn
conditioners
erebral
calorie
desperately
pots
skating
Transl@@
Heaven
sympathetic
DOM
heat@@
lon@@
Chip
webs
halves
mains
EEPROM
autop@@
practicable
bisphenol
denat@@
grab@@
Shou@@
transdermal
chip@@
troublesome
concise
halo
glycol@@
fluoropolymer
flaps
meningi@@
22A
deflation
ventive
inser@@
nineteenth
pes@@
kidnapping
IGF
enthusiasts
setbacks
Ok@@
Buyer
Practices
rors
Finding
configures
mind@@
sys
specializes
Philli@@
Ner@@
breakers
Successful
drastic
yach@@
Maz@@
Phil@@
robotics
Stem
goodness
tains
Nb
witch
MF
bag@@
TUR@@
Alipay
Cum@@
Approval
Pure
memorable
Cl2
platelets
ug
crystallized
souls
Rev.1
cheat
situ@@
UP@@
promulgation
Test@@
Bern@@
Documentation
EEG
tetrafluoroethylene
soaring
Cement
Comparing
odon@@
polyoxy@@
eil
quake
riser
Tog@@
Blockchain
IPv4
tidal
insulative
tangent
pallet
Connector
cops
SUR@@
Reverse
silently
Mercury
agreeing
progressing
intercept
thermocouple
Daddy
ADA
Restore
firefighters
Plaza
confisc@@
Sudanese
1,0@@
idiot
commence
802.11@@
Volvo
timeliness
cil@@
Smart@@
renders
Utah
SIS
Microstructure
Austr@@
Philip
counselling
Bear
EC2
Skype
Vacc@@
Tox@@
autoclave
Cant@@
shields
omy
1.0@@
doubles
push@@
Transit
bourgeo@@
Budgetary
Tap
deliberation
accredited
Honduras
recre@@
Hil@@
snap@@
outr@@
motorcycles
Ab
influx
s--@@
preced@@
News@@
Serbian
Juan
rich@@
class@@
mV
dilu@@
grav@@
ILITY
Kaz@@
vably
S12
expulsion
5V
05@@
ampling
enhancements
xed
rophic
EE@@
scape
inine
Fruit
gelling
contag@@
downtime
Conven@@
B3
initialize
615
orials
chon@@
DESIGN
LV
tangential
Ho
Denver
impacting
brit@@
GEN@@
amaz@@
mons
ligament
dges
Individu@@
Miao
Latest
shark
seedling
raped
Consist@@
Lisbon
secreted
Laun@@
isometric
bundles
uninstall
carbons
orable
surprises
terly
borehole
tiers
potency
brow@@
814
Nutri@@
Moldova
Eag@@
admissions
AMI
deem
nival
Lakers
frigh@@
right@@
Laid
Anne
spans
categorized
beginners
anchored
Terr@@
Nike
Person
manufac@@
Structures
Tel
marginalized
socomial
patented
Tonight
plant@@
J2@@
Sheng
nastics
485
irresponsible
proceeded
phr@@
conferencing
carboxylate
GD@@
tice
lipidemia
DRM
IAL
Cola
aul
taxable
Danny
clut@@
picks
124@@
WFP
Rolling
etiology
ardi@@
stud
Chaoyang
dd
allergies
Grant
denies
pulsive
obenz@@
hydrolyzed
Myco@@
worthiness
benchmarks
admin
farewell
intermittently
DCP
preparedness
1958
2100
CHINA
filmed
76@@
marijuana
Concentration
rash
macroblock
Solomon
Suppose
Cache
remo@@
o-
constric@@
incumbent
dish@@
anal
heteroaryl
ulu
compensator
Mathematical
interpreter
branded
Nas@@
Liability
dang@@
tive@@
Numerous
ifications
quali@@
hurting
Masters
achlor@@
cely
contingency
ucli@@
iming
LOGY
Fair@@
Leather
Prepar@@
Skills
hostilities
fe
persists
resonators
optimally
granul@@
extremism
View@@
Communists
Painting
low-
sitis
sacrificed
refuge
democr@@
magneto
enjoyable
vigilant
arouse
digitized
Dead
nonaqueous
1302
trophic
Mean
opping
april
satur@@
BNP
Nation
lactone
ementary
cry@@
classifying
terine
stepper
acknowledges
inferred
ogenicity
confessed
Lack
Respiratory
Belgrade
1120
retroviral
discard
volution
tionable
propyl@@
cock@@
mable
Zhou@@
Nonlinear
Xue@@
agnetic
333
fluorocar@@
Birmingham
incorrectly
osmosis
yclo@@
incu@@
vertices
EU@@
plight
leth@@
mou@@
vain
subsistence
br
antimony
rewarded
ISA
ishan
purify
ruined
pearl
Ship
electrocardi@@
comprehen@@
disulfide
cloudy
jecting
7b
privatization
hemisphere
Revi@@
enh@@
Ns
betting
DSL
biennial
synthase
Includes
M.@@
mitigating
electrolytes
jaws
DCT
Lotus
esulf@@
wiping
Trace
remediation
revoked
aquaculture
separators
intrav@@
brate
remodeling
butyl@@
15B
hostages
Walker
isomer@@
appe@@
Busin@@
Organizing
-based
Forty
sorrow
sightseeing
insufficiency
qu
herbs
exotic
deline@@
warns
prayers
glare
cheer
Shun@@
Call@@
demodul@@
metaphor
Jerry
Ou@@
Torture
Adapter
forestation
suing
sar
immature
Hair
Gall@@
weaving
acqui@@
omissions
ignited
shen
Photoshop
1963
inequalities
Visu@@
phenylene
dong@@
icul@@
Animals
ogging
PCA
Int@@
northeastern
refrigerating
uk
tactic
Fif@@
temperament
Hist@@
arom@@
Vatican
Truck
blockage
cens@@
Photos
dden
scram@@
phosphorous
banana
Fitness
Xue
telescop@@
Immuno@@
calcination
Raw
freezer
Recogn@@
sured
Supplementary
intercep@@
contributors
Cleveland
vouchers
affirmative
stly
dimethylformamide
pav@@
Kor@@
scop@@
subordin@@
Electoral
cheated
Clean@@
VER
rav@@
alo
Gig@@
70th
Installing
hottest
yt@@
ticultural
flexural
sixteen
sciss@@
smar@@
wrinkles
recreation
learns
mover
Kurdish
roadway
worthwhile
thoughtful
acle
Expansion
perpendicularly
716
SURE
summarizing
CRT
DON
nic
acrylates
722
Bird
humid
exus
catalogue
Consideration
densely
Forming
Moral
infring@@
Easter
depic@@
x2
ghting
zine
courag@@
shoots
envisioned
thinning
niche
separatist
injustice
Base@@
prolong@@
temptation
versal
convic@@
wheel@@
ds@@
saliva
nodules
demo
Priority
eces
copy@@
burger
amo@@
Dublin
Ready
tron
lique@@
aroma
inhab@@
Barri@@
12V
ushan
ife
Finnish
definitive
naphth@@
telescopic
Born
edged
Warren
Iraqis
IG
sublim@@
thermodynamic
metallurgical
mings
foldable
boiled
lam
lysate
ensi@@
polymerizing
Players
iri
loopholes
μl
stricter
accor@@
25.@@
ORS
Ethnic
ovary
drilled
warmer
uni
Feedback
Yale
formalities
experimentation
le-
eon
Frank@@
chable
Ceramic
i.
IOC
multiply
detachably
Binding
soaked
Band@@
〈
alias
symmetrically
rowing
obvi@@
Racial
mation
Chancellor
obedi@@
TFTs
renovated
wrench
60th
opian
Designed
quarter@@
liposome
shop@@
FTA
banning
fond
Bak@@
artic@@
pits
ambiguity
breeze
hiking
paralysis
investigative
AES
Abbas
annotations
Curve
Eco@@
empower
tougher
Big@@
Franc@@
Coupled
Carrying
expressway
electrochromic
quadru@@
Rud@@
disastrous
wob@@
elders
olec@@
dt
fid@@
classics
Map@@
Tennessee
chroma
zziness
emb@@
room@@
0.00
ophilic
Parliam@@
jamming
psoriasis
jing@@
irradiating
Rat
0x@@
verb
sid@@
nonsense
Bish@@
pivot@@
UTRAN
Associ@@
preci@@
dible
experimentally
Views
WordPress
enlarge
STS
Organizational
andong
adaptable
ejecting
was@@
acter@@
corn@@
leap@@
titan@@
andi@@
childbirth
drained
rud@@
Hurricane
VEN@@
Ci
meshing
prohibiting
martyrs
Niger
contradictory
GEF
qiu
complying
Kn@@
someday
C.3
lators
amate
URLs
Tut@@
C.2
Lei@@
prophylaxis
fronts
humidifier
compass
Yon@@
declaring
Lakes
flee
feudal
428
Nov.
MDGs
1012
Insulin
Palm
Shop
testify
nate
P4
ria
Compos@@
synthesize
luminaire
desal@@
irradi@@
homopolymer
stool
bb@@
sul
sages
secretaries
runners
Dongfeng
treasures
compounded
Pseud@@
interleaved
Grain
unsatisfactory
extinguishing
logies
overwhelmed
Well@@
YO@@
guan
uretic
CPR
payroll
Electricity
sore
Manufacturer
harmonization
hobbies
ilt
276
linkable
FIFO
cockpit
wich
carcass
bilingual
prelimin@@
526
entment
dest
Sixty
Kashmir
epidermal
prolifer@@
injec@@
automate
coupons
altern@@
syno@@
Welcomes
miti@@
Kel@@
fashioned
Matlab
Nd
lav@@
sometime
903
osc@@
ultrasonography
strate
skin@@
Tum@@
Effectiveness
tracted
Lama
PowerPoint
relapse
kind@@
Determining
practic@@
nuclei
vere@@
Efficient
appren@@
Wang@@
enceph@@
CPA
fibrin@@
endeavour
ACL
thunder@@
gho@@
hero@@
Temporary
icides
NAT
hind@@
pedestal
cleanliness
Dum@@
fulfillment
Engineers
deflector
Pil@@
eley
BY@@
.It
prioritize
victories
dprk
PRC
armor
recommending
.org
landlord
CUL@@
ripe
UNOPS
ifies
Takes
notches
headlights
tenants
bioavailability
dermis
informs
leveraged
gene@@
classrooms
Guilin
booth
mortal
brace
consumable
selves
replenishment
spondy@@
u.s.
Ischem@@
cherry
losis
vest
dispatching
actuate
detail@@
reproducibility
Ⅰ
Profit
cos
consum@@
dator
7.7
convolu@@
neutralizing
Sync
harv@@
flown
intri@@
Benin
word@@
amination
dale
flavors
rie
RDS
SIL
translations
Bonds
Unicom
townships
flotation
pulls
thral
625
351
roses
breaches
Regi@@
bees
complementarity
contem@@
dull
Oklahoma
vet@@
imperial
2.0@@
Alabama
Applicants
submits
Vascular
perpetual
sedimentation
information@@
Deut@@
ofrequency
Zhen
Reality
Character
expiry
UNCITRAL
ogly@@
prolet@@
ul
Mang@@
charcoal
geology
bass
Bed
isotropic
Phili@@
mother@@
itz
dehydrogenase
Auditors
Qui@@
Wood@@
al.
indefinitely
ova
deaf
souven@@
backend
god@@
infrastructures
Globalization
CUR@@
costume
Immune
Afterwards
scarcity
swollen
personalities
ession@@
misuse
mentor
ULL
posters
satisfactorily
tempor@@
grat@@
Graphics
worms
oint@@
Squ@@
russian
measles
14a
pyrid@@
cryptocurrencies
topography
baff@@
114@@
moist
swim@@
heightened
glycidyl
metrical
extremity
uniqueness
diastolic
Satis@@
bribes
vigor@@
Competitive
Lanc@@
daylight
abed
foc@@
butt
clays
polymor@@
bismuth
coloration
Plac@@
ODA
Nevada
voucher
stered
Citizens
ancillary
cumbersome
codebook
zu
infect
Controls
scintillator
Nichol@@
Ale@@
SMA
tribe
annulus
SCI
rearview
Chair@@
Perform
balancer
Dave
ferry
lite
bidity
seamlessly
Scanning
bay@@
Fill
hubs
Newcastle
gestational
jin@@
CEDAW
smelting
Recommendations
Xing
intersecting
ltd.
L.N.
ifer
Limit
Lost
wrapper
amas
deviate
fluctuate
colour@@
Indoor
nitrile
granularity
analgesia
varian
buli@@
Parking
textures
Malawi
bure@@
JPEG
Imperial
incur@@
memo
monsters
devaluation
Amin@@
Neigh@@
wto
traceability
negligence
chunks
pts
provoc@@
100000
20a
ascor@@
alleviating
BT@@
fulfilment
MHC
textured
appreciates
existent
decor@@
monument
mr.
Nep@@
profiling
originate
agitator
stem@@
dal
append@@
emi@@
birefr@@
CNT
multidimensional
waste@@
prefecture
interpretations
drop@@
Cow@@
bodi@@
Slo@@
uling
lifts
slid
Dang@@
pas@@
317
Equal
Glob@@
secon@@
fishermen
onomer
cn@@
portation
enia
DLL
climatic
pre-
orate
inline
Four@@
apolog@@
owloon
stair@@
bine
glands
Rum@@
ont@@
downgrade
casc@@
obsolete
Yat
achy@@
undermined
Knowing
Halloween
Var@@
Expan@@
8.4
calmly
neighbour
confiscated
miniaturization
diagrammatic
Tak@@
gnee
Ladies
Cultiv@@
Recommended
Maintain
occupants
Magazine
endang@@
Portland
Ple@@
Earthquake
phosphon@@
telem@@
Baltimore
bloom
engag@@
fistula
legi@@
conclu@@
phosphorylation
MUL@@
Analyzer
ICA
notations
sure@@
limit@@
TIME
flouri@@
Paraly@@
Missouri
Afric@@
Getty
Coca
cushioning
Mot@@
commanding
Nelson
ilization
preservative
Gary
1310
compiling
Driven
Rui@@
rheological
Exit
azimuth
absorbers
EPC
Queensland
Sahara
costing
Highly
entru@@
Licens@@
drive@@
inqu@@
INT
postpone
Markov
ghong
practicality
pedi@@
regiment
Cauc@@
renew@@
tl@@
polish
asp
toes
①
rements
Him@@
itr@@
356
analogy
CONTRA@@
microcrystalline
startups
Intro@@
sigh@@
act@@
bub@@
Routing
Milk
Advisor
guardi@@
12,@@
abolition
adipose
Liqui@@
thelial
screaming
Renal
eal
oner
Mbps
sear@@
epidemi@@
landslide
salic@@
isolator
gators
Sharon
dermat@@
slaughter
Pregnancy
gangs
aval
patiently
enshrined
regim@@
tubation
icular
austerity
ocardiography
zipper
participatory
Xinhuanet
taxis
uppermost
perforations
annot@@
militi@@
lett
LPS
unrealistic
4K
miRNA
yi@@
lanthan@@
heap
massacre
860
hem
oniae
agons
folds
york
dreaming
extrav@@
erad@@
Proposal
LDPE
cabbage
Shakespeare
Guest
Oste@@
Porsche
erly
Resort
Subsequent
erein
Jay
protections
cooperates
gravel
undertook
transplanted
ilers
Vin@@
Jakarta
puzz@@
Benjamin
Haven
TLS
yroid
pituitary
knocking
passports
ZEALAND
veness
940
taps
osilicate
leuc@@
Kon@@
locator
surfing
stains
Therapeutic
possessing
predictability
dwar@@
abstraction
Visa
academician
SER@@
WP
complied
Applicable
philanth@@
nod@@
ulmonary
antry
scour@@
Cd
tful
inversely
CLO@@
diverted
bast@@
universality
excavator
config
Dress
overcurrent
superb
warp
eras@@
adop@@
Replacement
interven@@
Wheel
etin
Interestingly
schem@@
stagnation
atitis
propagated
stimulates
itol
polyisocyanate
diversify
cohort
Photography
μ
scaff@@
skiing
bud
magnetron
Across
Russell
Mutual
sioners
conditionally
plenum
70,000
atyp@@
granule
railroad
thrive
Fem@@
nonetheless
Outline
html
retraction
derives
noteworthy
unanimous
tweeted
multivariate
sterilized
reser@@
glycemic
1030
RSSI
ony@@
Rachel
uniforms
locker
Wav@@
Spectrum
tub@@
Trafficking
07@@
embraced
illiter@@
Liao
aqui@@
R8
alveolar
Berry
coagulant
harmed
Bohai
authorised
respec@@
rin
SED
Standardization
2,500
boar@@
Furniture
genuinely
VSS
perform@@
mercap@@
Assist@@
oped
imper@@
mosque
Charlotte
UNIX
opportun@@
Fudan
431
dialy@@
unitions
ucleo@@
job@@
Hezbollah
spotlight
stam@@
513
BLE
Frac@@
IDS
NAS@@
exemp@@
CO3
Steven
Geographic
scalp
Pret@@
geared
Controlling
harm@@
1951
Focusing
NaHCO3
＜
converge
okie
handy
priv@@
ouldn
metropolitan
FIGURES
Phys@@
sad@@
geometries
modality
psychi@@
Louisiana
Means
fol
bia
Sister
Alpha
Coalition
Concentr@@
buff@@
surance
Animation
Bever@@
GLP
arre@@
Matters
g.
fertile
SBSTA
timed
throt@@
tok@@
RIS@@
Roger
mistaken
96@@
TLC
azo
microblog
pessimistic
Demonstration
Condi@@
ichang
sham
Shuang@@
p.m
anchors
Antarctic
ricul@@
modulators
valry
ebook
exhaustive
sins
dr
Deriv@@
kily
Wastewater
omni@@
53@@
phyto@@
tionality
Pav@@
ingen@@
rents
2.5@@
ggle
CTC
Classroom
lupus
TIR
ventricle
chan@@
boilers
Zhon@@
Presidents
ilin
Warri@@
biot@@
sinks
insignificant
RTP
Prevent
Amount
zz
suf@@
attractiveness
affirmation
Hod@@
isolates
velocities
footh@@
caliper
health@@
UNIFEM
physiologically
237
moulded
plasticity
requisites
etry
rugged
continence
boil
EB
thering
Spot
Adel@@
cybersecurity
GD
GND
vacancies
CCA
titration
Gala
Corr@@
ck@@
det
kiln
Gib@@
hats
CW
Membrane
i.@@
icobacter
tians
150,000
itiner@@
VAL@@
9a
Forget
ether@@
lineup
H4
anci@@
guaran@@
activist
Mun@@
fabricate
ifer@@
hotline
oler@@
Jen@@
broncho@@
Handling
dumped
Durban
levi@@
Seminar
Diabetic
briefings
SEL
rung
sulfone
voiced
Billy
faceted
headlight
warehousing
deco@@
opes
telemetry
cosmic
favourites
Already
unden@@
bombar@@
calci@@
vinylidene
spelling
extremists
udge
shaving
rushing
heats
traver@@
believable
Shield
spil@@
ciph@@
yce
subscriptions
stear@@
1,3
Cloning
waking
MER
exempted
Wealth
p.@@
Lisa
synergies
1204
SCF
bullying
bravely
isocyanates
administrations
CTOR
enary
Certified
dishon@@
exerts
disci@@
approving
niobium
Leg@@
derivation
unusually
stel
station@@
Tang@@
ership
expropri@@
Hungarian
decorate
Contribu@@
1956
Calibration
conform@@
contam@@
presumed
IOS
Explanation
Chan@@
wirings
tidine
assimil@@
Graham
Contents
placenta
Glasgow
dysp@@
latches
gu
fibrill@@
Nigerian
Fly@@
resa
Helen
half@@
Stocks
flowmeter
apnea
athering
analytes
PAGE
eligibility
contours
elo@@
vinegar
EFFECT
congresses
enforcing
conformal
lacti@@
skid
nucleo@@
oscillations
Breakfast
MEA
vising
enduring
centrifuged
SCH
interleaving
Count
ek@@
ecal
ascending
Text@@
RESP@@
S10
predecessors
ime
submarines
Employee
phosphatase
offspring
nanowire
chal@@
chronous
freshwater
Kalman
spel
raw@@
sput@@
aults
Coding
forehead
Bragg
Swi@@
pressurization
rafts
YS
umi
cali@@
pleural
salv@@
photographers
Huat@@
instructing
Synthetic
Quarantine
clinician
icted
skipped
Closed
loudly
LDPC
absurd
Relay
remission
Builder
executions
legislators
Briefly
adjoining
Introduc@@
headaches
dimentary
axy
convers@@
hydric
electromagnet
Bruce
tionist
GENE@@
interlock
kai
ESCAP
airfoil
homogenous
incapable
astero@@
cornea
Smoking
tuous
Hampshire
ysis
ditch
unle@@
ichever
10.0
knitting
Wenchuan
fool@@
lump
weighs
sings
Inc@@
Peak
Replication
NY
revival
protic
throne
abbreviated
plunged
refinery
为@@
extrapol@@
clarifying
decrypt
imager
expos@@
hearted
ringing
L4
actional
lowed
Hear@@
Servers
depended
staggered
inding
hrs
cyanide
Analytical
BAC@@
lawsuits
bureaus
blot
IDC
agar
caf@@
Occupied
invol@@
cohesive
onable
ance@@
kings
Eat
promotions
LSI
OFD@@
dan
Fuk@@
polymorph@@
slows
Trinidad
Magnesium
litaxel
pains
Feb.
xenophobia
Happiness
Sustain@@
musician
underwriting
ampagne
NEPAD
Shu
dumb
S8
visions
prey
Sigma
Rare
dious
metre
Directive
team@@
coats
las
QAM
Pittsburgh
RV
skew
Talents
pressurizing
COD
diluents
secu@@
modifiers
Supported
Hyp@@
hemorrh@@
announ@@
knives
timate
rom
10b
bargain
resetting
Movie
must@@
nanometer
wish@@
nin@@
litis
375
Inten@@
asers
grandma
comonomer
cass@@
blessed
insurers
minimise
remembers
susc@@
levers
490
MG@@
clerk
imparted
Lhasa
workpieces
292
ammad
herni@@
cyan
EDTA
gnan
disparities
itarian
presi@@
Flower
cultiv@@
blows
formic
otensin
divine
homology
Walter
blurred
Ways
tighter
Ron
Symposium
Fav@@
discontinued
semic@@
obsessed
greeting
allocates
twisting
trimming
change@@
Occupational
microelectronic
swif@@
Aur@@
Mart@@
ateral
butane
distortions
blin@@
propag@@
Airbus
dermatitis
prophylactic
uncontrolled
presum@@
epox@@
netizen
knock@@
enge
amplitudes
Guan
Immediately
pository
Pas@@
deduced
Oli@@
maturation
Drag
gists
grandchildren
high-
hydrophob@@
crux
appendix
photocatalytic
classmate
descendants
subsidi@@
anodi@@
fluidity
Usage
omat@@
abiding
Monaco
Bag
Controlled
frank
trainer
entails
R.@@
itude
obe@@
yland
dissatisfied
extrud@@
biliary
Florence
Q3
gradients
Films
NH
Zhan@@
stur@@
accreditation
Chiang
Jes@@
impede
fluent
program@@
mosaic
planarization
scraper
endorse
Determin@@
5.9
roster
regularity
CH2Cl2
unconditional
341
Processes
STR@@
Parker
motorized
loop@@
1008
Kno@@
youths
undermining
fab@@
heterogeneity
Staphylococcus
unsuitable
princip@@
obscure
Tok@@
discipl@@
624
Tari@@
RN
Invalid
Entity
Grou@@
shampoo
ICBC
sedi@@
partiality
shutting
everaging
dants
organizes
Shao@@
Turbine
Bretton
crimping
STN
ensions
ascus
gion
emade
herbic@@
ropes
2G
prenatal
atomization
Ka
Assist
keting
cology
itions
Difficul@@
omonas
reproducible
halted
enth
schooling
mindset
Automated
cheapest
Carl
Horse
codon
fertili@@
HF@@
did@@
Venus
usive
1959
some@@
----@@
java
Define
Abdul@@
Sanders
semantics
intraoperative
bottlenecks
vises
attribu@@
WhatsApp
Circle
facsimile
Wy@@
changer
padding
Shut
kidn@@
wrink@@
Transactions
dim
portability
teries
appropriation
Ball@@
shelters
naphthal@@
amble
ucks
embossing
banquet
HTTPS
Atlas
100A
Angl@@
thrombin
clicked
Penal
hernia
inmates
linear@@
preheating
dug
fundraising
individualized
ellulose
Scre@@
onomical
Koreans
Aligned
arbitral
Partial
vy
monomeric
tendon
prestige
WHAT
NF@@
bara
envoy
ed.@@
ocytic
alizer
stment
subscribed
Horizontal
substanti@@
DEA
ustin
AST@@
hug
DIN
jected
Shareholders
obic
commercialization
Collaborative
cortical
comprehension
Corp
inho
darling
Transnational
frost
pharmacokinetics
autologous
circu@@
Michelle
Families
formate
enco@@
Huax@@
Carry
septum
cock
albums
RU
misalignment
EX
fusing
ci
callback
phan@@
Plans
nanop@@
annealed
Seed
admissible
greeted
hedr@@
grayscale
-10
Kentucky
replay
centred
robbed
PDM
rhyth@@
neph@@
Pain
REG@@
ment.
propellant
tA
melan@@
Into
paramount
consortium
SHO@@
Fen@@
Socialism
用@@
titu@@
averages
-You
Competi@@
eda
Rid@@
athan
vez
Morph@@
Ding@@
indictment
susp@@
prehen@@
puzzles
demodulated
Folder
elines
audio@@
Become
eluent
Dog
sponsorship
ASA
suites
coexist
355
institu@@
Robinson
Beta
myco@@
AGC
smiles
OT@@
escor@@
Congolese
ubin
agitated
mutated
denominated
O4
boasts
peeled
athi@@
Suppression
metalloc@@
Holmes
Fast@@
anche
somal
heels
symptomatic
Prospect
vis@@
tooling
horizons
Won@@
79@@
unevenness
hereinbefore
vir
bate
vox@@
monovalent
anas
DCS
ayal
canti@@
scol@@
handwriting
Pop@@
Fertili@@
griev@@
13C
95@@
spider
plagued
astly
diminish
cafes
week@@
tog@@
itories
Seal
clustered
Fabric
Exha@@
syngas
swaps
Match
dingly
lier
libr@@
grapher
connective
diploma
400,000
AX@@
dl
athers
Br
epitopes
10.5
trusion
Centr@@
flattened
messenger
Ny@@
replic@@
Advancement
Correc@@
undertakes
commensurate
elevators
Concep@@
chemotherapeutic
subjec@@
JD@@
landscapes
commissioner
Faculty
decompose
South@@
Botswana
aws
TX@@
quench
DU
Diaoyu
Suff@@
coast@@
以@@
honors
1920
imparting
DEVELO@@
orship
Compression
oi
proportion@@
presumably
Enter@@
diisocyanate
fructose
Comman@@
versity
versatility
UML
archy
435
referee
fly@@
suppos@@
concentr@@
ASP.NET
Continental
Paraguay
humidification
supers@@
Reflection
deer
Poly
Buildings
alkyn@@
haul
expres@@
indem@@
volt
oca@@
sening
Boolean
clu@@
sponsor@@
cyclopent@@
agues
methan@@
rea
Fiscal
equivalence
swell
finest
rhinitis
mixes
immunotherapy
cellul@@
uously
diligent
communism
prud@@
BER@@
counterfeiting
Calendar
Pum@@
somatic
concentrator
Acet@@
187
sium
Differen@@
contamin@@
inner@@
Jupiter
Settlements
incubator
motivate
busi@@
gren@@
landlocked
Thir@@
Availability
couch
acidity
airbags
brut@@
akh
layouts
REF
modifies
Shape
PLMN
reunion
BRO@@
rider
nett
bidder
principals
Deal
ete@@
nonprofit
9.1
penetrates
ood
nees
tendencies
12,000
Pull
aa
bons
joy@@
sacrifices
Mississippi
onucle@@
tidy
prodrug
recrystallization
CDM
shooter
org
Opinion
Viewer
watts
accusing
Facil@@
forgetting
74@@
cyt@@
herpes
Fv
investigator
mAh
271
UST@@
laminar
Franklin
subscri@@
digested
Mog@@
Tier
conspicuous
Ruby
Aug.
outfit
C12
opi@@
Athle@@
enrol@@
revive
troom
amortized
268
conserve
excretion
1947
mistak@@
BRA@@
Truste@@
ubiquitous
performers
Coming
Madagascar
asth@@
bloc
brushing
1,200
thio@@
170@@
Per
FX
iSCSI
tai@@
intramus@@
jailed
typed
Hex@@
Healthcare
670
dine
erce
penny
sociology
System@@
capitals
shoppers
depreci@@
Peripheral
crete
OA@@
Frequ@@
8.8
prepre@@
284
960
disassembly
herb@@
Whoever
hman
Myocardial
ais
itted
embol@@
sop@@
Nin@@
oles
reaffirms
Decree
virtualized
listings
lateralism
senators
cmd@@
footing
phage
Lia@@
royalty
rad
game@@
Unic@@
Hav@@
statically
triglyceride
otai
dictator@@
radically
GPC
40s
Unique
psychologist
isen
disruptive
lords
COL@@
Urges
Are@@
ABA
multidisciplinary
insurgents
paving
accent
632
Modi@@
NI
baric
triglycer@@
dign@@
alginate
Wet@@
thest
lyophilized
aor@@
xel
cemetery
MN
Premium
ylase
bikes
chu
osin@@
ec
607
bounce
Ed
CNS
chlorophyll
male@@
uing
Rhe@@
thirteenth
cancerous
french
depar@@
Walk
helix
grapes
innocence
elet
Stroke
Reagan
你@@
Warner
9.2
MY@@
cyst
Bren@@
reboot
styling
Firm
gru@@
scratches
formers
costumes
Diag@@
mins
itoneal
spective
Starbucks
G3
Sunni
imposes
coking
Olym@@
Monter@@
wom@@
hydrocarb@@
Reson@@
tibial
ottky
june
vending
Papua
Distribu@@
abrupt
ι@@
stalled
monolayer
etary
Develop@@
izh@@
agg@@
handing
young@@
Zuckerberg
leveraging
small@@
seg@@
unilaterally
buy@@
cephal@@
Thompson
ITU
front@@
Supports
transf@@
Clothing
lid@@
v1.@@
到@@
idol
seepage
Antenna
toggle
SDL
badminton
trousers
killers
armies
phosphine
colitis
FIR
Variation
rename
dun@@
atorium
deter
cocktail
lein
mimic
2N
Mandarin
innovating
budsman
ario
oli
Plu@@
Capitol
Vide@@
Ever@@
Isol@@
Receiver
ordin@@
dant
ethanolamine
Connecting
proto@@
exploiting
anges
Epidemi@@
Xiu@@
Xiong
uten@@
rifle
fier@@
Sac@@
346
interle@@
Religious
nominee
Ⅲ
aiding
concession
8.6
anti-
bureaucracy
BER
Greg@@
impoverished
dicine
ogens
TIV@@
stubborn
Forec@@
RMS
Rover
overlying
dex
imidazole
ATA
births
hampered
inin
metic
etches
0.9@@
MAX@@
PSD
elli
migrating
Cars
persecution
Guangming
studios
struts
OCT
zens
hue
Coupling
bailout
evidenced
medieval
Machines
SCM
[...]
