</S>
的
。
,
，
在
和
、
是
了
中
)
(
我
或
可以
与
一个
将
“
所述
对
”
.
为
你
上
-
我们
到
有
他
被
该
并
不
可
包括
以
通过
：
使用
其
进行
也
1
/
这
方法
实施
地
从
图
提供
时
年
根据
下
）
而
他们
来
系统
（
人
具有
都
:
2
会
说
用于
本发明
但
于
要求
例如
更
它
如果
问题
所
还
一种
就
数据
其中
装置
可能
以及
这些
第一
没有
等
研究
3
由
并且
发展
需要
控制
工作
中国
信息
月
设备
您
方式
情况
权利
她
第二
后
要
之间
其他
技术
部分
内
当
一些
4
及
因此
新
？
国家
5
很
10
作为
多
时间
所有
使
公司
形成
影响
多个
信号
这个
例
向
任何
能够
如
至
不同
已经
;
个
分析
但是
处理
表示
》
《
用户
选择
显示
结构
至少
用
给
因为
应用
连接
性
6
经济
这种
材料
美国
单元
自己
基于
服务
一
能
层
实现
位置
区域
；
重要
本
好
执行
日
方面
让
做
表面
确定
产生
操作
主要
过程
最
管理
组合
企业
或者
组织
高
知道
认为
必须
这样
两个
12
第
7
把
不是
步骤
存在
安全
图像
对于
设计
获得
例中
已
产品
每个
出
什么
优选
由于
开始
然后
8
设置
现在
国际

检测
市场
包含
所示
另
特征
着
社会
20
特别
相关
?
关于
大
结果
网络
发生
增加
政府
则
治疗
·

同时
支持
目的
配置
去
有关
物
"
移动
功能
想
报告
提高
它们
—
值
项目
接收
成为
目标
活动
9
11
吗
比
前
内容
范围
世界
进一步
状态
得到
为了
部
输入
领域
环境
机构
输出
约
模式
非常
应
这是
传感器
元件
患者
有效
委员会
提出

利用
此
作用
方向
就是
相对
能力
较
会议
发现
描述
安装
温度
A
如何
示例
计划
里
希望
应该
建立
保护
关系
30
通常
此外
本文
来自
不能
C
器
不会
文件
保持
变化
许多
从而
正在
存储
水平
是否
通信
所以
电路
细胞
在于
100
说明
反应
计算
]
测量
[
且
生活
改变
...

之后
涉及
点
条件
压力
过
类型
上述
模块
各种
地区
采用
生产
中心
其它
量
14
投资
目前
小
合作
而且
请
区
电压
帮助
15
导致
非
之前
期间
以下
低
模型
资源
即
减少
出现
继续
电极
比较
质量
降低
型
化合物
相同
然而
风险
水
驱动
标准
组件
者
允许
另外
部件
决定
建设
很多
成
16
实施方案
完成
看到
解决
教育
处
使得
一起
政策
直接
一项
式
方案
！
光
及其
组
建议
时候
S@@
像
制造
测试
示出
基础
全球
形式
地方
最大
又
膜
那
这里
文章
a
I
规定
13
考虑
每
联合国
得
程序
确保
之一
运动
人们
我国
空间
结合
法
特定
文化
金属
一@@
服务器
B
记录
各
人员
如图
城市
车辆
子
接受
运行
进入
具体
代表
性能
成本
板
们
了解
增长
18
促进
内部
告诉
孩子
再
参数
50
行为
化
一直
号
因素
接触
摘要
随着
公开
件
那么
一部分
线
针对
尽管
最后
持续
位于
带
消息
大@@
对象
完全
超过
速度
原因
未
发送
学习
需求
自
'
旋转
控制器
价值
加强
以便
计算机
法律
只
注意
小时
T@@
未来
基本
学生
一次
22
不@@
生成
B@@
整个
汽车
无法
％
某些
限制
业务
访问
努力
价格
40
体
外
以上
一定
事件
中@@
健康
需
电池
调整
剂
来说
客户
表
…
稳定
聚合物
理论
参考
评估
这一
固定
24
开发
行动
行业
检查
传输
工具
任务
21
传统
P
一样
效果
仅
当前
虽然
按照
喜欢
创建
电流
银行
只是
请求
数量
应用程序
发动机
均
达到
事情
D@@
措施
部门
看
名
讨论
数字
还是
存储器
特性
儿童
L@@
关键词
甚至
那些
V@@
0
改善
指示
气体
受到
对应
添加
诸如
流体
政治
简单
协议
块
调查
构成
制备
视频
理解
分别
仍然
采取
介绍
相应
机制
电子
拥有
F@@
17
混合物
容易
实际
只有
成功
25
自动
H@@
过去
管
药物
轴
大学
表达
加入
外部
节点
分配
定义
类似
R@@
造成
岁
东西
软件
M@@
程度
今天
功率
类
适当
历史
吧
识别
开关
构件
表明
尤其
P@@
空气
机会
游戏
处于
>
段
频率
源
实例
更好
尺寸
指出
!
b
度
D
N@@
制度
个人
多@@
按
改革
热
°
为什么
交易
条
C@@
事
混合
探讨
人民
最终
间
先生
率
小@@
参与
以来
组成
电
平台
分离
找到
临床
意义
疾病
首先
200
机
资产
记者
观察
创新
形状
准备
参加
成员
_
60
通道
战略
响应
不断
还有
经
独立
带来
　
预测
N
调节
防止
快速
取得
一般
严重
s
指定
三个
引起
基金
S
结束
大约
多种
媒体
处理器
适用
颗粒
评价
转换
仍
更加
资金
19
最好
比赛
现有
家庭
G@@
第三
流
大量
终端
和平
起
侧
含有
高@@
妇女
举行
主
力
距离
孔
阶段
明显
生物
端
之
正
满足
框架
关注
无@@
增强
即使
不仅
算法
学校
活性
受
同样
序列
体系
朋友
打开
日本
延伸
加热
液体
人类
更新
半导体
5@@
帧
无
头
效率
三@@
试验
32
26
今年
=
+
长度
E@@
溶液
23
正常
像素
背景
改进
总统
良好
走
应当
你们
L
指
英国
站
E
家
预定
连续
重新
4@@
位
数据库
支撑
除了
才
错误
称为
无线
施加
网站
优化
重量
专业
c
K@@
%
工程
R
树脂
T
共同
正确
决议
有机
一点
一切
全面
工艺
实验
容器
路径
最近
广泛
下降
物质
g
定位
O@@
表现
总
工业
称
3@@
因
恢复
起来
真正
单位
变得
接口
必要
布置
呢
而言
意味着
浓度
保证
110
电源
相比
A@@
分钟
角度
编码
开展
北京
越来越
面
上@@
停止
片
水@@
强度
平均
解释
不要
出口
自由
能量
规则
28
一名
收入
收集
积极
室
科学
车
启动
推动
标记
相信
基板
结论
厚度
想要
大多数
欧洲
美元
光学
费用
X
经验
几乎
n
责任
下面
31
觉得
W@@
避免
国内
2@@
制定
获取
介质
详细
发布
真的
差异
M
分子
国
市
信道
联系
适合
几个
足够
d
构造
长期
命令
全国
据
那里
支付
销售
高度
导电
壳体
样品
冷却
购买
含量
主席
感到
行
挑战
基因
天
经过
合适
产业
120
传送
燃料
相
蛋白
贸易
i
却
分布
两种
金融
专家
谁
长
认识
关闭
集团
显著
诊断
纤维
元
地址
O
次
小于
面临
联合
代码
颜色
--
流动
6@@
一位
F
的话
大会
V
原则
催化剂
通知
报道
策略
经由
监测
自@@
语言
可@@
m
提升
重点
爱
核心
如此
钱
占
修改
主体
基
证明
102
离开
s@@
转移
门
1@@
循环
最佳
进程
综合
大于
当然
人权
发光
特点
例子
电影
分
维持
大小
医院
7@@
发射
列表
随后
做出
天线
期
新@@
理事会
机械
比例
释放
动力
℃
很大
精神
维护
油
提交
培训
知识
种
元素
负责
作出
社区
级
怎么
解决方案
关键
阀
没
公约
插入
设定
再次
p@@
属性
晶体管
卡
测定
全部
利益
复杂
实际上
边缘
*
发明
资本
用作
300
b@@
感觉
强调
期望
t@@
有@@
抑制
唯一
电话
似乎
I@@
有助于
消费者
那样
估计
由此
 
优势
70
d@@
地@@
确认
状况
才能
名称
覆盖
环
搜索
创造
80
溶剂
函数
斯
拉@@
预期
c@@
版本
加工
下@@
耦合
相关联
对@@
道
单独
跟
附近
出来
协调
载体
成分
团队
互联网
消除
两@@
指令
构建
y
8@@
﹐
领导
h@@
27
W
酸
m@@
密封
引导
如下
000
已知
动物
动态
俄罗斯
符合
主题
实践
返回
写
公共
充分
34
取决于
内@@
开口
经营
各个
问
低于
周期
意识
J@@
电力
免费
数
平衡
重大
盐
项
人口
方
<
办法
供应
扫描
e
场
另一方面
见
故障
吃
10@@
医疗
马@@
整体
酒店
直到
当地
验证
经常
现代
显示器
大家
基本上
补充
传递
路
承诺
发挥
同
设施
物理
农业
器件
G
住
旅游
衬底
这么
不过
申请
投资者
克
交流
死亡
听
队
商业
官员
用来
n@@
之@@
时代
拉
巨大
90
学
曾
模拟
意见
玻璃
手术
可用
链路
人@@
热@@
推进
员工
一年
特殊
减小
规划
t
去年
一系列
逻辑
干燥
香港
J
危险
切换
外@@
e@@
女性
课程
损失
试图
化学
有些
合成
身体
明确
卡@@
竞争
德
最高
新闻
彼此
那个
感染
品牌
快
抗体
光@@
~
困难
审查
成像
各国
参照
合同
平面
单@@
指标
集
二
扩大
42
36
而是
权
X@@
有人
出@@
医生
固体
思想
网
规模
适应
阵列
资料
屏幕
这项
安排
花
同步
声音
一天
货币
达
压缩
尝试
U@@
照片
扩展
间隔
l
一份
印度
接近
之外
35
总是
删除
中央
食品
充电
杆
预计
宽度
面板
酶
端口
过滤
脉冲
吸收
非洲
第一个
贷款
一下
也许
机器
概念
H
薄膜
500
负载
副
辅助
制成
秘书长
是因为
预防
小组
分@@
植物
104
战争
常规
o
太
建筑
一家
单个
按钮
提取
替代
直径
智能
该@@
典型
展示
附图
组分
作
手机
共享
开放
双@@
液
涂层
音频
同意
或@@
生命
手
四个
成立
培养
中间
阈值
冲突
宣布
四@@
当时
科技
经历
坚持
三
能源
性质
农村
近
局
批准
死
强
标签
加@@
产物
重复
反映
每天
我会
连接器
故事
额外
食物
趋势
指导
开
威胁
速率
指数
音乐
以色列
病毒
阿@@
9@@
限于
实体
预算
透镜
本身
护理
二@@
图案
开@@
一旦
力量
附加
2000
术语
匹配
引入
只要
援助
客户端
旨在
自然
办公室
部署
生长
齿轮
西@@
肿瘤
供给
相反
有限公司
氧化
i@@
29
全@@
基站
比如
沿
状
保障
在线
鼓励
激光
德国
以前
合理
电@@
土地
现象
优点
盘
进展
尔
特@@
迅速
其@@
前@@
成@@
远程
端子
上升
选
道路
台
下载
属于
特
线圈
动作
2008
电视
入
y@@
金@@
单击
款
大部分
世纪
视图
离子
选项
限定
保留
发@@
工作人员
收到
上海
如上所述
分组
法国
本@@
进
给予
成果
最新
取代
泵
艺术
有利
x
体积
盖
电机
现场
英语
清楚
米
第一次
不可
党
130
g@@
啊
52
接合
33
飞机
f@@
自身
草案
担心
关联
气
教学
沿着
高于
150
云
任
l@@
效应
训练
纳米
打印
买
周围
完善
突出
来源
广告
注册
传播
p
海@@
心
单
一致
k@@
45
400
利率
格式
含
到达
Windows
38
州
非@@
找
透明
重
形
清洁
沉积
槽
保存
集中
给出
从@@
应对
寻找
等于
除
法院
以@@
较大
消费
LED
不再
查看
欢迎
制作
缺乏
K
监督
合并
重@@
每年
皮肤
行政
天@@
芯片
硬件
外壳
流量
v@@
发表
曲线
当@@
地位
运用
双方
规范
任意
全
稳定性
将会
虚拟
ID
药
破坏
一条
声明
监管
令人
打
县
窗口
壁
微
灯
中任
44
角
收益
长@@
文档
时期
生
斯@@
病
上面
商品
r@@
正式
事实
分类
书
控制系统
包
文
er@@
房间
弹性
跟踪
事务
蛋白质
警察
手段
管道
安@@
mm
聚合
碳
角色
制
驱动器
2010
贡献
选举
永远
拒绝
辐射
集成
页面
臂
发出
打@@
列
准确
抗
监控
看看
口
h
确实
剂量
反射
危机
放置
0@@
少
来看
运输
心@@
Y
反馈
大型
判断
差
融资
主@@
武器
父母
立即
41
愿意
利
照明
亚@@
本地
这次
金
亿美元
潜在
承认
0.@@
共
UE
深度
普通
106
垂直
利@@
补偿
系列
如@@
伊拉克
分散
an
高级
认证
系
多少
发展中国家
读
更改
相当
完整
振动
变@@
授权
激活
看起来
犯罪
2015
免疫
r
日期
结果表明
氧化物
密度
包装
职业
性@@
双
罗@@
可靠
就业
锁定
领导人
比@@
2007
观点
学院
放在
统计
决策
依据
山
以后
链
字
带有
2005
电容器
基@@
查询
U
波
er
绿色
证据
方便
代表团
原理
发
时@@
现实
多年
读取
最小
文本
不到
页
缺陷
均匀
有时
欧盟
左右
48
弹簧
2016
德@@
滤波器
亚洲
面积
in
w@@
供应商
球
正@@
肯定
安全性
技术人员
一场
短
国@@
过滤器
相互
18@@
干扰
交换
面对
低@@
等等
栅极
随机
粒子
统一
2009
变形
债务
转@@
转变
可能性
只能
延迟
编辑
和@@
我要
失败
想法
底部
电阻
流程图
二极管
流程
节
为@@
社会主义
填充
某
搅拌
私人
两
相@@
库
军事
部队
12@@
2006
早期
光源
围绕
印刷
父亲
白@@
Z@@
此类
体验
不想
升级
扩散
系数
吸引
审议
塑料
小区
样本
南@@
污染
五@@
张@@
回到
有限
保险
首次
股票
分为
酯
排放
固化
文@@
寻求
美@@
粘合剂
转化
加
基础设施
失去
无论
联盟
遇到
身份
禁止
巴@@
in@@
理想
51
101
协会
轴线
对话
波长
财务
顶部
弯曲
有用
烷基
转向
后@@
分享
不足
强大
探索
图示
键
公众
真空
审计
更大
两年
刺激
噪声
业
糖尿病
变量
总体
论坛
义务
异常
发行
制品
各自
既
DNA
名字
暴露
法@@
王@@
54
线性
引发
石油
风@@
损伤
提到
加密
感
链接
若
谈判
阻止
210
丰富
基团
去除
机场
反对
112
母亲
相邻
顺序
近年来
第四
加快
咨询
46
女孩
压
标识
视为
穿过
逐渐
a@@
Y@@
μ
省
老@@
李@@
140
人士
澳大利亚
制动
初始
房地产
事实上
普遍
设立
62
阅读
台湾
呈现
因子
绝缘
老师
转子
群众
机器人
版
图片
代理
呼吁
万@@
2014
成长
高效
生态
电动机
u@@
单体
端部
同@@
假设
图形
电子邮件
及时
该国
2017
域
ing
实时
局部
DC
平等
同一
电缆
年龄
抗@@
治理
这方面
对照组
越
亚
输送
2004
辊
疗效
未示
因而
仿真
入口
2012
f
数目
2003
生@@
支架
电脑
物体
现状
讲
干
相似
神经
Web
实验室
核
赢得
符号
过@@
妈妈
优先
超@@
1.@@
倍
压@@
64
流@@
轴承
听到
储存
公@@
教师
化@@
条款
校正
细节
在内
配合
al@@
反@@
用@@
风
女人
56
子@@
2011
正如
高兴
话
男人
腔
血管
k
打击
专利
否则
变成
油@@
通@@
37
损害
复合
居民
标志
为此
节目
严格
做法
密钥
素
回答
触摸
月份
2018
误差
症状
用途
焊接
检测器
x@@
评论
进步
独特
最初
放大器
年轻
2013
制造商
导管
先
条约
日@@
叫
氧
花@@
案件
当局
公民
界面
晚上
人才
技能
接下来
临时
证券
变换
障碍
警告
承担
袭击
总@@
运营
反
半
合金
有趣
燃烧
术
•
享受
攻击
架
\
先进
而@@
员
仅仅
这@@
接着
一组
这位
以外
加拿大
其实
旅行
时钟
美
融合
预
民主
达成
马达
语音
红@@
显然
设有
做到
科@@
示意图
轮
万
新型
地球
主机
作品
干预
20@@
增大
IP
值得
几@@
投入
待
黄@@
权力
纵向
55
拿
担任
加速
无线电
间隙
血液
哪里
回
主义
受@@
气@@
Q@@
眼睛
聚
反应器
各项
108
伟大
特色
体@@
下列
选择性
平行
缔约国
边
接入
各@@
立法
边界
等待
真实
尚未
我@@
癌症
铝
广播
19@@
协助
科
很快
光纤
每@@
进口
总结
the
映射
会计
转动
债券
原始
报
中国@@
信
账户
别人
掉
0.05
转换器
签署
作业
活塞
声
色
常见
43
集合
．
甲基
哦
利润
林
码
份
曾经
一件
取消
复制
洗涤
2001
马
司法
喷嘴
几年
检验
容量
mg
微@@
那@@
波@@
年代
纽约
所谓
对此
给定
所@@
高校
十分
布@@
施工
推出
西
硅
基底
门@@
调制
制剂
伤害
液压
框
变
尔@@
外国
头@@
【
深入
3D
有利于
参见
人数
地图
接收器
】
城
往往
15@@
回@@
工人
料
工厂
态度
o@@
语
费
绝对
难
纸
替换
ar@@
ed
数值
群
 
on
宣传
性别
手@@
重要性
从事
做好
发言
en@@
根本
房子
2002
阐述
十@@
两者
精确
是从
防@@
儿子
无线通信
物品
体现
病人
六@@
心理
秒
骨
粉末
滑动
群体
民族
举办
比特
醇
动@@
捕获
不得不
由@@
家人
尊重
解码
附件
年度
电子设备
除去
注入
倾斜
st@@
肽
喷射
事项
前述
负责人
柱
太阳能
非法
克@@
隔离
动
切割
纳
es
72
放大
团
轴向
柔性
黑@@
空@@
质
202
登记
交通
回来
叶片
除非
移除
至约
尼@@
采访
思考
16@@
有着
于@@
履行
修复
卫生
58
论文
哈@@
会@@
受体
〜
致力于
消耗
糖
理由
编程
具体实施
根
基地
大规模
主任
韩国
难以
时刻
可靠性
电容
面@@
对比
财政
地点
点@@
信任
极
高压
定期
品
氨基酸
家@@
支出
途径
220
上涨
价
轮胎
1000
更换
视觉
模板
论
尼
远
一方面
意思
拍摄
回收
相位
英寸
树
出售
公布
违反
玩
后来
科学家
青年
专门
致动器
re@@
教授
具备
体育
写入
蚀刻
座
移民
至关重要
事业
召开
延长
力@@
钢
单一
西方
封装
有所
平@@
相机
环@@
高速
壳
al
研讨
61
明白
物流
半@@
矩阵
采购
联@@
公平
感谢
伦敦
意大利
施用
暴力
遵守
铜
轨道
应力
股
α
65
急性
船
桥
注射
下来
现金
界
模具
伊朗
恐怖主义
超声
600
证书
行@@
管@@
13@@
人民币
容纳
推荐
研发
级别
白色
上帝
线路
载波
女士
先前
岛
盒
机@@
早
其他人
最低
感测
监视
en
引擎
放弃
支承
溶解
大鼠
成绩
销
塔
不得
一步
军队
目录
简化
医学
通用
帐户
族
宽
进@@
荧光
橡胶
第一@@
太@@
纳@@
径向
好@@
细菌
股东
事故
53
压缩机
空调
华@@
纳入
特朗普
协定
密码
片段
导体
格@@
球员
展开
箱
邀请
114
翻译
零
核酸
pH
周
105
共聚物
格
排气
兴趣
原子
凝胶
an@@
PC
亿元
基准
横向
血清
很少
类别
中示
损坏
冲击
10%
波动
排出
投票
律师
锁
山@@
操作系统
核@@
重视
宗教
重组
部长
四
铁
总理
显示装置
杀
文献
5%
电动
应@@
行驶
场景
税
老
红色
RF
底
美丽
达@@
无需
公园
心脏
可变
里@@
尽可能
情形
证实
北@@
调度
帮
el@@
保@@
定
自动化
采集
竞争力
哪些
驾驶
卫星
强@@
奥@@
即将
完美
来@@
触发
it@@
名@@
专用
圈
原料
股份
重建
议程
对策
胺
自我
农民
理念
文明
三维
送
奥巴马
适于
比率
精度
减轻
17@@
始终
主动
at@@
供
室温
信用
约束
后续
装
不管
便
症
调@@
慢性
营销
感兴趣
共@@
派
0.5
落实
特派团
Z
39
财产
合@@
敏感
横截面
来到
套
实行
海洋
放电
添加剂
菜单
车@@
建@@
八@@
u
雷@@
条例
75
明@@
总线
放@@
工作组
俱乐部
激励
一半
男性
办
圣@@
陶瓷
合
词
须
作者
东@@
过渡
指控
氢
加载
活性剂
扭矩
z@@
妻子
深@@
平
放
终止
日益
清单
安理会
证
垫
巴勒斯坦
手动
标识符
逐步
定@@
66
原
原@@
呈
掌握
某个
图书馆
维@@
布
男子
电平
小鼠
预@@
石
on@@
很难
每次
学@@
超
沟通
所用
军
空
两次
下午
#
出去
组成部分
第二个
未@@
图@@
沙@@
团体
运作
推广
环形
起@@
指南
别
百@@
and
住房
泡沫
交@@
呼叫
中有
夫
升高
飞行
阿富汗
160
脱@@
观看
发电机
得@@
清@@
社交
依赖
物@@
十年
122
等级
地震
14@@
II
发达国家
分解
微生物
制@@
调用
多次
也就是说
Q
任何人
ch@@
整合
所有人
50%
塔@@
之中
芯
末端
排@@
突然
万元
床
资格
以为
森
相关性
103
负
计
有点
本次
充满
伊@@
前面
公里
办事处
强烈
赛
天然
河
一段时间
联邦
β
并非
许可
令
提示
第二@@
普@@
火@@
干部
MS
披露
AC
地面
血@@
森林
秘书处
票
诱导
引用
零件
警方
哪
随
默认
教
明
厅
天气
法规
更@@
便携式
离合器
张
250
负荷
标题
年@@
极@@
ml
产量
任选
经@@
呼吸
侧面
剩余
下行
期待
关心
真@@
成熟
接@@
布局
受害者
蒸汽
鱼
易于
2.@@
|
商店
情绪
Microsoft
入@@
大学生
此次
微米
组@@
索引
优秀
导向
陈@@
组装
寿命
林@@
初步
经理
or@@
鉴于
高温
海
启用
记得
分量
w
答案
最@@
上市公司
满意
ad@@
奖
发言人
电气
纯化
萨@@
前景
年轻人
身上
配备
毫米
涡轮
环保
ro@@
工
带宽
西班牙
货物
向@@
点击
针
接
可见
里面
口@@
种类
二次
摩擦
权限
穿
电荷
2019
特异性
网@@
遭受
古@@
侧壁
村
不错
nm
美国@@
信心
代@@
统计学
渠道
风格
结@@
上市
感受
所得
婴儿
发送到
工资
30@@
真
解
人群
脚
使@@
浏览器
试剂
营养
生存
Server
膨胀
转型
先@@
此时
聚@@
表@@
衣服
2020
脂肪
跑
战
合作伙伴
木@@
th@@
ST@@
血
分开
宪法
研究所
疫苗
金额
克服
j@@
装备
47
亮度
两组
打算
63
带@@
光电
204
土壤
碱
女儿
店
下跌
诺@@
成就
打印机
成型
更为
蒸发
导航
胜利
混凝土
博物馆
法庭
抗原
大脑
现代化
受伤
气候变化
上方
变更
托@@
安
文件夹
干@@
连@@
今后
体内
不少
框图
官方
排除
大致
集@@
v
房屋
本体
快乐
杯
成形
若干
如今
数@@
莫@@
供电
一张
加大
校准
脑@@
协商
轻松
会员国
之类
一对
阳极
术后
40@@
含@@
饮料
还要
模糊
大陆
正是
海外
苹果
目的地
商
作@@
国外
旧
等离子体
液晶
310
狗
方@@
180
路线
多肽
好处
区别
准则
留下
怀疑
痛苦
天然气
首席
代替
紧急
米@@
观众
后面
游客
贝@@
球队
石@@
样
提@@
强化
餐厅
说话
相互作用
收@@
计量
铁路
难民
靠近
黑色
热量
’
转
am@@
通
转速
包@@
偏移
精@@
直@@
梦想
法官
多层
铁@@
刘@@
上行
艾滋病
长时间
想象
大幅
交互
冷@@
皮@@
82
五个
采样
袋
朝鲜
峰
短期
摩尔
自主
支助
浴室
深刻
她们
头部
公寓
女
一侧
酮
人道主义
战斗
复合材料
案
57
国际@@
创业
坐在
室内
推@@
架构
巴西
导@@
追求
增益
纤维素
St@@
中断
第三方
日志
爱@@
前往
三年
第五
of
织物
靠
50@@
重叠
列出
水溶液
所说
缺点
习惯
涂覆
青少年
要素
认真
厂
116
数学
增@@
le@@
蓝色
置于
ic@@
嗯
IT
网上
品质
有效性
AP
邮件
出于
女@@
不必
氮
怎样
基质
to
浓缩
谢谢
从来
〇
维修
Al@@
百分比
皮
概述
播放
定制
联接
局势
博士
易@@
案例
分子量
周@@
恒定
飞@@
不仅仅
驾驶员
详细信息
回家
电路板
个体
几天
部位
接头
800
眼
从未
建造
1999
视
对准
消失
座椅
滑@@
et@@
74
使用者
杂志
集成电路
章
温@@
神
管理系统
厨房
Ch@@
极大
技巧
无机
光谱
封闭
与其
伙伴
罗
光束
气候
未能
这场
清除
出生
过度
清洗
回应
左
风扇
潜力
68
体制
吸附
航空
49
基材
华盛顿
指@@
提醒
总部
编写
全世界
–
mL
缓解
迪@@
CT
恩
再生
议会
革命
莱@@
描绘
此@@
红
国务院
各方
修订
房
得出
基金会
道德
著名
阴极
立场
递送
预先
税收
台@@
错
五年
el
轻@@
圆形
抑制剂
层@@
南
流动性
迪
各地
控制电路
疗法
贫困
检索
幸福
万美元
舒适
回归
色@@
切@@
肺
多孔
刚刚
重申
名单
他@@
失@@
紧张
持有
提议
仪器
CD@@
董事会
依然
备份
某种
巴基斯坦
日至
处理单元
羟基
爆炸
&
面向
顿
财富
动力学
判定
20%
考试
230
几何
法案
粉
前提
即可
定向
部@@
涂料
信贷
将来
z
缓冲
图标
批评
完
磁场
成员国
凹槽
非政府
伤
700
下游
不利
于是
亿
饱和
巴
关切
附
晶片
画
―
小型
流行
埃@@
1.5
绝缘层
顶
场所
升
71
远@@
业绩
罩
取
卷
博@@
吉@@
冠军
上下文
截至
维生素
伯@@
透露
华
76
冷
客房
睡眠
上部
明天
例@@
ri@@
差距
字符
人体
习近平
建筑物
领先
会话
领土
师
车轮
发生器
95
302
划分
设
后果
订单
静态
期限
接到
灵活
波形
PC@@
汇率
洛@@
登录
接收机
歧视
声@@
其次
物中
些
起到
全球化
倾向
火
病@@
还原
不锈钢
罪
右
赋予
顾问
0.1
晶体
磁性
退出
路由
衍生物
军@@
斗争
深
遵循
聚焦
院
候选人
课
神@@
发起
示意性
层面
100@@
塞@@
25@@
人物
叶
无论是
ab@@
连
倡议
各级
出发
为例
is
在@@
三种
请参阅
取@@
受试者
别@@
探针
模
叙利亚
苏@@
通讯
港
男孩
li@@
CO@@
昨天
担保
兰
自行车
修正
管理器
看法
首@@
花费
kg
足球
农@@
记忆
论述
工@@
配件
外观
2A
库存
SQL
回顾
选定
已有
属
爸爸
司
提前
工程师
加上
照射
互动
形势
五
倒
优质
结晶
排
众多
站点
意
平板
掺杂
再@@
友好
土耳其
相结合
乘客
本书
所在
国内外
种子
1%
改造
瓦@@
认可
丈夫
有益
IL
拉伸
共和国
缔约方
千@@
不够
X射线
路@@
疼痛
联
家里
声称
形@@
×
谈论
整@@
诉讼
劳动
学会
墨西哥
配@@
开启
足以
粘度
as@@
一只
秘密
付款
幅度
59
到@@
参与者
ac@@
银
收购
立@@
国家@@
形象
建模
熟悉
92
发电
义
持续时间
糟糕
装配
矛盾
承载
量化
争议
钙
查找
享有
取向
再现
磁@@
接地
ar
轮廓
或许
缓冲器
探测
饮食
通路
屏蔽
形态
离
已@@
薄
看@@
有权
面前
奥运会
早上
当中
78
感应
硬
磁
制造业
能@@
职位
土@@
打电话
高质量
聚集
异@@
节能
身
截面
托
USB
排名
迁移
乙烯
加热器
烃
西部
敦促
奇
七@@
非线性
对称
看着
认知
向量
远离
泄漏
对照
燃料电池
兰@@
提及
il@@
代谢
111
选@@
一套
le
新兴
记住
负担
节省
坐标
热交换器
扬声器
影响力
说明书
居住
眼@@
世界各地
后者
列@@
时间段
将@@
药@@
自定义
阻抗
短@@
机关
腔室
鉴定
日常
un@@
要@@
辩论
装饰
刚
定时
回路
结
分辨率
运动员
信@@
看见
吸@@
民@@
进而
曝光
水性
箭头
周一
摄像机
照顾
左@@
RS
这件
84
劳动力
九@@
镜
3.@@
扩张
齿
寄存器
电子@@
副@@
冰@@
力度
排列
炎
宣言
RNA
黄金
梁
交联
癌
超级
气流
ag@@
顾客
闭合
冲@@
频道
束
亲@@
印象
com
存储单元
被@@
124
之内
曼
隐藏
IC
太阳
向上
必需
206
依赖于
SC@@
职责
各类
举措
代
同事
商业银行
仪
我能
此处
软
布线
电解质
没@@
棒
软@@
协作
计数
ol@@
股权
士兵
剖析
厚
涵盖
咖啡
患有
前进
身@@
压电
动脉
实证
85
「
越@@
」
转矩
磨损
情@@
效益
姆
图像处理
埃及
教@@
与此同时
用品
1998
龙
这家
本质
201
球@@
处置
多样性
索@@
朝向
OS
00
可是
粘合
金融机构
栅
焦点
互连
不同于
国会
政@@
艾@@
欧元
绩效
出席
规律
is@@
运转
黑
操纵
编制
基层
筛选
步
牌
到底
讲话
轮@@
携带
获
解@@
客人
民间
约翰
装@@
改性
画面
催化
相连
下方
南部
之上
议定书
诺
具
分割
镍
投影
移植
表演
他人
依靠
机遇
断开
变速器
cm
可行
60@@
一篇
稀释
复@@
巴黎
耐@@
丝
药品
邻近
干细胞
侵犯
专@@
忘记
定价
刚性
除@@
常常
收缩
86
试@@
签名
间接
加以
依照
尽快
为主
视角
结婚
Android
受欢迎
公路
活
看来
网页
产@@
320
笔
合法
星
并未
白
字段
予以
不用
笑
键盘
出版
换@@
届
智慧
罐
易
激发
行星
无效
峰值
不好
梅@@
板@@
内存
多数
许可证
下部
凸轮
任命
滤波
上午
集体
职能
212
共识
伙伴关系
缓慢
侧@@
鲁@@
传@@
螺纹
AP@@
工序
娱乐
胶
乙醇
年底
AD@@
至@@
腐蚀
区分
用以
定量
转让
广大
毛@@
电位
CD
枪
载
广@@
致
新加坡
线@@
谱
留在
告知
118
连通
编码器
泰@@
专注
地板
受益
修饰
电子商务
资助
第二次
知识产权
制冷剂
频带
周边
理@@
表格
SP@@
一级
81
公正
远端
以往
00@@
音
儿
区段
遭到
供@@
麻烦
央行
著
积累
矢量
‘
132
租赁
向下
酒
01
昂贵
询问
满
想到
图表
危害
垃圾
缩短
丢失
2%
定子
做@@
物种
中所
概率
引@@
用户界面
刀
班
假
抱歉
借助
航班
极端
静脉
腿
减@@
右@@
发射器
施@@
谈
好像
次数
日电
木
吸入
终于
筒
96
和谐
庆祝
Facebook
Si@@
分支
两名
编号
字符串
304
艺术家
变动
公式
30%
制裁
削减
快@@
镇
党@@
骨@@
导入
实@@
em@@
玩家
矩形
英里
卖
一周
得以
交叉
一路
API
零@@
池
锂
思维
位移
240
恶化
170
是不是
符
遗传
经济@@
瓶
轴@@
®
激烈
省@@
并发症
情
周二
脚本
均衡
史
混@@
67
调
源@@
掩模
实质
及@@
or
变压器
队伍
防治
气缸
一体化
帕@@
存款
沟槽
星期
权益
害怕
哪个
福利
千年
应急
410
一段
嘿
见到
外面
丁@@
as
汉@@
求
螺栓
首都
碳原子
IN@@
少数
补@@
菜
意外
钢@@
串联
电磁
毒品
节@@
紧密
清晰
氟
二氧化碳
报@@
联网
协同
人工
甲@@
到来
走@@
`
墙
第三@@
粮食
盈利
颜料
繁荣
外交
AT@@
赔偿
115
管制
落
监狱
涂布
服装
杂质
执法
之下
值@@
打造
萃取
关
周三
嵌入
低温
头发
委
生效
放松
氨基
AC@@
经济体
94
惊讶
Re@@
Sh@@
端@@
流入
id
泰国
产
保健
提
突破
离@@
美好
两国
并@@
周四
CP@@
优先级
73
牛
希@@
切
供应链
肉
第十@@
说法
上游
审判
体重
适配器
同学
位@@
家长
地说
谈到
建
4.@@
出色
凸缘
sh@@
黄色
菌
网格
R2
杀死
收益率
胶@@
丙烯酸
学者
看出
有源
Al
担忧
见@@
隐私
南非
阻碍
2.5
1A
回报
近期
希腊
因@@
胰岛素
兄弟
超出
IS@@
独@@
周五
前体
地理
实力
梦
纯
活@@
水中
熔融
明年
抓住
负债
网关
手指
评分
详细描述
战@@
防
创作
近@@
迹象
隧道
草
ou@@
密切
书@@
可选地
常用
北部
iPhone
CPU
综合征
等@@
伴随
气氛
密@@
烟@@
存@@
然
磁盘
人生
品种
胡@@
购物
警报
um@@
208
价值观
此前
像是
导线
全新
暂时
道@@
老年
高频
为期
解码器
管理员
六个
选取
肌肉
提案
便宜
脸
湖
学科
报纸
松@@
土
中小企业
常@@
不幸
换句话说
司机
螺旋
100%
靶
高达
几种
索
富@@
前后
XML
脱离
平民
88
痛
英@@
碰撞
拘留
at
勒
电子装置
尽
往
运营商
进气
市@@
片材
情感
石墨
关@@
日子
分区
分发
偏置
$
树@@
持
官
工件
很@@
采取行动
领@@
染料
甲醇
深化
热塑性
老年人
镜头
劳@@
沉淀
爆发
库@@
套筒
婚姻
态
瘤
相当于
出台
度@@
王
演讲
机理
色彩
3%
上周
脑
加剧
杜@@
链@@
不良
董事
AR@@
暂停
永久
器官
观念
－
病例
402
刑事
素质
it
调控
活跃
债
客
股市
广州
核武器
射频
夜
RE@@
速
礼物
AS@@
折叠
可为
半径
中以
经济学
方程
红外
吸引力
肝
伦
集群
象
学术
氧气
文学
可选
亦
堆叠
便利
浪费
1997
额
命名
食
自从
mmol
半导体器件
清
ent@@
智能手机
醚
或是
交付
电网
最小化
炉
游@@
改革开放
原来
境内
承受
公告
江
克斯
退休
高血压
密封件
衡量
市民
插@@
人力资源
云@@
年前
98
跨
横@@
极性
种植
不久
街
无关
信息化
以此
80%
随时
ur@@
主管
少@@
乐@@
犯
一体
读出
任一
东部
楼
CA@@
热情
补贴
涡轮机
周末
固@@
赛季
货币政策
过来
麦@@
第六
锌
电信
货
起始
彩色
金融危机
喝
户
MP@@
东
id@@
90%
可怕
标准化
内燃机
淀粉
每日
龙@@
77
不变
民众
喷@@
改@@
二氧化硅
蜂窝
他会
反向
信号处理
关节
中东
塞
坐
GPS
个@@
器@@
怎么样
差别
拍
中将
125
填料
一辆
对方
有没有
较为
通孔
士
盖@@
点火
4A
核苷酸
水果
BS
经典
突变
优异
瑞士
胶囊
奇怪
限制性
井
毒性
导弹
质@@
In@@
乐
死@@
3A
河@@
净
紧固
互@@
银@@
直线
om@@
蔬菜
us
费@@
老人
合格
本周
互相
展
热处理
传导
老板
布什
深圳
GDP
度量
管线
朝
晚
事物
孔@@
彻底
2a
还会
其余
底@@
差@@
es@@
教堂
什么样
神经网络
预后
荷兰
对话框
钛
收费
种族
超声波
艾滋病毒
酸@@
封@@
杂@@
99
欧@@
休息
弱
编@@
下述
它会
传动
忽略
跳
转换成
未经
脂肪酸
追踪
波束
生物学
Google
信息技术
主流
福@@
活化
调色
贫穷
那种
耳@@
IC@@
探测器
121
蒙@@
促使
生理
et
常
圆@@
正交
钠
沟道
Ma@@
降
即@@
规格
突起
落@@
揭示
园
早@@
冰箱
候选
渗透
螺钉
决心
卢@@
消@@
分数
威@@
频谱
燃油
油墨
91
变革
志愿者
江@@
采@@
大气
一带
对待
副本
列入
计算机系统
废气
茶
激光器
200@@
磁体
条@@
警@@
身边
现@@
分析师
杰@@
初级
同志
周日
想@@
近日
杨@@
弗@@
一支
办理
区@@
盘@@
言
MS@@
缓存
电梯
控件
PD@@
新鲜
新西兰
前端
依法
授予
社会@@
移位
水分
增速
帽
污染物
简称
失性
for
运算
越南
分化
霍@@
兼容
伊
署
就要
一个月
测
每种
一端
分歧
夹
毒@@
武装
乌@@
队列
乙酸
康复
外侧
将要
83
PE@@
委员
标@@
偏@@
参@@
罪行
引线
此后
发育
每月
运@@
雷
食@@
假@@
平坦
坚定
电介质
争取
炎症
导出
ul@@
透视图
求@@
权@@
灵活性
仪式
烧结
假定
甲
飞
占据
控制@@
文字
支
尚
偏振
载@@
血浆
ia
坏
下去
126
康@@
羧酸
维
卧室
别的
紧@@
配
1995
毕业
陷入
ap@@
恐惧
顺@@
参观
23@@
谷歌
损耗
秩序
净化
一台
1996
期权
满@@
不确定性
兹
船舶
活力
每周
意@@
投@@
微粒
目前为止
照相机
综述
研讨会
娜
注
并用
赛@@
为止
伊斯兰
子系统
区块
min
分布式
us@@
敌人
基体
im@@
烯
经费
抗议
CPU@@
金属@@
举例来说
路由器
作家
青@@
缺少
绕组
驻
基座
杠杆
运
分裂
配有
107
表征
阀门
雷达
80@@
ed@@
CC@@
ation
限度
法治
注重
视@@
5.@@
考察
一部
兵
III
至图
企业家
币
SE@@
IR
网络@@
阿拉伯
对外
IP@@
窗
听@@
控
占领
磨@@
乳腺癌
周年
骨折
发布会
信令
波导
安置
洗@@
缩小
型号
时尚
复苏
干净
有害
频繁
模@@
理
无线网络
音@@
一块
05
约会
亲爱
AR
打破
测@@
光盘
草@@
当代
起诉
体外
氯@@
查@@
小说
ra@@
衍生
﹑
总量
今晚
Th@@
RA@@
卡车
量子
24@@
时段
av@@
.@@
漂亮
手柄
猫
腐败
花园
350
这份
接入点
op@@
0.01
量@@
零售
计数器
标
住宅
吨
滚动
中国政府
背后
向前
这会
一批
当天
UV
弹性体
街道
距
报告员
烯烃
很小
演员
瓦
128
降@@
SS@@
与@@
便于
初始化
浏览
附着
载荷
乡村
02
谐振
民
层次
期货
直至
程
不了
听说
藏
交易所
航空公司
幸运
最优
研磨
峰会
缸
触点
摆脱
左侧
难@@
阳
组中
硬@@
化学@@
ate
药学
普
升@@
齐@@
2B
水解
命运
省略
家族
病变
亮
示
示范
细@@
指向
一层
种@@
矿
PCR
聚乙烯
针@@
失望
PS@@
菲律宾
CH@@
调节器
and@@
少量
土著
逆变器
可行性
镁
Sp@@
世
用水
衍射
话题
中说
多么
客观
政党
家具
交通@@
折射率
信托
聪明
聚氨酯
牺牲
雪@@
字节
去@@
星@@
罗马
致动
更是
人工智能
温度传感器
清理
6.@@
轨
有力
主权
900
脚@@
思路
一句
信用卡
档案
切实
一生
随@@
氯
感知
增殖
R1
助理
管状
CS@@
型@@
克隆
读者
优惠
处@@
马来西亚
电阻器
乌克兰
怀孕
观
动机
ut@@
右侧
报表
烟
宿主
余@@
叶@@
磷
英雄
碳@@
造@@
环节
团结
教练
根@@
蓝@@
噪音
归@@
总额
客户机
40%
古巴
散@@
404
梯度
对手
日前
300@@
立
条目
IS
号码
研究进展
鞋
培养基
要么
降解
沿@@
ir@@
斯特
睡
港口
奖励
多媒体
字@@
ID@@
名为
累积
艰难
顺利
绕
异
固态
使命
数据传输
附接
玩具
1990
1994
带到
何@@
事@@
真是
可爱
抓
实
±
套管
偏差
抵押
明星
发酵
展览
端的
虫
制订
忙
对齐
圆柱形
射@@
超越
印@@
赫@@
歌曲
ec@@
Amazon
葡萄糖
排序
浮@@
足
课题
竞选
退@@
第二天
上文
全局
麦克风
永@@
行使
发生率
政治@@
锻炼
季
议员
找出
校园
预订
剖视图
交
目
信息处理
圆
小心
美联储
哲学
防护
粘附
拆卸
厘米
进料
息
养
效力
走向
破产
写@@
灾难
变体
对抗
附属
轨迹
度过
微波
意愿
使用寿命
一座
评级
AN@@
中期
510
阻力
国际法
宝@@
本国
逮捕
乳@@
数字化
救
复杂性
C1
校
换
起动
的确
丝@@
考@@
角@@
主张
审核
六
透明度
平均值
兴@@
支@@
共有
白宫
例示
数据流
付
绘制
306
火车
管理局
聚酯
碱性
酒@@
储备
农产品
301
翻@@
写道
禁用
CC
电池组
更高
205
子宫
69
风力
自愿
宇宙
二维
止@@
质疑
信仰
面部
承@@
朱@@
植入
4%
移
阳光
中文
转印
大大
共和党
确切
选民
折@@
瑞@@
ME@@
元@@
经济社会
击败
停@@
锡
凯@@
含义
1.0
os@@
何时
硬度
触摸屏
意图
居
玉米
海上
能否
慢
治@@
穆斯林
有时候
简要
并行
加权
毕业生
市场经济
太平洋
减压
设想
水泥
只@@
创意
武@@
Ar@@
初@@
激素
计@@
Apple
观@@
co@@
成人
mo@@
亲
职工
散射
微型
置
上诉
214
DM@@
界定
氧化铝
ot@@
湿
抽@@
积分
沃@@
报警
行动计划
150@@
英尺
加压
～
谢@@
亿@@
UE@@
330
具体地说
说@@
算
果@@
刀片
路上
位点
这座
淋浴
奥
抛光
移动电话
阳性
借助于
带动
阳离子
电能
一款
城@@
son
穿着
肌@@
乙酸乙酯
变为
待遇
生态系统
存
基因组
公知
黑暗
线程
间距
期@@
英文
93
猪
强制
开心
出血
很棒
Si
聊天
委托
海军
IT@@
手册
首脑会议
馆
世界杯
歧管
借鉴
实质性
有望
安全@@
分成
苯
炸弹
巩固
多边
收
现行
场@@
Internet
酒吧
跳@@
Co@@
早餐
ly
ent
愿望
鼠标
存储设备
房@@
代价
URL
服
钥匙
乐观
黎巴嫩
演示
配方
锁@@
国王
脂
渴望
病理
呆
否认
树立
硬化
铜@@
桑@@
动画
胸@@
挤出
转发
142
融入
众所周知
持久
判决
MAC
SD
送@@
加速度
US@@
广场
第二十@@
面上
苏丹
说道
应答
113
下文
总数
练习
2.0
内侧
修@@
温
惩罚
味
切削
中继
奇@@
中是
吴@@
纸@@
商业@@
会员
入侵
护@@
击
冰
色谱
完整性
大使
马上
母@@
功能性
估算
光线
贵
8%
摄影
结算
化疗
同一个
制动器
查
磷酸
必然
错过
谴责
主持
70%
演出
份额
发送给
细
多于
世@@
CT@@
液晶显示
行程
恩@@
空中
承包商
迫使
人力
有机溶剂
互补
朝@@
汽油
控制台
个人@@
纯@@
至今
蓝牙
PS
科索沃
Java
数据处理
断@@
早些时候
接通
准确性
Tr@@
干涉
502
......
灵敏度
击@@
懂
衰减
举
134
ti@@
克林顿
桶
一是
权重
si@@
蒂
湿度
解析
两天
粗@@
校@@
游
酸性
挂
背@@
夜@@
包围
赢
煤@@
60%
IO@@
团@@
28@@
素@@
那时
小学
北京@@
基片
谨慎
疯狂
介入
高速公路
注意力
周六
垂直于
插头
Pro@@
复合物
中国共产党
6%
报价
丁
复位
付出
只会
按@@
备选
舞台
停
关税
现
420
申请人
去世
交换机
疲劳
RFID
时隙
疫情
代表性
高中
流通
边@@
愤怒
灵魂
高等教育
模制
数据中心
光伏
检察官
Li@@
肺癌
润滑
lo@@
图象
减
ST
液@@
肉@@
春@@
9%
手中
解决问题
7%
至于
计算机程序
203
11@@
苯@@
电场
暴@@
煤
轻
适宜
牛@@
签订
这儿
坚决
变换器
铝@@
围@@
可编程
哺乳动物
环境保护
班@@
数据包
社
雨
望
养@@
买@@
PO@@
360
取出
26@@
极限
毕竟
民主党
所有者
微软
试点
瑞典
地下
蓄电池
偏好
爱尔兰
2b
氧@@
院校
字母
最为
远远
射线
内在
平滑
断
ig@@
答复
抵抗
低压
ma@@
西藏
雇员
反复
吸烟
纠正
欧洲联盟
生产力
透射
需@@
0.0@@
环氧树脂
直流
∶
佩@@
到期
扮演
四年
松
显示屏
博客
国民
读@@
切断
索赔
岩
旁边
观测
城镇
书面
相等
救援
本人
细长
焦虑
25%
很长
An@@
残疾人
接种
姓名
熔@@
5A
背面
保险公司
踏板
两侧
87
1B
探@@
顶@@
配置文件
捕捉
换能器
大众
葡萄酒
剥离
铰链
雇主
高端
弹@@
洗
应变
j
年来
插座
致@@
领袖
但@@
岗位
0.2
螺母
过量
滚@@
鸡
IA
η
对不起
空腔
数字@@
汇@@
因特网
ak@@
设计师
500@@
驱动程序
湾
一类
卷@@
啮合
指示器
LC
外科
尿@@
离散
尾@@
纪念
ers
阻挡
ad
PA
多名
述
仲裁
乱
抵达
贩运
肾
扩增
太空
思@@
制约
提名
氏
得分
─
格局
暗@@
不饱和
二者
原材料
体育@@
CA
硫
振荡
虚拟机
落后
ii
立体
海滩
AL@@
曲
当今
患
步@@
ow@@
管理@@
破@@
男@@
吃@@
生物@@
70@@
局面
审批
糖@@
外周
文书
推迟
进来
付费
万人
把握
热点
交谈
一致性
qu@@
导电性
非易
最多
个性化
挤压
混乱
预处理
被迫
充足
占用
废物
贴
第四@@
么
伤@@
曼@@
伦@@
ter
实用
22@@
两岸
底座
CP
CO
流速
IM@@
留@@
DE@@
偏离
1993
文化@@
夹@@
二十@@
统治
雪
显影
sp@@
7.@@
幅
并联
死亡率
漏
DVD
汽车@@
北
救@@
27@@
之所以
丽@@
唐@@
宁
桥梁
仔细
优于
执行官
这部
竞争对手
附@@
灯@@
单词
夏天
以使
微处理器
语@@
家伙
流过
温暖
圆周
RAM
地被
嘴
个别
利息
GB
试
必@@
硫@@
当选
一所
较@@
分段
香@@
152
古老
北京市
表中
广东
行政@@
总书记
液相
记@@
拿到
15%
1.2
鱼@@
志@@
残留
109
无疑
一群
职业生涯
口服
选自
扣
耳
估值
于图
拓展
夹持
次级
保
地为
萨
全省
弹
灰色
层叠
化学品
服务业
绿@@
主导
Mar@@
各种各样
di@@
类@@
平稳
解除
建成
选项卡
pro@@
势
收发器
翼
维度
近似
SA@@
优良
隔@@
洛
一次性
从中
爱情
嵌入式
愉快
广泛应用
硅@@
确立
装载
所作
血压
投
内地
研制
全体
卫@@
工会
整数
助@@
指责
指纹
会谈
TE@@
截面图
悬挂
记
鸟
SC
双向
推
纸张
系@@
产能
感@@
高速缓存
新能源
LTE
这使
影像
百分点
投诉
风险管理
洛杉矶
宪章
插件
雅@@
培育
am
杆@@
该项
视野
存储介质
静电
新疆
操作者
阿
MA
灰@@
脆弱
短路
发射机
更长
女子
默@@
联赛
太多
预设
转录
乳液
崩溃
不必要
井@@
茶@@
中部
鼻@@
中空
以期
胃@@
服用
HE@@
控@@
追@@
最大化
夏季
重庆
忘
宽带
222
表达式
赞赏
磋商
CE@@
困境
写作
侧视图
厚@@
凸@@
泡
剪切
79
凋亡
雨@@
调试
订阅
贴@@
氨
芳基
富有
扎@@
支柱
基部
创@@
管理人员
EC@@
义@@
上限
季节
氢@@
惊人
争@@
增长率
约@@
经济学家
本来
两人
粒径
正面
凹部
假期
签证
开车
抗生素
脱
容@@
书记
结果显示
辛@@
RT@@
登@@
BA
SD@@
挖掘
所属
停车
差分
知
破裂
引进
吹@@
穆@@
增进
回复
送到
97
下滑
钾
进度
简@@
收取
针对性
考核
几十年
理性
高层
检@@
CR@@
抱怨
灌注
致命
放缓
阿根廷
迭代
IP地址
发放
直
浆
试样
参议院
强劲
BP
系统@@
ay
马克思主义
内置
技术@@
教会
提取物
在下文
党员
免受
MO@@
大概
中央@@
ev@@
PA@@
断裂
波兰
旧@@
苯基
局限于
中华人民共和国
久
tion
不愿
罚款
盐@@
一边
截止
品@@
初
牙齿
心脏病
公务员
35@@
茨
地质
医疗保健
中学
灾害
商@@
以至于
吊@@
紧
尽@@
粒
透过
栏
满意度
沙
大国
充当
剩下
难题
资源管理
题为
低成本
光栅
车型
样子
负@@
增
安静
严@@
中方
衣@@
纹理
科技@@
情报
水溶性
显@@
囊
交替
篇
紧固件
子女
主义者
6A
wt%
搞
内涵
SA
名义
金钱
车身
响
氮气
可用性
合约
自杀
边境
遗憾
陈述
非正式
3000
高性能
粒度
子集
耐
敏感性
获悉
股价
辆
所有权
联系人
广
弄
金融市场
串
烟草
如上
AS
ff@@
博
备@@
机械@@
照@@
静@@
商务
失业
中性
无限
工业@@
急@@
盐水
焊盘
有线
oo@@
沉@@
数据@@
层中
东盟
312
待@@
托管
英格兰
外围
招聘
血糖
材
容积
环状
夹紧
普及
换言之
愿
正义
LCD
保险@@
外汇
睡觉
通风
la@@
歌
服务@@
失效
摧毁
凸起
双重
竖直
三次
MHz
档
ay@@
季度
谈谈
大力
的@@
LE@@
会见
苏格兰
托盘
肝脏
酚
依次
玛@@
曲@@
ppm
电线
学家
友谊
显
住院
口腔
甘@@
双边
必要性
多元
迄今为止
场合
邦
溶于
自信
年初
通报
邻居
@
氛围
游泳
韩@@
决赛
宝贵
营
背
阻@@
图中
限@@
作物
私营部门
官能
景观
摄像
间@@
务@@
巨@@
牙@@
托架
那天
市长
308
260
悬架
刚才
发达
约定
私@@
着@@
长大
啤酒
反恐
IV
退火
某@@
发展趋势
悬浮
卫生@@
黑人
传感
禁@@
配套
粉@@
粗
休闲
触@@
防御
继承
气相
工作者
悬浮液
喷墨
负极
夫人
显得
惊@@
资
展现
Exchange
依@@
89
区间
国债
衣
绝@@
传达
二是
发病
毒
拟
ic
未知
业@@
玻璃@@
SO@@
福
科学@@
q
二级
分层
RT
对接
盐酸
um
苏联
兼
乔@@
防范
惠@@
酰胺
振荡器
护士
样式
奠定
黄
月底
主办
开支
认@@
画@@
火灾
8.@@
处在
残基
控制阀
英
次@@
检
题
ex@@
人会
氢气
失踪
研究生
神经元
粘结
营业
忽视
讲@@
胃
社会保障
诸多
闭@@
肠
斜@@
式@@
分离器
航
了@@
电器
今日
呃
论@@
氟@@
缺失
作战
少于
时间表
海关
讲述
牛奶
料@@
勒@@
速@@
宝宝
洞
窗户
04
钱@@
更具
连杆
捐款
电信号
兴奋
频
冷却剂
耶稣
朝着
阴影
感情
业主
此基础
冒险
净@@
1992
研究院
CS
妊娠
4a
Linux
莉
发生变化
刷
当事人
131
可视化
晶@@
丧失
桌子
言@@
田
ch
人民政府
EL
跨@@
时光
如图所示
慢慢
讯
DS@@
富
紫外线
月@@
AD
4B
借@@
5000
216
散热器
con@@
任@@
烹饪
处罚
鼓@@
语法
主意
上半年
先后
倒@@
屏
一道
曲轴
支持者
ity
缩放
老化
夹具
职
神经@@
导
余额
染色
裁决
职务
art@@
十
450
插
充分利用
3B
不应
收获
转基因
戴
杂
拯救
封
多项
运送
旅游业
man
煤炭
子公司
聚丙烯
阴@@
地铁
婚礼
坐@@
NA@@
节约
汽缸
新闻@@
生长因子
欣赏
藏@@
跨越
MT@@
冗余
专项
突@@
片@@
走进
境
裁军
移动装置
发作
乔治
继电器
被捕
病症
庞大
柜
谈话
136
401
家中
跟着
令人@@
整理
求解
层压
争端
监视器
自由@@
190
村庄
漏极
成都
天空
406
日常生活
变型
显而易见
耳机
冬季
尸体
伙计
时序
ey
610
临@@
丙@@
废水
两端
回流
增压
S2
薪酬
国防
肥胖
切口
重构
指针
分配器
回去
目@@
每一
许@@
乙基
柴油
新华社
印度尼西亚
冲洗
配体
划@@
景@@
夫妇
RO@@
卖@@
政权
缘
埃
铬
守@@
CO2
夏@@
润滑剂
PE
陆@@
振幅
水资源
另一端
衬垫
生日
董事长
TP
菲@@
第三个
同比
分泌
伤口
套@@
滴@@
ine
木材
房价
CL@@
95%
香
那儿
照
小姐
展望
夫@@
微笑
累计
困扰
缅甸
胜
绑定
国际化
信息系统
彩@@
肾@@
3a
拟议
锅炉
行进
信号线
烷
恶@@
方框
漏洞
错@@
例外
多元化
正极
几次
尖端
MP
9.@@
硬盘
农
新增
不良反应
移@@
专题
激@@
认定
振@@
几周
喷射器
尿
开发人员
酒精
烧@@
截@@
SS
带领
心血管
堆
领导者
群@@
穿戴
高水平
群岛
真菌
祖国
登
结构性
摩托车
最早
电视@@
功效
毛
ie
03
霉素
游泳池
挪威
科学技术
扭转
储@@
恐怖
尼日利亚
web
不可避免
俄
蒸发器
丙烯
宏观
累
燃烧室
终@@
90@@
贵@@
南方
最大值
1000@@
文中
锥形
美国政府
贯彻
信息@@
印
止
墨水
小麦
座位
节日
狭窄
测试@@
答
商定
SP
修
充分发挥
流出
暗示
涂@@
尾
乳
导通
挂@@
薄片
剧
活着
固有
}
桩
混
{
硅烷
澄清
农场
os
蒂@@
传
按压
丽
手势
3.5
123
海岸
RP
大楼
杆菌
走出
摄像头
教导
本届
SI
比重
多样化
设法
发动
宝
真相
扫@@
你好
空白
温室
基本@@
阴离子
成年人
创
莫斯科
ing@@
卩
免@@
书籍
时说
广阔
延@@
冷冻
探头
流离失所
矿@@
国有
虚@@
知@@
ve
碎片
置@@
北约
被动
充@@
世界银行
光学系统
田@@
锂离子
结构域
室外
纲领
刚度
为何
鼠
进去
pp@@
昨日
改为
罕见
日内瓦
注释
电动汽车
最快
务
国有企业
国民经济
纵@@
粉丝
聚酰胺
过于
前言
尽管如此
近端
船@@
东京
球迷
还@@
航@@
多家
雾
周期性
静止
原油
公共@@
管理层
调研
算@@
张力
尔斯
电化学
all
笔@@
交给
分级
玩@@
局@@
Cu
采取措施
进化
文件系统
接纳
MA@@
一片
绝大多数
上下
居@@
债权人
科研
晓@@
副作用
602
144
珠
2D
多达
备用
两位
菲
0%
两倍
皇家
财政@@
索马里
类似物
504
少数民族
步伐
虐待
怎么办
ard
散
指挥
飞往
讨厌
产出
强迫
蒸馏
政
盛@@
蓝
与会者
城乡
军事@@
栗
险
1a
群组
官能团
英镑
分隔
粘@@
铝合金
准
精神@@
滥用
天津
戴@@
员额
杂交
旅客
知名
古代
凝@@
选手
替
最具
银行业
汤
肠@@
课堂
醛
职@@
占@@
用量
散热
135
改
牵@@
浴缸
大体上
吹
医@@
Office
中等
证@@
负面影响
改良
毫升
340
经受
高职
服务提供商
嫌疑人
挡
拖@@
八个
29@@
网友
工业化
MC
亚马逊
广西
乙@@
一者
化妆品
PT@@
审
Mac
分析方法
总经理
教育@@
多功能
钢板
宽@@
m2
听取
村民
设在
第一层
吹风机
哭
再循环
长期以来
要是
脂@@
抽吸
人均
岩石
充气
共同努力
分析法
世界@@
焊@@
偏
乐队
穿@@
显微镜
力学
姆@@
薄@@
浅@@
膜@@
一方
哮喘
再生能源
益处
尺度
受损
涂
赞扬
偷@@
胆固醇
色谱法
吃饭
1.1
MC@@
解密
统计数据
岩@@
520
买方
磅
上个月
主人
墨@@
键@@
硫酸
增量
Cl@@
阻
宗旨
洋@@
否
事先
阿尔@@
公
柱@@
DS
上传
滤@@
消化
沮丧
创伤
三分之一
刻@@
餐
地示
CF@@
堡
拉丁美洲
缓冲液
浙江
肺炎
成千上万
回忆
征@@
介于
残余
eNB
眼镜
指明
人民@@
寄@@
TFT
经销商
起点
命
UI
有限元
麻@@
外国人
tr@@
学位
洗衣机
液滴
宏观经济
座@@
削弱
电感
货@@
MD@@
引物
聚会
刺@@
植入物
自然@@
状物
连接件
窄
客@@
The
AI
通胀
信念
虚假
全市
湖@@
医药
TO@@
游离
赵@@
以太网
旋@@
包裹
后部
起草
激光束
铅
ROM
主持人
来讲
数据源
提起
驱动力
HTTP
溶
有序
储蓄
硅胶
味道
野@@
果
丹@@
几分钟
任期
心里
第三次
即便
宽松
二进制
隔开
哈
电视台
光子
加沙
大多
毫无疑问
误@@
哥伦比亚
弥补
化工
注射器
放入
屏障
销@@
提供商
减速
舒服
211
波斯尼亚
隔膜
生态环境
谋杀
容忍
日历
调谐
软管
O2
旋转轴
火焰
喜@@
批@@
往@@
高精度
浆料
四川
配制
桥@@
艺术@@
尽量
开设
il
微观
别墅
生产线
首
说服
句
生产总值
葡萄牙
极化
国际贸易
三大
见面
没什么
柱塞
问@@
平方米
自豪
准@@
表面积
征收
有个
零部件
多人
举@@
高度重视
圣诞节
抓@@
自治区
中华民族
荣誉
积@@
难度
和解
洪@@
梁@@
影
切除
某人
不适
CH
汽@@
孙@@
生命周期
1991
此种
凹陷
C2
救济
苦@@
电话号码
看待
极其
无论如何
eg@@
导演
0.3
法定
第一步
戴尔
剪@@
违约
稍后
ind@@
院长
屋顶
36@@
违法
器械
汀
终端设备
气泡
欺诈
钩
R3
标的
共用
紧凑
俩
乡
Mo@@
姿势
产品质量
立体图
纪律
语句
步行
丹
期内
PL@@
IBM
说明性
IF@@
伴侣
空穴
甲苯
这笔
销量
复兴
另有
物料
戈@@
剥夺
自由基
洗脱
拾取
旁
A1
新生儿
成效
健全
摆@@
赶@@
悬@@
齐
公共服务
杀害
球形
治
晚餐
羊@@
这时
淡@@
日起
或非
共和党人
后期
级@@
多元醇
观察员
S1
偏转
执政
Ti@@
市场化
Oracle
入射
恐怖分子
拓扑
肋
多核苷酸
操作员
士@@
保守
TV
短缺
缩
HTML
生产率
笔记本电脑
想起
视网膜
胆@@
一本
06
有效率
限
冷却器
应付
纠纷
伪
韦@@
430
出租车
向导
渲染
失
社@@
播放器
舒@@
首页
DL
所选
伯
PD
养老
PP@@
ms
州市
上时
预警
一间
商标
山东
令牌
出版物
把手
导轨
一流
通式
VM
桌面
启动子
靶向
丧生
MR
电感器
请@@
价格@@
遭遇
赫
录
办@@
六个月
摩@@
看上去
贾@@
就@@
玉@@
变速箱
更少
境外
数据结构
给@@
毒素
依赖性
L.@@
乙烯基
防水
舱
空闲
稿
微波炉
建筑@@
120@@
会上
跟随
英特尔
偿还
演@@
久@@
顶级
展@@
扶贫
适@@
躺
盖子
34@@
Con@@
珠@@
乐趣
ver@@
痛@@
体系结构
Ni
重新启动
表决
各位
范@@
中为
粘结剂
充电器
各个方面
秘书
引领
精力
NA
232
解调
负面
食品安全
AT
车道
短暂
抱
恰当
卓越
保护层
宁@@
演变
布朗
威
鼓
PDF
直升机
唤醒
总共
冻结
复用
第二层
时机
RA
材质
脂质
图案化
管路
专辑
魅力
称之为
肺@@
票据
受控
燃气
丹麦
优@@
OH
资@@
溶@@
残余物
比利时
民生
SW@@
吉
开发者
伸出
ell
派遣
叠加
不论
权威
发挥作用
钻@@
若@@
浮动
遗产
筹资
丁基
相干
饼
钴
神秘
套件
参议员
财务报表
前部
菌株
创始人
保罗
环氧
VI
SEQIDNO
码@@
不但
亏损
重置
结构化
药剂
est
敏
飞行员
初期
徐@@
Cl
并入
外交部
仓库
史@@
置换
启@@
手表
高管
菌@@
操作@@
08
胚胎
七
齿@@
众议院
网络安全
氮化物
L2
并购
饲料
然@@
研@@
停留
爆@@
什
股@@
一根
环境@@
224
pl@@
驻@@
介导
／
示范性
两周
钉
票@@
焦@@
路面
试剂盒
促
冠状动脉
熔化
东帝汶
修正案
ob@@
滚筒
公斤
钻石
异氰酸酯
润滑油
一行
绳
应有
末
却是
甜@@
塑料@@
酷刑
DP
申@@
法律法规
线缆
颁布
NET
南京
如同
进一步提高
戏
晚期
联合会
官@@
汉
言论
5G
离婚
武装冲突
宠物
抢@@
解锁
高科技
推行
剧@@
谐波
见图
住宿
滴
营造
od@@
12.@@
男
景
方针
闪烁
挺
凭证
江苏
自治
触觉
好好
严峻
重力
恒@@
鲁
上学
影片
着色
心中
解决办法
较佳
血小板
10.@@
根据上述
浸渍
制止
305
利比亚
证人
勇气
扎
媒介
固件
核准
诚实
某种程度
燃烧器
L1
京@@
七个
赚
调制器
微信
折扣
苯乙烯
隆
牙
age
270
触发器
效
略@@
价@@
二氯甲烷
凭借
记载
餐馆
染色体
填@@
氧化@@
穿孔
铸造
火箭
有线电视
mRNA
状@@
北美
Manager
车载
办公
模块化
长远
铵
笔者
常驻
考
生气
冲
款@@
父
巧克力
装有
医师
梦@@
凡
蒸气
两家
筹备
到位
一代
基线
发行人
ep@@
湿@@
稳@@
外界
增多
健身
年内
制冷
故意
法语
刀@@
Su@@
舞
经济效益
强有力
存放
Sc@@
怀@@
反弹
患儿
市场@@
三名
逆
身份验证
输@@
昨晚
1200
垫圈
现金流量
妈
春节
生意
船只
SL@@
发明人
愚蠢
消毒
阐明
鉴别
MRI
通货膨胀
裂纹
162
标准@@
局长
犹太人
道歉
厂家
教学@@
话@@
议题
固定资产
浅析
菜@@
VR
当年
6a
妨碍
公允
这名
劳工
丙烯酸酯
面包
梅
甲烷
厂商
总成
辞职
淋巴细胞
率@@
这类
程序@@
唱
星期五
列车
end@@
港@@
售
款项
毁
曲率
除此之外
选中
卖方
TCP
三天
反射镜
构型
Ad@@
绿
交往
吸
救助
器具
〈
香港@@
东方
值得注意
母
移交
信标
销售额
^
利用率
预览
墨
螺杆
杰克
李
切片
切除术
孔径
挥发性
故
之际
钢铁
核查
串行
省委
维尔
频@@
骑
退化
卸载
友
A股
De@@
象@@
IN
定时器
惯例
雅
日报
配对
州@@
巴勒斯坦人
公认
虚线
应收
枢转
舞蹈
灰尘
功@@
自然资源
剧院
英语@@
γ
瑞
考验
尚@@
地带
冷凝器
片剂
键入
没事
一般来说
拆@@
源自
浸@@
RC
灵@@
存取
床@@
ter@@
难以@@
借
祈祷
贯穿
捐赠
1500
Car@@
物资
心理学
财政部
民主@@
151
平面图
射
涉@@
破
仅@@
UL
Fi
示意
稳定剂
含水
善@@
芯@@
S3
偏压
停车场
借款
are
功耗
迷你
迟@@
嘉@@
稳
订购
影@@
几
莎
油价
持@@
人为
常数
甘油
全年
314
既然
序
屋
失业率
侵害
蛋糕
胎儿
开采
席位
一个@@
崛起
氮@@
芳族
303
数组
网络设备
刹车
隐@@
154
帝国
耐心
风暴
邻国
跨境
数据线
实在
金融服务
sc@@
芝加哥
什@@
氨@@
小孩
撞
零售商
获胜
研究员
调动
中药
唑
震惊
害
HP
主管部门
囚犯
溅射
暗
人口@@
遏制
象征
号@@
一面
用药
度假
稍微
株
专员
大选
属@@
评@@
控股
留
第二种
底板
午餐
外延
重量计
共同@@
7A
内壁
管理者
撤销
市中心
复发
5B
33@@
贸易@@
可控
赚钱
218
拆除
组建
蛋白酶
不足以
编辑器
购@@
扇区
扭曲
麻醉
迈克尔
412
奥地利
认同
热门
透@@
硅氧烷
第一种
飞行器
专利申请
失真
多重
伏
不太
放射性
BO@@
定性
每当
被告
诚信
进出口
选择器
甲状腺
积极参与
家园
抵消
新建
启示
IF
能耗
澳门
US
气动
大豆
导频
壁@@
板块
哪儿
倾@@
环境温度
马克
季@@
同性恋
玛
st
MD
场地
ER
沥青
声学
仪表
你@@
字体
优
一大
男女
LT@@
刚@@
动器
调制解调器
岛屿
年间
乃至
石油@@
奋斗
For@@
欧元区
变性
数额
刷新
芬兰
枚
谐振器
刀具
余
内心
PLC
中毒
冬天
下调
绑架
静
潮
固定@@
酸钠
隔板
宝贝
填写
邮箱
中介
大卫
⑶
阻塞
侧向
离心
逆@@
OFDM
多糖
并于
节奏
伺服
杰
机油
AB@@
高级别
汤姆
138
开发商
MPa
反对派
一般性
组和
朗@@
探究
杭州
ISO
冷凝
温和
喜爱
介电
廉价
扩@@
科威特
专家组
宏
普京
重返
军方
不当
枪@@
备忘录
存储系统
碱金属
熔点
液态
IO
批
动员
热爱
容
3.0
简介
ry
下半年
肥@@
乱@@
摇@@
猜
＜
一例
IM
DM
干旱
ite
是非
交通工具
阀@@
白人
铂
保密
续@@
佛@@
卢旺达
汁
超市
案@@
看不到
前期
是否是
浴
共同体
污水
相互@@
710
粘性
反应物
审@@
早晨
溴
基督教
迷@@
平均@@
矿物
肯尼亚
骄傲
慈善
学到
本月
志愿
造
食用
ker
领
扣@@
宫
延续
站@@
高级专员
de
阻尼
休@@
天堂
反射器
废@@
600@@
历史@@
one
A2
抑郁
卫生间
前所未有
跨国
再也
408
有所不同
四分之一
沿海
向外
够
莱
客厅
而成
BC
CN@@
医学@@
完@@
动荡
载有
沸石
涉嫌
个性
酸盐
计算机@@
生成器
介@@
AWS
称@@
鸡蛋
阳@@
HPLC
锦标赛
党中央
气门
修理
mol
争论
贝
个人信息
寻呼
招标
市政府
养老金
ET
漏@@
市委
函
骨髓
主轴
中起
电镀
不受
所致
平时
买家
詹姆斯
伸@@
据悉
乘坐
En@@
浅
烯@@
视频信号
线索
管理体系
微小
难以置信
编译
演
最高法院
百分之@@
迎来
绘画
碳酸
申报
141
警
摆动
仓
委会
流感
Qu@@
城市化
俯视图
关键字
石头
实用新型
监禁
IB
赞成
702
账
泛@@
6B
根源
簿
上次
la
短时间
轻微
ACK
皮带
ph@@
总之
逐@@
叫做
变异
道理
姿态
范畴
一颗
西安
在家
牵引
教育部
拿@@
恶劣
付@@
TS
一笔
西亚
ase
公共卫生
域名
农民工
无人机
普通@@
碗
机动车
贸发
噢
服务质量
氢化
叶轮
拍卖
og@@
古
1980
武汉
发病率
Un@@
Wi
反转
我来
振兴
急剧
智利
™
PWM
课@@
内核
上班
射击
态势
曲线图
残疾
思
蜡
拍@@
家庭@@
棉@@
志
细胞因子
精彩
端面
尖@@
户外
伟
iPad
ra
地上
会晤
熔体
刮@@
肾脏
相匹配
数据分析
抑郁症
益@@
盒子
配线
机组
功
芬
电商
HIV
找@@
样@@
两性
议@@
纷纷
Br@@
楼@@
全文
此事
极为
效@@
手持
好事
通气
堵塞
117
维也纳
增压器
堂
商人
同期
实地
会计师
餐@@
高品质
P1
版权
裂缝
富裕
羊
积
单纯
蛋
不太可能
三角形
75%
FC
半导体芯片
一线
一会儿
第一组
沙特阿拉伯
啦
尊严
保养
8A
搜索引擎
植@@
ub@@
产品@@
负债表
倡导
文化遗产
豆@@
胃癌
随访
列举
奖金
残@@
派@@
SM@@
恶性
扬
煤矿
上以
LAN
焊
诞生
镜片
教训
1.3
泥@@
凹@@
露出
年期
耦接
缩@@
将近
多晶硅
胜@@
可见光
资本主义
海地
总监
欢@@
企
AM
4b
紫@@
UN@@
八
绝缘体
擦除
标志物
Excel
过多
令人满意
硼
生殖
四种
乘
弯@@
电势
恨
外资
Pro
热交换
减弱
略
搬
之旅
晚些时候
纯度
等效
示@@
到处
802
建设性
NO@@
抗性
紧急情况
Fe
民族@@
究竟
将军
儿@@
集中@@
墙壁
猜测
气味
一把
选择地
per@@
徒
涂敷
..
腹腔镜
刚果民主共和国
利亚
缺@@
提供者
自行
焦
词@@
取样
th
郑@@
市场份额
DO@@
百万
09
北方
群集
心情
洪水
差值
ce
亲自
LO@@
高强度
ler
己
07
外径
ang@@
手续
语义
哥哥
详情
来源于
Hz
颈部
东南亚
注@@
特权
0.00@@
Ti
归因于
孕妇
精
IG@@
多久
师@@
Visual
招@@
理财
山区
毛巾
进攻
智@@
重新@@
解雇
现已
具体@@
集装箱
TA
川
中医
ud@@
觉
顺
可持续性
企图
不满
省级
惰性
技术创新
空隙
自动@@
斑
阱
端点
506
月初
纪录
res@@
项@@
镇@@
海南
十八
ann@@
段落
碳纤维
底层
民主党人
地雷
PCB
必不可少
CVD
源于
食品@@
AA
馈送
剖面
制药
密
604
条带
俄@@
专业知识
奇迹
MB
纺织
孔隙
免疫@@
怕
叠层
适应性
声誉
俄罗斯联邦
连同
星期一
金融@@
短信
斯特@@
健@@
q@@
区中
机能
圣
传承
断路器
512
CSI
替@@
不敢
45@@
肌
签@@
足@@
围
注解
聚碳酸酯
呼@@
喷雾
不安
王子
乡@@
表单
拟订
前方
外地
秀
www
寻@@
电解
GP@@
夜晚
剂型
起源
环路
纤@@
垄断
鲍@@
拟合
PP
空军
就业机会
得知
据说
均@@
酰基
工作@@
报酬
星球
呀
缓冲区
传热
时会
受访者
税务
加州
层上
税率
千
背光
美味
存储@@
法兰
物可
赞同
测序
订@@
色素
农药
竞赛
更快
继
拉动
比较@@
缴纳
脱水
装修
饥饿
旅程
锰
住@@
146
床上
赤@@
2.1
CNN
婚@@
闪存
产率
苷
不如
卤素
TC
直播
620
委内瑞拉
雄@@
架@@
这张
产业链
生产@@
裂
上网
治愈
诗
雇用
灰
睡@@
人文
大体
中央银行
聚类
没错
裂@@
难道
致使
图解
DC@@
圣经
发现自己
联合王国
逃@@
对冲
轿车
决@@
行李
介电层
做些
讲习班
激酶
拿出
平移
215
方框图
密切相关
精细
首要
美军
光刻
国籍
困惑
达成协议
38@@
良@@
校长
占有
广东省
哪@@
尼亚
酵母
汉语
所得税
玻璃纤维
语文
CI
浪漫
UT@@
阵
融@@
招募
箱@@
气温
钱包
衰退
4.5
直流电
汞
io
发送器
阴性
过夜
.1
501
模仿
远侧
第三十@@
资讯
T2
开幕
己烷
以供
心肌
电子器件
ip@@
创造性
ice
数百万
微控制器
剖面图
快照
原本
连接@@
便@@
导热
郡
龄
淘汰
隆@@
等离子
租金
州长
2C
椅子
立刻
ew@@
蒙
400@@
str@@
ies
密集
生活@@
裔
钝化
心态
阻挡层
PET
队员
肠道
白血病
数据信号
碳纳米管
租
归
AN
多地
燃@@
企业@@
看作
保护@@
骨骼
热水
较长
回购
Di@@
礼@@
虚拟化
一遍
玛丽
按下
血栓
LD@@
积极@@
坎@@
欧
勇敢
期刊
不可@@
磁共振
关键技术
嗨
罪犯
滞后
宾
阳台
喷涂
奖学金
舍
宣@@
穷人
看过
性格
明智
开辟
减去
金刚石
健康状况
各种类型
ot
两条
塔利班
康
各向异性
胡锦涛
每股
当量
艘
兵@@
套房
己@@
新颖
钟@@
血流
管芯
总和
光滑
地域
结局
癌@@
云南
谷
氧基
段时间
禁令
今@@
施
备
钻孔
收回
洗碗机
冠心病
商务@@
护照
熊
最有
帕
天使
地理位置
出行
微博
系统性
精密
明亮
晶
第一位
昆虫
MT
心理@@
曾@@
疏
移徙
外表
阿里
闩
换热器
按摩
势@@
三星
买卖
据称
骨架
宾@@
地是
柯@@
选出
臭氧
歌手
当作
原发性
底物
ee
大使馆
耶@@
P2
产权
上来
两项
Be@@
河流
高新技术
车站
相比之下
世贸组织
mp@@
适配
最长
称作
扔
316
戏剧
守
华为
定影
1b
种族主义
CM
APK
囊@@
惯性
使该
智力
压制
无水
谋
art
生物质
减值
尖
ley
宗
莫
Me@@
32@@
着重
何种
除外
录制
缠绕
治疗剂
曲面
下次
投资@@
研究者
创造力
轮毂
口袋
SE
EGR
塑造
钨
磨
反而
悲剧
调解
感激
面试
中间体
2.2
放到
拨@@
第二组
欺骗
豪华
剑
补
劣化
高密度
东北
手工
磁铁
MM
信誉
模子
寡核苷酸
比尔
直观
月球
帮@@
谈@@
损
成在
互换
严厉
Ⅱ
予
第一章
滑
R4
迹
磷酸盐
涨
死刑
颁发
割@@
int@@
凌晨
排放量
消防
史密斯
一词
Sch@@
病情
新生
im
WO@@
按键
阶
顶点
维和
家乡
穿透
项目管理
中间层
跳舞
叙述
稀@@
简便
EP@@
发送至
em
印尼
我省
妹妹
过剩
EC
磺酸
5a
策划
柬埔寨
内外
振
悲伤
ET@@
愈合
解放
内膜
存活
工商@@
单元格
捍卫
133
第七
人才培养
ke
WLAN
相连接
美食
漫长
可调
现代@@
全球性
气囊
透
舍@@
彼得
势力
解剖
对比度
列为
罢工
消费@@
ant@@
沙漠
整治
推导
电解液
322
较强
真理
Outlook
劳
礼
Twitter
地毯
金属材料
始于
护
鲜@@
RF@@
总裁
簇
护套
VC
PH@@
钼
腹@@
宫@@
甲醛
多路复用
废除
全方位
250@@
扫描仪
商家
首选
征
4000
能源@@
生育
简档
不行
沙发
全身
by
升压
渣
Studio
强奸
重症
告@@
13.@@
145
Ca@@
要点
RS@@
存货
柄
工作室
运动@@
从不
粘
编织
教室
物业
诊所
上海@@
大幅度
坦@@
理论@@
PM
结构调整
所知
坚强
代理人
篮球
白细胞
枪支
污@@
肝癌
一百@@
苦
440
流向
募集
ach@@
ment
限值
会计准则
幼儿园
渔业
奥运
充分@@
听力
比如说
发泡
低频
无菌
挡@@
混物
读数
舆论
差不多
共振
牢固
ex
发票
即时
潜@@
裁定
最少
弄@@
Azure
550
组织@@
博览会
抽象
Le@@
城镇化
累@@
免疫系统
丰@@
城区
抗菌
景区
继@@
耳朵
琳
统筹
洁@@
浓@@
突发
提请
接待
耐久性
同行
任职
豆
平静
排斥
DNS
粘接
药用
for@@
发热
脸上
卵巢
下一代
兔
方向盘
概括
text
ro
请单击
篇文章
单向
激动
战略@@
犬
NT
贯彻落实
人民法院
佩戴
春
气象
评
烧
投标
up
数学模型
聚烯烃
姐姐
逊
快递
还应
流域
灌@@
荷@@
第五@@
冠
广义
灵
过高
闪@@
星期二
激情
遗传算法
透析
迈@@
愿景
派对
跑@@
露
ack@@
医疗保险
宜@@
ho@@
一架
节气门
仅为
强制性
局域网
尤@@
氧化硅
撒@@
加深
寻常
而已
ure
收藏
管辖
原有
撞击
助手
风景
质子
B1
民警
引脚
地层
ster
临床意义
敏@@
联邦政府
奶@@
发展@@
GHz
旁路
福特
版@@
旅馆
丢弃
生产商
中共
村@@
氧化剂
1100
查明
本科
镜@@
正向
SR
辩护
卡尔
指派
280
ue
假如
156
530
常态
闻
投射
饮用水
例程
诗@@
交互式
赴
盟友
县@@
SF@@
Mc@@
每组
美洲
规@@
党委
震@@
拷贝
大门
大厅
泄露
发誓
ds
T1
体会
迫切需要
赤字
神奇
顺便
贬值
偶尔
汇
混合器
勘探
诉
像@@
Wi@@
塞尔维亚
说出
营地
自然灾害
冲程
ug@@
夜间
纳税人
效能
火星
eb@@
整流
共聚
触头
车间
Mon@@
欲
交联剂
阶层
促销
人格
乙方
战胜
Ag
助力
罗斯
大学@@
机架
锅
孤独
多条
尴尬
波士顿
树木
干什么
14.@@
图书
头脑
大赛
自觉
漆
慢@@
回放
越大
枢轴
同等
邪恶
内径
春天
开发计划署
爬
挑选
0.4
坡
连续性
Fe@@
可疑
裁@@
球蛋白
沉默
les
LP
家属
助
VPN
锐@@
细分
街头
寒冷
成年
机电
巨头
众@@
冷却系统
星期六
丙酮
弱@@
签约
大城市
才@@
our@@
心理健康
指引
4.0
ner
孤立
高分辨率
第二章
疑问
国防部
搭建
回顾性
伸缩
PR
226
NOx
抽取
势头
破碎
洗涤剂
顾@@
est@@
危@@
撰写
金融资产
走上
援引
se
福建
着手
依
0.8
紧缩
wh@@
原型
CE
区内
确@@
万吨
供水
局限性
郭@@
积极性
肯@@
堆@@
务实
经纪人
事务所
党组织
平安
原谅
SM
短语
化石
白天
支援
行走
杀@@
计算方法
单层
总局
选用
帮忙
纺织品
解读
专业人士
过敏
纽@@
献@@
研究成果
适度
PR@@
埃塞俄比亚
数字信号
工作队
有史以来
酷
大麻
公益
侵入
码头
公主
泡@@
减排
克罗地亚
戳
椭圆形
稀释剂
谷@@
避@@
精准
开枪
苏
公司@@
水稻
刑@@
多普勒
废
以免
离子交换
221
支配
哥@@
vi@@
手套
Cr@@
故障诊断
天花板
软件@@
源代码
缝@@
通量
好消息
氨酸
′
勤
IE@@
裂解
大胆
ell@@
吸附剂
可溶性
走势
省政府
外层
type
词汇
国际公约
耗@@
3b
其后
镜像
纯粹
拼@@
ME
遥控器
ABS
滑块
封锁
镜子
审理
临床试验
胎
刑法
手臂
单片机
开销
Cr
耦
租@@
硕士
蔓延
青
文物
联络
埋@@
PID
混合@@
互利
智能化
政府部门
Ex@@
1C
有毒
法人
读取器
赋形剂
输
把@@
生病
河南
真诚
恶意
可拆卸
勤@@
购
综合性
au@@
帽子
新一代
平板电视
吞吐量
顶端
GA
商务部
内窥镜
霍尔
反思
呈现出
湖南
加重
如前所述
LS
HA
伦理
无数
Adobe
起步
贷
汇报
驱逐
考生
用地
录@@
执@@
定罪
富含
交织
钟
公共汽车
庆@@
执行器
Co
色调
账款
甲方
未成年人
工作站
小镇
毛细管
思想@@
Per@@
衬套
喀@@
粘贴
拜@@
忠诚
赛事
呼吸道
有机@@
本赛季
完全@@
碎
沟
庆
心率
WiFi
农业@@
西班牙语
现金流
见证
媒体报道
战略性
阿里巴巴
电力系统
加利福尼亚州
利比里亚
角膜
生于
塑@@
PI
消防@@
anc@@
培@@
奖项
碘
淡
HS
恶性肿瘤
跃@@
孟加拉国
ow
1989
法令
遮@@
批发
斯里兰卡
炮
嗪
可逆
伴
SR@@
π
邻接
摄氏度
友@@
在此期间
遗@@
越高
忍受
匿名
饭
过热
fc
播@@
意识形态
驱@@
肩@@
处理@@
园区
out
阻断
化学物质
歌@@
雷斯
oc@@
传染病
意志
等到
Bu@@
数据类型
放心
纤维化
柔软
狭缝
塞拉利昂
铺@@
痕
去过
新一轮
劳动@@
多余
露@@
不像
扶持
缺口
着力
乙二醇
就此
扬@@
血症
杂环
佛罗里达州
镀@@
历史性
中风
摄入
铰接
FS
尼龙
江泽民
林业
读书
able
得出结论
GaN
希
砂
河北
并发
225
用户名
1.4
变暖
ton
次序
棉
all@@
der
开放式
会面
体制改革
质粒
寻址
免
环绕
这点
沉积物
毫克
幻想
稍@@
不让
坐下
D2
醒
般
164
编
乘@@
签
构
一轮
皮革
持有人
杰出
想想
晚@@
成品
斗@@
经济性
兴
人权委员会
开玩笑
be
扣除
DB
荣@@
电厂
川@@
右键
在外
增值
招生
FPGA
大师
实习
HD@@
洗浴
硬币
防火墙
D1
太阳@@
DSP
台阶
祝贺
水质
女王
老百姓
螺@@
IB@@
网络连接
OLED
碱@@
上海市
地产
许
支票
»
人力资本
48@@
细胞系
漫@@
狂@@
营@@
决定性
严肃
约旦
青岛
＂
弹药
章节
甲酸
基带
＆
Ra@@
Ab@@
光轴
朗
协调员
基督徒
经营者
达尔富尔
拔@@
数据通信
重金属
举动
15.@@
阴道
欠
斗
37@@
胺@@
部落
冬@@
示于
虚拟@@
爱好者
捐助者
筛查
核实
MOS
随之
确信
乔
空心
ore
内阁
Na@@
不易
缺血
设计@@
洋
暖气
取得成功
FET
保险箱
Se@@
推移
神圣
人人
贮存
家用
原则上
App
淋巴结
带走
1.6
实物
卫
模塑
身份证
带给
MB@@
仍@@
惊喜
全体会议
尼泊尔
财务@@
CMOS
介电常数
ina
填补
评定
捐助
航天
核算
变速
鳍
挡板
稳态
注射液
旧金山
化学反应
晶粒
CR
加速器
Service
上层
丝绸之路
172
ass@@
舞@@
2.4
买入
匈牙利
熵
设@@
中小
中华
试验@@
M2
PB@@
B2
亲密
传统@@
高峰
VA
繁殖
景点
电视节目
哥
风机
汤@@
搜寻
财务管理
星期三
优越
游行
点播
HD
民营企业
乌干达
历程
se@@
赛车
稳固
验@@
栓塞
鬼
that
净利润
207
穿越
液化
祝福
私有
摩洛哥
热带
宽敞
图纸
反过来
重型
司法@@
工程@@
熟知
印发
中间@@
比值
压缩空气
GC
没想到
成本低
堆栈
车速
铸@@
155
永久性
幼@@
艺术品
商品@@
听证会
自由度
泰
口头
举例
逃离
源极
战士
城市@@
析
QoS
终点
NF@@
格鲁吉亚
信号强度
可信
技术支持
应为
氮化硅
焊料
坚实
缝
陪
粗糙度
尊敬
走廊
急
容许
硫酸钠
稳健
协@@
低收入
长达
秘鲁
iOS
创新能力
传真
计入
不佳
从图
HB@@
房产
颗
窗格
访
格式化
坏@@
鼻
该死
柏林
810
森@@
厕所
总重量
宏@@
外科手术
垫片
快速增长
胎@@
相处
宣称
打印头
一人
iz@@
粗糙
对本
省份
升值
野生动物
挑战性
电路图
计时器
肺部
少年
业内人士
炉@@
报名
该市
乙
雾化
王国
受限
排水
肩
快捷
5.0
12a
魔@@
Ro@@
电台
11.@@
巡@@
播
程@@
空间@@
网球
油田
暴力行为
底盘
退
历@@
策
批量
ber@@
Ac@@
世界卫生组织
契约
ib@@
借贷
加勒比
TR@@
癌细胞
过氧化物
陈
密切合作
管理工作
NFC
盲@@
仰@@
7.5
冠@@
720
猛@@
Web@@
席
阵@@
刻蚀
停下来
精英
股票市场
原子能
兼@@
通往
力矩
拖
资源分配
灯泡
集会
爬@@
抗氧化剂
减肥
三相
陆地
连结
星期四
ort@@
贵州
aw@@
侧上
加固
消融
撤离
缀合
感光
不合理
国家级
LD
mM
合法权益
圈@@
照相
ES
EP
孟@@
流经
704
异步
FO@@
南斯拉夫
全民
顿@@
电磁阀
242
娱乐@@
众
迎接
进球
籍
H2
抖动
十九
老鼠
腹部
405
公报
输出功率
110@@
磷@@
符合@@
受理
总的来说
豁免
靠@@
分娩
嵌
球场
一般而言
条形码
主页
减缓
筹集
转化成
卷绕
801
底面
地形
军官
140@@
民营
脸@@
000@@
侵蚀
剥削
里程碑
钯
此举
戈
好莱坞
汇总
叔
.-
运输@@
不明
ge
粮
感化
界限
我院
dB
韧性
较差
心灵
事宜
验收
入手
中止
钢筋
推力
迈出
位线
溢出
鼻子
碳水化合物
ill
508
助剂
灯光
实用性
决策@@
脊髓
攻@@
独自
FA
第一阶段
同轴
后处理
庇护
翼@@
同情
STA
ll
de@@
ML
广告@@
闻名
临界
详述
无人
电弧
阈值电压
丙基
第一天
续
弗
不知
柴油机
PVC
膏
亲水性
分散剂
要说
彭@@
货运
拮抗剂
冒@@
排队
鞋子
多方面
幕
屈@@
室@@
三十@@
艺
148
际
路透社
溶性
后勤
奶
Mn
飓风
复制到
偏见
教程
马丁
主观
跑步
开发@@
门槛
腔体
放下
济@@
掩盖
收率
罗马尼亚
良性
半个
早就
金牌
念
钻井
之日起
散布
肝@@
瞬时
博弈
麦
控制面板
否定
0.6
烷氧基
方位
津贴
邻@@
心力衰竭
伯格
16.@@
关断
评审
某一
渗@@
棱镜
650
灵感
监督管理
单克隆
宋@@
孔口
伪@@
业界
养殖
耐药
令人兴奋
字线
土壤@@
获@@
毁灭性
ick@@
育@@
电磁@@
MEMS
研
ー
牧师
在实践中
既有
潮流
大西洋
侧部
奉献
可视
豪@@
链条
国际货币基金组织
彩
高考
补助
数据挖掘
TNF
偶联
磁化
交通运输
弧@@
配偶
唐纳德
据@@
FR
程序代码
比拟
气溶胶
送给
特区
抵制
213
本土
人工@@
数百@@
锡@@
降低成本
视力
机床
通话
帐
中午
多边形
船上
出版社
模量
益
一分钟
功能@@
专业化
ps
塞浦路斯
其为
NO
坚@@
擦
处方
生态@@
分配@@
工作效率
棉花
判处
消息人士
IE
这条
信用风险
武力
沿线
物在
涨幅
311
门户
售@@
相容性
5.5
虎
疏水
溃疡
制得
敬@@
订
箔
赞助
缓
百
力学性能
反射率
DR@@
贫困@@
气道
暖@@
发给
乳酸
吻
沉降
译码
喝@@
提问
院@@
直链
新年
联合@@
Gr@@
癫痫
回升
销毁
岸
具@@
至多
1.8
表情
创立
藻
山东省
指挥官
凸轮轴
当该
DA
稀土
接线
见解
电源线
颈
Bar@@
旋
聚酰亚胺
共产党
残留物
造型
般的
内皮
控制权
9A
收敛
贫@@
导引
现任
概要
决策者
值为
泽@@
蛇
下表
85%
激进
肾病
儿童@@
羧基
佳@@
414
擦@@
403
所在地
日元
音乐@@
很强
胞
罪@@
着色剂
安哥拉
棕色
灭@@
ik@@
毛泽东
水印
反腐败
华尔街
cm2
N2
努@@
门口
兑
街上
高分子
LE
相变
所能
梳理
更多地
水下
论证
爱心
等式
作风
小儿
市场竞争
扫
深远
鹰
G2
边际
拨
烟雾
借口
EMC
残酷
滤液
瓶颈
障碍物
另一侧
溶解度
跨国公司
沉重
窗@@
依托
整改
FM
学员
海水
航行
支链
柔@@
显著性
灰度
亮点
纱
摘
红细胞
热源
空气@@
下周
唱歌
名人
由该
上将
演化
if@@
酱
国家一级
3.2
层间
种种
产业结构
两大
接枝
消灭
ick
灾
湿地
脉
拥抱
南海
下端
通电
冻@@
750
无缝
输送到
127
601
醒来
粘土
高效率
低级
趋@@
Net@@
违背
以内
具体来说
重定向
CAD
El@@
be@@
弯
便捷
劲
Fr@@
2.3
坚固
禁
耐用
预见
大厦
不规则
10A
童@@
擅长
iv@@
烤箱
职业@@
尘@@
enn@@
氯化@@
粉碎
俗
行情
后台
砂@@
无辜
油漆
野生
分析仪
映像
清算
119
包覆
统@@
陆军
紫外
卖出
非洲联盟
凝聚
ON
衬@@
播出
刺
硫酸@@
电子束
占空比
券
co
整流器
Op@@
1988
外交部长
XP
故@@
情景
EN@@
演奏
赖@@
首个
侵略
从根本上
如表
再见
当下
预防措施
车队
坚信
破坏性
联合国@@
现状及
争夺
C3
便携
漂移
yn@@
轻易
ant
开发署
串@@
鱼类
纳税
径
妥协
非常适合
韩
EM
战场
妮
较少
生化
氟化
电导率
军人
开源
污泥
油气
正好
比为
地向
ang
泵@@
rpm
ED@@
上端
必将
SAP
HF
第三章
原位
异构体
第六@@
BT
鞋@@
角落
WTO
织@@
调查结果
骗
挠性
DB@@
7B
点燃
会议室
河北省
max
粒@@
安保
陕西
256
泽
资源@@
最小值
民事
十个
行事
up@@
遥感
芳
ov@@
谅解
开幕式
楼梯
ack
违规
ER@@
蓬勃发展
饰
遥远
沙特
增生
启发
艰苦
债权
没关系
开拓
二醇
上去
恐怕
江苏省
可怜
查阅
相继
旁@@
攸关
奋@@
文化产业
转染
外来
本条
PG
不可或缺
不止
绝缘材料
覆盖层
三是
价格上涨
踢
人民网
如本
卡片
其余部分
严
Comp@@
隔
话语
肯
硅酸盐
有待
荣幸
不见
是@@
约束力
法律@@
RE
电子产品
迷人
降至
软骨
VEGF
父@@
动物园
上调
谷物
帖子
柠檬酸
606
感动
MI
55@@
灭菌
秒钟
干事
盒@@
得不到
开会
家庭成员
城堡
密封@@
威廉
铺
爱好
罗伯特
报头
管子
蚀
km
PV@@
电视机
只不过
市场需求
234
膀胱
误解
召集
敲@@
ion
PH
率先
疟疾
182
指标体系
聚醚
耐热性
跟@@
独立性
补救
复
尽力
嵌段
校验
ι
医学院
第四次
ah
概况
损@@
模拟器
中来
觉@@
腹泻
多态性
马德里
兹@@
太大
鸡@@
有罪
网络接口
隔室
HO@@
me@@
脑梗死
PM@@
宜
一门
回落
股东大会
AF
订户
1970
烤@@
平均水平
接管
弘扬
监@@
稍
前列腺
相交
凝
服务中心
纲要
ance
委@@
GSM
工况
芬@@
战术
访问控制
诱发
光标
头上
终端装置
段@@
选票
特设
解放@@
FP
美分
附录
冲压
掌@@
习@@
绝望
送往
惰性气体
户@@
一国
没收
变焦
经贸
钻头
机体
肥
12A
贝尔
财务状况
公用
准确度
扭@@
黑客
望@@
升温
餐饮
迄今
种族歧视
越过
对付
有意
支气管
德尔
空气流
智
热能
千万
专业@@
通信接口
sion
日本@@
Col@@
停用
预热
伟@@
砖
时所
羟
接收数据
恶心
瓣
纪@@
空气质量
ta@@
引见
孤@@
粥样
电力@@
高速@@
副总裁
佐@@
凝固
金融体系
卸@@
盈余
弟弟
毛发
氮化
前者
万个
仇恨
调节剂
都@@
喜
分公司
ES@@
乡镇
ill@@
奖@@
市区
过氧化氢
过境
描述符
不高
酰
东亚
申诉
传媒
软化
红外线
约翰逊
句子
额@@
隙
石化
音量
对阵
深圳市
修补
车门
IV@@
一杯
三分之二
低速
埋
丢
252
溶胶
声波
穿刺
第二阶段
步进
信赖
合法性
事态
半岛
电量
优雅
冷静
钻
洲
气压
地下水
GUI
耶和华
习
议案
陷阱
气态
纹
书写
九
长江
音调
犯下
UT
自我@@
构思
种群
跌
衣柜
恒星
次要
耶路撒冷
消极
ir
小米
紧急@@
被判
表述
配送
族裔
债务人
问卷
客户服务
流量计
人造
摆
乳房
随意
吸气
纱线
氢氧化钠
撞@@
缴
冒
输出@@
斯坦@@
玩游戏
钢琴
一度
简直
关怀
终身
曲柄
kHz
最终用户
前列腺癌
太好了
Services
旅@@
气管
决
良
蛋@@
监督@@
兴起
电子元件
万亿美元
建设项目
工作量
促成
低估
时域
关节炎
清醒
蒸@@
腺
历
情节
特有
紧迫
秀@@
转到
Mat@@
经营@@
巴士
金属板
挽救
6b
戒@@
税@@
合作社
C4
额定
推理
繁@@
中时
盖板
前沿
投影仪
浙江省
戊@@
阻塞性
亮@@
劳动者
偏心
吡啶
ator
简短
交货
烈
遥@@
掺杂剂
缺血性
PCI
开放@@
瓣膜
过时
兼容性
懂得
他妈的
年度报告
75@@
衬衫
缓@@
遥控
准直
医治
队长
Har@@
额度
粘膜
泥
fi@@
17.@@
范例
滤清器
SEM
美利坚合众国
推测
合伙人
一贯
窝
亡
pH@@
●
显微
茎
衰竭
GIS
演进
巴格达
春季
标本
中心@@
犯罪@@
99%
街@@
重写
监察
Po@@
胸部
无源
RRC
光敏
医疗器械
第一批
哈萨克斯坦
病原体
抗蚀剂
3C
终结
音乐会
行人
扶@@
全力
撒
科学研究
化剂
垂@@
树脂层
大肠杆菌
疯
收集器
定于
火花
Ver@@
沸点
一员
条文
重启
财经
注册表
坏死
悉尼
条纹
珠宝
好奇
诚@@
无意
寒@@
铟
玫瑰
TS@@
预报
经皮
会计@@
DD@@
3G
630
杨
低碳
束缚
与非
喊
束@@
摘@@
丘@@
生涯
胁迫
武装部队
确保您
科目
光导
推翻
SharePoint
基督
邓@@
美容
体育场
女童
ah@@
公差
荣
喝酒
磁带
困
服@@
偶
第二次世界大战
黑塞哥维那
选自@@
逆转
高级官员
荒@@
六年
水泵
衰老
168
丸
大声
复杂度
耗尽
158
迎@@
快门
欲@@
有限责任
该值
海底
近几年
中旬
不在乎
流行病学
岛@@
首相
大宗
所涉
IX
催@@
该组
好转
访@@
现阶段
聚合酶
消费品
me
外形
浅谈
信号处理器
LA
不利于
圆柱
水位
电致发光
陶@@
膳食
暂@@
Bo@@
拖延
直肠癌
信息安全
拥挤
侧重于
候@@
乳腺
热电
线上
萎缩
族@@
蓄@@
醒@@
Pl@@
储能
获利
ma
Fi@@
万名
舌@@
酸酐
布拉@@
F1
一大@@
郊区
壮@@
熟练
挤出机
吞@@
演习
大火
ace
第八
教材
ron@@
固
腺@@
马尔@@
还原剂
拉斯
触控
管理制度
re
包封
he@@
邮@@
太太
No@@
搭配
竹@@
纤维@@
领取
女朋友
门票
紧张局势
称赞
加息
庭
上皮
后轮
安全带
0.1%
商业模式
特许
包容
植物@@
方差
脊柱
问及
灾@@
政治家
沃
百姓
覆@@
旅游@@
激动剂
账面
生物体
DT@@
下限
管理模式
桃@@
备受
据此
钢管
天内
ents
潮湿
试着
奈@@
拟定
顶层
反射层
生产者
毫无
纽约时报
凡@@
关键问题
3.1
Δ
威尔士
两国关系
迹线
知情
后方
笔记本
高浓度
矿物质
蜂@@
近侧
秋天
香料
正方形
违@@
BI
滤光
中央政府
拍照
销售@@
剧烈
http
绘图
午@@
阿尔及利亚
研究@@
造影
活性炭
希尔
水域
墙上
过分
161
挣扎
TF@@
拆
捕@@
开通
英国@@
540
推断
YouTube
拨款
诊
十二
D2D
1300
早已
抵@@
猎@@
we@@
一切都是
市场营销
采矿
加氢
亚太地区
int
驾@@
学期
态@@
危及
166
艇
压缩@@
降落
二甲基
刷@@
事务部
山西
ts
恶
收音机
犹太
融
涨@@
爪
护罩
辉
内蒙古
宝石
毫秒
ave
摄影师
英国人
事实证明
锚定
密封剂
让@@
家庭暴力
传动装置
0.7
怪
投放
络合物
乙醚
盛
Am@@
合理性
370
司法部
搭载
在我看来
心肌梗死
Bl@@
概略
座谈会
乐意
所载
ana
欣@@
也门
中心线
坊
案文
翻转
扰动
光明
35%
影子
保证金
斯顿
厦门
榜样
在场
遍
死去
水量
AB
斜率
管辖权
防守
码元
Ⅰ
网状
难过
目光
基本原理
人家
TL@@
丑闻
瓶子
桌
垫@@
双层
175
脊
In
两层
我市
这句
安娜
细胞@@
安徽
脂质体
规范化
6.5
斜坡
摄取
河南省
外出
ADC
外交政策
圆筒
ere
返@@
熊@@
氯化
坝
坦克
处长
构@@
iii
修建
ros@@
交流@@
喉@@
答应
折
登记@@
往来
不起
流失
半年
瓜@@
小齿轮
电脑@@
永恒
FDA
每位
复选框
130@@
结石
装入
腰@@
深入研究
兑换
真实性
伸展
卫生部
移动性
滚
成膜
狭槽
模拟@@
货车
Res@@
瞬间
18.@@
一小部分
狼
时报
驻留
un
喷
酚@@
GE
派出
偶然
重心
湖北
内皮细胞
账单
228
扁平
盆地
默认值
频域
一页
美联社
章程
0.5%
配额
酌情
讲座
HT@@
902
外周血
产业化
主板
就算
福祉
在世界上
365
数据文件
摄@@
幸存者
苗@@
电动车
国际标准
董@@
安慰
航空@@
自由化
左边
发射@@
3.3
Fl@@
挤@@
银行@@
击中
一氧化碳
单方面
硬盘驱动器
胸
预防性
童
视差
胶带
私募
ong
诗歌
R5
开度
报复
流中
所处
前瞻性
外部设备
表位
武
电阻率
竞选活动
ary
四名
伸长
换档
首歌
虽
艰巨
荷载
聚物
挑@@
剂@@
饭店
物理学
精神病
Par@@
二元
稳步
更糟
车库
时空
撤出
324
人能
其间
火车站
脲
dll
侵权
第@@
盯
医疗@@
视线
锥@@
靠背
西南
尽早
偷
尼亚@@
援@@
相关者
察@@
年里
配电
迷
西北
西岸
可动
脏
安装程序
养老保险
政协
RI
CN
外交官
对系统
165
马克思
请问
公共部门
更强
舒适性
旗
年级
转运
叠@@
勇
910
奶奶
损益
编译器
宇
司@@
炼@@
股息
游览
预约
分流
从来不
燃
无聊
地狱
嵌@@
独立@@
叔叔
Ag@@
住所
不停
地中海
丰田
袋@@
保护膜
本着
和谐社会
第四十@@
关键因素
重整
设为
担当
喂
网络游戏
届时
瓶@@
布隆迪
便是
咱们
相位差
我家
下层
冷战
散步
模态
拔
数据量
器中
单晶
石英
拜访
坛
高风险
椅
CDMA
水合物
后代
多播
得益于
纽约市
凸出
意指
美学
国情
环境影响
1986
Zn
硫化
唱@@
脱贫
那边
加油
国务卿
Dell
315
增值税
欧洲@@
附带
韦
神话
AV
8B
绝不
精心
陌生人
登上
册
衣物
生产成本
SiO2
摸
4.2
with
抗氧化
分光
血脂
插值
勇@@
Cisco
高尔夫
挂钩
多样
圆盘
EL@@
大大提高
主角
DI
甜
四大
SG@@
非常低
反响
804
ath@@
声道
绒
谋@@
增塑剂
腰
译
签字
供体
收治
粮农组织
高铁
佳
卡拉
仿@@
同位素
间谍
前缀
153
卡塔尔
十大
生动
抛弃
市政
忧@@
布鲁塞尔
竞@@
黏@@
翻
孕@@
此项
洁
处理程序
永磁
斯坦
西非
做过
控制策略
服从
层级
用户@@
育
DA@@
证券市场
一幅
ern@@
CB@@
霜
第一季度
线性@@
延误
起飞
膦
相容
CM@@
杯@@
暨
润@@
岭
饭@@
乳化
甚@@
1985
碰@@
判
高尔夫球
勾@@
手里
腿部
订立
不同之处
第二届
工发
市值
全面@@
命令行
拖动
空缺
着陆
失误
答@@
米兰
推送
矿山
油箱
入境
分散@@
拘@@
凭
内战
公安局
偶@@
默
39@@
安全气囊
8a
坯
裁员
非常简单
调查@@
秋@@
率为
锚
该州
鼓舞
多位
差速器
险@@
联动
分析器
垃圾@@
EN
凸
环境污染
0.25
携手
部长级
责任@@
除以
蜂窝电话
疏@@
对外开放
高清
低密度
PDCCH
变色
右边
白俄罗斯
昆@@
一同
吡@@
143
糊@@
内腔
周向
ELISA
拟@@
员@@
减税
鸟类
陆续
传输层
姑娘
或者说
外围设备
泵送
C++
At@@
欲望
主教
二氧化钛
阿塞拜疆
宫颈癌
预先确定
尔顿
扎实
标号
莉@@
踏@@
缩减
PEG
出错
辉煌
包衣
前任
起重机
撒谎
娃
时代@@
译@@
掺入
om
几点
趋于
伏@@
借款人
邦@@
惨@@
NH@@
斜
az@@
线束
平衡@@
储存器
论点
灯具
登陆
亲戚
乙酯
net
以致
出口@@
let
腐@@
夏
怪@@
磨料
Ni@@
聚乙二醇
公交车
50nm
仁
促@@
阶@@
坑
低迷
JavaScript
形容
建议您
竟然
99.@@
CF
中美
滑雪
旗@@
化物
仙@@
举报
6000
序列号
尿素
这部分
起初
IPO
录取
夫妻
聚苯乙烯
野
叫@@
不去
​
NC
各大
刚果
保加利亚
香烟
肝炎
几十@@
增长速度
1987
关键作用
空气污染
京
发送数据
318
PN
邮政
DR
阁下
被称作
虚
结构图
中非
多种不同
威尔
亨利
锚固
敢
微量
糟
伪造
耐受
哈马斯
雇佣
工作岗位
气化
批次
可知
本合同
冷却水
倾听
听见
恐怖袭击
女生
引渡
浴@@
油泵
医疗机构
转弯
渔@@
Open@@
背部
结肠
鞘
被困
应激
TM
素养
怀
利用@@
青春
降雨
猪@@
大道
值来
信用证
舰
珍贵
乙型肝炎
Mg
动态@@
NF
断层
执行局
江西
投资人
ab
开头
葡萄
CL
Cre@@
cl@@
起着
夺@@
多级
债@@
重度
尔德
脑卒中
伍
文件名
怎么回事
脏@@
仪表板
分工
牌照
剪辑
不清
辩@@
Python
以南
脆弱性
ane
肉类
现实意义
华人
奶酪
盗@@
牛肉
构想
电影@@
主导地位
缺损
导师
攻击者
统计分析
质量@@
神经系统
邓小平
app@@
鲜明
麻
头痛
松开
Pr@@
驶@@
存储卡
su@@
菲尔德
双手
露台
冶金
杰克逊
Ed@@
望远镜
抓好
凹口
落入
镀
瑟
温度控制
422
汗
CEO
抢劫
高出
经济衰退
钳
撤回
谢
资金@@
通向
各个领域
机票
一季度
戒指
商用
水箱
抽样
杀手
绕@@
乘以
证件
牧@@
陪审团
均值
医用
浪@@
薪水
幼儿
定为
半胱氨酸
汽
大事
DMA
等同
生产能力
NMR
碰到
分期
曼联
性状
合规
恢复@@
LED@@
子弹
两会
津巴布韦
HARQ
离线
过大
集成@@
505
枯@@
活检
饿
APP
反之亦然
Or@@
责
电影节
账号
SSL
德克萨斯州
礼貌
减贫
爵士
其上
摊@@
责任感
IR@@
教徒
适用性
繁忙
资源配置
穷
经济体制
前途
受过
筹@@
备案
显现
祖@@
异构
精确度
四川省
离不开
看不见
View
无形资产
泄@@
薄弱
潘@@
善
相似性
AG
涡流
温家宝
谨
炮@@
侵袭
桂@@
经济危机
碰
倍@@
举例说明
插槽
放射
恐慌
当日
电阻值
世卫
当期
追究
难点
毫
巡逻
工程项目
月亮
筋
首批
假装
假体
231
20.@@
打包
总会
FT
man@@
低功耗
HC
伊斯兰教
Cor@@
施工@@
不上
电泳
唱片
警官
尘
购物中心
非常感谢
迪拜
规避
灌溉
托马斯
缩回
衬里
促动
简
粒细胞
迟
升至
操@@
WTRU
县级
留给
吐@@
橙色
钓鱼
微孔
内陆
视频流
福德
坦
ld
同胞
10a
刻
烷@@
380
前来
电视剧
示图
传输线
发展观
奴隶
合力
利物浦
ok@@
挖@@
凸显
计划生育
甲板
违法行为
案子
留学
Sy@@
希拉里
He@@
三角
硝酸
嫁给
细化
伯特
乐器
抚@@
不出
卡路里
磺
处境
分行
海域
土地利用
Gu@@
表皮
肢
突尼斯
表面@@
耶
706
肥料
出租
界@@
扫描线
174
一倍
Directory
表示@@
有效载荷
各项@@
敌
ov
RGB
Bi@@
IG
贾
质谱
交通事故
输送机
矿业
鸟@@
丙烷
工党
含氟
感冒
诱@@
法测定
败@@
强国
SIP
三项
灾区
每隔
精子
宫颈
坐标系
息@@
叛军
亮相
带上
国政府
三条
病因
ol
尼克
漏电
抽出
209
开发区
招
训
可达
乙酰
不及
〉
沉
迟到
资深
铅@@
哇
键合
题@@
正规
F2
uc@@
轴上
片状
1978
评为
肝细胞
新区
流化床
201@@
行为@@
416
孔中
一日
财务报告
十三
COM
眼中
相符
功能障碍
辅@@
施行
ash@@
吸收性
珍惜
贯通
源性
发改委
亚太
净值
和平@@
谎言
佛教
认真@@
军事行动
回报率
锋
大街
政客
其是
弃
食管
探
男朋友
胶体
确诊
孵育
色情
象素
加利福尼亚
感光鼓
回避
贵金属
对苯二甲
殖民地
硝@@
漫画
受害人
煅烧
绝对值
辐照
路线图
上课
阀体
ort
失衡
PV
常设
硫酸盐
612
家电
克里斯
从没
电磁波
GPU
走过
IL@@
还给
白蛋白
纪
瞄准
捕
丁二烯
铃
中小型
搅拌器
任择
营运
卓@@
电子显微镜
基的
定律
贫血
缝隙
肖@@
欧姆
λ
另@@
用餐
淀积
塑
烧瓶
财@@
耐药性
608
降到
营养@@
冬
替代品
新世纪
童年
4.1
词语
巴塞罗那
富集
Pa@@
闭
传奇
旱@@
年纪
］
自发
告
妇女地位
非凡
一刻
骑@@
标注
商场
巨额
世界贸易组织
供资
私营
公安机关
嘉宾
保护性
前导
植被
转化率
间歇
雾@@
骨头
具体情况
效用
纪录片
咳嗽
岛上
处理过程
［
外套
齐全
好多
BL@@
练
气象@@
红利
yp@@
青年@@
不该
昌@@
跌@@
弱点
航线
搬@@
顶面
碳化硅
Wh@@
合计
对流
民意调查
十二@@
妮@@
堆积
岗
滚子
安全部队
预留
紊乱
必
合资
初次
化解
学费
落地
192
流路
m3
升降
原子@@
党建
善良
仁@@
棒@@
仅限于
宗@@
揭@@
歌词
入住
柳@@
下令
寒
前列
上级
cc
三级
鉴@@
革命@@
RAM@@
留下来
分支机构
行长
19.@@
苦难
尺
副产物
罐@@
中医药
桑
辨识
一点点
波段
Win@@
淋巴瘤
唐
抗议者
通信@@
疲软
运动会
打扰
党内
X2
依旧
一艘
录音
AV@@
九个
ich
几百@@
Active
行政部门
粮食安全
猪肉
计提
芭@@
发展前景
馈@@
溢价
叉@@
旋钮
小小的
2030
设计方案
PT
业务流程
肝硬化
警察局
共产主义
机械性能
DL@@
风味
非织造
Te@@
僵局
中欧
积聚
败
ty
疑@@
进口@@
习俗
BBC
分摊
幻灯片
塞族
系统地
聚合反应
借此
胎面
巧
动力@@
栅@@
吸收剂
随机存取
协
存储空间
怪物
两类
日益增长
会计信息
John
字典
水库
宿舍
再度
固定装置
伞
包容性
ip
股利
460
M1
ations
低廉
恶意软件
无定形
236
虚拟现实
出具
晶格
计算器
崇@@
熟
大自然
琼斯
昌
挺@@
存量
国民党
65@@
结核病
交错
受众
业务@@
色度
季节性
无视
成因
显影剂
临近
碘@@
效率高
射流
深深
诸@@
ya
NBA
CAN
债券市场
＃
ect@@
旗帜
更进一步
EA
5b
4C
物镜
不用说
俗@@
IoT
Power@@
0.001
入学
发射功率
芽
贮@@
沪
最高@@
汇编
旗下
队@@
船员
炎性
光学@@
二十年
文学@@
基础架构
创业板
PF
屑
咨询服务
MPEG
这款
开来
文所
受到限制
它@@
正确@@
国产
绞@@
四次
抑制作用
UR@@
近来
似@@
学术界
递增
赎回
逃脱
飞船
旅
轻度
MG@@
耕地
膝盖
bu@@
斑@@
1984
紫色
HCl
放射@@
数个
同步@@
每秒
搭@@
热固性
而来
235
亲和力
分析表明
一再
可不
Ba@@
宝马
恋
单身
蔗糖
差额
RD
低聚物
议事规则
连锁
煮
Ta@@
变迁
今年以来
价值链
外贸
几位
ory
保安
储
SB@@
松弛
套利
访谈
缆线
逃
电流值
一期
中华@@
轮子
柏@@
腹
盆@@
ire
THF
检查和
结构@@
治安
痕迹
归纳
外科医生
收发机
硒
赞@@
mm@@
获益
时才
道德@@
514
呈@@
火花塞
芦@@
人道主义法
死者
高等
珍@@
由图
微微
去年同期
经验丰富
抗肿瘤
潮@@
闭环
包装@@
矫@@
难民署
导航系统
亲水
延
视点
海洋@@
氢原子
中小学
潜艇
Cu@@
ta
国会议员
就是说
无力
奏
审美
缓和
供选择
笔记
甲酯
发言者
瓜
503
麦克
标称
画家
吓
震
两级
锁紧
提倡
相一致
正当
ss@@
P2P
方块
模拟信号
规章
战斗机
分手
开创
逃避
科特迪瓦
提供援助
后悔
332
判@@
混淆
醇@@
ard@@
嵌合
百度
太高
框@@
捷@@
野生型
持股
官兵
教科文组织
稻@@
差动
胶原
ai
测得
折旧
Man@@
254
结构设计
味@@
前轮
宁愿
皮质
排气管
令人震惊
骗@@
内部空间
反应堆
彩票
枢纽
竖@@
820
La@@
膜片
薄层
对面
分类器
深化改革
old
机身
传说
忠实
防火
巾
无可@@
赌场
八年
解答
流产
叉
低下
牌@@
学术@@
农作物
海盗
椭圆
秦@@
渗
NT@@
输注
纵
会为
屋@@
召回
琴
瞬态
铀
略微
敞开
载流子
防腐剂
既@@
毕@@
自助
负压
拿走
细则
测试方法
机动车辆
刮
绿化
不断扩大
病理学
板上
臭
缝合
伐
防控
辽宁
侵@@
婚
挤
凯
恒
非晶
京都
计算机网络
必定
电话@@
冷却液
共存
Fre@@
问卷调查
选拔
PG@@
好评
不然
快点
SH
折磨
此案
5mm
数控
超时
聚糖
技@@
镓
逻辑电路
重链
着眼于
14a
北极
点亮
泳@@
1982
te
建筑师
棒球
庄
图形@@
关键@@
李克强
讽刺
回合
ri
##
哈利
兆
眼前
挪@@
方形
我谨
水流
ati@@
规程
发电厂
殴打
於
三个代表
遭
规
储层
盲
怠速
ame
玻璃化
前侧
暴
梳@@
阴
掉@@
事务@@
欠@@
偿
6.0
舱@@
SiC
挥@@
山脉
飞速发展
AM@@
ECU@@
Center
尿液
der@@
长期@@
严重性
熟@@
个人电脑
车架
1400
福建省
脸部
硬脂酸
本章
生计
美观
虎@@
章@@
合作@@
光度
SMS
他于
应由
保护区
限额
ASP
代表@@
笑话
赌博
指示灯
磷脂
放疗
VO@@
教学模式
费率
省市
好人
701
十分@@
联络@@
高专
逼
As@@
工作日
一处
堕胎
运气
水合
份@@
浆液
狗@@
礼品
存档
早日
车主
锆
定居点
拜托
高位
探析
扫描器
十六@@
ure@@
鹿
人居
Data
脖子
ust@@
基本面
归属
比特流
角度看
12%
页@@
诗人
初中
SF
撕裂
合成@@
卵
日记
营养不良
契机
果实
Ev@@
老虎
震荡
GB@@
混蛋
PBS
数十年
麦克@@
逐年
役
１
准许
跳跃
善于
肾功能
FL@@
控制程序
ECU
HBV
带电
齿条
注塑
EtOAc
综@@
测量方法
热烈
联邦调查局
财政政策
烈@@
计算@@
激增
兑现
售价
七年
脱硫
祝
亩
实验组
参赛
有所增加
碳酸氢钠
无损
符@@
人大代表
开门
We@@
ft
生命@@
遇见
染@@
重要讲话
全国@@
2500
SN@@
抵御
AU@@
夹层
第七@@
作出贡献
接触式
格林
抽屉
拧紧
腾
有效期
学历
小女孩
1960
大气压
MOSFET
污
同源
刃
指望
服务器@@
理论依据
产生器
按时
飙升
厂@@
乘员
AL
所指
Inc
母线
星星
民兵
Gre@@
La
雌激素
App@@
胰腺
重庆市
遗传@@
焦距
笼
喷出
参数值
多岁
侨@@
遮光
船长
马拉@@
泰勒
复合@@
下侧
44@@
铺设
书桌
旅行社
金砖
炭
计算结果
枪击
呕吐
传到
牙科
艺@@
划
慷慨
情境
分担
外层空间
中立
行车
迈阿密
近几年来
胃肠道
缩合
车上
Min@@
S4
减免
致密
优秀@@
凉
碳酸钙
芳香族
辐射@@
TE
总计
当地人
灭绝
师范大学
征税
羟@@
咬
不起作用
社会各界
休克
账@@
枝
警惕
新兴产业
专有
机翼
小康社会
情报@@
查尔斯
ff
之处
精神分裂症
何
直方图
玻璃板
北爱尔兰
绕过
640
担@@
而定
中未
律
捷克共和国
从小
著作
造血
Lo@@
多点
走私
旁通
井下
祥
高原
杀人
汇集
滑轮
T3
青睐
中长期
我用
叛@@
海湾
异议
待机
巨噬细胞
成交
齿轮箱
Ga@@
驱动轮
毫无@@
养护
嘲笑
售后服务
宣传@@
入射光
浪潮
丝网
股指
线粒体
题目
增幅
持续增长
全景
陌生
・
聘请
竞争性
荒漠化
复原
辛
羰基
桥接
和约
新车
PHP
商会
通信协议
加纳
农户
收件人
阅读器
办公@@
润湿
触及
表型
ence
资质
名叫
HR
宽容
降压
货币@@
禽流感
GA@@
1.7
司长
人事
展出
充满活力
拜
消化@@
摆在
民用
以向
打交道
Fin@@
两岸关系
卵@@
叶子
监护
重复使用
切尔西
剥@@
第一条
纵轴
AG@@
级联
海绵
物件
信息管理
水肿
前置
数千
利润率
检查@@
ian
簧
镉
听众
完毕
小微
计费
相互连接
乳化剂
光致抗蚀剂
相对@@
背离
身高
大屠杀
所长
克制
热解
光泽
传输@@
隐患
照亮
环保@@
any
金融工具
.2
体液
互联
维奇
BL
三层
曼谷
归一化
果汁
知名度
薪
压迫
137
反应时间
秋季
陷@@
迫@@
证券化
航运
第四章
氰@@
7a
PDA
高电平
想象力
审视
推向
进行谈判
滋@@
拦截
事业单位
290
雄性
执行@@
TD
延时
800@@
衔接
伴@@
纤维细胞
瓦斯
糖果
起床
水管
奔@@
苗
格斯
欢乐
公开@@
还好
署长
负有
OP
Data@@
国有@@
1010
永磁体
休假
贷@@
因数
浸入
反射@@
氏@@
畸形
5.1
草原
Cloud
阳市
Cas@@
芳@@
弦
席@@
异丙醇
顾
软件开发
受限制
Word
有机酸
智能卡
观察者
过载
体检
源头
从动
回波
娅
鼓风机
致辞
引人注目
MW
钢铁@@
门诊
充质
奎@@
试试
业内
视频@@
东道国
忠@@
钳@@
墙@@
日趋
避开
欧美
1002
三倍
必然@@
CRC
大连
小型化
盆
集团公司
操
状态@@
oun@@
奥斯@@
靶标
闲@@
略有
厨师
木质
杀伤
尤为
澳洲
重塑
Ca
透射率
气球
社会科学
肩膀
中日
Del@@
Ph@@
哭泣
CCD
增加@@
171
宪@@
学习@@
汉堡
命@@
蓝光
沈阳
蒙古
V2
不动
CQI
哈希
听觉
传入
瓷砖
GF
荣耀
一枚
区域性
优先权
激
数年
同业
人大
腾讯
园@@
仓@@
与会
会议@@
ons
文库
物是
ica
采
看似
震动
DE
抛@@
班级
病毒感染
出国
陷入困境
MIMO
炭黑
走路
机密
抢
饼干
1979
弧形
FD
后侧
暴雨
丙二醇
纳米线
啉
预防犯罪
危地马拉
氢氧化@@
硼@@
人质
录像
玉
签发
该文
折射
促进剂
血红蛋白
64@@
波特
膝关节
疗@@
棘手
上皮细胞
2O
秋
查处
厄瓜多尔
核能
扰
平方@@
BD
分销
全国性
软件包
聚乙烯醇
延期
弄清楚
袋子
须@@
水面
机舱
结尾
ess@@
简述
专
管理水平
散发
叛乱
烧伤
EX@@
Explorer
组织者
台上
理财产品
两者之间
问责
面对面
四氢呋喃
耐磨
电磁辐射
净资产
先天性
牢记
My@@
上年
氯化钠
外汇储备
例行
壶
身心
苯酚
想过
祖先
0.9
同类
缺氧
葡萄@@
称重
MO
阻尼器
第一届
迁@@
天才
呼
饱和度
涌@@
火山
SU@@
收紧
等待时间
据信
II@@
停火
不便
兰州
帐篷
te@@
保温
org
榜
美妙
焊缝
绝
碎@@
mA
注定
活性@@
led
缺
中产阶级
商量
摩
变频
RM
裸@@
惊奇
ook@@
脂蛋白
做成
处决
ans
730
自由贸易
过后
参看
有意思
灾难性
af@@
Sal@@
职员
迫切
21@@
施加压力
产妇
愿@@
塑性
泉
量表
姐妹
ha@@
宿@@
荡
冰岛
从属
筒@@
同心
示威
周期性地
保持一致
骚扰
金融业
法新社
外壁
244
传输数据
圣诞
Pt
乙腈
承包
感谢您
锂电池
包络
枝@@
陪伴
炉灶
码字
抽
交易日
古典
承办
脂族
刊
致电
RB
看电视
公积金
缩略图
129
国家队
触
烟气
议
ml@@
再说
眼泪
梯@@
动能
废弃
Li
P3
竞技
细胞培养
底线
明胶
栋
223
喜剧
带入
愈@@
本法
院士
后卫
潜水
重现
普遍存在
终
直肠
连接点
Sk@@
第二条
主席团
信噪比
低通滤波器
特别@@
99@@
电信@@
重新配置
Mo
用电
热稳定性
膨胀系数
服务提供者
访客
炸@@
逻辑@@
浸泡
大力支持
Sa@@
评判
插管
光刻胶
党派
途
比特率
轰炸
频段
奢侈品
循环@@
义务教育
队友
Pa
激光@@
微球
回事
屏@@
184
OK
一声
魔法
科学院
笑@@
辞
为本
当今世界
汲取
忙碌
明确规定
产业@@
始@@
猫@@
大容量
SB
线条
吸取
错误@@
Mic@@
板材
文件@@
逆向
低水平
肿
幻@@
卵巢癌
ect
迈克
等位基因
推广应用
螺旋@@
疫
经纪
斑点
搞@@
年份
举出
新形势下
1600
我爱你
台北
法制
Ste@@
土地@@
集线器
拓宽
统
府
EV@@
电子电路
群众@@
常识
每人
特异
远期
大面积
幽默
总干事
电绝缘
看好
321
不动产
团聚
洞@@
12b
小岛屿
恰@@
裁判
场效应
序@@
显着
电气设备
第九
街区
No.@@
人来
传送带
控制技术
指导@@
客车
在此之前
四届
农村@@
耐磨性
透视
特斯拉
9B
洗钱
典@@
多维
锦@@
英超
鬼@@
事后
本例
嘧啶
DCM
干嘛
盖茨
唯@@
下属
雕塑
放开
泪@@
目睹
述@@
应用@@
这辆
测算
位数
255
裤子
联想
与否
陵@@
栈
免于
视察
食谱
重量轻
油脂
无害
图谱
替代性
C6
使用权
公安
医
维多利亚
曹@@
罩@@
五大
瞩目
步入
址
产后
整
径@@
湖泊
化学武器
操控
工程处
胚@@
止回阀
保持稳定
魏@@
何处
中西部
扇
14A
视场
末@@
FD@@
哥斯达黎加
烦恼
投机
涌现
球体
迪士尼
固化剂
授@@
第二节
ver
307
券商
皂@@
隐
硫化物
风险投资
漆@@
天主教
写下
口味
口号
订正
亚特兰大
沟@@
供应@@
髓@@
急需
虫@@
动摇
教学方法
上线
短短
仲@@
穴
输电
贸易协定
梯
发表声明
传动系统
卡特
程序员
名额
苹果公司
高功率
纺
巢
公共交通
降息
IMF
定居
kV
保障@@
数码
救灾
阴谋
停滞
身体健康
办学
Vi@@
ka
NS
福音
从前
皇@@
通行
朴@@
大理石
亚洲@@
气孔
不妨
人性
赶上
辛苦
书中
渐@@
患病
分辨
健
存储元件
Ne@@
橄榄球
发性
郑州
HT
基层@@
ng
那位
螺丝
磁通
天后
非法@@
照明设备
导游
5.2
击穿
当成
兼职
小额
904
话音
亲人
控制数据
强硬
证券公司
无色
擦拭
肢体
教皇
团伙
征服
蝶@@
47@@
地球@@
染
手上
加速度计
浓
大大降低
冲动
DSC
幕@@
挫折
美术
吻合
停机
耐热
前一天
过期
顺时针
传染性
基本相同
直觉
毁灭
斑块
磁极
归功于
楼层
刘
辅导
4G
先进@@
教学改革
问责制
PL
浓缩物
万英镑
核电站
刊登
苏州
ast@@
器材
从此
合伙
exe
第三季度
外交@@
字幕
was
烦@@
现实生活
自旋
管控
言语
概念@@
高昂
活塞杆
粮食@@
廉@@
恋爱
轿厢
尼尔
幸@@
守则
混沌
风速
援
胶质
通告
生理学
现货
45%
密性
巨大@@
出资
国防部长
锁止
领导小组
可取
阅@@
老婆
追溯到
抑@@
吸尘器
射束
仅次于
补丁
撕@@
处所
峰@@
逐步@@
离职
蓄电
金属化
特工
大批
词典
漫游
镀层
动性
光照
廷
疑
废料
移植物
内酯
海啸
Management
保持@@
拨打
馏分
微妙
冻
法学
砷
Ig@@
同伴
泊
力争
卧@@
兔子
作证
富人
有机物
内时
262
封信
硫酸镁
ara
释@@
基因型
吉姆
雨水
全都
炼
一首
正值
一新
多伦多
综合症
滩
朝鲜半岛
失调
画廊
摸@@
超导
拖车
德语
克莱@@
记录@@
国旗
增高
半小时
服务员
幅值
艾伦
碱基
12B
丙烯酰胺
爆
ade
网络系统
承担责任
周围环境
干部@@
可经
培养@@
850
实用程序
投票@@
EG@@
凉@@
水电
潜能
螺线管
例可
uicontrol
app
拉姆
承运人
里程
20a
突
整体@@
绳索
处以
闪光
术@@
燕@@
证监会
医疗卫生
斌
浆@@
准备金
踩
该软件
龙头
数据表
code
共轭
足迹
需求量
重传
脱落
裁
数学@@
环境署
平方公里
国土
沈@@
大海
内镜
海事
2mm
覆
176
良好@@
集聚
中亚
Il@@
渐渐
盲目
免除
亲属
第一信号
第二季度
吓@@
攀升
OR
航空航天
信中
闹
茶叶
更正
台风
层状
最优化
执照
扰@@
理查德
阀座
葬礼
丁醇
全过程
润
cDNA
新华网
先决条件
五名
持久性
基石
E2
胶乳
遗址
涛
无法@@
冯@@
诱惑
留学生
背板
ach
马里
天赋
双边关系
开工
科研@@
黎@@
烤
索尼
隔热
丰
兆@@
电气@@
病房
皇帝
想念
监管部门
地使
覆盖率
仿佛
下雨
服装@@
客观@@
8000
不住
另一方
纽约@@
顶板
325
波纹
融化
System
卖家
Sn@@
建构
毂
球囊
测距
卢
党员干部
宇航员
Name
映@@
结核
享用
相加
CH2
广州市
瑜伽
下肢
广播电台
忠
图形用户界面
创下
渗透性
4.3
非对称
刑
mb@@
水准
耐受性
开孔
ak
ATM
CRP
ber
轻链
精品
手机@@
送入
来临
HDMI
水壶
袭
现年
千克
类固醇
成功率
威廉姆斯
奥林匹克
年末
误
一封
星期天
聊
窗体
舌
代理商
极好
衫
值时
既定
ings
句@@
首位
表面层
411
支座
腹膜
获奖
瘦
锗
WS
抗病毒
两点
Ap@@
据介绍
部委
领导@@
冈@@
θ
简洁
大局
大桥
两国人民
打败
DF
IgG
PU@@
可比
有机硅
叛乱分子
001
定量分析
记忆@@
酰亚胺
页岩
跌幅
海拔
应用服务器
想着
骂
检修
贴片
非水
这为
移出
低电平
模糊@@
尤为重要
股本
下班
股骨
锚@@
腐蚀性
宿
方程式
布什总统
海报
干扰素
踏
高档
erg@@
流行病
归咎于
立法者
缔结
ERP
裤
展会
遇
留言
消化道
监理
一维
来文
增添
内层
反相器
欧洲央行
正当@@
act
覆盖范围
顶尖
大臣
关系@@
Pd
镇压
大力发展
腾@@
五角大楼
如果说
甘肃
换挡
狮子
he
≤
雄
Sn
桌上
独一无二
吸收@@
随机数
战役
小时候
辉@@
嘛
南亚
电离
软件应用
油门
分析@@
伴有
践行
景色
保护装置
关爱
SL
保护主义
拥塞
个人资料
一届
奶粉
大米
就让
算是
第八@@
电影院
事是
淹没
所列
缺席
清液
SCR
2c
生物降解
ight
壁垒
那一刻
诚
⑴
WAN
国务院@@
厄@@
指导方针
表彰
四条
目击者
人才@@
806
EM@@
弧
庭@@
硝酸盐
超临界
326
物理层
困@@
最强
这起
初创
屁股
肩部
减震器
实惠
中国人民银行
第一年
姓
伤亡
阶级
爷爷
工具栏
头盔
数字图像
163
品尝
统一@@
贪@@
亚美尼亚
新闻网
10B
ML@@
NE@@
色散
安徽省
遇@@
水源
胎盘
MSC
生产工艺
浩@@
链轮
途中
实验@@
项目@@
对外贸易
粉尘
Cal@@
这边
核裁军
mon@@
君@@
敌@@
胞@@
远处
吉林省
娃娃
2.6
杰夫
西雅图
学士学位
二酸
盗窃
欧洲人
栅格
解散
历史记录
欧盟委员会
创办
阵容
聚硅氧烷
搜查
牵头
半球
低电压
颈动脉
分红
钙@@
交易者
花钱
变电站
共计
引出
弱势群体
厌倦
真空@@
性感
遵@@
注意事项
降级
1981
猴子
掩膜
资本@@
致富
数据模型
高斯
基础@@
胶粘剂
Do@@
cm3
漏斗
０
师生
控制中心
NACK
应用领域
詹@@
Fc
脉@@
708
ino
1967
湿气
数据处理系统
深厚
堵@@
蜂蜜
回转
性行为
应收款
桌@@
疾@@
605
高潮
调理
堵
型材
忍@@
封面
郎
依法@@
空袭
全职
浇@@
滤光片
相对湿度
商学院
日本政府
湖南省
解说
鲁棒性
虾
穆罕默德
精美
商业化
不敢相信
史蒂夫
多晶
操作过程
产品开发
嵌套
风电
中国科学院
会长
圆柱体
Add.1
剧本
可观
稳定@@
下旬
兼顾
周刊
粪便
金色
总体而言
倍数
微创
十五
调光
景象
敏捷
移至
好友
高中@@
蔡@@
ial
协商一致
鞋底
眼科
1800
碳酸盐
LR
捆绑
安慰剂
理学
玩耍
非常高兴
正确性
归类
完全相同
分子筛
几率
长沙
IPv6
倒入
太棒了
媒@@
例在
57@@
停留时间
雕刻
察
布尔
十多年
这片
咖啡馆
终端用户
部段
双击
时限
旋风
医务人员
饮用
ks
法则
钒
ett@@
寄生
该法
相适应
第四个
镇痛
对数
四周
标志性
TB
David
截图
高度@@
姜@@
Met@@
张紧
等同于
注视
力求
拉斯维加斯
范
实际@@
集体@@
酸化
JA@@
急救
普遍认为
每分钟
FF
中美关系
氢氧化物
多哈
飞轮
Dis@@
SUV
疏散
NP
文化交流
民航
面料
斯洛伐克
十年代
CAM
接缝
分散性
带回
激进分子
Er@@
有过
个数
ast
印迹
甲基丙烯酸
砖@@
针刺
出生@@
信件
教科书
矫正
鼠@@
赶到
狂
公交
国防@@
地以
当事方
路边
热传导
构图
吉他
赚取
耗时
热泵
布鲁@@
Gl@@
来回
询
规约
经验教训
数十@@
鸣@@
啥
本报
唇@@
甲氧基
金字塔
性价比
补充剂
提高效率
豪
CPI
DN
平面@@
硬质
庄@@
拒@@
诉求
孔隙率
极具
深层
重试
Pol@@
地下室
ark
PDU
滞@@
纪委
专门机构
好看
旅行者
第三届
做饭
不管怎样
接收者
心轴
墓
磁头
乌拉圭
粉红色
区域合作
尾部
降水
小企业
KB
帅
为准
外币
候
一股
SV@@
陪同
ED
财
评选
框中
1950
陕西省
收发
横跨
一定量
指甲
跃
MP3
手持式
脉动
播放列表
莫桑比克
ens@@
算术
阻燃剂
ASIC
COPD
8.5
解放军
遮蔽
前锋
轻质
AF@@
广大@@
渡@@
国家元首
细致
外语
攻坚
FT@@
管局
公用事业
毫不
这才
抵靠
生存@@
万亿元
GS
ys
质押
搭
TiO2
香蕉
测量@@
摩擦力
麦凯恩
种植@@
裂化
1983
无线连接
椎@@
→
轮询
内分泌
亭
耗
排量
靶@@
保守党
ist
废弃物
摩擦系数
顺应
编程语言
详尽
悠久
音乐家
自贸区
轨道交通
相差
相遇
闪
Tg
学业
251
考古
颅内
捐@@
坚定不移
体中
宁夏
二战
昔@@
外部环境
崇拜
公顷
480
晚会
放宽
小幅
揭露
肋@@
非营利
体积小
开业
网民
蒙特@@
搬迁
廊
端盖
烯基
op
泊@@
饮酒
成份
报导
壁纸
磷光体
溅
盘算
眼光
孙
体温
N1
图像@@
沉浸
沿图
骨质
线材
RAID
雅典
湖北省
谋求
内燃
吃惊
务必
一时
岸@@
显式
佛罗里达
分校
出口商
伐@@
黄金@@
诈骗
漂@@
涉
水力
海峡
输出设备
卒
语言@@
之地
机车
咪唑
阿联酋
颈@@
comp@@
LL
残忍
逆时针
感官
荒谬
成将
发了
own
下发
ale
身后
稠@@
惠
418
车厢
摩根
充实
CG
一封信
DRAM
巡航
使用量
化妆
预聚物
65%
Ia
无核武器
设定值
有钱
夹子
星期日
槽@@
面罩
宁波
审慎
采纳
极度
无条件
603
国家标准
预制
奔驰
村里
打印@@
98%
脾
二甲苯
微分
剃@@
形貌
简易
差错
佐剂
工作台
风能
标定
芳香
工商
管理程序
耕@@
首尔
肾上腺素
水蒸气
星空
手腕
纸板
送达
十二届
一堆
块@@
板状
定理
湍流
边坡
涌入
济南
Access
箱子
沉淀物
不时
313
层析
马铃薯
浦@@
倾角
贿赂
破损
头衔
臂@@
our
排行榜
920
内罗毕
游戏机
发射极
凝结
首届
受益人
体征
数据仓库
伽@@
确定性
跳过
邻
保险杠
硕士学位
追逐
ATP
费城
上报
遗忘
枢
阶梯
麻醉@@
了不起
氧化锌
两场
近距离
奥尔@@
厉害
信号@@
短期内
几家
苯甲酸
痰
跨度
脊@@
ne
卷积
才华
高级@@
换取
工程学院
赖
厄立特里亚
脱颖而出
深层次
往返
缩水
通知书
wt
令人担忧
媒
凭@@
创纪录
任务@@
阿拉@@
继续前进
从业人员
络
另一@@
半透明
滤
乘法
霸@@
转变成
时要
522
amp
共价
第二轮
流式
十一届
滤色器
开关电路
徒@@
租户
绑@@
阐释
弗兰克
长城
健身房
强烈@@
突变体
该类
三位
出发点
牢@@
压敏粘合
尊@@
踪@@
监测@@
精致
农业部
跟进
独家
昏@@
及图
入狱
淡水
黏膜
Pat@@
卖淫
烷烃
亲切
GM
假日
课堂教学
G1
优缺点
警示
存器
际@@
阿尔巴尼亚
网络服务
氯仿
电站
权衡
第四季度
多长时间
三元
节流
记录器
钽
祭@@
个子
意向
创新型
地缘
保管
液位
检疫
脉冲@@
瘫痪
犯有
云南省
复方
以人为本
ation@@
制服
基因@@
Ros@@
第九@@
障
局限
中仅
数月
幸存
锤
办公厅
年龄段
产品设计
导光板
凹
剖@@
逃跑
筛
阿尔茨海默
汇款
原创
聚酯树脂
侮辱
修剪
罚
劝@@
轻武器
污水处理
水利
运河
流器
PU
采取任何
布里@@
服役
TI
能为
休眠
皆
尔特
主要@@
Ge@@
L3
救护车
上侧
地质@@
充电电池
缩写
在乎
截取
行列
境@@
粘接剂
mul@@
断电
里斯
不算
学习者
薄板
一号
清晰度
进气口
兰人
迈进
回国
阻燃
杯子
特使
多万
712
enc@@
墨尔本
经济区
失控
离子注入
征求
墨盒
矩
人有
根本原因
美方
清洗@@
红十字会
第二信号
本期
姐
虽@@
主场
鹏
读存储器
吕@@
SK@@
Au
奉
滞
瓦尔
马萨诸塞州
僵尸
辐射源
博士学位
弗吉尼亚州
几内亚
市场准入
横梁
保修
附表
恢复正常
利亚@@
name
暂时性
心电图
中共中央
液压缸
保费
DCI
名词
阿拉伯@@
日晚
弓
女友
乎
克里
注销
骑士
实心
关押
逾
兽医
贮存器
广泛@@
滚轮
克鲁@@
跟上
池@@
多发性
十五@@
时应
相移
无线电通信
变频器
浸润
证词
流逝
赔@@
昆明
脉搏
Na
卷入
5C
测器
缓冲剂
人选
右翼
斯基
217
新闻部
疼
灵敏
脚步
立法会
预示
CD4
年限
数据管理
发掘
遍布
较弱
周期@@
内科
人中
一眼
冰淇淋
胖
拉链
扰乱
仓储
立足
材@@
VIII
简报
葛@@
群落
On@@
一个多
双键
俄罗斯@@
外长
天气预报
京津冀
EV
平常
包装材料
励磁
卫生保健
散列
糊
一节
内部结构
多路
诊治
安全措施
20A
佣金
谣言
百年
养成
amp@@
重用
3.4
3.6
灭
锯@@
高危
XX@@
Pi@@
全息
核电
每条
ITO
贺@@
壁上
流变
普通人
茂
硅酮
2025
变小
牙买加
CV@@
反射光
格兰@@
晶圆
2000@@
中外
盎司
充
入选
楔形
管理机构
逢
凝聚力
隔壁
三人
中枢神经
蓝图
mi@@
建立健全
尖锐
这样的话
喜悦
格雷
休
政治权利
党和国家
德国人
接合部
退伍军人
溴@@
2.8
雄心勃勃
问问
日讯
出院
教学质量
植
该部
俄亥俄州
典范
溢
副局长
沃尔@@
表达@@
音频@@
保值
LT
不能@@
氧化锆
翅片
煽动
饮@@
电力供应
合物
185
以较
蜡烛
热力学
Des@@
讲解
跑道
锥
微分方程
遗传学
工资@@
516
纹身
被盗
边框
Bro@@
罪名
数据保护
测定方法
SDS
陀螺仪
寡@@
尿布
盾
58@@
计价
2.7
言论自由
毫@@
联合国大会
560
调谐器
简历
健康@@
漂浮
圣地亚哥
衣橱
铭记
橡胶@@
溜@@
帐@@
中小@@
拳
辅助@@
哈尔滨
绩
卫星频道
漂白
电流密度
有何
H2O
专门知识
妇女@@
劳务
机动
工地
13A
领土完整
整车
两只
树林
摊销
深入@@
一看
固相
δ
翻新
令@@
投资银行
做事
装运
系统控制
钢材
主动脉
手术@@
储罐
ACS
WT@@
不可思议
随便
Sm@@
办事
暴跌
改性剂
Wal@@
撤@@
工程建设
颇
重大@@
拇指
高层次
净额
汽车行业
公共政策
输入@@
Comm@@
壳聚糖
睡着
归还
Instagram
进出
民间@@
黑龙江省
酷@@
二聚体
大象
阻隔
多层次
参考@@
咨询@@
压实
催化@@
竹
以防
186
缸体
示威者
49@@
专利@@
接触点
深刻@@
转向@@
新高
外商投资
捷克
卤@@
文摘
卤化
奥迪
you
肯尼迪
物价
择@@
ics
简而言之
绵@@
Red@@
计划@@
赞
育种
牢
SN
Plus
非国家
双工
白皮书
天天
税款
帝@@
屈服
核心@@
A3
格尔
采取有效
单次
238
模特
配准
鹿@@
辨别
Mor@@
弹性模量
使能
钎焊
磁力
回头
走访
地表
均衡器
辖区
蜡@@
承
背叛
复合体
深受
特征@@
淬火
偏移量
我刚
上任
铁矿石
武术
计时
输给
银行家
草地
训练@@
衡@@
萨达姆
德国@@
充分考虑
英语教学
致敬
ek
昂@@
轭
尿道
负担得起
中新网
act@@
稀
还款
位居
地基
有形
被控
咬@@
全国政协
米尔
苹果@@
高低
喷洒
带通
双链
侦查
变化率
诺基亚
IC卡
弱势
安全隐患
鸣
至该
楼市
活动@@
非洲@@
心室
夏威夷
储量
丘
法轮功
cs
液晶面板
单据
心理学家
心跳
辅
躁
今天上午
CU
保守派
最坏
压差
发货
今天下午
415
剩@@
7.0
荷
SAN
700@@
社会化
理工大学
反相
烘烤
ix
免疫原性
皮下
眠@@
预案
面貌
用到
网址
此刻
wor@@
降温
尖叫
居然
烘箱
第一件
ew
Vis@@
博拉
妥
发音
CX@@
量度
外星人
面孔
日后
小男孩
PF@@
缆@@
近代
轻型
化学成分
Ⅲ
表层
这篇
CSS
碳酸@@
1949
社会保险
概@@
动脉瘤
卵白
智库
个案
拖鞋
专用@@
被示
遵从
酶@@
抨击
SDK
品牌@@
产品名称
另一名
丙
石膏
浪
尼斯
太小
钡
企@@
服务体系
俱@@
稀疏
疏松
前夕
平等@@
篮@@
识@@
老年@@
全程
牙刷
组合@@
断言
ist@@
科尔
人心
流水线
日程
R6
弥@@
多相
溪
公开赛
对称性
医保
小规模
sk@@
BIOS
很酷
经贸合作
驾驶@@
受到@@
心律失常
偏振光
出路
体育运动
241
不介意
例是
期末
CB
棋@@
两张
凶手
感恩
滨
巴林
脑缺血
禁运
敷料
飘@@
立体声
历史数据
布拉格
线或
EE@@
大程度
退役
引
纽带
目标值
逸
等国
热管
ins
喷雾干燥
RL
管理中心
人性化
合剂
反应@@
充放电
亿英镑
东南@@
研究组
家用电器
Im@@
牢固地
原始数据
厌@@
撒哈拉
慈善机构
总体@@
清华大学
竭@@
衍生品
伊丽莎白
后视镜
Mac@@
半决赛
很漂亮
胆
睁@@
双胞胎
执业
抬起
法典
辽宁省
朱
烂
肝素
作文
VB
烧烤
误导
完工
季后赛
雕像
人脸
令人惊叹
那次
面向@@
十二五
下个月
山市
覆盖物
辨认
东欧
优惠政策
炸药
准入
压机
件@@
纸浆
针头
佛
PIN
恐龙
萧条
君
酪氨酸
凶@@
香味
冻干
婴幼儿
知识库
山西省
逆转录
do
PO
16a
全长
好吃
计量@@
单链
公投
电枢
现值
VD
医药@@
橡@@
自体
Is@@
凌@@
4.4
以下内容
147
交所
苯胺
说实话
问候
≥
扑@@
178
动式
Je@@
高素质
亡@@
开端
社保
努力@@
1973
骗子
北京大学
胃肠
HPV
硫醇
贯@@
私有化
NASA
异物
核试验
遣返
２
da
接受@@
吸毒
破解
悲惨
181
凯特
日益@@
压力容器
踩@@
杀菌
五次
多大
ync
金斯
极端主义
---
宾馆
枪手
大致相同
NaOH
沙拉
支撑@@
全额
RB@@
滑坡
复员
吐
过早
几秒钟
深处
追加
人事@@
惯@@
Val@@
G20
抚养
流感病毒
规划署
四处
组与
散热片
征求意见
制片人
离岸
....
开罗
嘴@@
na
马耳他
OEM
无人驾驶
农田
身分
小朋友
缴@@
Hol@@
羽@@
ac
痴呆
化工@@
PMI
接触器
祥@@
东北部
原告
凸块
交际
酸酯
杀虫剂
紫外光
自由主义
兽
篮子
戏@@
利差
俊@@
烤面包机
去离子水
塞内加尔
清真寺
民事@@
TR
人际关系
节段
rip@@
羊毛
一章
围栏
忘@@
XRD
格林@@
纳粹
强力
经济损失
柜台
大韩民国
屡@@
皮层
螺旋弹簧
赞比亚
人身
绝大部分
磁阻
紧紧
铸铁
掩码
狼@@
域@@
三十年
三明治
动漫
凤凰
哈里
表示感谢
观光
悲@@
培训班
血性
骤@@
新政府
MSC@@
偿@@
分立
MATLAB
聘
甲基化
各州
临床表现
德拉
联合国安理会
乳剂
双极
路程
6.2
电控
之路
邮报
iPod
茂@@
共建
领导力
咖啡@@
GP
二胺
棱@@
赢@@
Flash
笼@@
舟
客户@@
洗衣
16A
国有资产
汇聚
铸件
ACE
辐@@
莲
握
控制措施
ax
D3
安全感
葡萄球菌
68@@
工业生产
清洁剂
黑洞
普尔
让步
哪怕
游说
出示
614
联机
五月
腈
预言
EB@@
距@@
八条
附加值
胰腺炎
车里
图层
PTFE
整整
计算机科学
卡通
造就
赏@@
立方米
国际法庭
客服
右手
宏块
满足@@
Sol@@
腕@@
估价
自律
祂
持续性
一共
不间断
S5
To@@
技
蒙特利尔
创新性
加仑
凝剂
内需
Pri@@
南北
一帧
电磁场
耐腐蚀性
带状
大地
鲨鱼
否决
88@@
酯化
万亿
结肠癌
熔
重要@@
福克斯
握手
还原@@
五分钟
多媒体@@
自制
电力线
意味
拉德
医科大学
手法
国企
é
公钥
通用@@
划线
萨尔瓦多
犹@@
表观
法制@@
茨@@
PPP
职权
磷酸化
一番
一向
巴塞尔
盟
只读
加法器
宏观调控
生殖@@
感到高兴
没人
电容式
批判
收盘
猜@@
耀@@
ys@@
ap
金融风险
342
13a
偏向
第三代
滨@@
霾
战后
万平方米
互信
lin@@
定位系统
最低工资
开拓@@
侦探
serv@@
念@@
菊@@
66@@
碱土金属
动手
汇票
异源
书店
加工@@
已于
NK
ABC
鸡肉
六月
善意
伊利诺伊州
多项式
铈
母公司
分类@@
信贷@@
睾丸
肮脏
突发事件
难得
出价
毛利率
随机@@
轰@@
全区
塞尔
切实可行
PSA
婚姻@@
驳回
当初
软组织
压降
点处
Q1
陷
沙滩
160@@
领先地位
470
搜集
SH@@
ank
推销
美术馆
稳定化
百分数
水相
查理
摄体
数据项
遗漏
tl
深切
901
ub
芯部
晋升
有所@@
fl@@
貌
推杆
免税
闲置
笑容
MG
一辈子
需要的话
自闭症
115@@
票房
星系
鲜花
机顶盒
彰显
凭据
极高
晋@@
隐含
前台
体面
雌性
很多年
花生
ated
乳制品
延迟时间
层次结构
内政部
第一场
货架
拼接
内向
海马
挑衅
424
幸福感
中世纪
RAT
东南部
俊
数百名
重合
透光
加成
Av@@
筹措
草药
曼彻斯特
超额
影像学
不断@@
事儿
微结构
精简
篮
资金来源
没法
锌@@
重新安装
col@@
证券@@
亚历山大
鲍勃
衰落
特殊性
斯克
SOC
角速度
回收率
两国之间
沙龙
克拉
党的建设
法律责任
联结
ISO@@
小小
醋酸
保护环境
TTI
油耗
胍
洛克
粮@@
煤炭@@
ute
Intel
剩
编解码器
老龄化
继续下去
基极
30a
第一部
1975
边界@@
桨
重复性
囊肿
店铺
强势
柱状
TG
亚利桑那州
番茄
民进党
轻轻
嫉妒
壮大
正试图
平凡
野蛮
攀@@
印度@@
Char@@
正时
三月
壁炉
底漆
内衬
严重@@
填
玻利维亚
灌
VS
社会福利
口令
明显改善
赖氨酸
矿井
嗜
中度
五种
矿石
时延
用法
IFN
纪念日
两份
直立
NB
仪@@
暴力事件
中未示
酰氯
磨削
TT
广播@@
天数
两党
ical
公民权利
政策措施
发泡剂
在短期内
自动控制
零售@@
业余
幅@@
该校
气阀
高地
可惜
log@@
备件
项目经理
缘@@
熨斗
往复运动
行政长官
社团
诸
磁性材料
伟大@@
公司法
锻@@
嘴唇
计算所
柴油发动机
中应
见过
最佳@@
瑟@@
Trans@@
妇@@
ht@@
凝血
ost
伍德
退款
Pre@@
反正
升起
立陶宛
女演员
ez
牛顿
第一家
直辖市
6.1
传播@@
精制
恰好
浸
褐色
抗震
吁请
CV
莎@@
魔鬼
崇高
星形
台独
搁置
欣
NAS
参考值
外源
挖
352
翅膀
标准偏差
提纯
机械设备
络@@
1976
NaCl
令人不安
畸变
接入网
流传
低价
用具
so
宗教@@
宾夕法尼亚州
511
邮票
德黑兰
奇妙
和平解决
轮机
MBA
建筑材料
照料
轧制
DHCP
蒋@@
亨@@
硼酸
意在
打出
胰腺癌
流媒体
值得一提的是
访问@@
轨@@
卷曲
开发利用
极区
海洋法
MMP
爱沙尼亚
苛刻
巴拿马
革新
功能模块
聆听
并不一定
New@@
不断完善
响@@
栗@@
先锋
舰队
挨@@
这块
fin@@
氩气
澳
计算机辅助
AW@@
灭火
浑@@
Add@@
PUCCH
继而
139
军备
打工
3mm
收听
难民营
246
陵
顽@@
栏@@
休息区
法律援助
溶胀
爆破
臭@@
日语
梯形
全自动
山羊
妹
绝热
敢于
集电极
暑假
220@@
委任
膝上型
薪金
害@@
这支
腹腔
医护人员
上演
空间站
ur
斜面
旺
厌恶
334
混频器
CK@@
侧板
土豆
拳@@
我该
聘用
箍
SAS
数码相机
宗教信仰
伍@@
830
克拉克
忧虑
实务
NMOS
争
43@@
传动轴
乃@@
超重
割
发生冲突
选地
知晓
平原
语境
阿拉伯联合酋长国
一双
人口普查
收养
衰@@
ide
平方
EGFR
配料
控制元件
堂@@
整天
足球@@
VII
短距离
借此机会
管中
酸奶
屠杀
自有
合成气
敲
喂养
联邦@@
互相@@
宣告
各省
翻译成
Pet@@
淋@@
中所@@
1mm
不久前
不论是
差异化
馈电
内部@@
带头
奏@@
尿酸
暖
掌
执法人员
某种意义
无所@@
饲养
欺@@
ari
辞@@
尔森
低位
要约
犹豫
谷氨酸
奇偶校验
栽培
燃气轮机
马力
NAND
丙烯腈
解除武装
拉夫
催化活性
一辆车
Ke@@
2021
抢救
中场
起源于
涂抹
188
挠曲
一揽子
++
264
摇
Mark@@
或多或少
挥发
奔跑
ug
min@@
第五章
前缘
甘肃省
谜
淘宝
板球
坦桑尼亚
钢结构
基本法
幼苗
RH
CRM
432
流转
密集型
溢@@
极了
鞭@@
ne@@
6C
叙事
亚当
绿色@@
生产性
被告人
奉@@
银行卡
长春
国家统计局
收据
Mer@@
格里@@
amb@@
阿拉伯语
热电偶
通讯@@
醋
黄酮
强壮
白内障
减速器
悬臂
JSON
ris
搬运
称号
好坏
t2
热器
绑
棚
枪杀
家禽
戏剧性
在意
保险业
门店
占领@@
基点
巨人
曼哈顿
总收入
国际原子能机构
卫星电视
转为
压力@@
1004
温柔
镀锌
协调一致
会同
初学者
先行
办公桌
微调
中子
特质
抄@@
无纺布
A4
马拉松
轨制
天生
水体
律@@
朝鲜@@
技术转让
iP@@
11A
乌兹别克斯坦
转轴
藉
激活@@
四天
回声
驻地
调速
省长
ESD
史蒂@@
不予
六条
斯蒂@@
衬
人员@@
拆分
比起
本行
晓
洪
更深
晶体结构
适应@@
迁
BB
阶段性
dis@@
箱体
典礼
拨号
乐团
孕
中向
柜@@
双面
美国国会
二甲
拱@@
xml
真空泵
网络通信
法国人
放射线
开发新
闹@@
sch@@
机箱
肚子
长久
Inst@@
现存
psi
珍
一整天
管理信息系统
0.0
AMP
反义
译码器
gr@@
取回
中国证监会
天津市
单相
店@@
整洁
养分
uk@@
有益于
正弦
老挝
高点
汪@@
免疫性
括号
购置
滞留
湿法
乍得
单核细胞
场馆
噪
Α
清洁@@
开办
闻@@
为示
纠错
三角洲
斩@@
商品价格
敏感度
808
阿森纳
厂房
ano
194
皂
领导层
腰椎
跨界
天然@@
栖息地
贫
山上
举起
rec@@
iTunes
含氧
母乳喂养
泥浆
TX
模组
CSF
晒@@
点钟
历时
斤
全县
同一时间
化学式
登记册
后退
社会学
卸下
几项
Type
国土@@
AE
Michael
眼球
递交
防护@@
加油站
英文@@
经合组织
骨干
耗散
套装
非常复杂
居住@@
注明
整形
新娘
籽
俄语
MU@@
闹钟
烦
压印
SI@@
形态学
下车
国际法院
高压@@
倒塌
Work@@
坟墓
万辆
裙
CK
令人鼓舞
半部
1972
更能
金属膜
生存率
尾气
具体措施
中国队
有名
组织学
白光
滚珠
铁矿
工作温度
三周
发烧
圆筒形
无毒
克罗@@
尸@@
斯科特
措辞
打死
有色
唇
非常重视
中均
大人
高时
斯洛文尼亚
咽@@
南极
906
感染性
结节
loc@@
赛道
赶
线下
分型
空燃
微弱
喜好
岁月
阻滞
705
DMF
191
一大批
八月
最合适
Bur@@
上载
傅里叶
使馆
孔子
＋
血清@@
帽@@
卢森堡
竣工
掩蔽
宁静
控制算法
髋关节
仗
底特律
路段
受托人
勃@@
筑@@
轧@@
体细胞
租用
口径
知识分子
奇异
蒸
草坪
隐性
铁芯
89@@
狂热
毕业@@
四月
钛合金
科罗拉多州
55%
一一
157
阿司匹林
江西省
复习
病毒@@
午夜
第四届
检察长
葬
微晶
Max
一列
山谷
停车位
TGF
德斯
适
老实
梭@@
瘦@@
进取
射器
青年人
光荣
运载
其内
空前
小屋
详@@
流率
凸部
面粉
评论家
青光眼
污垢
do@@
妇
庞@@
组在
吉林
通货膨胀率
寻
洞穴
RU
电功率
造纸
廷@@
上校
亚型
点评
DF@@
收容
贫困地区
ze
第一轮
节流阀
网点
pr@@
廉
安妮
自行@@
攻
辆车
建材
流式细胞
午饭
10b
丰富多彩
可燃
巴尔@@
常委
海军陆战队
爱国
依从性
1.9
有所改善
新泽西州
Street
城市规划
促进作用
蚂蚁
能以
坐落
大家庭
间质
SO
尔曼
车祸
第三条
制定者
努力实现
与众不同
5.3
挡风玻璃
插孔
of@@
产值
非洲大陆
FFT
隐瞒
监听
股票价格
SY@@
ns
蜜蜂
328
嗜@@
掌控
淘@@
抓获
减慢
福州
英亩
奶油
拉脱维亚
发电机组
中国银行
车手
发扬
煎@@
股票@@
涂膜
核对
出门
巧妙
尽头
播放机
乳糖
异丙基
之初
E1
设计者
ul
女士们
ox
佩
青海
全国人大
新闻报道
接点
iv
8b
重命名
普遍性
一顿
偶像
社会效益
转入
炒@@
Kar@@
实验教学
现今
经济带
收纳
berg
杜
粘着
监事
回调
摄入量
辽@@
卤化物
该党
寓@@
锅@@
租房
处分
什叶派
肽@@
泄
一氧化氮
头戴式
辊子
患病率
利于
并非如此
第一级
根除
突袭
做生意
tions
半导体存储器
大意
另选
创业者
少女
CMP
析出
ECC
趣
消耗@@
新闻稿
VLAN
失活
盟国
枕头
X1
好运
收缩@@
类药物
丢@@
ish
伸长率
多巴胺
含水量
大大减少
309
提振
1974
背包
堪@@
星座
面具
纺丝
适用范围
文艺@@
家居
物质@@
祖母
口岸
炎热
物价@@
坠毁
等候
磺@@
美国公司
海量
供需
波多黎各
巴拉克
贝克
纵横
Jo@@
闭锁
多方
环比
哥伦比亚@@
成本@@
膜炎
疗
配位
射出
台式
瘫
肿瘤@@
双语
并不需要
趋向
肆@@
保持良好
坏账
选择@@
水器
未必
做点
被誉为
活化剂
ign@@
不全
大纲
哥本哈根
裁军谈判
保卫
今朝
肿胀
猴
挂牌
银行贷款
阿曼
歧@@
方便@@
par@@
特种
颜@@
大功率
文本框
传输速率
搁@@
RU@@
钻探
这样一来
伤心
危险性
丁烯
演唱
硝基
SNR
连线
EF
釜
光量
蛋白@@
极其重要
XX
交易商
连续@@
陶瓷材料
体质
Kh@@
VP
害虫
服务水平
驾
急诊
曝@@
赶紧
应用软件
票价
炸死
电池板
不稳定性
会以
男生
新款
生物医学
观察@@
禁毒
冷水
据估计
忧
第五次
丁酯
住房@@
SOA
筹集资金
史上
Tre@@
傻瓜
库中
状态机
寄生虫
一头
最受
躲
崭新
腺癌
麻疹
赢家
缺省
裸
影视
抽头
问到
子网
n%
67@@
纪念碑
盈
ec
心绞痛
可操作性
1D
GL
喘@@
适时
黄铜
利斯
我們
开展业务
扮演着
者@@
计算机技术
高技术
展现出
第二年
归档
犯罪行为
数十亿美元
遮挡
躲@@
斯科@@
人文@@
冷冻机
职权范围
棕榈
本市
索赔人
渗漏
进气门
7.2
这套
无知
Cloud@@
前驱
保险丝
摄影@@
共同利益
圆锥形
首长
工艺流程
投标人
劣@@
脱机
历史悠久
罗姆尼
并列
各界
mer
松散
热膨胀
镁合金
中要
高得
锯
利好
识
极板
沸腾
恶魔
Nor@@
华丽
第三种
心房
弹道导弹
名片
帐号
量值
窄带
46@@
米勒
公安@@
包层
就诊
ther
问道
共赢
质量保证
工程学
床垫
实用@@
载人
ust
征聘
甜蜜
血细胞
表面张力
随之而来
夹克
Mi@@
一口
罚@@
联合国儿童基金会
伊朗伊斯兰共和国
触摸板
戴维斯
押
番
425
Sw@@
英国政府
鸭
公共场所
迫害
该行
工具包
步枪
erv@@
各组
竞争者
普通股
实线
淋巴
儿科
长丝
不小
交易量
主教练
狩猎
搜@@
掀起
粒状
引流
分压
报文
妥善
抬头
团长
天气@@
优美
截然不同
GPRS
脑出血
达尔
世博会
残
旅途
誓言
经委会
Cap@@
听听
供应量
并行@@
格栅
this
245
海鲜
规例
land
过敏性
热敏电阻
载入
身材
文明@@
重新分配
侦@@
年会
证券交易
age@@
系统对
副总经理
中美洲
梨
动物模型
脾气
汗@@
试验区
对焦
媒体播放器
Mn@@
篡改
监控器
倒闭
规制
助听器
not
排水@@
晚间
通讯社
车子
场上
赫兹
安全可靠
液中
盘子
托尼
MW@@
垄断@@
道路交通
打断
原先
美洲@@
革
合资企业
意想不到
发生@@
认购
22a
pre@@
张贴
往复
环己烷
14b
毗邻
轮椅
贵州省
恐怖组织
燃料箱
末尾
QQ
照度
推定
大众@@
SRS
有无
文凭
均匀分布
灯号
HA@@
吴
夸大
电子系统
野外
技术水平
消防员
消费量
其示
排查
Air@@
充满信心
电子表格
ock
流血
Tl
彼@@
超高
球面
桃
环球
AAA
告别
Mg@@
督促
通用汽车
起首
动植物
服务平台
MTC
旅游局
营养素
丙酸
得克萨斯州
CH3
命中
热水器
临
脑血管
复用器
改装
就职
锋@@
维权
950
Lin@@
一千@@
上周五
三方
枚举
吡咯烷酮
愧
喀麦隆
抱@@
铅笔
课程@@
成核
普林@@
大力@@
纷@@
开环
建筑业
严格遵守
IGBT
热潮
拉美
tive
院子
龟
同盟
407
期满
恤金
孤儿
恰恰
药物制剂
1c
二价
美的
inter@@
留守
湿润
CG@@
ass
无权
TL
抵
实实在在
噬菌体
普查
文件格式
讨论会
如所
侠
一事
吉尔
eng@@
her
纹@@
海运
平滑肌
首发
车体
广播公司
黑龙江
装满
FA@@
外汇@@
布兰@@
面向对象
区域@@
旌旗
建筑工程
热衷于
Str@@
cr@@
内政
认
3GPP
虹@@
比分
旺@@
Us@@
光明@@
旋律
从那时起
大坝
孙子
扩散器
电动@@
小孩子
承载力
文艺
胜任
人队
膏@@
最低@@
里奇
铁路@@
斥
台湾@@
κ
饲@@
典
驱动电流
毛里求斯
磨机
裙子
7000
扩展名
执政党
UPS
多种形式
铁氧体
涌
za
世界级
安定
挖掘机
抽烟
BR
涵@@
民族主义
垃圾邮件
信徒
几名
窃取
东南
涡旋
诉@@
增稠剂
三季度
VMware
谨@@
掌声
公示
纽约州
开路
黛@@
松动
Q2
串扰
磷酸酯
Ass@@
主营业务
RAN
郁@@
逝世
透气
苄基
Vista
50ml
头寸
Ber@@
退回
接触面
税法
Mod
体育馆
本金
泌@@
丹尼尔
已婚
Serv@@
预应力
FTP
临界@@
组长
沿海地区
Vd@@
都市
追随者
穷@@
侧边
叠
矿产资源
腔@@
港元
鞋类
螺旋桨
驱
基础教育
支持系统
性暴力
联合声明
题材
荧光灯
9a
测定法
DT
开裂
RACH
增至
反击
共同点
①
无须
一家人
列中
锁存
HS@@
无线@@
一无所知
电子书
监
强制执行
西欧
打下
测绘
渗透率
卫生纸
单价
件事
重放
人民检察院
窦@@
覆层
因果关系
增强@@
定位器
动力系统
必要条件
防腐
era
狭@@
素质教育
true
战略目标
仆人
卤
经济运行
咖啡机
14B
WebSphere
卢比
甘油三酯
祖父
断面
15A
芳烃
金融中心
1900
号召
mail
复数
并不@@
自然界
食管癌
喉
干燥器
一瓶
维亚
奥氏体
272
13%
Store
运费
上台
锻造
埃尔
男友
若干@@
密闭
DD
木质素
聚氯乙烯
培
二十一
MBMS
诊疗
不含
三点
难忘
不带
碳氢化合物
客运
估计值
光路
绘@@
咖啡因
测验
楼上
大队
览
醉
突出@@
URI
会聚
争吵
tion@@
而战
连接起来
氯化物
初探
若要
今年夏天
所有制
5nm
辨@@
近几个月
演练
50mL
As
环境因素
正常化
艾
联合国开发计划署
该图
近东
成瘾
漫射
吊
乎@@
time
玲
弃@@
不良@@
学报
Ι
Express
徽标
烧毁
筛@@
作出反应
扩大@@
战斗人员
雌@@
压紧
指代
在生活中
烷基化
1102
胀
铵盐
Her@@
管理体制
数字签名
档位
740
金融监管
MF
管腔
浪费时间
悲观
Ser@@
西北部
十几@@
本田
试行
净化器
试用
加到
高标准
美德
IMS
4D
ZnO
from
LB
乙烷
静止图像
支化
控制参数
遗留
南南合作
丛@@
兴奋剂
1945
这段
花朵
可扩展性
运算符
bl@@
Aut@@
诠释
发型
Group
剪
交易员
使用率
保护措施
Ra
垂
精度高
法对
蓝宝石
个股
战略伙伴
帘
法在
咸@@
刚好
想像
记者会
袖@@
投资决策
圆锥
Rob@@
示范区
豹
毫不@@
ors
碳化物
end
爱上
233
延缓
俘获
核心技术
尽量减少
液压泵
模范
受力
陈水扁
约瑟夫
偏远
一到
患@@
滴定
C.@@
七月
my
数据交换
循环系统
购买力
等价
排泄
伙
跨文化
多种类型
机组人员
二阶
卖掉
接触@@
瞧
奥斯卡
里德
一栋
H2@@
林肯
乐园
藤
一国两制
矮@@
前线
敌对
显示@@
IDE
ear@@
公共安全
哈佛大学
二羧酸
辈
进食
加盟
树突
余地
爽
195
财务会计
接口@@
栓@@
两地
中学生
1977
一如既往
监事会
源泉
18%
付钱
1020
性虐待
Sam@@
至上
展览会
贩卖
盘式
阵地
MV
肺结核
Live
恐吓
703
浮
逼@@
斯塔
ve@@
Cont@@
硅谷
DW@@
制度化
髓
二十
追
胆囊
异质
输掉
造福
魔术
胫骨
加班
夸@@
旦
科夫
专题@@
分布式@@
Ho@@
硅树脂
党支部
舌头
实际行动
双赢
捐助国
MI@@
严格执行
乒乓球
kW
韧带
南美
床单
特大
寨
10mm
丰厚
隔间
本能
找个
专家学者
弊端
itt@@
颠覆
滤芯
胆碱
互锁
济
糖基化
气缸盖
餐具
有效途径
填充物
根本性
闪光灯
基数
一月
存入
放映
公司章程
路易斯
焚烧
誉
残渣
国民@@
25.@@
代理服务器
辛格
执
水晶
IEEE@@
切实@@
舒适度
噩梦
副产品
1110
报销
胶原蛋白
妙
可使
ray
颗粒物
可溶
维护@@
马来
油酸
物理性质
感染者
逼近
Media
库克
倾倒
料流
科学依据
捕捞
碟
放射治疗
基本概念
胶片
光缆
伊斯坦布尔
起落架
热带@@
晨@@
长官
悟
0.15
劣势
使用@@
轮轴
高纯度
240@@
911
Al2O3
热线
部中
冥想
并排
壮观
兄弟姐妹
服饰
大大增加
我试
里克
高阶
无刷
救治
市政@@
栓
眼里
拉克
代码@@
eNB@@
1971
上映
812
arg@@
舵
边缘化
温育
开闭
网络化
补编
这台
反抗
祝愿
介
LV@@
解调器
传出
迈向
闭塞
浓厚
波纹管
偶联剂
代数
傻
H1
中新社
改动
首要任务
Adv@@
噪@@
过得
同轴电缆
身为
扩建
爱人
针织
性疾病
平壤
PK@@
德勒
中继器
Log@@
爸
One
堪萨@@
民族团结
丙氨酸
爱德华
微量元素
南宁
壮
日渐
铆钉
必要措施
原定
新窗口
制冷系统
况
友好合作
7b
完备
淮@@
五天
请勿
主链
MCS
市售
驾驶者
园林
蒂斯
绍@@
深感
脱欧
碳化
套期
孢子
小编
扩充
近年
草莓
边沿
认出
迈
矿产
磁芯
660
log
重新考虑
委托人
享@@
亚胺
摇臂
瑞士@@
功能块
数据总线
柴@@
Na2SO4
S1@@
ash
布莱尔
近况
戒烟
7.1
邮寄
镶@@
辣@@
优惠券
ATA
而异
往常
ω
彩色图像
对立
违规行为
左手
排雷
地用
特尔
TDD
讨@@
调整@@
互助
分形
一对一
知识经济
电致
扎克
拉曼
扶手
夺取
之夜
二手
馆@@
总有
标示
华尔街日报
修整
1001
非小
淡化
AO@@
畅@@
坚果
行政当局
尾巴
蒸馏水
EPS
铸
酐
投降
执行机构
丝毫
上述情况
情人
开放性
331
自私
二乘
祖
镇上
太快
抗癌
除草剂
东莞
内有
粘连
白酒
mo
细胞膜

水温
转而
纠@@
针灸
清晨
作用力
城里
现金@@
低浓度
着迷
退休金
皮质激素
不好意思
肺动脉
布尔@@
EMI
窒息
帮扶
终极
植物油
自称
天下
迅猛发展
文斯
隔音
加以@@
减灾
互联网@@
保持联系
腰部
参
off
ord@@
Project
捕鱼
较慢
一代人
VDD
复活
戈尔
纺@@
收支
沸@@
515
mat@@
质量标准
剖宫产
闪电
周后
碧@@
切成
反对党
精选
ke@@
坚称
小事
细微
公安部
有意识
瀑布
砍@@
档@@
福利@@
mic@@
鲍威尔
ens
SIM
魂
该案
年均
闭嘴
大类
各层
按住
高盛
埋葬
燃煤
1700
其所
种族灭绝
期限内
FI
宣传部
C5
ou
测井
扁@@
声源
口腔@@
方向@@
196
尼加拉瓜
las@@
畅
市盈率
初始值
无形
目标@@
抹@@
2022
LLC
政变
环糊精
能效
荣获
黄油
PMOS
鞍@@
沃尔玛
增收
per
8.1
左心室
豪华@@
台式机
小肠
十月
肤色
楚@@
万一
监护人
耀
传给
纤
K1
租车
袭击者
先导
叶酸
溪@@
螯合剂
藻类
矿工
私人@@
Int@@
NE
悦
汽轮机
特里
行李箱
雄厚
明显降低
成正比
扩张@@
洗澡
所在@@
输血
ani
汇流
默克尔
SSD
契
悬液
用人单位
慈@@
中级
ha
新闻媒体
驻车
MDA
妻
dr@@
客机
现代农业
慢性病
下达
时装
水层
光度法
按规定
Cs
专长
ony
缠@@
人造@@
HCV
以求
合肥
药理学
ake
off@@
卷轴
红军
动脉@@
面团
外债
PCM
暴风雨
为人知
使人
溶解性
纳德
代谢物
兑@@
时效
书签
看重
斯塔@@
金黄色
出席会议
密封材料
自然环境
波浪
输入输出
维修@@
氮氧化物
173
环氧乙烷
刺穿
可折叠
体力
盟@@
从未见过
锥体
逾期
蕾
打赌
HLA
售出
再有
爆炸物
每间
凹进
寄
第六条
LG
别无选择
OA
熄灭
湿式
患上
口中
霍
谋杀案
总督
接地@@
取而代之
Ter@@
渐进
刺激@@
火炬
共享@@
徘徊
密封环
就业@@
亿人
经常性
充填
教师@@
Boo@@
收拾
哨
Dev@@
歌剧
实验性
拼
回程
三家
居民@@
海南省
野心
MH@@
篇章
磁通量
ode
好玩
永不
这有
0.02
全球@@
裂变
6.3
反之
国人
分庭
印刷@@
糖浆
申请@@
Agent
派出所
来访
小学生
怒
岗@@
根部
握住
Home
犯@@
390
规划@@
硅橡胶
单抗
范式
窦
克拉@@
执法@@
顶视图
今
增强型
痕量
墨西哥@@
ich@@
州立大学
畅销
饱
宫殿
外国@@
被保险人
痉挛
就位
赠款
湘@@
检出
在职
十六
可悲
自治@@
低剂量
中文@@
ood
被忽视
斯德哥尔摩
绝佳
转账
合规性
柠檬
单色
换成
彻@@
立方体
好几个
合成树脂
手枪
Cat@@
149
硅化物
操作性
工艺品
火山@@
究@@
韦斯特
类化合物
七届
gre@@
遍及
MAP
渗透到
LDL
可谓
FDMA
凤@@
眼部
全国人大常委会
传递函数
警卫队
钉@@
寺庙
中型
ARM
幻
85@@
关键性
中间件
交叉@@
科医生
退还
sa
Pack
老公
闸
cookie
削
磷酸@@
母体
型式
安德鲁
期货市场
助长
耗费
达拉斯
ung
洗手间
促请
碳钢
整顿
辣
交割
视频会议
钢丝
出版商
姑@@
准确率
筹划
关掉
记账
告诉您
水上
UL@@
放电灯
14%
今年年底
赞美
开花
起义
机壳
荧光@@
装在
周转
BT@@
吸烟者
安德@@
南京@@
若干个
解剖学
耦@@
推特上
无处不在
氨基甲酸酯
应是
大得多
哌@@
世上
新人
ECG
筑
入门
大雨
雅虎
石蜡
总面积
防空
航天器
时间@@
扣押
新股
窃@@
梗塞
爱国主义
似的
哲学家
辣椒
贝叶斯
Ml
变送器
拖拉机
汽油@@
聚集体
构架
门锁
Ob@@
途@@
烘焙
激动人心
一楼
离子束
责令
携@@
RR
窗帘
下图
bo
重大进展
NG
特征提取
物理学家
贪婪
呼声
Pe@@
殿
贸@@
意见@@
哈佛
美女
Com@@
压缩比
购房
危险@@
贵族
kPa
拐角
称呼
fe
Μ
交易@@
吸收光谱
323
第一份
申诉人
再者
落下
纤维蛋白
质地
试论
518
相较
MgSO4
前向
帆@@
rig@@
口语
切开
一经
泥土
为首
威尼斯
晕@@
带式
小波
致冷
不懈
合法@@
无法控制
敬意
内生
跌倒
崔@@
TF
另一边
坚硬
块钱
贸
起伏
太阳系
估计数
残差
逗留
知识@@
纲
蛇@@
消耗量
不太@@
窃
Et@@
电体
颅
检察院
慕@@
ection
阳性率
不感兴趣
香水
ise
极为重要
绒@@
温度计
全球定位系统
各行各业
摇摆
丧@@
PLL
幕后
滑移
进口商
五十@@
秉承
菲尔
防御@@
崩@@
洋葱
蘑菇
缴费
3.7
行业协会
2O3
没能
miR
慰问
布莱@@
Sel@@
氧化应激
裸片
参展
麦当劳
ini
不可分割
秘@@
递@@
指导意义
成交量
母语
愈来愈
di
玉米@@
分离@@
拼写
CAS
UDP
购买者
一小
渗入
这事
横
下以
脑袋
霉
始终保持
化器
大分子
低时
三场
见表
撑@@
致死
弟
迁移率
正弦波
激怒
非晶硅
可可
预料
8.0
严密
歧视性
法国@@
视听
gi@@
受灾
袜子
11%
巴西@@
克尔
温州
SEC
相色谱
浸没
机械化
一下子
数次
时分
Lu@@
负载平衡
LNG
笑声
疆
愉悦
差点
激励机制
袁@@
喷头
烃类
棍
病毒性
控制点
ate@@
主导@@
津
蒙德
劳工@@
书法
迷失
出场
炭@@
良心
盐酸盐
法学院
0S
沸
拖欠
十字架
别名
黑山
友善
3.8
菜肴
胡
Mu@@
欧洲委员会
拧
识别系统
概算
曲轴箱
花岗岩
蠕变
余名
Pl
R7
传送器
敏感@@
随著
肌肤
说谎
绘
功率因数
诈@@
砜
海藻
大片
IEC
款人
站立
幽门
这本
胳膊
偏低
漂洗
ICP
″
＞
维斯
突触
DB2
不符
扳手
魔
350@@
配重
最差
1969
滴加
248
流场
ool
排气口
V1
PW@@
女孩子
GW
筋@@
Wil@@
递归
336
＝
正文
奈
粗略
颅脑
祷告
圆顶
合同@@
监测器
三国
mar@@
这比
疗程
也好
剔除
移植@@
符合条件
卡罗@@
Mod@@
刑事责任
安全装置
已久
基础性
生命科学
Cookie
架飞机
生命力
肾上腺
波音
气量
安装@@
NU@@
BS@@
714
慕尼黑
无家可归
M3
泛
严谨
哀悼
贴现
dy
月经
七条
更为重要
大奖
淀粉酶
El
不远
改正
现场@@
参考点
火器
Framework
劫@@
熔丝
筹备工作
Rl
菌素
解压缩
门外
不难
新任
红外光
牧
乘积
我花
严格控制
关联方
仇外
描写
少年@@
It@@
安德森
乳头
Ω
阿姨
交易成本
开关电源
便秘
税费
S6
写信
特殊@@
压裂
预备
高新区
ech
情报局
Time
摔@@
那条
這@@
精氨酸
卑@@
安卓
离子@@
lex
气机
襟翼
海平面
航母
Tur@@
Conn@@
排名第
大熊猫
翼片
铭
虚弱
GF@@
br@@
NV@@
用例
传来
乘用车
精炼
募@@
box
先进性
强加
安倍
算子
肝病
集中精力
打滑
洁净
PDP
VM@@
616
暗杀
程序设计
合法化
ata
中西医
ink
增长点
主管@@
16%
召@@
充电电流
厨房@@
销售收入
抓握
只好
MySQL
C#
饰@@
嘌呤
数百个
怀特
每桶
营业@@
双酚
输入您
傻@@
小瓶
著@@
细胞周期
小伙子
手续费
约翰@@
肝功能
dia
四项
畅通
师傅
技术性
结构单元
严重威胁
向着
保险费
急于
做爱
承保
炒
gro@@
台面
不怕
eth@@
可卡因
释
DAC
4.6
国家有关
54@@
POS
参考资料
聊@@
带隙
流出物
导数
长江@@
殖民
测试仪
减震
敬
渡
投资收益
凉爽
安全部门
场面
适量
检测@@
优越性
能量消耗
贸易法
坚守
平整
ut
莱斯
克里@@
餐桌
递延
沿岸
动力源
湿性
馏@@
捏@@
航天@@
增加值
详细分析
却@@
反倾销
新浪
本地化
投入使用
改组
17%
顶盖
盈@@
eN@@
中用
Ta
牡@@
622
纳米比亚
CU@@
闸@@
且@@
涡@@
坎
孝@@
负电极
图像文件
行业标准
协调@@
合作项目
微胶囊
化酶
斯托@@
奶牛
掩护
商户
失眠
迪克
IIS
电光
转身
甲状@@
硬件@@
奇数
蒙古@@
华侨
警卫
持平
特征值
TFT@@
礼服
803
甜味剂
持有者
波动性
车顶
剑@@
100ml
帝
预充电
经理人
524
礼仪
招商
室内@@
阔@@
摇滚
政府首脑
FF@@
金属元素
规范性
中枢
萘
复印件
疮
谦@@
青春期
浴袍
新手
计算环境
浊
三维@@
晶体@@
改编
根本利益
节水
科普
绝缘性
守护
深夜
第四条
寺
震撼
返还
保证@@
宏伟
之差
供热
基准@@
俄国
巧@@
又@@
第五届
DI@@
基础知识
去掉
Pb
重均
ome
近红外
相互尊重
绝不会
出厂
公共利益
皮肤@@
无障碍
OFF
ETF
霞
CN.4
Mal@@
映
本报讯
财力
参与@@
右眼
霍华德
肉瘤
诚意
检讨
偿债
温哥华
倾
eta
膝
AK
421
号线
我方
加倍
编码数据
29.@@
DSL
放进
萨拉
素材
纤维材料
非金属
两相
生物素
薪资
置换术
支护
网路
连任
隐喻
2.5%
人行道
通风@@
劣
驾车
pe@@
奖牌
聘@@
珀
露面
限制器
当晚
追溯
Mil@@
阵线
lb
黄河
内源性
inc@@
自来水
VoIP
抬@@
怒@@
消息来源
热熔
皇
奔
左眼
无与伦比
中等@@
不已
随即
强行
内以
果断
裙@@
冷藏
219
无奈
退货
泉@@
265
商机
专栏
迀
镍@@
猎人
自然保护区
教学法
900@@
软件设计
地标
朴
FP@@
境地
iti@@
ish@@
实效
基建
bur@@
写出
坡@@
QR
递减
九月
227
愤@@
Mess@@
RPM
刷子
输液
动量
半衰期
咽
演唱会
258
大战
外伤
不良影响
10000
辩称
发行@@
ena
获得最佳
披萨
入式
十一
18a
木地板
葡聚糖
Mag@@
介素
三组
主旨
抗击
减振器
卡拉@@
机会@@
Mobile
明显提高
New
诊@@
入射角
冠脉
MAX
穆
应从
335
性骚扰
访华
28.@@
抓紧
扯
星级
英语翻译
思科
ki
智能家居
del@@
电话会议
光谱仪
第十
重要途径
人员伤亡
5.4
Gro@@
腺病毒
赠@@
朝鲜民主主义人民共和国
信号源
格雷@@
武装@@
Business
商品房
805
拆迁
谈判@@
理智
做起
bar
缔@@
真皮
ART
沙子
新药
供给@@
说来
肥皂
180@@
骚乱
发散
TEM
吉尔吉斯斯坦
上瘾
庚烷
愚@@
贫困人口
外汇市场
充分体现
昂
新疆@@
And@@
橙@@
措
汉字
央视
布雷
非常@@
秸秆
律师@@
930
可供
鲸
数以@@
W1
坏事
建设@@
偶数
流动资产
密切@@
网络资源
巴菲特
天体
56@@
CLI
添@@
to@@
游艇
检察机关
阿拉伯叙利亚共和国
曲折
共鸣
理事
A型
凹凸
tro@@
圆圈
cont@@
虚构
废水处理
ISIS
十字@@
争辩
造价
附上
恩斯
熊猫
感到遗憾
效性
MU
垢
阿萨德
fa@@
手术室
赫尔@@
乌
甘氨酸
猛烈
来电
抹
工程设计
cess
更要
冰雪
峡谷
狠@@
冒犯
爱因斯坦
相对运动
动用
分派
尚无
弱化
塔吉克斯坦
年报
傅立叶
水产
劫持
426
组学
活门
押@@
子带
硫化@@
经济指标
胶质瘤
复杂化
多通道
开发银行
关键在于
补救措施
谈过
秤
剑桥
ates
荡@@
相中
Wor@@
传染
RO
罗伯@@
二烯
Dat@@
心功能
民法
老朋友
停顿
共青团
拦@@
Inter@@
中央电视台
高通
IAM
紧凑型
深入分析
跳动
恋@@
ets
菊
嗡@@
77@@
无功
竭尽全力
丛林
耐用性
机械加工
从那以后
S7
国度
阿姆斯特丹
无用
印刷机
降噪
疾病@@
操纵杆
元器件
PB
CY@@
澳@@
天窗
地下@@
LI
珍珠
水槽
原生
停下
1H
SIM卡
热敏
ress
工艺@@
Ak@@
琴@@
顺畅
大都会
个州
渔民
奖杯
入睡
鹰@@
sa@@
use
暴行
激起
操作方法
ication
CNT
羡慕
内衣
零售业
183
水利@@
蝴蝶
冷空气
33%
绩效评价
撤军
太低
根本@@
规章制度
个人数字助理
TB@@
求和
官方网站
同一天
最终目标
例证
插图
气质
裕@@
PCT
党委书记
统计局
灿烂
定点
表态
数量级
动议
西南部
诉诸
氩
渣@@
遗体
Apache
航天局
不容@@
助于
气密
城乡居民
白痴
纸质
好奇心
综合@@
夺得
平方英尺
活动状态
影院
0x@@
令人遗憾
驾驶室
表现形式
信封
ier
司令
五分之一
一波
坯料
参考文献
类型@@
病史
芝
款式
控制部件
观察团
三十
冰川
智能@@
明尼苏达州
晋级
历史学家
施压
当地政府
磊
之声
正视图
振动器
HDL
统治者
泳池
基坑
格外
铌
蜘蛛
致病
审讯
刚刚开始
9.5
营收
羞@@
集中式
不吃
塔尔
纳斯
转折点
接触角
小孔
多用户
召唤
奉行
透明性
仍旧
活动家
热导率
eld
两边
规矩
衷
加之
打扮
调配
菲利普
K2
重中之重
十届
电动工具
军用
忙@@
折现
海湾@@
介意
化学电池
减振
税收@@
希特勒
喇叭
一两个
低端
流体@@
有期徒刑
获得者
投保
出差
Chrome
ICU
长寿
序言
真主党
miRNA
明确指出
花粉
换热
聚体
药房
基本权利
休斯顿
宪
太久
密码子
中山
Wat@@
度假村
帘@@
三类
低点
领事馆
IPS
彼此之间
银行业务
膨胀阀
递
抗炎
仍会
清扫
ron
GO
谱@@
财年
匮乏
约翰内斯堡
1968
优先@@
党组
正电极
敦@@
库珀
拆下
活泼
令人信服
尼古丁
汽化
例所
工程施工
项链
组成员
SMTP
Drive
威尔逊
革@@
殖@@
尤
无线电波
乞@@
潭
小偷
显微@@
怎样才能
路口
商誉
FL
set
停电
塑料袋
接合@@
if
渗透@@
葡@@
反演
人口老龄化
第二级
RN@@
便利化
看成
营商
讯息
刑罚
贮藏
统称
颗粒状
干式
涅@@
人大常委会
卡尔@@
细小
亚人
Paul
汉姆
电话机
JP
履行职责
滥@@
O3
芳香@@
倒车
训@@
主控
LO
履约
介电@@
判别
帆
ook
牛仔裤
左翼
紫杉醇
灾后
六名
会费
发出@@
系统管理
多边贸易
马桶
余量
耐腐蚀
连接线
持久和平
有点像
3d
民主化
微不足道
扩频
品味
AML
革命性
BMI
4.8
NR
Ju@@
方法论
薯
那年
爷
DH@@
坦言
民用@@
九年
7.4
妊娠期
传导性
越长
FCC
皮带轮
千瓦
吸水
常见@@
橄榄油
�
毫米波
前不久
als
Af@@
各不相同
政务
感恩节
息息相关
填满
牢牢
莲@@
DN@@
UMTS
直达
体层
养殖@@
志愿人员
vs
层用
MME
大气污染
昏迷
渐变
迷宫
数据字
GT
成形术
撤消
起泡
控制线
焦炭
越野
三届
肤@@
illa
商贸
搭档
So@@
GE@@
长三角
第二代
弹出
说服力
储蓄@@
负相关
浸出
连衣裙
sec
enti@@
饮水
570
外交关系
联合国教科文组织
高龄
尝@@
鲜
SAR
小狗
第三层
肖像
虹膜
余时间
卡盘
Foundation
T4
第二位
上空
Not@@
闯入
腺瘤
垒@@
手提@@
踏上
独有
胡萝卜素
体上
世界观
降价
切割机
纸币
高产
第一款
Zr
炒作
不人道
前排
13B
淤@@
算例
投向
打架
yer
碳酸钠
合理@@
公民@@
二氧化@@
ram
硕@@
国际劳工组织
Inf@@
橱柜
阿拉法特
2050
各种因素
贸易战
读取数据
工程技术
蚊子
碾@@
产业园
ank@@
身份@@
履@@
职业道德
掺@@
马车
防卫
月度
ement
妇科
9000
马尔
不负责任
内饰
映体
习惯于
造影剂
M2M
树上
Sur@@
半数
拉开
批处理
园艺
引力
氧化酶
时常
No
降准
共产党员
功夫
关乎
413
840
萘@@
精灵
1.5%
ρ
一九@@
予@@
废墟
步长
特遣队
倾斜角
振动@@
附有
Ang@@
机器@@
高尔夫球场
出版@@
line
高速缓冲存储器
可追溯
纪念馆
消
无情
微机
中全会
au
详见
同年
作弊
RNA@@
Ib
支路
领导班子
中非共和国
爪@@
干线
四十@@
往年
EB
夸张
先知
Zn@@
261
付诸@@
入院
中介机构
Vo@@
名册
存活率
蜂
匹@@
咨
坡度
当务之急
多根
嘴里
冲浪
停放
Cy@@
股份制
住宅@@
对华
第六届
倡导者
指挥@@
出口国
该省
镜面
全是
实体@@
纬度
先驱
冰冷
死于
基准利率
TA@@
二酯
本科生
有太多
软件程序
各族人民
报告期
第一名
前行
常规武器
BR@@
zz@@
五十
校园@@
MR@@
漫
ative
三中全会
音响
结合@@
瘢痕
LDAP
绝对@@
牲畜
钾@@
血腥
先例
钦佩
一站式
利用效率
脑部
中东地区
电性
私钥
出为
侦察
混杂
援助团
远距离
率领
5mg
Edge
门限
获得成功
利兹
体操
墓@@
相关系数
诅咒
He
认真对待
乘法器
多孔@@
娶
男士
前面板
所要
明确提出
eh@@
娘
密歇根州
万人次
ISP
序号
动物@@
证明书
oug@@
Go@@
OC
贩
竞标
sel@@
生物量
客户关系
洗涤@@
单调
接器
TH@@
可再生
WEB
得起
选举@@
15a
应得
商界
扔掉
服务器端
镇流器
行者
文稿
元首
克雷@@
Alex@@
甘油酯
转会
2100
砸
临床@@
公司债券
物理@@
止动
勒索
又称
谈及
标头
抬高
疲@@
驾驶舱
发酵@@
亚群
532
275
袖
濒@@
数周
贴合
壁厚
滑石
献给
巨型
朵
帝国主义
钌
芽孢
最低水平
计算公式
打扫
云端
受害
ware
引诱
合理化
购房者
财产@@
原件
唑@@
气息
选区
着火
省去
多种多样
人机@@
草图
米歇尔
仑
bo@@
国际金融
喀布尔
斐济
ual
深信
晶状体
266
ess
印度洋
零食
氟化物
以为@@
脑损伤
据统计
皱纹
势垒
蜜@@
重结晶
锑
启动器
预测值
机上
908
巡视
两步
167
处理厂
西装
判例
行径
绵羊
告警
策@@
宣誓
责任人
供暖
合一
认罪
草稿
巡回赛
籍@@
缓释
恒温器
建设工程
越低
Sub@@
黄瓜
sw@@
拳击
lin
这两项
59@@
合体
198
争执
而后
崩解
投行
诺贝尔@@
晒
生态学
电源开关
棘爪
科技成果
信号转导
控制板
1024
新奥尔良
吹塑
立方
一圈
追赶
第五条
绅士
入口处
抗拉强度
pe
贼
ett
派生
核磁共振
无级
水污染
赛场
留住
碎屑
责任制
精神疾病
离合
核计划
扇形
拉力
很久以前
污染@@
GO@@
互联互通
单片
一会
咪
分部
环境光
财政部长
够@@
系统工程
注册商标
关门
变差
ode@@
出乎意料
320@@
斐@@
空中@@
删@@
应立即

本节
世纪末
收藏@@
潘
刷毛
方方面面
置信度
大大@@
罗德@@
委书记
磷酸酶
国家主权
架子
经验@@
管理工具
全力支持
缅@@
形式@@
网上@@
播种
非常容易
Θ
ss
信息中心
商标@@
圣诞老人
陆
构成威胁
叹@@
充斥
民意测验
安南
洪都拉斯
507
赐@@
印第安人
价格指数
电热水壶
交叉点
测试数据
海豚
清漆
评委
CH2Cl2
戴着
末期
功能强大
椰@@
锭
1210
风景@@
亲吻
食堂
海牙
糖醇
4.7
PHY
合成器
病灶
PCB@@
南昌
现实@@
插入物
投掷
全力以赴
马路
门户网站
Port@@
1202
认知@@
战机
用心
岳@@
经营权
数以百万计
基金@@
以约
最高人民法院
推动力
遍历
底壁
js
Application
侯赛因
成都市
Tel@@
党的领导
砂浆
开挖
病原菌
ICC
吸血鬼
按揭
堡@@
雀
曲目
dl
丙醇
ref
更佳
杀戮
梗阻
参加者
钞票
后备
克劳@@
几内亚比绍
坦率地
建交
20b
第十届
鸡尾酒
三角@@
慧@@
民意
色差
大蒜
Mw
282
GaAs
妻@@
存储容量
VT
对人
神经细胞
水文
Mark
纱@@
SK
薪@@
静下来
析@@
优先股
妆
温馨
财政收入
工业革命
其以
WB
箭
约合
度计
338
ain
政策性
壁部
5.6
二甲基甲酰胺
权证
SW
继续执行
乔布斯
敷
刊@@
分选
10mg
美好@@
规模化
ition
赵
lie
无关紧要
透明质
婆
雀@@
不育
注册@@
卜@@
go@@
领会
蕴@@
file
und@@
实践证明
孵化
产品价格
Power
气隙
过低
结晶度
坏消息
输尿管
金属表面
身体@@
牛仔
砌@@
nM
可乐
预置
姆斯
德里
始
增效
腐败@@
MX
验
Shar@@
配电网
被占领土
极小
热点问题
基因突变
职等
偷走
危
出手
牧场
344
转型期
花键
垂体
微电子
之情
计算资源
这时候
卤代
国际奥委会
耻辱
芬太尼
tor
六方会谈
妓女
分列
中国日报
路基
ock@@
和表
升华
加里
its
增长@@
任何一方
不足之处
亚地区
唾液
802.11
表决权
Hel@@
教养
酰@@
RAN@@
准时
焙烧
网络地址
97%
敢@@
Ar
钻机
拥有者
储备@@
打球
卫队
丛
选题
新鲜空气
红十字国际委员会
匠
Pal@@
②
建国
UAV
分局
战斗力
公立医院
考量
CD8
当前@@
自尊
露营
官网
胡萝卜
没见
总署
pol@@
享
划定
利益冲突
丁烷
汁@@
隐式
奢侈
3500
18A
加法
概览
球菌
eo
十二个
排空
安全局
村官
单车
生长发育
提高认识
渴
转递
举足轻重
顶峰
鹅@@
ader
禽@@
不太好
档案@@
越小
扎根
吗啡
21a
血统
Enterprise
11a
第二步
美国市场
跨学科
踢球
7C
斯蒂芬
洽
多米尼加共和国
海洛因
跨过
新德里
节约@@
直流电源
国际事务
丑陋
接线@@
看望
伏特
Watch
该病
新陈代谢
如需
扭力
占地
宇@@
颌
可信度
Tim@@
土耳其@@
SOI
闷
钦
雷诺
MeOH
脱气
总而言之
柴
不准
吸收器
ti
XI
泡沫@@
投产
一步@@
提供数据
夺走
ult@@
筹款
任何@@
构造函数
圆桌会议
三聚氰胺
刘易斯
Se
可行性研究
阅
69@@
总能
忠诚度
摊
读写
稀有
地去
灵顿
亏@@
县域
密码@@
Galaxy
当场
Net
缺乏@@
希腊@@
ital
行中
ECM
总人口
直角
转角
呼吸系统
一连串
司令部
数千名
安迪
泼@@
调查报告
0.75
所作所为
静音
果糖
鸿@@
怨@@
公开市场
50mm
可降解
酚醛树脂
鸿沟
北卡罗来纳州
该镇
翔
亏
升降机
ce@@
DO
附注
以该
车程
录入
机型
毫无意义
排球
高能
税制
0.2%
遗
责@@
bit
BE
UP
来信
微细
长得
喉咙
老龄
脆
丝氨酸
会场
调节阀
PCC
该处
堤
从业者
刻度
收于
有色金属
时间延迟
侧链
ION
痴呆症
ACL
该层
产地
无能为力
HVAC
系统结构
谜@@
169
Tor@@
欢呼
分批
环境监测
冷冻干燥
十字
境界
综上所述
遥测
便会
毅
纺织@@
ily
三乙胺
数字视频
立体@@
凹入
第七届
警察部队
大盘
端板
金属线
阿拉伯人
行之有效
缉@@
Eng@@
no
传动比
机械手
1965
转换@@
编码序列
HR@@
消退
命题
劲@@
别忘了
黑白
滚动轴承
外包
埃尔@@
一副
免疫力
串行总线
起码
房地产业
血管病
临时@@
休息室
后述
能源消耗
历经
6.4
赞助商
ICH
253
那场
捉@@
截断
实时性
古典@@
止血
薄壁
戴维
国民议会
912
纪念品
模式@@
RX
形变
铣削
氧化钛
追捕
上升@@
交叠
高可靠性
使用方便
Inv@@
远高于
铃@@
劳动合同
假说
社交@@
文本@@
姚@@
届满
辩
密切联系
导热性
序列化
向往
1006
烟道
接件
爆震
与时俱进
策略@@
抛售
美景
保持架
siRNA
觉醒
当由
摩擦@@
两根
指着
皇后
驯@@
棋
欧佩克
缘故
闪速
CMS
疫@@
由本
盛会
理化
内幕
三者
靴
爱丁堡
黎明
席卷
base
糖蛋白
痤疮
转移性
倍率
电学
督@@
罪恶
潜在地
ult
甜点
六种
地震@@
二十世纪
学说
邀
迅猛
海滨
情人节
拉出
草酸
高等法院
质性
高额
摇动
S12
多多
马拉
霉菌
生产国
加勒比海
Acc@@
dit
汉密尔顿
分多址
1961
数据格式
古怪
统计@@
黑名单
一口气
分离出来
巴斯
医改
大都
强调指出
胸腔
杖
FEC
器皿
两分钟
法律顾问
后院
大时
贴近
方向性
硅层
亦可
水池
传言
ams
ene
Path
匹
清洁器
布莱恩
离心机
后排
卡梅伦
孟买
十三届
附连到
背景@@
蠕虫
屎
议长
浦
免遭
建筑设计
field
承接
杉
一段@@
勤奋
外商
参考价值
PTC
量级
清新
总成本
便利性
植株
出境
单向阀
极少
世锦赛
早点
大不列颠
转交
撑
检查点
含氮
推入
特区政府
Gen@@
护理人员
货币基金
SCP
Cent@@
LIN@@
益生菌
DRX
密封圈
ada
食品药品
两台
厄
自然人
电晕
代人
道琼斯
地理@@
小吃
悬崖
Ha@@
ROM@@
外力
牵引力
周缘
妥@@
存眷
赏
保险人
磺酸盐
out@@
呼气
息肉
James
耐高温
大腿
太空@@
注册资本
FBI
飞跃
联系方式
尔多
祖细胞
连贯
稿@@
楼下
ous
1.25
倍增
光灯
摔倒
迫在眉睫
铋
碎石
歌唱
铁磁
内塔尼亚胡
录像带
墓地
彩虹
孤单
相距
信息管理系统
罗德
时变
套餐
并不知道
异位
栏目
香港特别行政区
金融时报
煤气
原点
NH3
java
狄@@
实践经验
营业执照
哈哈
受益者
支付宝
十二条
逊尼派
复发率
PUSCH
技术开发
并存
凯利
饱受
pm
条码
储藏
ile
全息图
PRO@@
领事
防滑
您好
公关
自然语言
熏@@
海峡两岸
ools
fe@@
代表大会
水龙头
交响@@
安东尼
立柱
羧甲基
硫化氢
晨
化肥
可压缩
差异性
卡因
视窗
马来酸
繁重
Netflix
交流电
发展权
倒数
无尽
抛出
外国投资
载于
臀部
招股
调味@@
354
时有
Buil@@
弟@@
Cl2
26.@@
EPA
多月
伊尔
装卸
零点
资格@@
159
成使
W2
联接器
27.@@
出庭
国内法
嘘
神经病
ility
常见问题
库尔德
解体
脚下
PVA
总公司
私下
帕金森病
陶瓷@@
243
奴隶制
售后
20mm
光圈
拥@@
DLL
NFL
定型
开火
非正规
矿床
该条
减持
驱使
颌@@
四是
脱氢酶
平均年龄
源码
一阵
求助
ited
傍晚
佐
Dl
上门
布莱克
绝经
Id@@
一整套
稳定器
Sun
共体
醛@@
叶绿素
源地
辅导员
yn
反驳
chan@@
T恤
Gar@@
Rep@@
销售量
玩得
Nav@@
新闻界
党和政府
简单@@
握@@
四分之三
摸索
不懈努力
宇宙@@
肾小球
核定
卷筒
网络管理
隐蔽
引述
数千@@
高速铁路
电离@@
校区
隐形
第七条
四方
发动@@
公司股票
Hyp@@
仅示
单项
国庆
乙醇胺
线型
冷却空气
试管
山地
供求
新闻社
天文学家
初心
辰
高涨
IK@@
低调
避难所
ger
框架结构
放出
系统配置
示范@@
专为
低噪声
第一代
ε
并会
拔出
AC.@@
国立
不良贷款
疲惫
寸
损害赔偿
公路@@
频率响应
动词
Hotel
组播
庙
马尼拉
宽恕
form
全心全意
中称
出名
吉利
一个个
关键时刻
机载
进军
毯
生物膜
弹性元件
就行了
自主权
学士
该区
CDR
CLK
变矩器
测度
跑车
特别强调
ong@@
暴露出
LAN@@
Bel@@
萌@@
核苷
Don@@
硅酸
回归@@
服务公司
窑
栽@@
吞噬
参阅
决不
拍卖@@
绳子
丁酸
复印
Id
覆盖面
20nm
必需品
主存储器
或用
心目
WAP
量子@@
关联性
杜绝
伸缩@@
方言
裸露
同情心
跌至
原住民
sp
.%
ille
棘轮
弃权
特纳
前馈
ery
ama
盛大
咨@@
绳@@
同一性
能级
主力
誉@@
阵营
所学
下落
铭@@
哨@@
渔船
17A
二异氰酸酯
空转
一性
Play
LF
输送@@
Dr@@
重伤
阿拉斯加
舞会
工人阶级
不宜
海关@@
花卉
瓷@@
混合气
制作方法
SRAM
精通
登机
11B
小厨房
蓄能器
伊拉克人
琥珀酸
搏@@
变质
加工性
本报记者
箭@@
内部监督
手写
bp
国际性
模式识别
批评者
坩埚
司法机关
立式
眼神
施肥
动件
聚四氟乙烯
赞誉
炎@@
维吾尔@@
深深地
油性
治疗师
呆@@
银行存款
盗版
胰
dev@@
调剂
获胜者
相接
Bal@@
犯罪分子
太远
部处
帖
光吸收
为民
凯文
顺利进行
周边地区
欣慰
相互依存
糖化
电报
用车
关键点
弓@@
斯科
第六次
牙医
补偿器
抓取
硝酸@@
comm@@
协会@@
ount
阴茎
贩毒
1964
透性
洽谈
Cd@@
家务
小鸟
要花
解吸
庄严
放射性@@
近视
民政@@
工具箱
端处
珀@@
本案
痒
Tx
走开
锈@@
某事
引爆
纯水
发展潜力
362
林业@@
有害物质
引人@@
自由贸易区
分子生物学
忙于
日落
解决@@
龙头企业
GU@@
资本化
民调
充电站
退缩
卡罗
粘弹性
学年
你家
3000@@
兽@@
生产厂家
耕
喷气
储液
旺盛
余人
受限于
不罚
枢@@
银监会
访问者
每一项
管件
跟踪器
Link
俯瞰
总资产
管理部
界线
Max@@
St
越来越@@
趋向于
LM
flash
瑞典@@
凯瑟琳
燕
Du@@
ko
品位
航空器
胶束
APU
水基
值班
投融资
个省
哪种
当做
中心点
铜合金
籽@@
铬@@
精心@@
ble
ign
中途
喝一杯
迭@@
三农
里亚
应答器
无机@@
化身
疝
肇事者
底下
公职人员
16B
博会
会计核算
涨价
NI
不大
汽车产业
避孕
撰@@
用尽
电解@@
事关
后缘
最美
敬畏
Rad@@
木头
党的@@
tif@@
带子
柔和
湾@@
篮板
口香糖
ING
Fil@@
层层
加紧
超级@@
注射@@
送回
光合
20B
招待会
排气阀
车窗
资源共享
遗弃
颠倒
空格
反对者
祝@@
系列赛
空气压缩机
失灵
浴盆
反式
DU
疏忽
华盛顿邮报
骗局
uck@@
保监会
Ru@@
公平竞争
专属
西斯
相关@@
二月
男女平等
系统管理员
解开
增补
分销商
一夜
酰化
投机@@
蔽@@
炼油厂
钠@@
授课
法兰克福
内含
同性
不得@@
民政
接收端
自然科学
希伯@@
留意
反叛
惠及
郊@@
舒张
披@@
GW@@
招致
限期
SEQIDN0
专访
EVA
兰德
狮
弗里
ham
巴赫
约束条件
p53
177
传送数据
IEEE
铣@@
流畅
媒体文件
浇铸
贷款人
509
副会长
水平面
瓷
广域网
普顿
秉@@
惠普
公然
被害人
拉杆
甘露
长距离
警长
苄
身处
1920
捕捉到
珊瑚
主动性
另一家
纳斯达克
Xbox
着重于
考虑一下
液流
搞砸
小册子
项下
温泉
理所当然
1930
蓬@@
镶嵌
捷
通讯员
用语
十二指肠
Ali@@
合同法
悔
圈子
看书
县委
小行星
舟@@
地块
绪论
实测
彻底@@
引言
润滑脂
牛市
端口号
duc@@
16b
蒙皮
遮盖
名誉
自主@@
那会
不可否认
创新@@
莱特
繁琐
烧蚀
羽毛球
母婴
萨尔
618
布鲁克林
和平利用
Bit@@
转盘
柠檬@@
NH
举止
VL
儿女
精神文明
加工过程
各有
30A
保护器
卡斯
紧邻
.3
胡子
新冠
突破性
油压
牙周@@
十六届
get
Bas@@
HDD
空洞
创造@@
奇特
纸箱
管式
水疗
Can@@
莎拉
市级
外罩
274
出新
之道
瞳孔
face
弗吉尼亚
亚基
石灰
孕产妇
1373
借用
班车
补给
邮局
高频率
Far@@
拓
衣架
很差
cep@@
创造条件
仿真@@
I2
CAR
深色
CRS
初选
拥护
没用
眉@@
曲棍球
lic@@
NR@@
att@@
毁坏
到期日
U1
Sl@@
压板
腐烂
平价
充分认识
现成
Cle@@
无锡
承租人
预先@@
嫌@@
无比
矿物油
小型企业
50mg
挫败
动态变化
人民日报
每台
固定化
椎体
193
获准
每晚
体腔
我军
凡是
其他@@
GN@@
申购
Pan@@
DMSO
再用
幽灵
遇难
州政府
不成@@
Part@@
应变@@
诺夫
单播
通行证
视作
个人所得税
一百万
普斯
二世
ender
占地面积
主线
教育局
无限期
甲基丙烯酸甲酯
总体规划
煮@@
南部非洲
监察@@
ea
杏@@
织
温度场
繁多
时装@@
yl@@
鲁棒
交换意见
或图
DBC
金属丝
面包@@
庭院
晴@@
525
离心@@
噻吩
童工
战略规划
校友
西门子
2200
消声器
ual@@
连接结构
头皮
兜@@
弹力
22%
ning
对非
老式
409
萍
近乎
长于
不仅如此
高中生
百叶窗
限流
基因座
实际意义
二次@@
捡@@
名录
只用
干燥剂
驳@@
得主
13b
厘@@
调色板
FET@@
异丙@@
说起
组织化学
总决赛
池塘
热闹
喔
刑事诉讼
灼@@
该县
烂@@
十五届
压接
成品油
地步
油管
山顶
身心健康
阿德@@
国别
常量
中国移动
花园里
疑虑
缘由
长途@@
含碳
报废
口罩
纯净
衰
里森
AK@@
椎间盘
积极探索
水手
甸@@
硅藻土
VPC
贴纸
放慢
生日@@
节省@@
趋
白银
前列@@
CN.9
军团
预警系统
开出
隆起
朋@@
追随
银色
利润分配
贝拉
时滞
Fab
环境友好
诺贝尔奖
偏振片
建立联系
颁奖典礼
两件
1966
学生@@
yle
可不是
BG
兵团
腺苷
RN
结晶性
国家机关
行预
美国国务院
耐火
无规
拐@@
违法犯罪
PDSCH
心肌细胞
345
物理性能
1948
津@@
疑似
讲师
靴子
细胞核
缴付
第九届
敌意
操作数
积分器
韧
20mL
款额
支队
vid@@
mi
夫斯基
土木工程
坯@@
图片@@
症结
颇@@
空腹
rid@@
克什米尔
内管
日益严重
工程机械
标明
林斯
门窗
ICE
点对点
圣保罗
xx
神经功能
事发
性关系
灶
前药
电力公司
抗坏血酸
紧密结合
海内外
诱人
拉登
交出
布鲁斯
相称
ert
逝
ux
在子
野兽
模数转换器
世人
光催化
兼并
12V
相似之处
HDR
十字路口
不切实际
虐
已故
23.@@
珠粒
灰度级
滑行
搅动
尼古@@
音频文件
获释
路灯
误导性
防盗
奥林匹克@@
SOD
乐于
万圣节
阔
腺炎
高能量
喧@@
吃掉
199
下用
西蒙
工程造价
石家庄
学界
VH
螺旋形
就读
hs
侯@@
期盼
坏人
历来
测评
lock
Willi@@
赖斯
徽章
如由
处方药
菜单项
监护@@
B3
情侣
大气层
脑海
闻到
西红柿
基苯
假想
爱丽丝
吉米
2.9
送货
财政年度
NN
赋@@
第二名
亦@@
变化趋势
放热
领空
760
同种
子层
文献资料
批判性
KI
簇@@
科技进步
牛津
绿茶
缸内
不顾
套环
杂草
口碑
公立学校
年收入
地面@@
日光
建于
611
监察员
二维码
伊拉克政府
马里兰州
软硬件
保持沉默
灌装机
行政处罚
越南@@
拿下
绝不能
数据服务
全套
AMD
赘述
链球菌
错误信息
湖区
免费@@
淫@@
买房
1962
友好关系
脂肪@@
霉@@
Box
共模
P2@@
深入开展
颅@@
互惠
侄@@
芽@@
闯@@
着急
RNC
Ga
数据网络
ref@@
全氟
移动@@
儒@@
餐饮@@
就医
圆弧
宴会
本地@@
巧合
九条
冈
堡垒
NAT
经济合作@@
贝宁
傲慢
保留@@
变现
透析@@
大气压力
敏锐
造林
栖@@
ds@@
台湾当局
NBC
一般@@
452
长征
沿其
水解@@
泳
烫
软弱
抵抗力
海口
濒危
实况
442
十天
共振频率
书面形式
立法机关
故乡
花纹
助推
阻抗匹配
仅限
精油
弊
热空气
Hi@@
Bri@@
有利可图
饮
抵押@@
EC2
脑海中
磁控@@
高等学校
SOAP
猛
独
契@@
丸@@
隔绝
公立
塞子
BU@@
数均
随附
521
情绪@@
SPS
膀胱癌
马拉维
组委会
断开连接
葵
贝尔@@
远见
病患者
系统分析
传送@@
潜
恒温
结肠炎
丝绸
二楼
职业培训
伸
建筑面积
勒姆
Fac@@
修道院
右上角
Works
必备
粉末@@
症@@
第十四条
均等
一个点
爱荷华州
连通性
五岁
资产阶级
add@@
推特
触敏
ese
安东尼奥
晚宴
脱氢
互
二线
地理信息系统
den
指挥部
肠胃
情愿
吵@@
吸热
ho
生物化学
24a
肌瘤
统计数字
可仅
掉落
RLC
CH2@@
好得多
起重
未决
仅当
保湿
语音@@
贝尔格莱德
开除
mm2
查看器
沃尔沃
布基纳法索
城乡@@
搞好
905
时髦
蒸馏塔
欧国家
惜
文件类型
更难
赌注
集中度
骨质疏松症
大豆@@
放学
DV
空运
布拉
导丝
所见
中所含
俯@@
升降@@
名声
何塞
两面
柔
按计划
氰基
氢氧化钾
伊朗@@
发展壮大
狱@@
禁区
会儿
马云
信用@@
隐私权
短于
my@@
安全阀
晃@@
车臣
缝合线
批量生产
中使
推进器
食者
加拉
Zr@@
起搏
434
甄@@
受精
凳
切入点
配景
桑德斯
克森
Hub
这所
开局
挑战@@
sub@@
里斯本
伽马
程式
技术标准
磁盘驱动器
支原体
性能指标
太晚
发售
住院@@
unc@@
劝
哑@@
语言学
日产
中原
肼
值得@@
国际足联
悬浮@@
很感兴趣
电导体
偿付
耸@@
Eclipse
撤退
园林@@
22A
车内
洛尔
伯明翰
还示
印度人
设备@@
导流
读过
不定
敷@@
哀@@
Skype
PI@@
海洋环境
时向
itor
偏爱
奥克兰
房东
Ul@@
实习生
为空
再次发生
笼子
获奖者
克莱
届@@
广度
新鲜@@
ECS
世俗
贤
骨科
药代
HAR@@
清偿
IU
洞察力
单胞菌
脓@@
这门
玩笑
生物学家
814
ero
卡扎菲
gu@@
码率
开立
塔架
十七
实事求是
基调
正压
维拉
退税
胃炎
庄园
地处
武汉市
机柜
22.@@
TH
收发信机
出任
土著@@
金属片
弦@@
食物@@
旋转式
东北@@
髋@@
含硫
五条
履带
高价
专家@@
在政治上
多种@@
部份
十几岁
难于
履行@@
生理@@
APEC
云中
描@@
注塑@@
贫困户
晚饭
绳之以法
经营性
只想
业态
爸爸妈妈
产品线
抵触
喝咖啡
port
淤浆
假冒
ca
越是
留出
封电子邮件
ath
生机
莎士比亚
WordPress
检查站
括
反作用力
有近
隔离墙
农村妇女
极低
挫
漫步
懒@@
580
新一届
泛滥
Script
电价
F3
消极@@
东风
外勤
巴尔
监局
时为
慰@@
表现出色
姜
两国@@
羽毛
脓毒症
压倒性
进气管
B型
变化规律
丹尼
开关@@
法医
构筑
人次
史诗
对映异构
作业@@
六边形
IGF
洛伊@@
Basic
梅赛德斯
管理条例
描述性
一幕
荷兰@@
阿巴斯
端壁
叹
那不勒斯
直接@@
列于
485
造粒
FB
压强
百计
兄
肿块
X3
出人意料
拖累
响起
幢
无机酸
芯片组
供货
溺@@
尝
世界冠军
.5
圣彼得堡
支腿
com@@
精细化
事迹
本机
身影
当以
耐力
12.5
充裕
水电站
多组
por@@
搬家
画布
温差
人源化
薇
预付
炉子
ba
依法治国
双轴
1104
权主义
信任@@
职能部门
eck
在经济上
参会
IPv4
上车
纳米材料
落户
苏珊
SVM
年长
山姆
全美
呼唤
汉族
普通话
青铜
ney
Ind@@
支持率
灭活
软件系统
亚太经合组织
分束器
十分钟
无罪
橘@@
其能
循证
绿地
隔离器
练@@
功率密度
雅加达
憎@@
洒
615
食欲
炔
期望值
球状
存储模块
内毒素
因涉嫌
迁徙
ig
掘@@
喊@@
原油价格
用力
下一阶段
面值
靶点
积液
HO
mg@@
药筒
都柏林
海岸线
失利
来时
昆士@@
结构式
视频文件
鼻炎
澳门@@
更衣室
液晶电视
寿@@
车牌
藤@@
稀缺
油量
录音@@
贝利
铁素体
比亚
闭幕
精确性
瞬@@
速度@@
赌@@
一排
3c
搜救
八届
周岁
罗马@@
氯乙烯
厌氧
盗
增持
遇难者
音乐节
保姆
细丝
下拉菜单
Peter
相近
在表面上
菜单中选择
管材
村子
外加
军事力量
NHS
在建
东北地区
康复@@
畜牧业
Lev@@
从主
ita
χ
联用
仔
4c
保单
42@@
节距
泌尿@@
氧化铁
外交大臣
CO3
MCU
形环
大陆@@
株@@
非传统
大灯
事件@@
封闭式
棵
数十
另一组
印花
畏
螺杆菌
腹板
探员
珠三角
偏航
岁@@
郁
穷国
疱疹
布雷顿
倍体
女神
井筒
据我所知
EE
营业额
氨基@@
走到
联轴器
积极开展
节假日
主营
文化部
1958
深海
失业@@
P4
low
溶剂化物
C.1
It
宋
服务供应商
创造者
银河
烹调
抛
主动@@
辛基
私营企业
甚
屈
骑行
东耶路撒冷
Docum@@
流通@@
人气
离子源
兆瓦
sic
下沉
乳液聚合
﹕
俯仰
镖
嫁@@
郊
ric
小城镇
醌
粉体
幼虫
沙坦
断裂@@
53@@
勇于
消毒剂
抗战
泪
鑫
阻燃性
战绩
胆汁
婴儿@@
乳胶
1120
概率@@
识别方法
户籍
ym
趟
强烈建议
view
用户手册
TX@@
独自一人
Rx
二手车
Dav@@
裁剪
承包@@
ala
褶皱
ire@@
■
这要
资管
pres@@
农业大学
ski
皮炎
四肢
威士忌
第五十@@
一并
寂寞
全党
坚持不懈
法等
Loc@@
我读
不均
纳米管
复杂@@
广播电视
限位
异丁烯
疯子
被选为
ik
罗夫
HU@@
高尚
奴役
数百万美元
征集
严格@@
曼城
调和
Go
工作电压
仔细@@
精确@@
印制
惹
鼎@@
住在一起
夺冠
雕@@
解冻
HF@@
mV
投票权
党政@@
帷幕
姿
合酶
抗拒
性别@@
树枝
eph@@
疲倦
WP@@
绩效考核
连锁店
96%
光辉
琥珀
特色@@
牌子
人格@@
综合利用
1963
审计报告
金融公司
第一项
浇注
大都市
电子信息
各向同性
pri@@
赠送
测系统
学分
Photoshop
配管
提述
叔@@
CRT
更名
力图
嘴巴
高层建筑
DRM
乙炔
倒退
716
莱德
光芒
减低
毛衣
AST
单体单元
竟
指导思想
way
沉没
首都@@
时使
行动者
琳@@
5V
原稿
张开
礼拜
脑膜炎
广告商
张家@@
差示
美好生活
ROI
稻
卫星@@
722
瑕疵
弓形
合乎
DCT
承载能力
靶细胞
几小时
南美洲
用户组
油画
Mike
纤维网
推进剂
丙型肝炎
原文
----
28%
谋划
移动式
隐形眼镜
瘘
爱国者
掩饰
服务商
15B
不禁
梢
mac@@
隔热@@
对角线
国界
插塞
比利
美术@@
理想@@
余年
不结盟运动
知名@@
总有一天
归属于
信息产业
肥胖症
里根
骑马
更新@@
全人类
hi
醋酸@@
Ger@@
发行股票
生殖器
侧重
发言权
离心力
大笑
Nb
人寿
份子
访问期间
审评
双相
体燃料
社会工作
遵照
人参
酗酒
但应
严重破坏
可读
超大
努
lev@@
联刚
7.3
认真学习
东方@@
严肃@@
房屋@@
急剧下降
债市
浮选
感染率
起动机
警报@@
集电体
交警
回火
快餐
点头
庇护所
遗嘱
ford
Sec@@
硝化
感性
永续
电路系统
举个
Au@@
333
蒂姆
多变
挣
敌对行动
竖向
不锈@@
饱@@
做梦
香肠
车轴
功能区
真实@@
四驱
备注
出身
轰炸机
在线@@
8.2
正常人
用处
愈
903
而图
意大利语
法郎
不来
西安市
陡峭
第九条
热心
无穷@@
留存
努力提高
首选项
交易平台
胰岛
冠军联赛
初级@@
公务
六次
梵蒂冈
锐
应用层
无法访问
组份
脑组织
总统大选
炸毁
信息量
目视
豫@@
某某
OD
重要环节
信通
移开
咀嚼
丝杠
526
钙化
从严治党
全日制
空气调节
恐@@
过年
贮
根深蒂固
灌装
标准差
警务
尼日尔
法外
终生
勘察
可口可乐
预算外
428
船体
喷枪
人工神经网络
盛行
半成品
数百
显示信息
物业管理
转动@@
澳大利亚人
多元@@
带回家
阑@@
付出代价
胚
消息传递
重大意义
沃尔夫
立方@@
中华文化
修养
巴拉圭
R0@@
276
尺@@
第八届
捐献
2d
活体
新近
发力
si
Te
丽莎
8C
早产儿
害羞
编码方案
谁@@
吸水性
褐@@
这些年来
国务@@
之星
突显
移居
科学性
双侧
地铁站
WD
自动检测
抗日战争
变异性
金价
陪@@
ISA
赎@@
幻觉
多聚
而出
第一行
四边形
巴里
100mg
三亚
作曲家
重大贡献
Jos@@
冠状病毒
用手
偏头痛
第五个
真心
无风险
860
当对
经济委员会
稳步@@
现出
毛病
整齐
料斗
圣地
浓缩@@
任用
侵略@@
快捷方式
水率
特勒
透明@@
露天
light
质化
亿万富翁
专家系统
顾及
皿
完全符合
特拉@@
ange
凹坑
ool@@
中频
演说
个字符
检查员
热烈欢迎
HE
待处理
受阻
ays
铝箔
克劳
栅栏
支行
R8
副教授
修订@@
电车
普利
在技术上
城镇居民
镇静
邪教
失禁
最短
面体
天津@@
海尔
EO@@
过电压
管理机制
sion@@
关机
ject@@
下个
寿险
随身携带
平板@@
SCH
1940
混入
办案
响应速度
滑架
线图
流化
艰辛
越来越少
拖曳
培训@@
服务器之间
共生
BB@@
CSC@@
户口
脚趾
块状
sh
78@@
继续加强
销钉
沧@@
氟化@@
紧迫性
德曼
发起人
别说
优势@@
自卫
木制
角部
帮派
ND
ARC
无产阶级
图样
学前教育
View@@
烘干机
担
掩埋
今年年初
性生活
聚合@@
足球比赛
参数@@
太过
Mi
逊@@
价钱
３
x2
议会选举
拐点
自决
莓
裤@@
Ge
半乳糖
视觉效果
仇@@
主演
中国外交部
所罗@@
351
缓冲@@
拒
消防安全
Ri@@
ATE
爆炸性
分阶段
显像
值中
发芽
发育@@
吸管
肖
专职
头顶
青霉素
审查会议
傅@@
积极主动
复活节
蓄积
文本文件
距离处
小子
凌
石英@@
ience
军区
br
十足
时许
糖类
世界纪录
ge@@
分之一
热情@@
接受者
对模型
实现目标
屠@@
遂
珠海
0.03
挥舞
形体
普拉@@
血糖@@
4mm
胆管
理论体系
从源
外汇交易
通勤
取得@@
可笑
玛丽亚
无序
北欧
false
ans@@
狱
C.2
乙烯@@
杀人@@
时间常数
内源
脉管
Firefox
啤酒@@
城市群
橄榄@@
有氧
紧接着
ASTM
楼宇
青蛙
单曲
脆性
下台
鳞状
万公里
AX
球场上
fil@@
Control
后门
21.@@
间歇性
维持@@
送交
回暖
影视@@
人脸识别
WC
牧民
语气
叮@@
涵
残骸
玄@@
可抑制
格拉
学习型
常务
和子
象征性
1012
致力
生长激素
晚报
平行@@
法线
避险
喝醉
切碎
赔偿@@
高度评价
第一节
液压油
茅
男女@@
产业政策
王室
马达加斯加
救生@@
内存@@
可变电阻
Ly@@
樱桃
联席会议
滤器
WT
置入
匀@@
317
翘曲
心动图
AES
物以
描绘@@
War@@
熟练@@
Ker@@
庸
谐@@
管内
调查表
RDS
切尔
手掌
刃@@
二季度
不容忽视
香气
随时随地
工作日内
木马
企鹅
双重@@
EX
数控@@
黄斑
100mL
抗静电
核酸酶
编排
面条
非洲人
增设
塘
涡
乐于助人
长方形
早上好
百分@@
网络攻击
姚明
石材
NaHCO3
发送者
判刑
北非
流利
室内空气
液力
1302
卡扣
940
卫生部门
脉宽调制
巡回
迷路
输卵管
提出@@
tiv@@
联合国总部
推介
估量
骨盆
报告@@
架上
池中
LDPE
变窄
Rec@@
伯克
读卡器
毡
制造@@
互补性
匆忙
一时间
矮
犯罪活动
异质性
远景
固然
多酚
356
打动
布利
her@@
社论
旅费
圣战
ense
系统集成
哭@@
艳@@
Gal@@
店里
绒毛
10nm
或水
安心
GI
昆
日出
缆
HV
cre@@
乔丹
飞行@@
心肌@@
拉丁@@
看一看
碳源
大满贯
克利
上尉
选型
保护法
些@@
上移
立足于
中年
平息
篇@@
立案
采购商
驻扎
容错
氦
ello
估@@
九届
点上
前身
22b
科比
电路设计
赌
跳闸
旗舰
海边
轻便
场外
Rev.1
专科
ift
敞@@
ext@@
亲近
尊重人权
条线
国防军
皱
一则
领带
抱负
组间
这艘
接收@@
风光
改革方案
番@@
压器
裁谈会
永久磁铁
耶稣基督
以北
异戊二烯
联手
德班
SG
崎
出口处
庆典
操作温度
紧密联系
Fa@@
链中
十几年
RSSI
三重
大通
信函
40a
卑
Gi@@
抓手
南京市
亲本
t3
cn
德利
管脚
igh
申明
ARP
参谋长
SET
开机
控股公司
悬而未决
32a
蚊@@
分析模型
多用途
C.3
完好
蝇
5.8
鲸鱼
伤者
消散
仲
改写
美国联邦
在座
熔断器
记忆力
附着力
四点
二个
长链
初始状态
4K
涉案
出对
Stre@@
挑
Christ@@
1030
压入
寄给
Sl
游击队
ice@@
颤抖
药店
一时期
渠
po@@
芭蕾@@
哌啶
封盖
首饰
JPEG
局部@@
板式
宝藏
钩@@
马尔代夫
膨胀@@
陀螺
敞口
挣@@
UNIX
印第安纳州
Back@@
不开
联锁
背侧
块体
训练有素
625
常委会
万维网
折衷
前提条件
迎合
Gol@@
急性@@
廉洁
分包商
解离
中外@@
ose
威慑
美化
最远
红光
话语权
引向
170@@
卡住
四川@@
常任理事
腰椎间盘
拉萨
db
聚类分析
撇@@
hr
两支
奥利@@
公益@@
码本
书面通知
脂肪肝
加扰
Mbps
环境空气
皮肤病
Ry@@
衡
不可逆转
天地
海军@@
星巴克
相通
Ko@@
TRA@@
英联邦
实业
世代
人权法
两轮
字形
腰带
借钱
畜
办公楼
VIP
膛
接送
真核
真实世界
求职
纳米级
教区
100A
低音
本钱
丹佛
烘干
工业园区
年龄组
黄素
Lee
获知
阳性@@
无创
编码@@
风湿性关节炎
ther@@
厥
过失
海洋生物
上周末
挥发@@
辞去
NIC
北极@@
党校
6.8
明显增加
GLP
原样
Sar@@
炸
低效
展望未来
蛋白激酶
des@@
SARS
函@@
著作权
山东@@
SNP
意外@@
遗迹
革兰氏
23%
有所提高
国际收支
处理机
倒下
有幸
蒸汽@@
摇滚@@
倒置
HV@@
工作文件
法律文书
数据资料
Online
运会
田径
促进@@
主办方
布里
高峰期
财经@@
中继站
分叉
粉煤灰
盲人
紧急状态
爱尔@@
两到
接字
批评家
非裔
gs
袍
sm@@
人身@@
该书
方位角
滑板
箔@@
CMC
滑雪@@
服药
洞察
技术规范
营救
网络应用
失败者
决策树
先验
数为
出入境
刮刀
布斯
拾@@
高估
恼@@
mol%
双折射
脚踝
肺泡
获取信息
模型@@
景气
ith
浙江@@
边界条件
叠置
算出
局局长
中国人民大学
除尘
篷
1310
移动用户
雷锋
va
韦尔
卫视
量身
lo
铑
钝
画出
默认设置
娘@@
战斗@@
匹兹堡
王星
战线
问题@@
过快
业已
GNSS
围巾
二氧化硫
一无@@
忍不住
监视系统
悠@@
检查一下
10ml
从业
万亩
保障性
ep
513
天上
vis@@
宠物@@
千万@@
内脏
削@@
躲避
舰@@
民办@@
利益@@
买下
产品销售
通过@@
应用型
Acti@@
︰
C02
居中
联系@@
1500@@
筛网
难怪
科恩
氢化物
水蒸汽
大赦
揭开
tra@@
电烧
支气管炎
环境卫生
奏效
节省时间
431
于本
中且
苯二@@
苏丹政府
钓鱼岛
采样率
核可
折叠@@
欧洲议会
输送带
ACC
生境
价位
准备金率
翁
WhatsApp
在校
评论员
受雇
揽
返
ern
Exp@@
下会
基本功能
非常规
甲醚
处理剂
格拉斯哥
妄@@
不断创新
巢@@
快速@@
病历
发声
达标
31@@
着色器
裁判@@
线性关系
1951
不雅@@
乳清
驱逐出境
毫不犹豫
该车
母细胞
基底层
不断加强
设备齐全
BM
象限
物理地址
西班牙@@
诵
Tom@@
87@@
蔡
恳求
等效电路
缝线
超标
阿片类
Uber
抓住@@
字符@@
植入@@
储物@@
高大
公元前
定义@@
中约
频分
居留
eNodeB
呼吸机
付给
蝙蝠
心肌缺血
李鹏
求职者
电子政务
200nm
混溶
Nd
多万元
萤@@
PowerPoint
下角
制图
该局
铃声
流动@@
背上
移走
点数
改变@@
赓续
僧@@
共价键
5.7
基本特征
潘基文
一夜之间
洒@@
批发市场
河道
酒精性
Ben@@
柔韧性
在一起
过敏反应
饮食习惯
电气系统
森林@@
地平
宠@@
组织部
蜗杆
一手
雾化器
耶夫
柱形
卸
收款
低氧
勉强
多数@@
坠落
表面温度
公会
ura
走动
费力
四分
反垄断
吸纳
打入
马其顿
布鲁克
和源
粉色
寄生电容
中标
惩治
工商银行
知觉
吸力
神父
土库曼斯坦
竭
中队
od
Connect
俄勒冈州
颤
扇门
血肿
讲故事
琪
广播节目
服务器发送
uro@@
暑期
数以千计
汗水
大洲
每名
书面@@
不知@@
戴上
工作频率
俯视
经贸关系
结婚@@
银河系
一分钱
氯化铵
高山
信息处理系统
端到
100nm
UC
每天晚上
交点
闸门
圣灵
光谱法
故事@@
产品组合
21%
LDPC
X4
len
data
连接性
上赛季
己经
无意识
20ml
糖苷酶
坑@@
捧
长途
ames
一阶
三峡@@
深水
塞人
艳
电导
世界人权宣言
剧场
等距
亚历克斯
交互作用
光电子
Tra@@
埃里克
孔板
昔
苦苦
锤@@
推文
指称
结构紧凑
其一
24%
云母
0.01%
四人
两位数
AZ@@
佛罗伦萨
亚砜
就绪
防爆
痘
Team
蜗轮
所提
盘中
另一半
牙龈
性别歧视
级分
1956
周到
辱@@
电式
但会
时间差
斯州
余下
预估
打磨
驰
乘数
特征分析
当有
探险
IDC
H4
版本@@
矿区
运动鞋
自助@@
UTRAN
导入到
借给
主机名
工程质量
341
相册
牛排
Map@@
皮瓣
华北
数据库系统
夕
里昂
椒@@
致动@@
摄影机
着重@@
交战
样条
板中
疯@@
时速
成功经验
会因
同行业
山梨@@
诺言
横幅
一趟
外环
pi
之心
光通信
Ol@@
孔洞
已达
巴尔的摩
聚乳酸
人民代表大会
交换@@
国资委
De
Fu@@
皱@@
股份公司
转发器
免疫学
弯折
WW@@
Air
模糊控制
区位
遍@@
油器
帕特里克
无线电话
包中
ora
友好@@
澳大利亚@@
S8
毛细
375
人称
流板
申请者
咪@@
不堪
饿@@
最深
Client
否决权
混合气体
报考
珊瑚礁
候选者
230@@
顽固
偏远地区
真诚地
及早
静脉注射
肛门
滤饼
审计师
pha
购物者
摩纳哥
系列产品
打个
优惠@@
hel@@
237
胆红素
说些
审阅
腺素
定居者
眼下
即时消息
贯
根治术
这太
生存期
第十一届
弹头
贫民窟
类产品
小得多
流派
联塞
L4
演绎
同性恋者
可向
出卖
QAM
Brow@@
结构特征
ages
tur@@
里约热内卢
现时
初衷
624
线段
快要
蒙特雷
RTP
筒体
能量@@
肾炎
比喻
传闻
悉@@
广东@@
ALD
联苯
南瓜
产权@@
秘诀
水杨酸
弗里@@
真是太
新世界
基因工程
非盟
one@@
艺术作品
核心网
式化
符合要求
过错
减法
性爱
羞辱
免疫组化
法中
瓦片
Matlab
谊
委员长
听器
别处
一席之地
发电量
来宾
斯坦福大学
间断
装载机
情怀
怠
C8
司法部长
可渗透
可否
key
标度
HTTPS
全天候
世界遗产
改建
励@@
lig@@
省会
恤
环素
一棵
天然橡胶
TO
覆盖@@
实地@@
吲哚
1008
Commun@@
ils
缔合
贡
水浴
中点
固定器
ald
公共财政
堤@@
降幅
Key
继承人
杀伤性
发表意见
尘埃
四倍
CAT
Equ@@
至此
诽谤
多模
会员@@
热力
避孕药
捐
接轨
比索
fac@@
硅油
酬
隧@@
筹
韧@@
十分之一
Sou@@
回返
斥@@
扩散@@
重点@@
积压
yst@@
思惟
95@@
GD@@
SMA
每一件
fi
养育
port@@
伪装
AE@@
走高
脑病
骨骼肌
暂态
破碎机
转发给
新政
人寿保险
状况@@
分心
头晕
APC
护理@@
292
博茨瓦纳
数十名
腔镜
运行状况
难治性
供油
化学性质
宽泛
WL
光斑
下称
ASH
肝移植
柯
这幅
芝@@
市场主体
cur@@
芯体
合在一起
戈登
24.@@
当其
超前
失配
悲痛
例来
彩色@@
盛宴
再也不会
编码方法
亚太经社会
相乘
桂
前壁
夹带
因果
亲眼@@
礁
全家
喂@@
５
踪
话筒
常会
栽
赴@@
斯诺
病害
环球@@
掠夺
桌面上
括@@
通用性
oo
接待@@
G4
近似@@
复发性
哲
第六章
巡逻@@
拼图
冲击波
欧安组织
服务费
手电筒
选址
退行性
射门
传球
班主任
摄
脲@@
第三国
穴位
徐
Bre@@
稠
脊椎动物
沾@@
二人
asc@@
奢华
老家
运行机制
瘀
MFP@@
过渡期
人均收入
定额
蟹
勋章
木星
互操作性
旨@@
絮凝
新英格兰
猝@@
酬@@
cher
年轻@@
体育锻炼
美元汇率
工匠
GND
轮辋
亿吨
187
一环
三通
cm@@
每场
复印机
闲
Amer@@
纪检监察
较厚
虫病
之大
干涉仪
AMI
Set
鲜艳
论者
本性
派别
索取
特里@@
运往
血液@@
肉眼
1959
静置
军舰
刑事法庭
米饭
感应@@
关上
恐怖@@
而上
安全检查
磁记录
sen
氧化镁
市场占有率
ek@@
客体
枯竭
试验机
ox@@
层楼
Ll
沈
美金
标牌
城市居民
看涨
空气量
病原
装饰@@
某种原因
脱开
药物滥用
ja
星际
柔软@@
恐
ote
程序包
异地
第三阶段
渊
经共体
2G
蚕@@
面图
10.0
蜜
垫子
身穿
syst@@
TLS
过往
素食
效果显著
谭@@
始终@@
心肺
万能
击球
检测值
反感
道尔顿
GH
加拿大人
赛后
坐标@@
成就@@
桁架
管网
回忆起
瑞安
车展
壳@@
在阀
盘管
起居室
海伦
皮特
五届
导率
LPS
曾多次
专业性
炫耀
手部
死因
烟囱
三岁
FDI
变速@@
原籍
中国社会科学院
萌发
流道
易燃
IOS
脱除
再融资
短程
纪念@@
井眼
960
直流电机
第三节
田纳西州
Post@@
鼻腔
开着
财政赤字
田野
公募
0.00
各级党委
突击
养活
指令集
饥荒
大风
tA
NSCLC
抗冲击
高容量
沙星
不向
反腐
贵阳
LUN
单点
足球队
ASC@@
侵权行为
去往
呼吸@@
误诊
口音
go
补偿@@
现实主义
地平线
长效
衰减器
聚光
一身
铁电
审计@@
朋友圈
国产@@
迫不及待
换算
收视率
迷信
族自治@@
伦敦@@
溶出
胶水
数控机床
操纵器
娜@@
670
臭名昭著
蒙特
唤起
事务处理
气液
惩处
8.3
6.6
乙酰@@
长处
Andre@@
冷漠
Tal@@
禁忌
立法机构
楚
Cur@@
含水层
VSS
配比
英国广播公司
心脏@@
胖@@
巯基
第一次世界大战
271
有不同
Lab@@
以色列@@
实事
外籍
一分
伊斯
sky
Fv
轻轻地
大奖赛
并称
元组
内斯
战时
客舱
吸湿
克利夫兰
取值
他們
新思路
青海省
传统产业
罹患
六大
汶川
相辅相成
1204
愁
浮点
房租
精益
多价
谦虚
乘车
巨大变化
十四
多发
刹车@@
继任者
事业部
荒
SEL
谊@@
源文件
子句
竞技场
旋涂
溶质
﹔
严禁
2h
捆@@
须要
腐
家门口
叉车
标语
Sig@@
暂行
荫@@
生产方式
中所载
努力学习
fre@@
粘剂
氧原子
成败
系统化
日内
天主教徒
利息@@
体外@@
19%
Mul@@
内螺纹
贸易壁垒
褪色
偏斜
触控@@
他来
well
业务量
地质灾害
SSID
纠缠
碳酸氢@@
印记
高炉
公共行政
层压板
冰上
署@@
总长度
fer@@
西瓜
凹形
财税
关注点
矢@@
即用
资产重组
瓦特
说得对
搜索@@
质检
巫@@
刺激性
John@@
跳转
安全部
拉尔
本应
体育赛事
忌
廓@@
在上文
图书@@
FE
门前
证券交易所
我见
红线
支持物
交会
晶种
热压
单晶硅
多线程
金正日
工具@@
脂肪组织
Jon@@
之多
pla@@
皮素
1050
倒角
赋
交通拥堵
擅自
涩
忌@@
多一点
听证
435
iSCSI
小岛
一個
呼叫者
西海岸
字样
时间轴
巴厘岛
鼻咽癌
不景气
淋浴@@
ull
热法
高等院校
逃生
女巫
中日关系
小伙伴
炮弹
Cop@@
演讲@@
公爵
圆柱@@
双向@@
大学毕业
大为
仿
报刊
牙膏
三到
党风廉政
268
酒石酸
盖体
284
创业@@
大额
浪涌
提出申请
民族和解
压花
彻底改变
KOH
格子
石棉
CBS
代尔
PPT
磷灰石
数据安全
上场
做个
500nm
督导
补助金
Sb
Develop@@
停火@@
动向
实时@@
短裤
3.9
骨料
ADA
感应器
346
环境质量
摩西
哈里斯
百货@@
帕克
西北@@
双眼
公信力
特意
准备就绪
职业病
1947
线路板
安宁
sys
Doc@@
有效@@
607
同源性
DOM
猴@@
UML
安全法
接线盒
种族隔离
写信给
打进
两件事
迅@@
亮氨酸
Tri@@
非磁性
或仅
简略
微血管
安放
Br
十几个
货款
佐治亚州
将光
闪蒸
C.5
肖特基
团结起来
珠子
域控制器
昼@@
福布斯
烯丙基
载玻片
刮板
Get@@
详细资料
阻挠
违纪
提单
三菱
短板
辩护律师
挑剔
Dep@@
胸腺
可控@@
僵@@
申请表
早产
用过
ower
PCA
很久
艺人
戒
疤痕
教育资源
水化
方可
弗朗西斯
助攻
安培
稳定增长
光度计
灌输
讨
加强@@
税前
琼
拧@@
应予
职场
防务
大型@@
节能@@
189
环氧化物
ite@@
华纳
炎症性
此夕卜
太原
烈士
Hu@@
理事长
卫生组织
补体
液体燃料
上合
奇怪的是
首府
公交@@
两块
高血糖
点儿
萨姆
粤@@
管理软件
SQ@@
计算能力
ny
鼓掌
袜
货舱
奥斯汀
价款
热轧
ment@@
诚挚
工程化
大连@@
355
收看
居高不下
计算机软件
降临
下半场
分子结构
SDL
问答
某项
金正恩
aph@@
商业活动
坝@@
散装
学术研究
__
放假
第一线
乏
保时捷
牢房
以色列政府
乏力
formation
一月份
乳头状
技术手段
莹
马氏体
悔@@
杂货店
切削@@
大中型
精神状态
时间推移
剧情
标识@@
Add.@@
脐@@
凸台
标书
溢流
效仿
出血量
根基
GL@@
门上
拼命
Ham@@
镀覆
骨髓@@
群众路线
Da@@
风貌
俘
航天飞机
主体@@
切割器
mmHg
悬停
同步电机
ext
见下文
文化背景
负值
化验
带你去
0.3%
五金@@
科室
结晶@@
9b
神经节
匙
抗抑郁
坤
检出率
搅拌机
楔@@
over
30b
犹他州
解脱
小丑
忽然
渝
衷心
总裁兼
21A
AY@@
液面
社区卫生
原理图
亲和性
las
拒绝@@
畔
温度@@
研究会
5ml
©
对电极
bs
创作者
美国银行
销售点
双人床
警察@@
碟@@
前门
水泥@@
Update
心爱
路易斯安那州
无声
签下
海里
蠕@@
保持警惕
珍妮
坚持下去
立面
搞定
非常明显
人生@@
房主
新规
口译
干燥机
一律
过滤@@
音速
铂@@
救出
屋里
钛酸
检察
解释性
期货交易
参赛者
Robert
rob@@
尖峰
不尽@@
洛克@@
居民消费
安全事故
秘
O4
爷@@
和平谈判
上衣
智商
Bi
屋子
直线@@
wit@@
牛津大学
大马士革
过长
不能不
rop@@
推到
法定@@
小提琴
质谱法
口气
喷油器
电荷泵
Me
嫩
开阔
碑
发射光谱
Sr@@
met@@
S13
妥善处理
线电压
误会
下级
超低
片刻
企事业
萨拉@@
澳元
报社
三分
浩
由式
爵士@@
VC@@
拉里
混合型
检查组
cover@@
亚麻
沙发床
戊烷
Gri@@
第一张
静压
如该
度假胜地
Vol@@
FIFO
教学内容
人民银行
回想
出让
损失@@
熬@@
钇
看不@@
市场机制
效显著
树叶
平均数
文件大小
未指定
翼型
Rev@@
头疼
钦@@
液压@@
品格
C12
□
对外@@
一谈
节律
可列举
软件产品
骨密度
ms@@
GPC
讨价还价
6.7
实施细则
于表
户外活动
双人
数字音频
一年一度
外资企业
加尔@@
万桶
察觉
忽@@
中央军委
新版
信托公司
加索
宣读
不列颠
少数@@
main
重载
490
红十字
CNKI
音符
脊髓@@
停滞不前
片上
0.005
钻井液
出汗
滤出
运动学
醇和
慈善事业
谱分析
在讲话中
油井
叙@@
安康
EPC
抵押品
象棋
日趋@@
半个世纪
LU@@
埃德@@
竞争@@
北大
天鹅
黑色素瘤
相撞
无烟
吉布提
弗雷@@
献血
PLMN
正性
权力下放
锯齿
惠民
自发性
网络流量
房贷
图像识别
保险柜
σ
Solaris
null
吞咽
搬到
麦芽
该阀
青色
信息流
嘉
第三名
埃德
梅尔
支柱产业
波特兰
网络空间
概念图
丑
县城
似
几何@@
大幅度@@
初中@@
715
精华
BN
不复@@
齐平
27%
市政厅
抗压强度
怪异
外流
在历史上
皇室
社科院
懒惰
Ps
离体
怀着
肌腱
之战
压低
一大堆
扫描电镜
碰巧
李先生
头号
标尺
类风湿
砂岩
聚在一起
超细
肘@@
房颤
发件人
ape
冰冻
夹角
WA
眉
工委
油藏
两款
华盛顿州
哈特
旷@@
芯层
传授
寿命长
管辖区
不肯
表演@@
赖特
央企
PRB
COD
埋入
烟花
第八条
〕
car@@
互感器
茅斯
阿拉巴马州
彼得@@
徒刑
奈德
一等奖
实实
中信@@
ari@@
劳动密集型
亚运会
冕
欧文
正直
法拉利
位图
229
月桂
7.5%
作出努力
全体@@
减退
印章
丈量
部上
梦见
疱@@
抗衡
甘蔗
全天
西林
给付
AND
观察家
捡
职人员
Mas@@
House
异体
ANSYS
未见
蓄意
音器
等温
轻量化
逐一
麻织品
侦听
殷@@
创伤性
胰@@
632
条形
荆@@
军事基地
周长
网络结构
cp@@
人间
扇@@
1220
劳伦斯
掩@@
酒店@@
胜过
调查员
舞者
隶属
电加热
盾@@
冬奥会
喝水
万年
紧紧围绕
取胜
FO
脱氧
NB@@
民生@@
San
International
投入@@
储存@@
理想信念
偏光
活动性
肘
嫌疑犯
扣留
MN
不丹
焦油
电工
情报机构
滑冰
片中
细胞质
vol@@
公共关系
综合治理
钠盐
拼搏
RV@@
走近
解放思想
门阵列
风筝
极端分子
再生制动
荷尔蒙
成熟度
虚拟环境
cor@@
复仇
菱形
电波
霸
压抑
石油价格
IST
本院
半自动
〔
HMD
狐狸
安全策略
电图
怀念
染色@@
有限元法
制动@@
流变学
健康成长
敢肯定
一丝
相干性
雄激素
贡献率
责备
彼此间
俄克拉荷@@
ALT
信号灯
分解成
中值
轮流
敬业
以高
711
1954
config
反射面
锋利
端接
画画
预备@@
捕集
流动资金
置评
旅游景点
棍@@
附连
敦
bi@@
原核
不齐
野餐
主导作用
巨星
独立国家
夯实
保险金
小组赛
罐中
96@@
谷氨酰胺
督察
等价物
划痕
中学@@
5mL
投影机
天文台
农历
溃
邓小平理论
全面禁止
Dom@@
掺
遗传性
劳动法
超链接
点到
17a
长效机制
甲基丙烯酸酯
五项
30nm
udi@@
私立
香槟
Cd
职称
瓦解
钟表
权人
整流@@
大衣
皆@@
改制
丘脑
八项
评述
扑
次级绕组
例为
阁
乙酰基
热分解
CAP
项中
伺服电机
请求者
办好
虹
工商管理
恭喜
民事诉讼
金星
百万富翁
坠
病程
原产地
大喊
骨关节炎
最先
2300
信使
营养物质
甾@@
相隔
教育领域
这颗
天冬氨酸
日间
制性
聋
头枕
小管
带我去
b2
协同效应
酝酿
电讯@@
67%
政法@@
片断
除湿
二醛
人以
收费@@
普及@@
瘾
书记@@
263
上要
自杀式
血液循环
king
上用
统一战线
保险合同
开发工具
温热
BSS
看病
气象局
奥兰多
出演
脊椎
数字电视
html
货物运输
求得
Analytics
环境保护@@
刑事案件
南斯拉夫@@
被叫
藏族
OE@@
应用程式
通胀率
移到
橙
倡@@
don
力军
水平@@
窝@@
RAS
★
火力
外人
周面
核反应堆
秩
以太
艺术节
麻痹
74@@
拷贝@@
财物
培训中心
淑@@
磁盘空间
武装力量
Corr.1
晚安
踢@@
养生
四位
抗蚀
仆
AGC
ound
第一类
邪@@
粗鲁
编辑@@
核细胞
机房
确保安全
大幅提高
十国集团
宣传教育
情况@@
不忘
日本首相
els
鉴
扑克
避
陈旧
Logistic
实践@@
欺凌
焊剂
肋骨
机加工
护送
感觉@@
人身安全
施政
CCH
偏高
新加坡@@
委派
Smith
电磁干扰
团结一致
异常@@
酿@@
详
法西斯@@
居家
舞弊
常年
中央处理器
之力
教育工作者
透光率
仲裁庭
心思
势必
权威性
AutoCAD
药丸
征程
装甲@@
1957
RPC
区政府
生理盐水
179
东海
win@@
String
径流
定值
干扰信号
近两年
梅毒
十一月
公益性
铲@@
Play@@
即期
念头
找回
MacBook
D4
可收回
楼盘
SSH
室友
参数设置
僵硬
选购
孢
逸@@
内华达州
梯子
追回
rit@@
麻省理工学院
限量
全资
安市
能见度
党和人民
协方差
评估@@
低粘度
潮汐
Active@@
耗资
消旋
颈椎
热辐射
感测@@
我敢
细心
该院
往复式
班加@@
正要
金属粉末
失明
关键环节
Gener@@
肩负@@
sm
补充@@
不善
沃伦
保释
闷@@
谈起
物流@@
哈利@@
巴哈马
政协委员
穿梭
调频
对口
之手
田间
硫醚
拜登
多台
und
博士生
躯干
S0@@
中小学生
开学
琼@@
MEA
走低
踢足球
SDN
机械能
欺负
大哥
密苏里州
探索@@
良性@@
雨林
耐压
勃
潜像
月末
王先生
Lot@@
吵架
圣路易斯
发送@@
结点
计算机化
正以
税收政策
中华人民共和@@
姜黄
no@@
H.264
洗衣房
克莱斯勒
涂装
问世
将经
政府职能
吉隆坡
基因治疗
CSV
Τ
砍伐
犯错
抖
审判@@
表演者
长短
砌
诱变
链反应
长长的
狂欢
不断深入
出入
涉足
风口
相爱
育儿
Object
理工学院
幼
垃圾桶
阿卜杜拉
还原酶
专门从事
军备竞赛
未成年
王朝
弯曲@@
1003
维尔@@
姓氏
切线
退欧
夺
切尔@@
亚伯拉罕
业务部门
less
公务@@
OL@@
卷烟
自营
马特
光反射
高等@@
fr@@
饰演
格林尼治
万科
权威@@
笨@@
IA@@
接连
流浪
斯图尔特
承担@@
比例@@
技术改造
d2
数百人
直到现在
集结
致以
新型@@
士气
达沃斯
胜地
World
窘迫
经典@@
药业
BNP
CW
陛下
第一夫人
钛@@
SU
说真的
两部
农用
286
笋
鳞@@
125@@
声望
26%
UP@@
巴布亚新几内亚
撤
榜首
有辱
婴
软盘
产品类别
痛药
调味
出局
借记卡
PPI
感谢@@
摆放
检验@@
粉状
悉
骆驼
申请书
戊基
CAP@@
Richard
外贸@@
向性
oS
惯性@@
两国政府
shell
红外@@
高可用性
栏中
Nat@@
最难
迫
PK
十二月
上床
结冰
uck
侦测
该名
投身
气室
444
忠于
六届
翻了一番
多为
民俗
裸体
降钙素
条中
GR
核桃
复旦大学
kin
止动件
干重
减至
治国
磷光
1946
构象
山梨醇
豁@@
5000@@
全能
禽
信息时代
ON@@
报送
凯蒂
宵@@
生育率
威斯康星州
毁掉
旋翼
德克萨斯
喷雾器
徒步旅行
干法
Fire@@
ren
横轴
更多@@
f2
OPE@@
幸
RMS
436
核不扩散
彗星
责怪
一书
里奥
邻苯二甲酸
第一面
长轴
转达
E3
参数估计
列示
殿@@
伤病
高岭土
安倍晋三
肺病
毯子
帆船
最新消息
SQL@@
榜单
支付@@
DCS
13C
圆角
牛皮@@
37%
通关
告诫
三线
明细
性侵犯
色温
东盟国家
证券法
TLC
选通
38%
活塞环
Nort@@
作法
课件
铱
尽可能@@
转导
此间
自动更新
死率
选择权
指纹识别
克里斯蒂@@
睾酮
另一只
最优@@
喷泉
即刻
磨粒
信息学
耐火材料
9C
惹@@
力场
风电场
哪些@@
溶血
加薪
就此@@
5g
GFP
堕落
疾速
首场
工期
紧随其后
正视
德里克
斯汀
脱模
样机
佩里
保温@@
a2
极少数
事务处
富兰克林
司法制度
艾米
电抗器
频频
天文
拉丁
List
重排
泪水
itle
断定
错位
飞越
通信网
应运而生
微阵列
信息检索
萨科@@
地方性
本招股
增材
雇
均质
主控制
识别@@
车床
But@@
国内@@
鸭子
淬灭
G3
茜
过渡时期
早先
816
接壤
感到@@
拉加
消费市场
粘液
长假
发电@@
胆囊@@
厨具
住户
本世纪
马其顿共和国
逼真
后裔
兴建
TP@@
PowerShell
全民@@
投资额
菌群
古迹
球轴承
7.6
惟一
MVC
受访
虫害
理事国
递给
企业级
人类文明
异种
粒料
以下几点
坚实基础
right
own@@
庞杂
非殖民化
灶@@
蚁@@
掠
出射
沪@@
西尔
七天
萎@@
X光
孔内
师资
实用价值
Phil@@
ASTMD@@
暴力@@
人与自然
分枝杆菌
PSS
JS
部在
364
电性能
1M
后备@@
Set@@
同名
测试用例
减产
卵泡
槽口
受制于
基合金
听从
下式
故障@@
临时性
弛@@
悼@@
维特
洛伊
清空
VID
膝@@
掠@@
单极
05@@
邓
甘油@@
680
无误
农村土地
direc@@
重大项目
停产
中线
坞
冒险@@
相互了解
ight@@
芥@@
币@@
哲学@@
DVB
干得
纽卡斯尔
击落
Control@@
倾斜度
贸易谈判
地图@@
情势
不言而喻
浮出
绷带
霸权
生命危险
对角
截
官僚
窗外
门控
档次
du@@
在结构上
曼德拉
全会
祖父母
联合国环境规划署
插口
猎
Security
动乱
职工@@
ok
20mg
传递@@
ater
关键时期
商城
负有责任
粉末状
顿饭
超速
SATA
不平
谋生
薯条
绘示
内酰胺
问过
电费
默默@@
二尖瓣
充沛
实际操作
zer
之王
36%
拽
分会
非专利
第十条
Cam@@
毁伤
深圳@@
理应
装甲
Hadoop
STA@@
根系
bas@@
淀
脱氧@@
位列
FDM
国事访问
收盘价
高空
安防
储器
外墙
可执行文件
阁楼
Report@@
Lambda
取自
肠内
逐个
単
串行@@
较窄
呼应
譬如
达赖喇嘛
换向
神学
漏区
92%
遣@@
UM
肖恩
守法
BE@@
RV
夏洛特
鳞癌
广州@@
嫌犯
安全设备
脾脏
跨越式
葡
冯
多亏
凿
舱门
思想家
康涅狄格州
交流电源
PDM
主题公园
aba
圣诞@@
全民投票
笛
76@@
光固化
台湾同胞
价差
个体@@
经济特区
幸福@@
第十二届
积水
气雾剂
排卵
征得
914
工位
订婚
利性
稽@@
372
排放物
砧@@
收购@@
联通
错误代码
79@@
溶栓
中位数
卫生设施
中国人民解放军
企稳
足部
媚
浙@@
农村居民
ector
Ctrl
mann
下降@@
佼@@
2400
现将
Ir@@
Univers@@
第三产业
6mm
标量
杂质浓度
成套
杰出@@
玻@@
安大略省
身亡
浮置
十周年
管家
ISO9001
接替
拢
贯彻@@
Autodesk
288
成当
鼓舞人心
农民收入
尽职
WG
蜂窝式
腹股沟
热效率
资产负债
目镜
占位
凝视
我校
扼杀
锶
调节作用
晕
特征向量
妳
巴特
工作面
近十年
第二类
捣@@
不下
扔@@
重生
主视图
仙
墩
产假
南卡罗来纳州
疲力@@
喜剧@@
较长时间
收入水平
阿托
卢布
长期存在
贝鲁特
成本核算
疆@@
哈尔
功课
贡献@@
位流
cess@@
106@@
工信部
碳酸钾
防抱死
Em@@
破产法
线虫
免疫抑制
巡回演出
NI@@
紫
石油化工
绿灯
冶炼
陪审员
非营利性
公元
篮球@@
285
夜总会
记入
V3
1955
辩证@@
累加
轴颈
新进展
受苦
仇
铁心
毁@@
停止使用
欢迎您
贷方
加湿
阿尔法
告终
利息收入
四季
Reg@@
道具
喘
内特
超人
1540
叫声
该司
供电系统
全部内容
指示剂
基础油
意大利人
装饰性
质谱仪
回馈
初级阶段
一键
光镜
次级@@
屈曲
桂林
起搏器
渥太华
果胶
562
句柄
val@@
时任
整形@@
ji
垂直轴
责任心
失落
班子
关键帧
丢掉
委常委
露西
屏幕显示
电冰箱
缬@@
沃尔特
游乐场
罗宾@@
资本金
一个男孩
吃晚饭
卑鄙
inst@@
嗅觉
tri@@
纤维素酶
趋化因子
苯磺酸
防尘
cn@@
海事@@
壁面
妖@@
财产损失
奴
有事
系统资源
冲头
寡妇
墨西哥城
带材
坦率
拮抗
金融部门
XY
外媒
如实
价值体系
中尉
古城
Saf@@
慎@@
下巴
指尖
结合实际
为时@@
细菌性
公平性
评注
搬进
32%
乙肝@@
短时
和平共处
高灵敏度
主帅
传记
合金钢
送来
鲜血
尼克松
自贸
ASA
J2EE
红酒
AAV
39.@@
大肠癌
斯卡
蠢@@
盐溶液
横断面
厨
轧机
ude
基准值
aly@@
特发性
预选赛
变化@@
Sam
PAGE
冷冻@@
ye
邮政@@
FGF
萧@@
拥堵
余生
千人
麻醉药品
避孕套
重点项目
RSS
柱子
拒绝接受
再生@@
整夜
eck@@
矿化
Model
落到实处
报告书
卵子
用工
投保人
外圈
酿造
千元
订货
钨@@
伊斯兰会议组织
符合国家
无助
噬
宣扬
由此可见
皮疹
多哥
略高于
致癌
iCloud
财政支出
LSI
拱形
墙体
领先@@
短片
放贷
生锈
煤层
LPR
极佳
感受@@
首家
极大@@
法是
结盟
防线
苔@@
结缔组织
旺季
雕
轮式
积分@@
低分辨率
折算
移动机器人
饰品
TPP
戛纳
亿年
核心内容
718
成本法
杂交@@
顺序@@
奋斗目标
收敛性
夜里
琐@@
百万美元
star
子痫
窥@@
低血糖
中东@@
ICT
红包
迭
创始
头来
102a
oft
解析器
四季度
英勇
有机体
观望
1952
万物
交通安全
充足率
蓝天
夜鼠
崇
诸如此类
超滤
结论性
示波器
JB
余弦
水滴
oci@@
计划署
防灾
粗糙集
照会
交易价格
24A
分包
当代艺术
常压
寿司
里人
5c
暴发
外卖
入围
催生
大肠
污染源
M4
游乐园
积蓄
宣讲
榨@@
喹啉
稳压器
转股
偷偷
期货@@
乙肝
悦@@
无私
害性
外管
帐单
tre@@
生态旅游
几十个
几千年
同龄人
棒状
龄@@
硅石
坪
拿来
小康
函数@@
梅西
邵@@
审计工作
挽回
开盘
握持
开具
每张
千兆
相互之间
痴迷
昭@@
麻油
抵接
和转子
物力
罗斯福
上位
Cel@@
EDTA
ridge
中国人民@@
科学化
噻@@
堆肥
军民
里士@@
两间
前人
护航
纶
顾虑
gen@@
俘虏
资金投入
百分之
PSD
肇@@
PROD@@
XL
佛山
欠发达
说完
微克
2N
但本
ject
Tab@@
台湾地区
塌陷
受让人
怎@@
钻柱
短消息
外设
不同寻常
玛格丽特
购物车
司法部门
贡献者
压缩器
祈@@
脑脊液
不知不觉
不等式
1402
左室
定期@@
来得
Mur@@
BA@@
以致于
42%
PLA
灌木
移送
上半场
头骨
体重增加
殊荣
应性
正确处理
夹杂
电击
万多
钢丝绳
Ρ
马英九
一个半
贝克@@
专心
静脉曲张
10.5
检视
民国
严重后果
悚@@
该种
小心@@
鳄鱼
装订
控制杆
菌落
扫描@@
海面
古董
嫩@@
GMP
跳频
医患
频率特性
事例
携带@@
显卡
颗粒@@
断点
公有
乌鲁木齐
财产权
分频器
掺合
7.8
离子型
水利工程
军事演习
Collec@@
707
跌落
装配@@
四岁
该股
自动识别
匪@@
双组分
米尔@@
富豪
洛夫
进制
适应能力
舒
推车
观赏
系统软件
汇丰
负责同志
MAC@@
截止@@
糊剂
皇马
教义
水剂
欧亚
岩体
口感
聚酯@@
防病毒
木板
que
小车
可动@@
版本号
共性
Black@@
Bon@@
非人
定做
残疾儿童
15b
用人
07@@
沉积@@
拉特
稀土元素
此类@@
分值
交易市场
逆流
笼罩
为时过早
新书
相用
糖苷
颗@@
双方同意
552
决定@@
该膜
污物
精心设计
保龄球
大屏幕
房企
钩子
布达佩斯
放手
过氧化
母乳
抽查
瘙痒
救赎
struc@@
10mL
氢键
传单
巷
冷轧
贩@@
关节@@
负电荷
李肇星
钉子
全血
凝血酶
运些
先天
固结
底端
试点工作
烃基
Heal@@
孕期
潜伏
黄芪
社区服务
啮齿@@
差速
正轨
筛分
HI
SP1
笨拙
顽强
去除率
德州
除尘器
壁画
东海岸
这能
龙卷风
追捧
生长@@
椎骨
金融交易
大麦
央@@
534
苍白
Ele@@
Player
严厉打击
马斯克
戏曲
建华
译文
射手
不容
1005
Mad@@
富马酸
综合体
MAX@@
环己基
年度@@
盘点
十八@@
骑兵
发展势头
结实
安抚
特技
ICS
前走
最能
金矿
常务副
茅@@
Gl
廖@@
口市
政策@@
我司
未曾
中国电信
重重
闭环控制
SPI
困难@@
数据链
扼@@
物流业
筒状
有效成分
红色@@
建设者
Tm
db@@
酿酒
意向书
背光源
Direct@@
全书
西方人
不成
降雨量
巴巴多斯
酋长
状体
高高@@
大小@@
固体废物
甲酰
第十二条
勋爵
DEA
伺服系统
招商引资
征地
缪@@
慌@@
林地
英国首相
吵
中共@@
codeph
Hal@@
而应
未经@@
MM@@
BSA
复查
支点
邮轮
设于
会想
陨@@
光大
归根结底
一秒
惩
较晚
骨髓瘤
传教士
一年@@
0.05%
环境变量
边界层
或子
SoC
冲刺
都市@@
尽量@@
苍@@
干粉
沃克
〃
色域
半天
简明
不法行为
pport
打赢
呼吸困难
不力
后壁
最低点
铜箔
ison
ling
一首歌
省钱
人民大会堂
小组@@
沼泽
走强
世界领先
和平统一
98@@
储存库
不需
方块图
有利条件
IEEE802.11
ding
偶氮
凯恩斯
气田
伊朗核
小国
集器
之二
正态分布
垦
积极支持
流氓
教员
高粘度
响应@@
适用法律
LV
可比性
一体式
结垢
琼脂
紧器
光板
施工现场
197
枕
絮@@
可选择性
勿
离子化
祸
浆果
高通量
网上商店
片式
积雪
脓肿
体素
恪@@
充分肯定
Tc
R9
H3
药剂@@
63@@
九龙
冲击力
氏病
禁食
List@@
密西西比@@
后缀
社会公众
晖
刹
物权
怕@@
控制指令
墨西哥湾
航海
托运人
德育
Tom
血管性
背心
氦气
砍
帅@@
斯说
ady
可沿
抗干扰@@
一年级
电动势
逗号
reg@@
搅@@
复制品
人体@@
咳
反洗钱
电话线
loy@@
消音器
纯洁
生育@@
Blu@@
抗炎@@
甩@@
关系数据库
港澳
S10
家族企业
Vin
不信
旋转体
高亮度
推高
内切
青岛市
程序模块
贸易额
1410
硬质合金
那段
起因
德罗
提炼
造纸@@
真空室
ο
管理费用
六角
辅酶
Product
虚设
手性
教练@@
靠着
车用
塑性变形
颈椎病
对峙
膨@@
懂@@
政府军
cl
本轮
研究室
QC
渊源
美国宇航局
羞耻
ational
不快
大湾
二手房
人眼
链路层
招收
邀@@
焊接@@
空调@@
Tem@@
重任
t1
龙虾
苏尔
世界性
税务局
亚特
Gra@@
服刑
822
时能
进城
图形化
rix
bro@@
承受能力
剂层
伯里
窖
螺
取证
科斯
之久
疏远
再造
缩聚
天文学
ace@@
酪蛋白
sec@@
角质
实训
教育部门
丙胺
aliz@@
Jack
SO2
轴承@@
Φ
上司
商铺
ND@@
请愿书
判处死刑
破坏@@
一百年
流动人口
滴度
成本增加
利害@@
药理
能源部
打孔
举行会谈
1953
mAh
大笔
网卡
电流@@
学区
位一体
锰@@
日程安排
PH值
Ca2
不合@@
ript
东北亚
万达
罗杰
人去
一匹
太平洋地区
教学效果
谷胱甘肽
净收入
保健品
组胺
ette
冠军@@
纸牌
波器
硫代
卫报
丰度
初步@@
加热炉
脯氨酸
伍兹
nt
运载工具
多头
旭
人要
刑事@@
土星
CCA
死后
童话
下议院
预选
一点儿
组合成
描
PCIe
陆上
一站
凯尔特人
里亚@@
主席@@
特拉
454
谓
代币
无偿
保全
S14
货品
528
蚁
心衰
交变
EEPROM
管理学
MMO
Spr@@
开创性
atch
烫@@
与此相反
胆道
案情
央视网
夕@@
REF
入学率
ity@@
古巴@@
探险@@
不说
波罗的海
闪闪发光
单侧
特殊要求
生猪
讯@@
合唱团
TDMA
不为
火鸡
储藏室
人类学
脐
沉迷于
攀登
达尔文
好于
助学
富有成效
竟@@
打击@@
鸭@@
乡镇@@
浮力
单件
很难说
重回
线形
会议议程
抗力
行为准则
一致意见
机械式
时频
韩国@@
疾
用性
就任
呈递
耕作
灵长类
受不了
夜量
子块
拉紧
武器装备
方波
Apk
SV
妇发
即便如此
内环
受热
恶作剧
痊愈
鹅
他家
料到
玻璃片
移相器
牵引@@
苍蝇
远程教育
呼吸衰竭
客运@@
解释一下
Ins@@
格勒
美股
1106
软件工程
攻坚战
线性化
建筑施工
中该
Hy@@
ICO
社会关系
6D
笫
光泽度
新城
甩
起火
甘
糕点
网络适配器
霍奇@@
立异
板车
安全监管
加州大学
灌浆
驰@@
五金
娟
勘查
便士
有空
掉下来
转过身
残奥会
後
简约
喷气式
泵浦
大法官
魔力
喂食
思绪
水洗
有点@@
获得性
Mot@@
ties
ega
iss@@
狠
Q3
打通
低利率
测控
采取相应
瘤@@
542
调光器
启发式
防汛
pdf
萨摩亚
普罗@@
慢跑
雷电
女排
风情
坠机
净水
恐怖活动
查韦斯
歪曲
提早
逛@@
基本建设
控制室
Dani@@
独裁者
281
多来
预制件
外螺纹
细胞株
各部
网络拓扑
43%
微秒
ga
Vault
第四节
卡斯特罗
构件之间
身于
防晒
复议
攻击性
克里姆林宫
数十亿
精髓
最新进展
猕@@
受托
aya
创面
WP
整体性
江南
23a
吸收体
洗手
命令@@
凝血@@
肚@@
结成
Kn@@
使用费
豫
预付款
弥散
不良资产
传动@@
293
Cla@@
结识
艾哈迈德
先是
炬
手推车
手稿
批复
京东
30mm
此人
馅饼
维克
ham@@
消费税
Na2@@
盆腔
透气性
北韩
主权国家
以上学历
婊子
第七章
奖品
瘟@@
臭氧层
联黎
决不能
贸易逆差
广大党员
缓刑
扩
印度政府
权法
薄弱环节
危险废物
ush
bug
百万@@
脉冲响应
磺化
船用
隶属于
第五十八
夺回
早前
表法
所得@@
足协
各界人士
羧@@
Core
12C
性肺炎
拉唑
随机化
第五十九
显性
剪刀
新华
首脑
PVD
第一任
妙@@
临床实践
慌
腻
猜想
son@@
形成层
锁相环
亟@@
混合液
交接
泰晤士报
共分
图斯
围岩
滋生
硬膜外
或本
登革@@
TM@@
File
详细情况
年鉴
OUT
联合国秘书处
表扬
缓冲存储器
雪崩
对外部
偶极@@
让你在
爵夫人
Β
热应力
分析家
半圆形
中较
宰@@
直销
金枪鱼
斋@@
ema
邀请@@
工会@@
犹如
汽车旅馆
吓坏
18B
秒@@
巨大贡献
流行@@
辛酸
谱仪
亟待解决
玫瑰@@
三唑
黄疸
非公有制
上个世纪
Ig
红灯
考评
主任@@
EU@@
个体化
即将来临
挤满
心碎
自决权
无功功率
拭@@
日向
商讨
转地
一棵树
众人
某处
明智@@
腹痛
讯问
423
创性
四国
榨
霜@@
伞@@
腋@@
319
WHO
消化系统
H2S
心协力
地址@@
改善@@
包被
明市
虔诚
put
熨@@
区域间
白炽灯
小剂量
陕@@
年增长率
诱饵
音乐剧
AQ@@
易感性
脚踏@@
览@@
不光
状病毒
O.@@
加合物
球阀
逛
普遍@@
几百
团结@@
氧量
小组讨论
here
未婚@@
单位@@
8.4
概
对图
公平@@
家庭教育
就业率
写给
甲型
不遗余力
感慨
丰盛
ste@@
86@@
仁慈
具体内容
饮品
管理策略
商事
Proper@@
弥合
kDa
专业技能
博鳌
邱@@
Goo@@
头条
快地
识别码
歪@@
中国化
捐赠者
希德
IPA
日到
科幻@@
宴
Snap@@
听过
蛛@@
天安@@
地球化学
军工
耻
嗓@@
Son@@
体型
欠缺
水土保持
可充电
娥
飞翔
难关
扶
酯酶
银屑病
聚结
专项资金
幽默感
生活习惯
火爆
发展史
pc@@
族群
280@@
酶原
内所
周恩来
多德
缩醛
不管@@
Luc@@
少数几个
下届
FR@@
相对论
密封性
西班牙人
非晶态
称其为
C2@@
腾出
洗礼
快速反应
Ⅳ
颠@@
可食用
平易
歌声
断层扫描
肌酐
塞尔@@
PCS
股权结构
MgO
Meta
油轮
孚
海港
吉尔@@
赚@@
难受
仅以
发明者
ete
攻势
ency
打招呼
回旋
陀@@
运营@@
询价
Note
停工
地段
其量
经济网
切斯特
斯托克
极易
帘线
雪佛@@
金刚
突破口
终了
包埋
焚@@
双边@@
2E
模压
绿洲
锯齿@@
复古
季铵
单环
卧
工人@@
税务机关
措词
总管
汽车公司
une
笨蛋
测量点
液晶@@
光谱@@
应计
釉@@
光致变色
Red
Ru
胎体
舰艇
向东
物理化学
SaaS
协调会
长形
胡椒
履职
科技大学
孜@@
甸
华南
年幼
承销
科学合理
猝灭
恩典
三板
供求@@
幕墙
TCR
卡尔曼滤波
伦理学
深度图
MHC
实施@@
屈服于
布料
库尔德人
双工器
血管@@
HDPE
手头
十名
俭
专利号
可回收
孢@@
法律效力
闽@@
ela
歉意
饱和@@
HSS
近些年来
保质期
沙门氏菌
ld@@
坦桑尼亚联合共和国
串口
例对
反复@@
焦化
转折
鸦片
尽情
疣
22B
非暴力
巡演
处死
督查
劳动生产率
意味著
1mg
蕾@@
并不认为
轻量级
萨卡
剪切力
支撑剂
派系
SNMP
坦诚
美国家
泥石流
永
本场
举世@@
适中
大到
轮换
加密算法
海浪
误区
联合行动
浊度
列支敦士登
销售价格
更有@@
分压器
电位差
熨烫
这首
贸易顺差
走来
特拉维夫
除霜
mW
物为
聪明@@
复核
DV@@
光谱分析
准予
投影图
探寻
杭州市
外显子
流到
县政府
4.9
妇产科
总值
事实@@
继发性
夷@@
葡萄牙语
得住
企业财务
Dar@@
眠
身体状况
发电站
该表
振子
处理结果
笛@@
判断@@
北京市@@
9.0
防撞
批发@@
洲@@
数码@@
豆类
化名
吉普@@
出自
恒定电流
鲑鱼
一扇
进口国
窄@@
嘲@@
中和@@
航站楼
全国人民代表大会
信道@@
悖论
团组织
ZigBee
勘测
交通大学
八名
Kin@@
物理量
大革命
反光
LA@@
匆匆
SAW
少见
科维奇
受压
经营范围
受人
担负
NS@@
ls
蓖@@
老太太
OS@@
剥落
边境地区
内为
曾任
寄宿
吡咯
替代物
啶
休斯敦
配电@@
寡糖
熔炉
性传播
Kr@@
TN
禅@@
面膜
限购
勃起
城市交通
北斗
意大利@@
舰船
尸
平米
普惠
钢笔
IgA
馆员
契合
躁@@
ike
Sand@@
各个环节
MN@@
枕@@
trans@@
25mm
亲身
源区
马里奥
化学分析
搭接
样板
开关设备
手足
运输系统
投篮
内周
再次出现
原始@@
CNC
路由表
营养成分
阿布@@
法律依据
科学界
监督机构
SO4
水道
忍
一滴
滋养
家族@@
旅行@@
纳尔
长安
南大学
非理性
醇类
复合膜
犀@@
坚
南加州
表面波
围术期
歇@@
黄土
不道德
白介素
电视频道
分布图
型基金
正电荷
力气
丰硕
滥用@@
诊断系统
带头@@
申办
演讲者
Ce
预算赤字
惩罚性
价格合理
特许权
使命感
精湛
树中
仪表盘
山坡
健身@@
德森
远东
亨特
水生
支部
li
蓄
控制器@@
法定代表
球星
盟军
老大
back
Network
于此
cd
百分率
赋权
照明灯
编剧
商购
帕尔@@
Logic
推进@@
营养价值
道格拉斯
肿@@
内疚
波前
装饰品
昏
该次
解释@@
重创
窗玻璃
全国代表大会
net@@
整体式
广告牌
取缔
人用
Dig@@
特立尼达和多巴哥
IFT
列值
第二批
嫁
冷凝物
炼油
超级大国
衬层
核素
发送信息
LH
长足
cmdlet
圆满
沾染
Hen@@
音箱
HTC
编纂
或硬件
专利权
眨眼
裕
以东
甲状腺癌
塌@@
慧
og
均价
颂
汗青
压敏
皇冠
科研人员
全身@@
能源需求
参观者
生活费
另行
易碎
癣
CI@@
延展
阿斯@@
迪斯尼
循
Sim@@
下垂
DHA
建设银行
买单
称量
微囊
渤海
何况
Bor@@
密歇根
落到
慢速
年头
迟缓
地塞米松
推开
下放
犯罪者
脑子里
新来
郑
B2B
后座
品德
ache
比利@@
下向
柏
时区
724
合唱
XPS
抢占
BTS
1101
角形
mar
以非
多径
绰@@
组氨酸
面子
这批
联合体
传输流
毛细血管
捞
发起@@
白菜
bert
竞价
轴部
定期检查
断路
400nm
狗狗
技术指标
内心深处
信息网络
体重@@
赔偿金
462
转数
打折
诡@@
15mm
随机对照
孕育
代会
在此之后
政治经济
基督@@
所称
风向
万股
鸽子
空军基地
摔跤
770
江市
冲突@@
这一@@
核设施
莫斯
国主义
有多@@
科研机构
网购
不利@@
44%
匪
国际竞争
对置
肤
丹尼斯
子组
关注度
Ash@@
月饼
贝斯特
扼要
识别器
高速度
捏
pc
杰作
年化
难以实现
就餐
东莞市
破灭
恢复过来
348
画作
霍乱
躯体
新旧
性恋
徒步
0.10
极强
紧密@@
铁路运输
网吧
维护者
减半
万余@@
滨海
好了吗
熔合
二恶@@
店主
Hor@@
巷道
上且
古希腊
地名
流浪者
咒@@
CD3
5D
雷尔
动力电池
左转
面纱
本年度
市场监管
超薄
栏杆
寡聚
26a
技艺
以示
赤道
31a
出物
合同规定
ebook
航天员
Sil@@
瞳
难免
从头开始
有偿
遣
铯
想一想
头孢@@
经济周期
萝
ck
半夜
上届
为数不多
坠入
LG@@
晶型
pa
记帐
izon
马歇尔
明朗
客气
烃@@
Git@@
红旗
公私
小键盘
刻意
交换器
聊聊
层以
参保
Lar@@
指示@@
说是
扮
克兰@@
WCDMA
错配
抗原@@
加密@@
对价
拓@@
NY@@
电子游戏
罪魁祸首
遇到困难
渗出
离去
触动
营业税
百老汇
圆环
tt@@
布宜诺斯艾利斯
润湿剂
州大学
存单
Deb@@
交易系统
脾@@
康奈@@
一小@@
278
分路
erson
家庭网络
光合作用
CDS
Ram@@
扭
能源安全
秃@@
受邀
暇
新品种
四十年
布里斯班
消泡剂
Dynamics
自我管理
燥
S21
19A
唐山
eV
中位
清澈
水产品
新闻出版
保佑
bps
晶石
细粒
新工艺
拥
划界
吊销
犬@@
窃听
服务网络
匝
右转
奥斯陆
预算@@
明确要求
最高级别
烧制
人道
支撑物
充满希望
KE@@
心动
感光性
亚瑟
摩托罗拉
sl@@
239
抑
喹@@
暑
里夫
单轴
P5
ira
相当@@
48%
磷酸钙
保守@@
圭亚那
殖民主义
回弹
sist@@
扩展@@
薛@@
渡轮
干脆
联盟@@
哥伦比亚大学
扔进
毅力
散射光
科技部
过敏原
Re
喷淋
港澳@@
例将
MAR@@
莫里斯
委托@@
图像编码
tag@@
丹参
癸@@
秽
４
趁@@
市委书记
剑桥@@
0.35
克利@@
ouse
ao
静静@@
降低生产
学徒
动者
筹码
萃
印第安@@
生根
训练营
地理信息
绊@@
Cli@@
药物@@
航空运输
写成
结构件
‑
NN@@
过渡@@
企业主
供气
买卖@@
驳
cf@@
基辅
端部处
乔治亚州
保育
合成纤维
连杆机构
Rb
长期投资
SIN@@
cy
Virt@@
毒药
24h
管接头
OCT
第二场
M0@@
server
仅用
陶
星球大战
赦免
递质
用率
相吻合
顺利完成
休闲@@
中层
SIM@@
扑灭
Ltd
坡道
深部
主编
鞋面
防洪
耗材
硫酸铵
服务型
TED
耐冲击
ITE
泊车
刑事犯罪
匝@@
腿@@
HL
心愿
年满
黏附
化为
弯道
经常出现
弗雷
废热
高举
弥漫@@
迫切@@
三氟@@
证券日报
该机
惹起
两套
磁道
东道主
C语言
干燥@@
技术参数
刊物
趣@@
悬
亟需
密切关系
可预测性
斯堡
阿布扎比
澡
通过观察
头条新闻
Vs
废话
吨@@
单打
元旦
制造者
各个@@
原生@@
贩卖@@
无污染
翻译@@
犯罪现场
1040
召
各样
风气
93%
Soft@@
服务项目
异步@@
价值观念
福尔摩斯
白领
哺@@
以比
18b
漏油
免疫治疗
易受
One@@
脚跟
军用@@
inder
780
CDC
留有
不相容
Bank
回退
发来
成以
左上角
2mg
贤@@
饶@@
ag
vi
唾液@@
竞争能力
逃逸
系统总线
记下
骨干@@
del
谓@@
车票
豚鼠
分泌物
PX
没想
会计制度
1200@@
PMMA
众议员
四轮驱动
淹@@
第十九条
本领
顶壁
格拉@@
罐头
ture
inger
第十一
倘若
甜美
京报
一来
烧杯
胎压
搏
长远@@
蜘蛛@@
胞外基质
ico
管委会
HB
活下去
暖和
不合
学派
吸盘
留置
奥运@@
转播
模腔
环保局
抗菌剂
售货机
劳动强度
最靠近
装填
勇士
角色@@
守卫
看不出
动作@@
乙酰化
lex@@
F4
SPA
恐惧@@
透皮
自家
pg
升级@@
一条线
Kal@@
定性分析
雷曼
新途径
主人公
认捐
花旗@@
贫富@@
并不多
学科@@
提高@@
错综复杂
PO4
致病性
出租@@
抗震救灾
set@@
管壁
Lim@@
调节@@
弗拉基米尔
葱
教给
该游戏
德尔@@
秦
条所
590
文物保护
西药
衷心@@
各家
考古学家
奎
数倍
高温@@
一职
托管人
连胜
抉择
斯菲尔德
干活
彦@@
MOSFET@@
辱
多得多
珍珠@@
油菜
和阀
1939
蹄@@
不足为奇
存有
华夏
优劣
深入探讨
淋巴@@
概率分布
儿童医院
恭@@
联检
十一五
总产值
法兰@@
发短信
ESP
悲哀
挣钱
核糖核酸
利基
简言之
高程
颇具
婷
番茄@@
CNS
波斯@@
私家车
另类
制冷@@
对光
大阪
war@@
外源性
外部@@
豌豆
驾照
居住地
以新
纺织物
协整
AST@@
CTS
关系密切
电池容量
Pub@@
迷惑
asp@@
可塑性
醉酒
治愈率
四场
瞬变
负责管理
精明
标有
非统组织
饭菜
29%
0.45
铲除
成功@@
涂鸦
心肌病
激光雷达
互不
溴化@@
Remo@@
cat
奖章
公平正义
灌木丛
带轮
持续@@
化成
亚军
文艺复兴
食用油
异构化
高等职业
简图
51@@
路况
1944
Light@@
VDC
中东欧
四十
臂部
格雷厄姆
外资银行
纳森
pp
棕榈油
次贷
蒲@@
核糖
给水
aut@@
倒装
闪亮
焦虑@@
插拔
eth
247
韵@@
刺伤
战略意义
生物医药
摊位
思维@@
Bra@@
诱导@@
动脉硬化
压铸
隔夜
中国海
延展性
消解
电源插座
飞速
17B
疲弱
光致发光
法式
巴勒斯坦国
全面实施
十九@@
358
市场前景
焕发
用该
多组分
贴图
及第
协商会议
CVT
COX
Storage
滤色@@
替代@@
寨@@
国际形势
规模较
时尚@@
癫痫病
科研院所
静脉@@
Mem@@
鸟儿
扁
潜意识
跨部门
摇晃
FIF@@
克莱尔
在位
3.5%
心动@@
举报@@
第二项
般@@
综合国力
get@@
厅长
余热
背衬
昨天晚上
哥伦布
资源整合
相互影响
加斯
营企业
招待
定位精度
HRC
再结晶
分流器
每吨
时长
产科
频发
拿破仑
教育厅
摇头
细胞壁
531
所测
通风口
火箭弹
eBay
赠
汤普森
法例
any@@
返回值
Enter
2M
提速
拉斯@@
游戏规则
明信片
溃疡性
测量仪
伯恩
料器
路过
雪茄
基转移酶
2R
蔓延到
差价
彻
MQ
gle
佛得角
DSP@@
结合物
花生@@
融资难
最佳答案
背书
Ba
NOS
通信部
续航
银行帐户
野营
代理@@
穆里尼奥
450@@
apk
黏度
RNTI
闭会
农业部门
环绕@@
stre@@
组态
斯大林
哲@@
乏味
SON
第三位
股东权益
3M
专业人才
缴款
盼@@
SLA
加注
重演
会计报表
英雄@@
节中
█
独生@@
煮熟
马赛克
铁蛋白
坦白
汤匙
户外@@
老爸
STAT@@
眩晕
并重
家政
酮@@
YAG
堪称
数十万
成本上升
1N
洽@@
自学
西亚@@
UA
管理费
账目
所含
女性@@
不休
人想
养老@@
以西
绕线
Bcl
APS
口服@@
调器
发光体
3H
WIN@@
FDD
穆勒
MQ@@
安全网
尽责
萝卜
合金化
救援@@
太阳光
懒
产区
沐浴
运维
通滤波
宽广
空间数据
渐进@@
或经
史无前例
表现@@
人民代表大会常务委员会
MV@@
矩@@
彬
免疫调节
疹
华沙
变大
折断
罗伊
黑莓
录像机
氮化硼
双边贸易
SEO
工业区
令人讨厌
打着
动因
clas@@
ev
早早
耗能
巴萨
派驻
抗旱
育人
210@@
切身利益
DJ
Cl3
酸度
Ruby
两起
额定值
噻唑
地方@@
有的是
FI@@
TiN
吡
截面积
BMP
执教
上路
亵@@
几何图形
一汽
扁平@@
护栏
盘片
防范措施
药师
不孕
系膜
宗教自由
相识
Cp@@
水里
Ben
Mel@@
Va@@
1304
每一@@
LOC
高亮
弗兰@@
电讯
佬
衔
Medic@@
退市
时至
镜筒
PN@@
车灯
铁磁性
PM2.5
第十一条
门静脉
得上
粗暴
模具@@
QP
客场
每家
塞尔维@@
撞车
外空
若有
Systems
抑菌
stein
兰花
网膜
春晚
单细胞
富强
９
夫曼
市场秩序
怜悯
电池电量
為
睦邻@@
棺材
带状@@
生物武器
齿轮@@
Sr
悄@@
五星级
fs
电源模块
RTS
中后
psig
mL@@
摇篮
科技咨询
地貌
电刷
十岁
中职
舍尔
宅@@
椭@@
路易斯@@
马州
国情@@
肾移植
方案设计
VE
转储
头等@@
21b
迹@@
JO@@
造船
变薄
CN.@@
熬
粪
续期
我愿
墨粉
曲霉
达斯
1502
密不可分
jo@@
千斤顶
羟乙
罗杰斯
根本无法
享年
数据恢复
doc@@
油炸
预浸@@
计算机设备
标杆
摔
熟人
两架
惩@@
收藏家
搞清楚
参与度
焊丝
基本要素
沏茶
刹车片
减速@@
德兰
ube
同工@@
Node
基醚
基尔
郭
钥匙@@
脂肪酶
以图
ody
试件
企业界
ton@@
桥式
200ml
一百
润湿性
SPE@@
这话
294
Medi@@
802.@@
弗格森
室内设计
营养物
合格@@
周转率
热流
拉长
尹@@
减压阀
琼脂糖
光点
中于
集尘
中叶
学生会
红斑狼疮
形状记忆
请愿
下腔
潜伏@@
卫者
年轻一代
关税@@
原代
T2@@
起诉书
五一
伯爵
不大@@
答辩
清华
铲斗
trib@@
菲斯
叔胺
算了
gan
老兵
药后
生成素
打来
烙@@
公司业绩
西伯利亚
S11
四级
甘露醇
每份
性地
愈伤
歌剧院
Euro@@
成型机
人机交互
赶快
第一台
FE@@
中共中央@@
区划
威斯@@
增厚
协同工作
归结为
穗
万向@@
瑞克
Info
眼睑
发展部
二号
打篮球
一晚
TFA
加湿器
卡洛斯
爆炸@@
感叹
ICA@@
加盖
多者
恶性循环
庆幸
气候@@
KG
过压
代号
挡住
波斯
14C
求婚
巻
追查
特拉华州
保住
于零
悄悄@@
虚拟仪器
让人
雏@@
在读
肯塔基州
0H
氢化钠
tt
辛普森
犹太@@
脐带
漠@@
研究课题
圣诞树
成骨细胞
汇率@@
审计员
和谈
入侵者
勋
资料库
截留
六周
美元兑
菲利@@
琛
抵销
正则表达式
本征
Med@@
磁致
玛丽@@
高峰论坛
卡上
麻木
欧式
篇小说
港股
斯利
草甘膦
49.@@
点球
边防
镧
肢@@
周边@@
确
神经外科
千禧
溴化
故宫
铰@@
钢制
忆@@
齐纳
轮车
合作者
绿光
接手
萨克
想见
毅@@
加蓬
猎物
桩@@
反作用
工程院
国企改革
就座
dis
ington
伪影
艰苦奋斗
征兆
伤员
文盲
小巷
好几@@
况@@
Ah@@
地表水
角落里
坍塌
林中
一任
中性@@
Cra@@
RSA
滑稽
阿片
遗失
湿疹
脑炎
肩上
宏观@@
巴德
攻击@@
棘@@
之以
肌肉@@
会后
退休年龄
GR@@
慎重
排练
雇佣军
美容@@
势在必行
吸收率
李某
384
Dre@@
永生
94%
抑制@@
EMS
知识产权@@
10C
簧@@
垮
渗流
粤港澳
一元
品牌形象
辜负
无核化
ston
顺应性
联运
控制协议
基本知识
参量
Next
及时性
一切都在
流行音乐
有助
SFN
生物力学
糟@@
人际
线轴
李登辉
运到
earch
直布罗陀
不通
老兄
晶闸管
8mm
IXD
侵略性
狂犬病
100g
PVDF
著称
为人@@
aa
服务行业
高跟鞋
阴极射线管
通信线路
B12
個
狭义
讲究
另一台
毛刺
抗争
626
交互@@
一个多月
营销@@
Citrix
搭乘
药品监督管理局
配给
相配合
背道而驰
谱系
暂行办法
大方
小节
睿
近些年
提示符
旅游者
克里米亚
共产党人
紧迫感
酮酸
污渍
100mm
凯尔
控释
三轴
万户
S9
七次
部长会议
阜@@
Text@@
呋喃
人则
新星
50a
621
殖民@@
孵化器
组为
接力
发炎
Ts
临界值
isor
短纤维
巩@@
行不通
接触区
虑
穆巴拉克
超载
旁观者
天平
ova
计划经济
因其
压碎
433
风险@@
剪切@@
Point
克里斯蒂
官方@@
仔细检查
下时
执着
到访
校车
0.04
不怎么
郑州市
交酯
VOC
一案
滴滴
3GPP@@
lan
制程
首轮
缺水
凝胶电泳
功能化
两座
非标
前照
附加@@
Dec@@
纳尔@@
S102
版权保护
发明@@
特曼
同仁
新南威尔士州
桨@@
浊@@
丰收
集束
展览@@
1130
zip
潍@@
照看
放大率
Gb
籽油
购物@@
近场
Ce@@
瓦克
赐
版印刷
翠@@
慰
打字
取得联系
级数
啦@@
viv@@
配置@@
NH4@@
点云
爆炸事件
HCC
新房
分离单元
Mob@@
休息时间
出该
哑
妇联
天真
信访
气象台
跻身
客流
切割成
曼光谱
独特性
弗朗@@
31%
整机
另一面
无机盐
著名@@
商用车
程序性
Aj@@
五国
无人@@
分项
展品
股骨头
检测仪
剪贴板
印刷电路
保安@@
贸易商
手镯
副校长
摩根士丹利
电热
谣
犯人
EPG
迷恋
拱
257
阿布哈兹
避难
获批
单边
采摘
响亮
莉莉
博士后
十倍
振器
AEM
之家
粥
卫生系统
漂白剂
农业银行
爸妈
两院
油缸
24b
不朽
卵磷脂
摊款
境况
总体目标
间谍@@
东区
绞线
心房颤动
壁橱
悄悄
油路
下于
大众化
通车
高脂血症
另夕卜
脸颊
碳化@@
一瞬间
唯物主义
世行
米切尔
压阀
数值@@
Phone
规划设计
磨碎
抑素
监管者
保险单
普拉斯
独资
AA@@
每行
最高点
自民党
驱逐舰
保暖
自给自足
预测性
质量体系
手下
脑子
环境中@@
H1N1
逃犯
vc
颖
可变性
舞蹈@@
反射性
works
畸
纷纷表示
地方法院
气瓶
道德风险
乙酰胺
耐克
交代
丁二醇
军火
加工厂
366
两届
廊@@
内容@@
小巧
村落
专项@@
ices
999
纠结
持卡人
1014
2H
终端@@
政治化
布罗@@
欠款
大大的
太少
壳牌
进驻
San@@
9.2
該
您@@
百分之百
包机
Ki@@
犹太教
磁力@@
任职@@
自由选择
批发商
件箱
堰
51%
书本
哈德
离心分离
稀少
人意
棚@@
S2@@
361
本杰明
下定决心
Stor@@
日新月异
流行性
JSP
教派
尊
毛里塔尼亚
刑事诉讼法
颁奖
妈@@
排污
疹病毒
电解槽
煤矿@@
展示@@
第一段
编队
八国集团
监测数据
诊断@@
索托
一览表
森林资源
此值
封建
说唱
George

Integr@@
交通管理
医务
沥青路面
入世
TV@@
动画片
区县
围墙
40A
偿还债务
PGA
新闻记者
卵母细胞
放在首位
西北地区
亚当斯
417
声援
咖啡店
唯有
组网
当今社会
思潮
房间内
包装机
因在
水机
阿波罗
过硬
经济总量
铺平道路
小型@@
新西@@
西藏自治区
漩涡
聊天@@
边上
相互理解
PFC
游乐
估
同化
角蛋白
洗剂
蒸煮
台词
好几年
最前沿
Park
蹦@@
仓位
iver@@
中科院
肛@@
勒斯
罢了
招投标
众筹
脱发
34%
预料到
Oc@@
铪
色粉
镀膜
TIM@@
几条
酸值
邹@@
没有@@
镀金
北海
运输成本
弄清
平均价格
适用@@
进修
唇部
自由空间
浮游@@
劫
GG@@
两市
远方
洛斯
疑惑
Ac
猩猩
三份
侣
罗恩
ACT
私密
贪污
戴维@@
看得见
叫醒
莫尔
olog@@
收窄
开户
BIM
冷凝@@
熄火
轧
新课程
证码
绝缘@@
ASE
大块
联军
事故@@
指点
一味
置信@@
1910
DIN
能带
Gam@@
硬化症
很近
进行性
主办@@
学好
人才队伍
纬
珍视
③
Sun@@
C0
声器
锦
RES
归来
蔑视
爆炸案
B6
韦伯
体育产业
47%
居民收入
产品目录
HTML5
地壳
安全更新
周内
辙
村干部
上风
攻读
PES
周围@@
van
音响@@
氮化合物
这组
樱@@
第一周
9.1
增产
蓬勃
稳妥
阴道@@
FIR
08@@
视域
人脑
浦东
琳娜
HSE
性功能
这栋
新罕布什@@
温度梯度
班上
2g
内蒙古自治区
如期
玩法
φ
塑料制品
位错
尼克@@
许多年
10min
优良传统
Cust@@
地约
全军
双边合作
可转债
渐近
hu@@
宵
一团@@
行李@@
点半
远程桌面
强奸@@
枸@@
FB@@
稳健性
黄金周
捆
西撒哈拉
直接参与
光彩
铝制
瘦素
流感疫苗
提前@@
一切顺利
Exper@@
Requ@@
柱层析
经度
多米@@
钙钛矿
预算编制
政治学
CBD
加紧努力
屡
试运行
标价
那家伙
愈加
橡皮@@
耐蚀性
613
翔@@
青藏高原
茅台
爱情@@
Vref
淮
除率
截止阀
狙击手
纹波
架构@@
振荡电路
温水
有线@@
不难@@
随机性
腈@@
无休止
弈@@
粘稠
295
于小波
国库
关联@@
械
海外投资
Design
苏宁
Thomas
451
切实加强
电源适配器
阿鲁@@
AIDS
资源优势
46%
SAT
任何理由
535
文职人员
382
RD@@
单模
itz
砂轮
商业性
世界粮食计划署
引号
0000
远远不够
内尔
酮类
管柱
世界末日
写字母
不多
总务
2S
Linked@@
祖国@@
出水
独联体
Mir@@
浮雕
氯化氢
Corp
怨
律性
真人秀
氢氟@@
巫师
TPU
单人
敲击
815
灯丝
84@@
机械制造
陀
转接
突击队
营养状况
达到最佳
一惊
乙酸酯
状件
黑客@@
第五十七届
AMS
特雷@@
同次
航道
MID@@
数千个
长寿命
犯错误
二期
小泉
运输工具
Fed@@
法器
DAC@@
锤子
使者
做时
第十二
芙@@
波恩
益智
序幕
凯西
散文
全权
上加@@
刷牙
种质
索尔
抽象@@
上海证券交易所
过程@@
文字@@
继发
更是如此
钢铁行业
阿什
Flow
出访
照射到
离心泵
Bob
分步
敏锐@@
273
811
推断出
ine@@
搁
FX@@
纵观
bin
氨酶
FCCC
逐滴
热反应
非典型
拉开@@
445
ild
kb
狐
REST
君子
查出
弹簧@@
IQ
豪宅
除颤
民粹主义
毛泽东思想
代谢@@
SIB
醉@@
拉姆@@
撬@@
华东
跳水
WDM
枫@@
MDI
分隔@@
犯规
顶上
ord
气口
0.9@@
肟
会展
角逐
旭@@
加迪@@
滤除
应以
月经@@
总需求
乔治@@
EU
赣@@
尔州
华泰
Roo@@
Page
伏安
米特
逮捕@@
回收@@
下水道
DH
密耳
关岛
1941
鲜明对比
戈尔@@
倦@@
point
OR@@
合格率
自信心
精神病学
妇人
社会制度
Premi@@
精液
层流
爬行
新生代
口处
ola
总队
要地
节约能源
SNS
聋@@
海姆
刺绣
画像
IgE
阿肯@@
座谈
滤过
分频
点子
ie@@
新台阶
录用
杀灭
德意志@@
档案馆
沉着
黑猩猩
弗雷德
警戒
皮质@@
付息
伊斯兰堡
同期相比
MAN
矿泉水
低层
环上
sole
收益@@
jQuery
加拿@@
家庭作业
授权@@
609
湄@@
单元测试
家协会
母料
窍
Vout
年华
深表
格里
与源
讲台
拥护者
包装盒
民主党派
坎贝尔
脚注
lec@@
几张
阅读@@
踝@@
翅@@
马戏团
HP@@
利马
大喊大叫
加德@@
官僚主义
静默
水冷
ella
苏黎世
Docs
GD
性化
物来
Sant@@
麦芽糖
摩尔多瓦
住院治疗
发光@@
总统府
税后
骑车
拳头
钮@@
波音公司
成反比
娃@@
韵
水口
甲壳@@
此参数
满足用户
海豹
Ray
冷却塔
棚户区
高强
不断进步
卫星通信
交朋友
1933
elop@@
因子分析
拾
维数
共创
社会秩序
覆膜
越发
巴拉
link
潜水员
校企
CMV
走向@@
入场
未找到
上千
公职
快捷键
缩影
国际舞台
宜居
七名
征信
核燃料
OT
容限
人时
Syn@@
麦迪逊
董
玻璃体
34a
美国财政部
幸运@@
氯苯
伺服器
几千@@
首付
警车
做人
胰蛋白酶
超微结构
畏惧
过渡政府
藏室
肉体
Run@@
可耻
始发
旋转@@
发行版
抗药性
oss
春运
真空度
1206
安全漏洞
私立@@
摩天@@
自由市场
集资
公牛
押金
不着
手榴弹
文学作品
匿@@
etty
呵呵
链转移
中共中央政治局
饺子
加宽
市面上
着眼
观主义
财务数据
方程组
道奇
免责
创建者
广大群众
周边国家
非同@@
文物@@
资料@@
蝙蝠侠
预取
微针
调试器
线状
恰恰相反
杰森
E通
2600
行政区
耍
急诊室
内裤
327
翅
两岁
VGA
排放@@
朵@@
皮书
主题@@
防污
物时
达到目标
比方说
SiGe
上下游
我本
近一半
熙@@
比前
家居@@
很想
耶鲁大学
资讯@@
全面落实
互通
LabVIEW
喷发
狡猾
发疯
步态
若干意见
读完
大而
理赔
滕@@
本地网络
重物
霍普@@
花瓣
纳米技术
多胺
电力电缆
法律事务
短短的
提供@@
sd@@
后置
供参考
咐
哈瓦那
秘密@@
国税局
航空母舰
文森特
预审
梗
喝茶
han
令人振奋
地想
申
人种
当事
咬合
恒流
壮丽
第一手
党政
36.@@
灯塔
昨天下午
国歌
散体
服务部
我想
002
她@@
wood
白平衡
风采
水平线
百科
记录仪
水压
枣
扳机
肉毒
交配
耳蜗
负载@@
润滑@@
充满@@
1929
支持@@
奥秘
加倍努力
536
三峡
兰经
市议会
á
敲定
知之甚少
环氧@@
sta
役@@
时数
羁押
该报
可由@@
跨平台
箝@@
磷酸钠
几十
传真机
诞@@
木糖
压力机
高手
第十三条
岭@@
加勒比@@
处处
保障体系
执行程序
B.@@
普拉
无一@@
不堪@@
克里斯托弗
说家
SCC
技术开发区
郎@@
国营
羽
催眠
书包
1510
UD@@
联队
多边@@
注射剂
STI
诱因
长足@@
具特色
乍@@
TER
繁华
安盟
牟@@
惩戒
总结@@
奉献精神
负性
爱德华@@
纪念活动
分子@@
芒果
炉渣
露点
拉尼
转过
罚金
二氯
列宁
掺混
药片
精神障碍
可处
者之间
深思熟虑
棘
祭
笔直
200mL
仅能
windows
A5
Tw@@
业务范围
PSTN
PSK
Rel@@
扶贫开发
残障
Lang@@
mer@@
烛@@
爱护
BD@@
固定床
国家税务总局
集中营
凯恩
基元
功率@@
杨氏@@
知情权
砷@@
亢@@
IgM
热氧化
阿拉伯国家联盟
河谷
黑夜
交由
羊肉
4S店
多克
五点
稠密
兰特
中央空调
纸条
动轴承
怀有
电阻@@
循序渐进
以备
举重
实战
要死
欢
专题讨论
数天
地选自
榴@@
文职
无法解释
菇
销商
修女
Rh
参与性
螯合
即属
前进@@
V6
粗制
介绍@@
一阵@@
财团
商业秘密
uk
SPF
冰机
售卖
传票
麦肯@@
出货量
air
祸害
银牌
All
可夫
CAA
眼底
病况
岩土
PTT
平顺
宁市
Gh@@
莱斯特
侏@@
机密信息
食品工业
倒计时
Elec@@
仔细阅读
民航@@
核心作用
甾醇
ISM
层时
渐
珀斯
Nov@@
Key@@
儒家
坊@@
欧洲共同体
并行处理
采样@@
中会
56%
质心
Rational
喷油
演变成
菲涅@@
忽略不计
高校学生
砾
直言不讳
停牌
0.4%
耳环
隔离区
买进
彭
分拣
同义词
两性@@
朱利安
从未有过
加泰罗@@
质子@@
历史博物馆
Vth
商报
二硫@@
出炉
ARQ
危急
诉讼@@
732
经济繁荣
前额
即兴
之争
辍学
1325
优质服务
歌迷
喊道
逃走
一日@@
名列
洗发水
石灰石
ywhere
各处
到场
平局
节拍
小费
塔顶
Cro@@
酯交换
铜牌
一辈
极值
阿富汗人
人生观
添
第三天
icode
施瓦@@
Western
双人@@
屋子里
届会
具体化
CFD
子孙后代
双环
On
钢琴@@
清除@@
梦想@@
PPS
检方
BET
防伪
逐
该剧
前辈
不惜@@
好象
大不了
操纵@@
世纪@@
乌鸦
命中率
KW
洪灾
令人难忘
HC@@
普鲁@@
Fron@@
行政区域
大堂
复制@@
例举
闲逛
集约@@
签订合同
畜@@
Kel@@
罗姆人
友情
践@@
亚的斯亚贝巴
三件
纪律处分
中央委员会
主宰
研磨机
数学家
绝缘子
每层
第一期
喃@@
火热
排他性
不至于
针孔
LL@@
MDS
全科
分馏
叙
换代
不同点
不曾
避税
胜利@@
燕麦
地盘
天前
藏品
感光@@
大吃@@
铺平
last@@
加料
型机
表示祝贺
中有@@
Source
入库
酯类
礼堂
sg@@
Direc@@
光环
ps@@
释放出来
玻利@@
据点
电子邮件发送
bus
6c
下功夫
财长
与会@@
臣
MTJ
违法@@
知名品牌
第七次
原则@@
统计资料
从头@@
Edition
全场
七八@@
明明
260@@
呼和浩@@
白云@@
致癌@@
肆
皮下注射
會
oll
免权
脱模剂
30B
好时机
space
沉淀@@
普里
456
Beta
镶
看跌
与此@@
金山
Analysis
不断改进
技术培训
PVP
陈列
英格兰队
不胜@@
华裔
ason
调味剂
销售商
颁@@
庙@@
Ab
电荷@@
开始@@
有钱@@
OB
战区
性命
五倍
该段
制导
浓郁
现代人
船队
CPR
十亿
乳酸菌
货人
颇为
反渗透
杭@@
及时发现
兄弟会
捷径
质询
数十个
心智
工商局
KA
中关村
lot
重庆@@
会来
钝@@
不以
拐角处
Silver@@
逆行
小叶
磁带@@
吸烟@@
软膏
冥@@
原子弹
名牌
辛勤工作
Technolog@@
神舟
104a
长者
妥善@@
成长性
修改@@
SCSI
财务指标
性取向
接任
仿制
管理处
2K
一切@@
洲际
TFS
布雷@@
吸附@@
xxx
此页
缅因州
汕@@
射程
美式
轰动
中所列
组内
一般来讲
一条@@
透光@@
抬
需求@@
很久@@
毒者
库里
咖啡厅
河内
word
领地
雪地
丝状
南方@@
数据共享
探访
pper
249
最适
约旦@@
陷入@@
较量
波形图
借着
常说
预防@@
经文
阶梯@@
圆满成功
冕@@
馆长
生命线
福岛
肱@@
南宁市
鉴权
有量
Ret@@
正交@@
宣誓@@
遮阳@@
航空业
MFC
job
重量级
922
ump
DK
几句
延安
那件事
带电@@
团购
罢免
分片
扫盲
非球面
于水
违
东正教
下乡
负增长
杀菌剂
dc
52%
博彩
反省
查验
夏令营
296
多处
JP@@
到时候
千米
税负
SWOT
沦为
4500
托德
sn@@
Ban@@
空白@@
board
波利斯
摒@@
订明
兼具
辛辛@@
怡
s2
晴朗
城管
网络平台
没人会
多环
螺丝刀
保人
这就是说
NULL
饱满
438
成人@@
预售
I1
恒大
四氯化@@
学子
N4
病床
Arch@@
印刷品
罐子
王毅
复审
642
不定期
愈发
MSE
五年计划
尔夫
足额
cat@@
供货商
Gab@@
特种部队
气旋
体能
一英里
学龄前
交易会
费尔南@@
帕特@@
国有资本
IC50
黑板
KS
291
理发@@
操守
图画
MF@@
物性
终究
妆@@
盏
品类
表外
砸@@
Mit@@
微博上
传统媒体
之风
投票站
刨@@
发布公告
短期@@
刻板
渎
C18
连续剧
明珠
直通
聚光灯
Administr@@
XXX
lib
调解人
理论知识
直言
谢谢您
QPSK
阿布
考试@@
C0@@
省内
价格下降
米奇
馏
腮@@
xy
咆哮
酸钙
泉州
易用
孙女
map
Coun@@
You@@
名列@@
上一年
罂@@
基化
专制
斯通
小队
造假
交付给
cf
果树
一致同意
冗长
五人
挠
1320
记号
透彻
澜
股票交易
作用@@
十分重视
周年纪念
第十五条
工作作风
守门@@
RAC
916
主干
艾米@@
小额贷款
血压@@
酵母@@
aS
宏大
待命
要件
DFT
采购@@
Ep@@
明细@@
灰烬
急切
Global
第十三届
更多人
Spring
为一体
中秋节
发布者
制造厂
818
驻华@@
后遗症
可燃@@
希腊人
呤
弹道
中信
氯离子
瑙@@
Dynam@@
盖章
一中
性能参数
素瘤
搞笑
课程体系
88%
TN@@
5.9
得多
OPC
大中@@
香草
ocket
酞菁
小腿
Vid@@
多渠道
移民@@
卜
441
畴
计算机上安装
服务台
平均工资
Dri@@
余物
移液@@
光临
She@@
梅德韦
112@@
1942
百科@@
剩余@@
Martin
度为
内控
奥古@@
宪政
流下
sis
萃@@
岛国
散光
碱基@@
库区
权责
靖国神社
毙
人手
MIM@@
抢劫@@
严格要求
孤岛
素数
报警@@
有种
水土流失
创收
重大突破
盐度
就职@@
所获
10.1
Joe
类比
公益事业
纳尔多
33.@@
清晰@@
说不定
雅各布
门徒
重大事件
特殊教育
合板
不乏
魁北克
374
会用
30mL
骑手
动画@@
双腿
紧缺
声速
融券
表示满意
TPC
2F
吸取教训
什麼
二十多年
吗@@
All@@
侦察@@
国民收入
各区
MLF
文件传输
见识
保健食品
大跌
NH2
看守
年终
9.3
聆@@
比亚迪
武汉@@
38.@@
有所作为
租借
ander
98.@@
IDS
1R
盖蒂
异味
自带
水族馆
电子地图
1250
田径@@
扩容
参选
沉思
贡@@
非标准
top
主妇
自上而下
亿日元
幼稚
技术员
织造
多天
SGSN
0.50
每项
推论
水务
底蕴
心声
捍@@
cs@@
To
赶走
盈亏
HL@@
流亡
接电话
议院
非常少
Hom@@
防锈
西南地区
菠@@
大有@@
-@@
样本@@
科罗拉多
有条@@
杏仁
拐
校园文化
社会工作者
脱色
开普敦
颜
抵免
一票
但据
蹄
辆@@
Configuration
凑
团员
比赛@@
货币资金
邮
Reader
最棒
回顾@@
浇水
运载火箭
巡查
多钱
腓@@
威力
ci
外来@@
畅销@@
web@@
witch
年薪
金融业务
谋杀@@
登山
喷水
工艺技术
老客户
.....
塔楼
趣味
四家
私
0001
材料科学
孩@@
相提并论
鸿
NO3
41%
塞特
保修期
冷链
发行量
黯@@
七岁
买不起
耽误
新品
rick
房产税
词汇@@
饶
布伦特
事前
传输速度
巴克
523
好不好
三地
选秀
邢@@
眉毛
民权
名城
魔术师
评议
第三轮
颠簸
特长
海景
零星
10g
甚远
发出通知
经济基础
专案
ISC
工程量
Pic@@
囚禁
炼厂
N3
道夫
热度
磨练
馈
收录
蕴含
橇
献
嚣
持仓
法拉@@
大亨
彭博@@
铆@@
获取@@
Scott
双倍
维基百科
瘾@@
河水
环境治理
阿尔
看清
社群
解法
特斯
推荐@@
Ad
可视@@
怀里
之遥
阑
一刻@@
砾@@
纬@@
报警器
新兴@@
可见@@
二等奖
会展中心
樟@@
这么久
机电@@
类中
阿卜杜@@
WF
贬低
1937
控告
音乐学院
身着
Ty@@
共产@@
君主
骄@@
平和
垮@@
IPTV
集体经济
基尼
esh
大洋@@
立法@@
HM
Value
主叫
灰分
57%
防潮
寄存
39%
Dr
咔@@
KD
正规@@
逍@@
金融学
呵@@
打猎
宽阔
保税@@
大修
展厅
塌
FX
土机
一岁
沈阳市
转载
瞻@@
讲授
兵力
寸@@
掷
isher
技术含量
OL
66%
小猫
半月
片子
其值
活在
洗净
修课
甜菜
446
发球
多尔
其二
我妈
arget
压力表
专人
笨
袖子
闭上眼睛
苏维@@
第十七条
root
多色
辄
坚韧
挫@@
Vic@@
ius
感人
抛物线
拌
尾声
获得@@
轮船
醋@@
精品@@
硬性
常务会议
垂直@@
分裂@@
value
毋庸置疑
sia
高贵
电镜
870
load
iner
葫芦
跪
克朗
演艺
风雨
有功
酸钾
Bill
台湾海峡
Ka
勺
兴趣@@
北美@@
莉亚
RL@@
苜@@
循@@
對
6.9
金币
gen
整套
1150
团委
不知情
2X
冶@@
Chris
膨润土
滤镜
放过
象征@@
资金面
直径约
带薪
相传
0V
机关@@
读物
河边
担保人
同级
球衣
首领
Jer@@
送上
同感
技术上
庭审
维基
而然
建议书
单人床
CDN
填埋场
系列@@
音乐厅
入驻
圆筒@@
辅料
异性
该片
橄榄
长春市
ll@@
斯托
Camp@@
62%
GH@@
马克@@
饰面
公安厅
改成
鹦@@
成绩单
enger
复出
tor@@
食用@@
喷砂
低谷
帕金森@@
凶
性病
面包车
路子
大号
盾牌
均匀@@
越野车
执行力
默默
仅此而已
杏
相对来说
kh@@
1602
yl
附加费
透支
长线
闪耀
天性
一至
Spotify
贺
人为@@
ALL
查询@@
外语@@
凿@@
283
IX@@
ems
E4
Men@@
社会保障部
家电@@
手提包
氏硬度
家住
刘翔
癖
滤膜
停靠
检察@@
低至
统筹@@
53%
党章
戚@@
铐
中转
额定功率
亚太@@
酒后
爵
培根
外观设计
EF@@
伊斯@@
耿@@
阈
切入
财报
开朗
恕
标普
大气@@
地坪
流水
分管
请教
雷特
蜜月
沼气
63%
分页
溶解@@
一旁
柑橘
蕾丝
舆情
国际交流
胃口
茄@@
怀抱
阳光@@
邻里
化率
矛@@
不动@@
余家
无铅
氙@@
200mg
战友
农机
记录下来
涕
任教
新奇
华南@@
游戏@@
78%
Pi
庞
平日
夏日
克林@@
谈会
三年级
公诉
佳能
万事@@
万台
眩
1918
冰块
铲
青年报
利多
常规赛
海市
西区
谚语
试卷
Az@@
瑜
709
190@@
汰@@
兔@@
dB@@
isa
1.00
背着
粕
技师
修好
97@@
非典
提要
倚
另据
想不到
班人
原产
６
贞@@
点至
58%
顺差
总工会
公共资源
嬉@@
豆腐
伤势
原油期货
时不时
yc@@
继承@@
贿@@
手感
完成@@
深圳证券交易所
每件事
生产量
离任
网格@@
曙光
交流活动
ith@@
划算
驭
广西壮族自治区
十进制
wifi
职业技能
MP4
稻草
烟台
入市
五位
粟
相片
呐
阿拉
dt
楠
湖人
华盛顿@@
价格便宜
收入@@
百货
受贿
交通部
弹性@@
英语口语
墙面
榆@@
蔬@@
牲@@
政部
艰@@
android
排水管
电邮
熨
睫毛
MMC
马克思@@
资产负债率
币种
SEQID@@
T5
写字楼
承压
塑胶
返乡
做错
僻
flow
肠炎
俞@@
8.8
货运@@
萝@@
想得到
装箱@@
TT@@
务工@@
清水
漏水
OM
1201
总产量
cp
二零@@
Ax@@
..@@
隆重@@
书法@@
谎@@
Produc@@
毛利
舆@@
期末@@
Search
招牌
眩@@
盯@@
流泪
喷雾@@
一次@@
ping
西南@@
KHz
退房
咯@@
居留@@
奸
1108
课外@@
灭火器
糊涂
黄金价格
取暖
强制@@
86%
屠宰
废止
考古@@
授
一角
逝@@
孩儿
跳出
0.08
迎
最多@@
68%
出口量
343
着装
足球场
师范@@
重工
老旧
度假@@
步兵
住处
访者
脆@@
苑
武器@@
封闭@@
食材
两辆
网络营销
研究生院
离家
555
128@@
Alex
侍@@
lu@@
比上
倾斜@@
仔猪
聚一堂
Smart
Unix
dat@@
深情
燃料@@
Nik@@
胡同
天猫
1112
变态
忘掉
治疗@@
毛坯
廉政
残留@@
销员
热议
收银@@
常温
恋人
54%
网易
298
寂@@
aj@@
跟不上
72%
电源@@
奋进
渺@@
理会
Station
⑹
集市
Gmail
咖@@
H.@@
进水
成交@@
专卖店
昨天@@
MIC
原装
河口
Y1
rist@@
高校@@
昧
戏剧@@
价值@@
第二款
换个
空头
比是
游玩
椰子
超强
62@@
3200
湛@@
专线
以待
蓿
City
4000@@
安全意识
雨天
院内
保鲜
篷@@
趴@@
新台币
49%
盼
1914
时刻@@
这辈子
识字
眶
0.20
改革@@
世界排名
涅
不如@@
历届
Sco@@
低头
喷漆
歧
进口量
则@@
便利店
商业地产
甲酰胺
梦幻
回忆@@
梭
PayPal
晰
财务顾问
厢
翠
WE@@
薄荷
725
新泽@@
807
阳县
公用@@
仔@@
心想
work
赔
氏度
ster@@
喇@@
项目名称
报案
380@@
ft@@
KV
x4
侯
蠢
惯
数位
铁道@@
高薪
Applic@@
Road
matlab
30ml
护肤
都是
昵称
τ
锈
下雪
幕式
郝@@
纽
3K
程序开发
紧张@@
幂
信用社
民办
IEC@@
买到
赋值
遭@@
抽样@@
嘈@@
蛮
往后
螃蟹
蔚@@
苦恼
喝点
泻@@
阻尼@@
交警@@
茫@@
455
珠宝@@
承包人
誓@@
常务委员会
中药材
电表
船厂
PRO
甙
迦@@
蚀剂
主播
男孩子
余个
ource
建设部
泻
华东@@
美术学院
30min
畜禽
发表@@
氮化@@
敲门
文具
mp
每件
停车@@
爱国@@
溶剂@@
创建@@
干酪
Auto@@
V4
结核@@
药材
珊
海外@@
槟@@
原市
不是@@
原体
ql@@
懦@@
脚手架
转化@@
1080
544
win
崎@@
二年
男篮
心理咨询
Nm
对称@@
入门@@
荣誉称号
增资
实话
抒@@
不经@@
tra
买车
翻倍
雨伞
卷材
1230
风量
贴心
asp
软体
俗称
干吗
立项
天主@@
Off@@
同类产品
纸巾
太难
溉@@
737
驴
○
数最多
筹备@@
滩@@
愧@@
购买@@
大夫
掏@@
WIFI
新低
我区
主持@@
午
遇上
早饭
690
进场
中医药大学
通货@@
柳
结余
滕
签署@@
世界大战
抢险
期付款
税额
十一@@
行政许可
7.7
邯@@
91%
凑@@
353
编程@@
碑@@
厅@@
刷卡
美国大学
杠
纪律@@
粪@@
科幻
该款
蛎
user
蒽@@
82%
634
狮子@@
824
小姑娘
血型
愤
次日
二年级
公积
焊机
每平方米
Ubuntu
1.0%
模样
日程@@
祝你@@
QA
Query
后勤@@
ph
饥@@
哈尔滨市
915
修理@@
荒野
信箱
原地
卫生局
考上
极致
应届
睡衣
1850
月光
Shift
投注
防水@@
未婚
腕
sr@@
魏
贺卡
璇
不耐烦
从现在起
高分
今年@@
掏出
哈萨@@
煌
基准日
64%
租人
空载
隘
10.2
一路上
抛光@@
疤
龟@@
骸
so@@
合影
店面
抽签
太慢
结账
阿尔巴@@
KPI
逾@@
诈
笔画
婚纱
显著@@
振奋
php
弊@@
交易中心
anch@@
再也@@
厦门市
签署日
下单
0.7%
公证
杠@@
就行
Out@@
宜家
村委会
2700
2800
83%
挠@@
还清
好比
独角兽
酱@@
工时
B4
投递
AO
目的@@
哺乳@@
晋
毛主席
钢厂
Kg
可得
书画
点心
人流
慨
授信
桅@@
上班@@
下注
87%
SZ
睡不着
降水量
物业@@
HZ
06@@
圆满完成
涤纶
利润@@
cli@@
蓉
难看
矶@@
西医
鲁迅
唤
障碍@@
啶@@
35.@@
试一试
中国联通
岌@@
句话
Hot@@
芥
鄂尔多@@
吉林@@
日军
筐
Sphere
Tech@@
姨@@
欢迎@@
暂定
斡@@
维多@@
领军
外接
CX
母亲节
异化
出货
不许
山县
形图
要紧
地价
村镇
课本
卧式
朝阳
刍@@
面谈
栖
厨@@
丑@@
大专
洛阳
抵扣
汞@@
学习成绩
招商银行
威士@@
boo@@
义乌
缉
庄市
梗死
匿
指令@@
涝
芒
祗
总的@@
书房
幼儿@@
无非
经纪@@
试题
惧@@
精彩@@
保健@@
114@@
富士康
掩
收起
行动@@
入党
宾夕法@@
接听
七日
MIN@@
哼
村级
邮政编码
652
5cm
dep@@
当月
构成@@
魄
哟
果然
保荐
减速机
尽全力
渊@@
EI
印花@@
无所谓
擎@@
下载@@
诉人
悟@@
穹@@
婆@@
睹
加水
118@@
青山
早起
奠@@
特效
扯@@
瞧@@
字号
优质@@
租赁@@
628
北区
躺@@
技术咨询
票数
采暖
1212
0.06
商行
磁盘@@
1g
姓@@
本页
880
368
解压
几句话
歇
铝板
磅@@
兴奋@@
个点
⑵
纪要
婆婆
椅@@
跌破
务人员
换器
济南市
凤凰@@
瞎@@
接过
U2
标配
完后
&@@
化妆@@
近三年
荟
缠
招呼
筷子
暂行@@
太长
事要
熙
屁
窟
多彩
大会@@
3g
蜗牛
习惯@@
吻@@
六十
生日快乐
电线@@
激进@@
畜牧
广电
Gbps
0000@@
104@@
行业@@
出事
惊
人际@@
投影@@
单面
傲@@
宁波市
梵@@
厢@@
周报
Ｐ
想来
32.@@
嗅@@
上岗
预告
三日
464
证券报
火箭@@
暂
填报
菠菜

eng
◆
流浪@@
查获
中式
总金额
特种@@
感触
稀释@@
907
秦皇@@
臼
386
细腻
匣
总分
酱油
远程@@
媲@@
证明@@
荟@@
紧紧@@
褶
喹
△
259
立足@@
0.6%
依赖@@
调解@@
Touch
课后
讽
骏
0.9%
峻@@
34.@@
咄@@
pn
荔@@
饮食@@
喻@@
cu@@
play
EGF
垛
71%
73%
瘀@@
第二期
祛@@
除此@@
坐落于
遴@@
博物@@
螂
资源部
房源
名言
女郎
城镇@@
76%
参展商
立大学
核糖@@
协议书
﹖
糊精
附连@@
日为
钞
乙胺
大便
太贵
颖@@
湖南@@
延迟@@
oft@@
两用
Da
魂@@
鼎
绽@@
请假
py
练习@@
DIY
寿
降低@@
里程@@
蚊
40mm
交纳
募
〗
2024
点多
472
测量范围
环己@@
放大@@
勃勃
满满@@
两三个
交叉口
击手
亲情
硕
Q4
戊
科长
出去玩
高层@@
0.8@@
葡萄牙@@
敷设
发明专利
８
期徒刑
合肥市
汽车配件
西安@@
岳
厘
骚
常州
伙@@
思念
HK
事业@@
直属
上证@@
构造@@
藜@@
经贸@@
畏@@
葵@@
31.@@
巅峰
明显@@
加勒@@
50g
姬
洛杉@@
店员
绣
装机@@
椎
允@@
苛@@
匣@@
本部
大酒店
9.7
观设计
经销
纫@@
蹒@@
幽@@
厕
陡@@
合金@@
设计规范
蹲
105@@
芝麻
负数
头像
抽奖
姑
Η
马来@@
鄙@@
发言@@
蝎@@
第一句
500ml
写字@@
桡@@
港币
赞助@@
六点
府@@
评测
布伦@@
税金
诀@@
财务费用
伤残
应付账款
万多@@
多出
决书
很多很多
阿里@@
txt
搜
葛
rosoft
大涨
悲
巴勒斯坦@@
二手@@
足联
国会@@
飞利浦
糖尿@@
阁@@
一点@@
浇
有成效
635
原性
9.6
出动
茉@@
荨@@
伦斯
顺利@@
螨
BF
info
迄今@@
增发
增减
和尚
姊@@
隙@@
工伤
奴@@
不相同
0.12
下拉@@
60Hz
ouch
克萨斯
侨
B超
提示@@
阮@@
既往
猖@@
卦
不爱
Bus@@
孩
手机号码
忏@@
宅
宴@@
社区@@
妃
中央政治@@
官僚@@
瞻
特人
20g
舔
咯
337
悠
未有
而生
芒@@
萜@@
Windows@@
片区
77%
营业部
姿@@
84%
镰@@
睫@@
ound@@
额定@@
试用期
受益@@
鳞
ae
〖
活塞@@
岔
37.@@
究
应聘
７
缕
腌@@
mini
法人@@
贿
克罗地@@
新年@@
980
299
纸盒
鹤
痘@@
后天
参加@@
蜕@@
比亚@@
考研
违约金
吞
粱
黎
傲
颤@@
率高
跚
屯@@
443
居室
山水
96.@@
糠@@
椒
人类@@
打过
94@@
焓
a1
踏实
日内@@
防静电
510@@
凤
帮手
74%
ζ
锣@@
辖
边缘@@
371
48.@@
翘@@
对话@@
カ
sql
散射@@
蜗@@
锻
809
不理
法师
Shell
0.95
钥
展位
990
澜@@
讨论@@
勉
厉
小球
加利@@
本站
完整@@
8.6
学金
哥们
量产
刚果@@
267
惨
嚏
殡@@
感悟
庚@@
0.8%
277
业务收入
颊
长沙市
慎
谢谢@@
也@@
阿姆斯特@@
13.5
哌
一包
鹉
í
视觉@@
菜单@@
日照
火锅
忍者
微博@@
硝
7.9
疽
中山大学
高新
入户
路易@@
89%
松下
兄@@
嘻@@
卟
坚定@@
+@@
棕榈@@
硬化@@
白剂
唉
纾
仅供参考
威尔@@
徽
氏菌
提取@@
打车
佛山市
小到@@
愈来@@
量计
娇@@
干扰@@
大棚
扳@@
公网
被子
09@@
炳@@
屑@@
节日@@
跨国@@
Γ
二代
多址
无论@@
反对@@
几分
基金组织
沼@@
彡
鹏@@
曹
光片
最新@@
大全
61%
违约@@
9.4
人力资源部
量程
霆
蜒
子里
11.5
蜂窝@@
蜿@@
二甲基@@
溯
燃气@@
集团@@
寝@@
萌
玩意
机电设备
示威@@
聪
蚕
升机
厦门@@
旦@@
ui
拉夫@@
跟踪@@
女装
电子科技
三月份
熏
螯@@
靡
本科@@
钓@@
阿根@@
素酶
A.@@
死亡@@
https
厌
TFE
一碗
万家
漳@@
一笑
琥珀@@
20000
课时
喋@@
269
漠
Hg
堪
公有制
我爸
摩尔多@@
种族@@
棕@@
无家可@@
捷克@@
年龄@@
颂@@
冤@@
50Hz
火车票
正常@@
瓣@@
吩@@
斧@@
溜
诉讼法
我错
炊@@
他州
便携@@
270@@
谐
朝阳区
诞
讲课
睁
爹
USD
炫@@
充值
年版
钼@@
一盒
ü
哪家
班长
澄@@
披
茁@@
抄
分解@@
加厚
PNG
石家@@
谘@@
轩
电灯
溃@@
七点
均衡@@
癜
课文
缸盖
支气管@@
购车
Vir@@
总价
¥
385
腱
巴拿@@
交易额
翡@@
床位
加拉@@
闯
音机
狮@@
雹
忆
巴布@@
475
梨@@
腊@@
嫌
亲子
岗位职责
恳
芝加@@
跋@@
24V
睦@@
教研@@
蛾
招聘会
扬州
冷却@@
5500
而易@@
一堂
铣
竞
楔
盥@@
藓
消毒@@
导读
之以@@
另行@@
鳄@@
光体
鹤@@
Ｃ
质保
芜@@
转移@@
禀@@
上旬
亨
生成@@
在校@@
329
镑
明尼@@
苏里@@
form@@
节课
前天
卡梅@@
烁@@
懈@@
速器
蔬
970
√
9001
南通
嘱
蓬
舵@@
民主共和国
致病@@
余万元
廓
彦
自杀@@
炔@@
八点
葱@@
枣@@
性气体
仪器仪表
存续
颞@@
国庆节
方体
200mm
巴基@@
碎机
髁
转移酶
搐
夸
工行
揍
福田
SCI
恨@@
禅
连锁@@
启动@@
纳州
制片@@
300mm
茫
掘
骚@@
伤性
匀
衍
牺@@
ht
0.30
Λ
渍
晾@@
0.85
一班
购入
迷茫
信托@@
95.@@
端午节
苛
x1
师范学院
挝@@
南昌市
老是
加尔
Manag@@
庸@@
绣@@
理查@@
止损
3100
徐州
CES
925
半场
阿尔及@@
04@@
中兴
哎
历年
亲和@@
钕
搀@@
荣誉@@
吃药
宄
有害@@
Jav@@
圭@@
赤
West@@
3600
mA@@
巾@@
焰
新生@@
发现@@
化钠
二氯@@
£
Rich@@
醚@@
%@@
帧@@
笔试
莽
娄@@
辨
位角
五分
米亚
1.75
窑@@
獗
4S
搅拌@@
文科
趁
毒症
Pay@@
产品描述
毫安
三期
卓
黔@@
成品@@
晴
意志@@
婉
创业投资
漱@@
太忙
添加@@
桶@@
定金
置信
吃点
羰@@
樊@@
项目部
置业
邸
迪斯@@
Ａ
埠
一千
缀
渎@@
瀚
倾销
三楼
囤@@
乖
Ｄ
乖@@
驼@@
瓿
287
2023
沃斯
氘
分泌@@
113@@
赡@@
咸
1.0@@
绩@@
108@@
inx
日常@@
尼奥
哈拉
根据@@
热销
海淀区
户型
来得及
碗@@
那好
调查局
谎
骨细胞
光器
eB@@
疟@@
贱
揽@@
ó
盎@@
胁@@
拣@@
尼日@@
arch
裹
来不及
励
规格@@
明日
禄
鞠@@
烹@@
rom
____@@
汹@@
USB@@
仲裁@@
柬
中秋
二百@@
聂@@
优良@@
嘶@@
1080@@
跪@@
麸@@
议事@@
报关
国家联盟
316@@
版权@@
兴市
oop
瓦时
恶意@@
寒假
渴@@
片机
Tun@@
发帖
轩@@
灸
糜@@
说好
宠
桐@@
巨
邮件@@
障@@
这么@@
文献@@
大西@@
图文
大叫
衔@@
痹@@
晓得
ロ
考试成绩
宣
ö
iphone
750@@
8.7
试过
岐@@
共处
間
泸@@
279
银联
茸
Pla@@
洗衣@@
给我发
渔
我怕
『
1.05
360@@
扩展性
追问
骰@@
爽@@
窜
釜@@
03@@
梳
93.@@
旨
媳妇
僚
决算
逆差
9.8
api
条形@@
葬@@
怯
睦
TCL
到此@@
晃
科技股份
风控
杉@@
瞥
仪器@@
攻略
信度
塘@@
十点
茵
记者@@
过敏@@
ﬁ
为啥
听不懂
看得@@
说不@@
保本
7500
淌
上安装
觅@@
卿
敌对@@
6s
工业园
麟
司令@@
自我介绍
薯@@
胶原@@
产生@@
琦
榴
屯
有色@@
嘎@@
舒适@@
嫉@@
斯图@@
成熟@@
』
收货
棕
特别行政区
货物@@
勺@@
媒体@@
们@@
妹@@
明确@@
剃
冉@@
六年级
甫
龋@@
龚@@
蟑@@
泞
荫
短线
Java@@
ql
蜥@@
序列@@
厉@@
导性
车位
指纹@@
等效@@
专门@@
中日@@
梗@@
Mpa
00%
苏州市
寂
缸@@
新月@@
乙酸@@
釆
四年级
满分
苷@@
恳@@
97.@@
踊@@
乃
吟
芹@@
喱
溯@@
粘结@@
坛@@
與
199@@
仰
英格兰@@
芙
倦
谭
筏
不法@@
师父
时时
惑@@
④
兢@@
时起
陡
护者
号楼
办事@@
挽
冲击@@
盏@@
酌
菲律@@
首款
双核
劈@@
儒
焕@@
著作@@
旗舰店
喃
制度@@
集团股份
榫
权力@@
甲基@@
萨德
澎@@
及时@@
性能@@
埔
半年度
知识点
歹@@
高三
福尔@@
蔻
ani@@
日均
氰
30.@@
砺
彝@@
钣
蛮@@
橱@@
边形
下同
可执行@@
linux
289
电子邮件@@
萨尔@@
煽@@
H5
胱
萜
茱@@
6500
B2C
佣@@
淋
寥@@
小数
心病
30000
骇@@
驱动@@
桔@@
艘@@
哄@@
材料@@
YY
劾
土金属
轴距
297
资企业
蹲@@
贞
袜@@
斟@@
靖@@
垒
颚
鸥
三等奖
芩
绚@@
増
Ale@@
固性
8.9
嚼
怡@@
安区
稼
116@@
理科
巡回@@
袱
成语
udio
许可@@
穗@@
中介@@
铠@@
抖@@
挚@@
钮
吡咯@@
芹
寺@@
塞浦路@@
贱@@
祁@@
躬
10.3
向阀
产品规格
间歇@@
坠@@
46.@@
說
鄂@@
768
MAT@@
貌似
平方厘米
韶@@
或多@@
吱@@
咱
通行@@
二层
西西@@
由此@@
發@@
小猪
年产
实数
42.@@
费尔@@
阿尔茨海@@
栩@@
氏体
侥@@
开个
侵
慕
淄@@
52@@
嫦@@
鱿@@
Ν
坚持@@
杞
388
吼
姐@@
衅@@
2m
折腾
开展@@
酞
Analy@@
捉
公章
出资@@
祀
不及@@
逗@@
淫
google
滔@@
篱@@
羔@@
44.@@
勿@@
霓@@
谬@@
耻@@
巴马
感染@@
哎呀
幔
斧
邪
独裁@@
山路
镧@@
魅@@
初始@@
淘宝网
堰@@
遥
纫
藻@@
媛
严厉@@
竖
45.@@
克力
憧@@
耐磨@@
kw
房产@@
萎
砰
髂
亵
砥@@
酒精@@
御@@
阿波@@
懈
忱
疼@@
中央政治局
辜@@
敬请
俭@@
肥胖@@
hone
拌@@
撼@@
蝴@@
鲨
憬
叨
炙@@
慨@@
舷
ork
時@@
政府@@
急诊@@
蔑
抛物@@
沂@@
霖
蒜@@
缭@@
巴巴
牧业
栈@@
Phot@@
蜴
fig
钓
孟
涯@@
㈧
聚力
簿@@
话说
碲
卵巢@@
浦东新区
惊叹
启
壬@@
皮下@@
你别
乒@@
jav@@
全部@@
臣@@
拦
揉
彬@@
锆@@
参赛@@
琢@@
Π
MTS
佣
丐
绪
心得
异氰@@
扶贫@@
渭@@
克兰
遂@@
正品
隔离@@
挽@@
不起@@
五百
零售价
不好@@
缤@@
考证
纲@@
Mart@@
220V
湘
黏
§
辩护@@
海地区
辑
耽@@
孪@@
定形
马斯
压敏@@
擅@@
棵树
冀@@
踝
扉
⑷
15000
43.@@
月薪
靖
觅
颁奖@@
奥委会
闺@@
裡
盔@@
猿
戊二烯
83@@
330@@
KM
恼
年终@@
蕊
睿@@
特价
笆
fig@@
吋
柚@@
层次@@
妄
中考
柬埔@@
运算@@
聪@@
囚@@
五年级
铀@@
荼
赦
沾
克林
叙利亚@@
裨@@
iness
夏令@@
2x
倚@@
俄亥@@
叶绿@@
榜@@
铍
加利福@@
玲@@
询@@
质素
辽宁@@
业务员
褪@@
入职
调试@@
利润总额
版权所有
柑@@
殊
螺丝@@
孝
测定@@
标志@@
不结@@
洼
常任@@
买个
峡
苷酸
41.@@
热性
热水@@
9.9
锭@@
贬@@
罕
置疑
务人
惟@@
检出@@
汛@@
大会堂
屈服@@
衍@@
考查
罢
煌@@
根治@@
搪@@
Cit@@
难者
誓
锂@@
峡@@
潢
效果@@
瘟
驴@@
陋
流阀
440@@
焰@@
节性
洼@@
時
哈哈哈
珊@@
印度尼@@
涎
青藏@@
舷@@
铢
弘
渠@@
瞎
ARS
末日
逗
悖
凳@@
标人
好久
渲@@
崔
常务@@
煎
枫
成绩@@
python
各种@@
祸@@
铼
檀@@
yth@@
倪@@
改性@@
剥
亚特兰@@
‧
鸽
跆@@
风湿@@
乙醇@@
烘@@
宛@@
择
嘱@@
舅@@
棱
翁@@
Book
Chro@@
趾@@
炬@@
咱@@
靓@@
镕@@
热烈@@
樣
仕
扮@@
好用
天冬@@
互联@@
喻
亚美@@
徽@@
窍@@
Config@@
发式
酵@@
Ε
惑
解除@@
薰@@
国标
咳@@
毂@@
控股@@
挚
阴极@@
传染@@
缅
颤动
纷
73@@
襄@@
哪位
换句@@
虾@@
镁@@
芋
宙@@
沦@@
辐
256@@
雨量
雇@@
装机
中山@@
鸦@@
统治@@
惰@@
可变@@
即时@@
悍
寐@@
指标@@
年人
胜者
∞
试用@@
血红@@
当代@@
ios
兀
焚
鞘@@
暑@@
晦@@
冶
禾
里约@@
亲们
砼
一分@@
痣
漠化
羧
脓
镊@@
缮
满意@@
O2O
飘
性材料
粹@@
轶@@
亢
侠@@
格拉斯
疙@@
一脸
楞@@
幂@@
Σ
槿@@
发到
荚@@
楷@@
事会
犁
茧
共青@@
酥@@
奢@@
学龄@@
极管
矢
褶@@
帚
第十二@@
010
過
导航@@
扛@@
鞍
厂家直销
温器
农民@@
釉
桉@@
彤
雯
汪
多米尼@@
成长@@
淬@@
荚
勾
好好学习
江区
茄
瘩
ats@@
幌@@
出血@@
联系电话
凋@@
哄
负债率
国集团
售货@@
彪
仕@@
唯物@@
qq
赃@@
不知道
瘘@@
當@@
怎么@@
官能@@
福建@@
姚
鞭
鄱@@
蚀@@
捻
旬
消息@@
紊
碍
码器
嗎
吼@@
鑫@@
襟
邱
刹@@
慈善@@
瑙
尼泊@@
咋
哈尔@@
稚@@
鲸@@
在我@@
Secur@@
侬
inf@@
潜水@@
防火@@
疱
呋@@
西藏@@
侃
矛
轭@@
嗅
胀@@
咒
膦@@
捞@@
髌@@
叭@@
对照@@
痔@@
啃
change
请求@@
随身@@
丨
茴@@
装箱
婉@@
lob@@
昊
入学@@
菌剂
藐@@
蚀性
犁@@
pd@@
约束@@
«
糕
折合
來
昌市
糜
总统@@
兀@@
放在@@
审查@@
畸@@
鞣@@
Ο
沥@@
诋@@
提琴
芪
旱
戳@@
双十
明尼苏@@
愁@@
含税
弗拉@@
加油@@
界人士
乌鲁木@@
郁闷
红素
罕@@
哒
打了个
普敦
荞@@
狼疮
....@@
一体@@
富士@@
周转@@
枯
Rub@@
漂
因于
娇
管癌
trol
怠@@
瑰@@
贻@@
桦@@
狙@@
黑色@@
负担@@
王者
钚
髋
糯@@
12000
旷
格兰
佩奇
篱
描述@@
720@@
负面@@
妞
Zig@@
苔
暮@@
辗@@
乌兹别@@
澡@@
玷@@
国道
否@@
轰
紊@@
手持@@
雁@@
xx@@
泼
主义@@
如说
50000
滋
恶性@@
颞
潴@@
圏
炜
醛树脂
携
CCC
江苏@@
挨
谦
能性
咀
瑶
虐@@
今天@@
闫@@
巷@@
蹂@@
310@@
篪
侦
孽
Ｓ
帕金@@
吕
志愿@@
蛤@@
躏
瘠
亚利桑@@
崽
荧@@
逢@@
骆@@
对性
娴@@
麽
转债
翟@@
世界贸易@@
尿管
菌性
迸@@
攒
mas
纳米@@
們
唬
丙烯@@
伊斯兰共和国
399
霞@@
选活动
太平@@
痴@@
亭@@
泉水
條@@
外形尺寸
唠@@
EEP@@
炖@@
讳
四氟乙烯
相器
融资@@
滇@@
窘@@
万块
范文
陇@@
报名@@
捂@@
试点@@
匆@@
抚
猥@@
辊@@
蛙
灵敏@@
竿@@
塔吉@@
圆满@@
肃@@
吝@@
蝶
的是
候选@@
罄
禾@@
评论@@
沫
斯敦
癜@@
＊
秤@@
矿物@@
金刚@@
揉@@
谘
朔@@
失常
挛@@
迥@@
缎@@
艰苦@@
糠
艰
奸@@
菱
淹
碧
膈
韩版
异构@@
羚@@
瞥@@
bc
鲤@@
就是@@
寡
占有率
Ｔ
馒@@
楼主
恍@@
Syst@@
芴
手游
慑
体积@@
砧
蒿
混凝@@
攻坚@@
istic
²
U盘
蚤
印第@@
耐火@@
馨
辟
说明@@
骶
迂@@
________@@
规模@@
绷@@
吉布@@
措@@
肴
酿
璐
盂
编译@@
麦当@@
QI
阿卜@@
Had@@
yw@@
慑@@
并非@@
东路
沂
扛
散热@@
钎@@
鼾
佩斯
麝@@
桔
圃
定书
苇
广西@@
憩
雄心@@
呐@@
勉@@
杭
魁
液聚合
货量
发率
可不可以
桐
凄@@
趾
人力@@
笑了笑
阎@@
朦@@
µ
怎
私有@@
乍
褪
蔽
国力
蒿@@
新华@@
咕@@
壤
奥林匹@@
吧@@
國
慷@@
匈牙@@
孟加拉@@
種
娱
中美@@
酌@@
青春@@
轮驱动
科威@@
睾
cel
方程@@
绞
辟@@
坪@@
哀
湃
骂@@
渤@@
ν
休息@@
泮
撮
路交通
wt@@
鄂
佑
勘@@
蕴
啊@@
eNode@@
衷@@
定位@@
固体@@
威廉@@
蹬
秋冬
柴油@@
屁@@
绵
正比
乾@@
牵
涝@@
病原@@
管人
苣
啾
雁
渝@@
egr@@
格鲁@@
薇@@
蚌@@
耸
罗斯@@
时性
斯勒
真不知道
菩@@
蒋
菱@@
惮
彰@@
洗发@@
赘
拴
试者
沙特@@
摧@@
袁
仑@@
兜
堇
催
普勒
相干@@
中奖
岂
庐@@
茬
嘟@@
翘
维吾@@
琉@@
冀
两岸@@
嚷
类人
isco
亚历山@@
屹@@
压倒@@
绷
度高
远地区
羁@@
潭@@
糙@@
朋
蒽
殴
捧@@
蒜
嚼@@
秩@@
共和@@
以太@@
钵
吟@@
梧@@
攒@@
悸
绥@@
活率
龈@@
吠@@
富翁
继续@@
泣
岚@@
啡@@
舅
谅
出所
檐@@
织品
捅
缪
雅思
社会科学院
黎巴@@
掀@@
888
崖
柚
洗手@@
骷@@
热点@@
囚
郸
南路
芜
罢@@
生肖
肚
唔
招待@@
波特@@
豹@@
无形@@
痢@@
妃@@
胰岛@@
殖
腊
啁@@
噬@@
unt@@
logo
冗@@
天文@@
电子版
潇@@
潜在@@
谟
房地@@
丽丝
粽@@
倩
虱
躯
黛
毗@@
颓@@
需要@@
¾
茸@@
砝@@
窥
酪
通知@@
姬@@
讼
不计
信服
招聘@@
孵@@
ニ
⑻
炽@@
迦
亲节
不在
蹭
经理@@
扫地
矸@@
匕@@
玺
挖掘@@
诵@@
芎@@
辫@@
洱@@
誉为
殉@@
苏丹@@
乐视
啸@@
炖
Ｆ
耘
暨@@
Ｍ
胧
删
尔多@@
涟@@
鳍@@
羹
恤@@
篝@@
翰
提成
说得@@
2.00
那句话
垩
姥@@
狐@@
诟@@
合线
漪
弘@@
刨
空军@@
€
洛特
连杆@@
棠
俄勒@@
TPS
青岛@@
巴勒@@
照明@@
汰
泰晤士@@
病学
婿
耙
义务@@
嘻
挥
蟾@@
绸@@
芯片@@
蘸
阿塞拜@@
绍
蝗@@
饵
涎@@
穴@@
觑
妓@@
汾@@
布隆@@
Upd@@
竿
参谋@@
分布@@
安徽@@
颐@@
拂
sig
轨道@@

解析@@
瞒
揣@@
铵@@
诫@@
丫@@
铛
长春@@
唯
受害@@
资格考试
丰富@@
库尔@@
哈尔滨@@
人权@@
磕@@
讓
疚
琅@@
灼
模数@@
疮@@
5.00
N0
198@@
亿万@@
斯洛伐@@
分数线
钓鱼@@
负责@@
玻片
铒
亥@@
瞄@@
淀粉@@
手环
氙
钥@@
无处@@
Link@@
璀@@
惰
沐@@
煲
漓@@
啡
呻@@
诫
汝@@
钧
啥@@
垸
漱
蜀@@
坷
褥@@
宕@@
Ama@@
庚
青海@@
LOGO
鎓
焙@@
貌@@
伊利诺@@
檗
歼@@
恰
嘘@@
殊@@
蟹@@
檐
辅导@@
皖@@
▲
撰
闵@@
遏@@
不言@@
协力
睾@@
伎@@
协商@@
博士@@
秃
克里斯@@
崭@@
猿@@
涸
合器
偏移@@
西路
考点
发布@@
脒
主人@@
阈值@@
葆
小明
一试
地面积
衰减@@
茎@@
丈
Ⅵ
矽@@
苯二甲酸
爱好@@
莆@@
貂
淬
辈子
呗
奴隶@@
蚓
歼
磐@@
质体
並@@
楂
瞪
僧
氪
治党
瑶@@
贲@@
歉
嗒
暹@@
委内瑞@@
蛙@@
钬
炫
牦@@
嚣@@
预测@@
饲
丙烯酸甲酯
族自治区
惭@@
味剂
#@@
重于
谛
当事@@
足轻重
狭
注意@@
哔@@
绎@@
数据库@@
玮
曦
安大@@
妖
槲@@
负债@@
荐
辍@@
寄生@@
赊@@
彼
持久@@
經@@
璨
笺
辛勤@@
惬@@
邑
毋@@
蜱
‰
个月
國@@
民党
郁症
勘
蹴@@
倪
Press
奥地@@
pk@@
眷@@
通性
開@@
鳗@@
茵@@
彰
栋@@
逞
腻@@
淳@@
Κ
莹@@
髅
從
瞪@@
掣@@
尊重@@
trol@@
乒乓@@
跷@@
昕
沁@@
俑
琪@@
馅
一氧化@@
舶@@
花园@@
﻿
股东@@
屿
腭
SSI
噱@@
茚
氡
嫂
td
‌
Joh@@
政协@@
值得一@@
莺
裴@@
繁
ä
礁@@
鳕@@
蔓
传真@@
韭@@
肯塔@@
灿@@
郸@@
艮@@
殆@@
太平洋@@
淘
啪
呦
㈠
艾哈迈@@
俺
逮@@
哗@@
燃烧@@
哩
將
將@@
意料
海中
五星
会展@@
内心@@
赎
裹@@
悍@@
党员@@
OAc
耍@@
鲁棒@@
埃塞@@
經
喵
中路
加热@@
狸
迅
淀@@
埃塞俄@@
excel
进行@@
鲍
伙伴@@
南市
教士
跛@@
钆
麓
關@@
亚历@@
驿@@
边境@@
嘎
相比@@
岖
鳄
资银行
斯拉
搓
蔗@@
蚜@@
厦
拙@@
肱
褒@@
懊@@
菅@@
驶
歪
钛矿
哮@@
利尔
肠癌
心律@@
高尔@@
羞
瞌@@
瑕
翩@@
对苯二@@
膀胱@@
波士@@
look
妨@@
帜@@
安哥@@
秆
咧@@
寅
轿
咀@@
汶
裘@@
粤
绊
芸@@
依存
岔@@
密集@@
Geor@@
奥会
龋
蛀@@
曰
垦@@
重复@@
铎
臀
攀
行性
剂盒
睛
辖@@
史密@@
碍@@
蜍
涛@@
退休@@
絮
咏@@
喙
唾@@
撕
矾
桁@@
允
颁
利昂
蚯@@
哇@@
馁
憎
东盟@@
悖@@
锇
单元@@
笑了@@
ype
粟@@
制作@@
苓
Intern@@
腥@@
Techn@@
窜@@
汶@@
匠@@
笃@@
杂质@@
苟
花板
蓟@@
−
惫@@
控器
Ｅ
亚马@@
hop
剪贴@@
istr@@
些年
计数@@
正弦@@
话费
诣
ć
鳟@@
眨
哈佛@@
長
讼@@
惧
魁北@@
靡@@
夕卜
克逊
Ｎ
轻重
奥兰@@
紧要
袒
菁
呕
中海
關
Enter@@
Ｉ
氧烷
鸵@@
锦赛
現
芸
极端@@
熄@@
啬
孰@@
拷@@
神社
垢@@
出发@@
晶态
孤
禹
汀@@
秧@@
荃@@
归根@@
噜
敖@@
选择题
骶@@
掐@@
观者
靛@@
钪
各族@@
橼@@
蜷@@
踵@@
妍
乳酸@@
防腐@@
基亚
荐@@
J2@@
粒体
ppt
Glob@@
挎@@
ambda
注册号
這
镗@@
Ie
威斯康@@
Ｂ
钊
兄弟@@
猬
贪
憩@@
达到@@
朔
應@@
胬@@
私营@@
签订@@
家用@@
婴@@
姗@@
腭@@
占有@@
失败@@
螨@@
俨@@
氖
惶@@
禧
人民共和国
咋@@
北路
人行@@
海峡@@
枉@@
邮编
朽
詹
阂
咕
槌
了个
酋长国
华尔@@
曙@@
點
拮@@
吖@@
ñ
恙
須
皈@@
坍@@
巍
渍@@
原价
壤@@
摩托@@
芘
形势@@
掀
撮@@
驹
痔
宰
清华@@
痕@@
傀@@
残疾@@
蕨@@
柿@@
理工@@
Ø
¡
绪@@
拎
榻
鸠@@
缩略@@
葫@@
奋
橱
蹈@@
糕@@
灸@@
入量
干涉@@
过氧化@@
睬
槐
吾
禧@@
人大@@
哆@@
出资额
述职
菏@@
积金
雇佣@@
臀@@
蜻@@
﹗
施加@@
履
高新@@
海岸@@
ww@@
购房@@
剖
玻
呜@@
員
馅@@
巴巴@@
言不@@
問@@
Ｒ
攫@@
矗@@
瓢@@
魁@@
丧
莴@@
熠@@
粹
LAB
衢@@
煞@@
盹
雌
虞
痂
茜@@
扒@@
尼迪
矾@@
睑
尖瓣
教案
蝉@@
不论@@
世贸@@
慈
科院
牠
Ⅴ
----@@
題
黉
浚
穆斯@@
芍@@
蛹
多斯
耶稣@@
罗拉
骤
摧
珂
鹭
鲨@@
Pow@@
券@@
羚
风湿
桦
角处
毡@@
⑤
卡斯@@
巅
发挥@@
准确@@
斐
匾
撷@@
話
PST@@
招商@@
lab
发给@@
卡罗来@@
奕
上型
※
è
藜
嗝
燥@@
º
搅
↔
Χ
运行@@
Ξ
田纳@@
阳区
嫖@@
尧
俚@@
怜@@
實
沙市
Ｏ
witter
濮@@
榷
尹
俾@@
昨@@
人节
牛仔@@
职能@@
浙
频器
abc
恭
厦@@
诬@@
哺
規@@
内华@@
能器
萍@@
兮
馀
俏@@
静止@@
股份@@
匡@@
酸酶
NaH@@
奕@@
税务@@
抗日@@
OPPO
莅@@
Dyn@@
½
毕
单人@@
避孕@@
甘肃@@
袤
琅
吉尔吉斯@@
绯@@
珩@@
伽
注册资金
晶硅
胫
啸
葩
ａ
半导体@@
中医药@@
SYS
袭@@
剿
Word@@
雍@@
晟
俏
谵@@
坟@@
tify
灿
苄@@
入射@@
疽@@
呕@@
册@@
斛
义词
蜓
首要@@
侍
................@@
综
腱@@
常规@@
臻
马里兰@@
隋@@
__@@
榴弹
大神
ⅱ
特派@@
涯
有制
忡
野生@@
麋@@
搂
奄@@
羽毛@@
艮
拂@@
遛@@
榔
楞
惋@@
唆
奥林@@
气性
aul
遏
Io@@
吮@@
PPO
沼
浏览@@
札@@
萦@@
胞胎
腑
僵
uration
铕
呼叫@@
内蒙古@@
起重@@
皓
夷
挪
塔尼亚
歉@@
容性
›
缎
忡@@
幺
固醇
瞒@@
胭@@
马尼@@
除术
焉
莱坞
浣@@
不前
惜@@
嘿嘿
癫
可口@@
Ί
aris
峨@@
掷@@
元法
NSC@@
猩@@
主机@@
蜀
∑
普森
祺
诲
„
缀@@
达尔@@
痒@@
榛@@
饷
铉
泗@@
妓
方人
栀@@
豚
议会@@
沽
每天@@
哗
吱
襟@@
应答@@
钍
不懂
剽@@
苟@@
立陶@@
斋
铷
巡
焕
暧@@
儡
媳
寰
無@@
戟
內
婷@@
帜
姥
愛@@
库尔德@@
給
机密@@
エ
咙@@
蔼
羔
沽@@
妒@@
毯@@
acle
最大@@
並
猖
供电@@
伺@@
驼
远远@@
媚@@
罔@@
鹌@@
癖@@
伊利@@
寿命@@
新南@@
琵@@
mol@@
公司地址
ⅰ
类似@@
揣
隅
爱丁@@
曳
涓@@
预警@@
烨
茹
发器
遐@@
联体
呵
胞外@@
为数@@
督
禹@@
酪@@
难民@@
蛭@@
密西西@@
魄@@
臭氧@@
alse
吁
梓@@
學@@
--@@
蔼@@
洱
骏@@
不敢@@
鸽@@
僻@@
牒
揪@@
÷
體
蹊@@
蟒@@
虱@@
嫂@@
怂@@
夭@@
進@@
郴@@
禄@@
乓
缄@@
粳@@
吁@@
麸
恕@@
壹
镂@@
 
军委
娱@@
褥
奇偶@@
嬗@@
然不同
愣
跤@@
绞痛
岚
遣队
膨胀率
瘸@@
民主主义@@
枷@@
認@@
税局
爱荷@@
廖
139@@
庇
谣@@
触摸@@
践
域网
笃
选为
寝
Ｌ
辽
羌@@
涪@@
飙@@
一下@@
邂@@
邃
距离@@
垩@@
分辨@@
灰石
據
违规@@
乏@@
溅@@
非共和国
麒@@
捻@@
樊
逅
淼
讴@@
刁@@
盔
酥
彻斯特
琐
可图
滗
鬃@@
噩@@
命中@@
氚
沒
怯@@
處
見
毛细@@
俐
咖
箍@@
诿
噶@@
掏
萼
榕@@
鼬
吮
昊@@
蛭
沫@@
作出@@
恿
沛
惚
竞技@@
箴@@
涤@@
璋
沒@@
着眼@@
模块@@
巍@@
美利@@
㎡
纠
湮@@
厕@@
鲱@@
霹@@
傅
痿
赃
沧
侮@@
啄@@
辰@@
周知
伊利诺伊@@
瞭@@
ｉ
000.00
丫
疝@@
蹈
忽略@@
准备@@
御
哼@@
憾
龈
蚤@@
麼
贫民@@
彪@@
镐
撬
沌
吾@@
蔓@@
修正@@
上万
颚@@
最小@@
镦
争霸
書
休止
斯坦福@@
枉
械@@
塞性
阉@@
呜
瑾
阮
婶
扒
走势图
告人
VIEW
zon
靴@@
私家@@
pse
斯洛@@
兮@@
胱@@
外商@@
诧@@
哽@@
瞩
辈@@
啼@@
岂@@
嘲
動
淇
大理@@
約
壕
朋友@@
讳@@
切割@@
淳
躬@@
拉克@@
下一@@
眸
ç
蕈@@
理财@@
◎
鹃
obe
制件
儋@@
盘驱动器
佩克
闽
伺服@@
跷
讽@@
侗@@
陋@@
煅@@
饼@@
熄
崩
斤@@
克萨@@
韦斯
底薪
____
骡@@
眷
褐
机动@@
姻
阜
朊@@
镨
電@@
镱
阿姆@@
嘀@@
俄克拉@@
禺
管部门
自来@@
壹@@
Ｇ
甫@@
姨
亳@@
绌
求职@@
习班
槐@@
楠@@
仗@@
返回@@
惦@@
羯@@
脯
霄
蹩@@
ｅ
缜@@
嗦
热敏@@
合伙@@
­
榄
蝇@@
蓟
铰
几内亚@@
斓
喀
人道@@
喇嘛
藩@@
痉@@
℉
SEQ@@
苍
美联@@
Found@@
⑧
琶
别无@@
特立尼@@
撸
厩
獭
钞@@
啰
拣
薛
翱@@
战队
星人
別
筱@@
反比
徇@@
上册
眯@@
pk
咏
憋@@
 
诃@@
侪
►
敛
辫
彷@@
宫颈@@
宙
铊
峻
银河@@
莨@@
雳
挟@@
嵴
劈
請
條
壑
芍
汛
水杨@@
娓@@
庇@@
院所
埔@@
論
优越@@
剌
厮@@
☆
goo@@
越野@@
无核@@
激励@@
圭
罗姆@@
⑼
浦东@@
碌@@
♦
淤
項
摞
锢
捣
業
蒸馏@@
央
利安
最终@@
_@@
赣
Ｈ
岗位@@
珐@@
漓
锹
悴
屿@@
憋
鲈@@
尧@@
炽
翌@@
蕉@@
蚴
研讨@@
夏威@@
庐
兩@@
蜚@@
鹑
3G@@
贵州@@
狡@@
镗
選@@
黔
协同@@
roid
⑥

产儿
我爱@@
孜
缕@@
推广@@
跨越@@
视网
苎@@
嘟
举行@@
陌@@
菲特
膺
壶@@
噬细胞
跖@@
恢@@
≈
近几@@
五角@@
滇
鹃@@
威斯康星@@
党人
殖民化
人教版
苞@@
滁@@
讹@@
盘价
腌
憔@@
窿
坤@@
问责@@
奋斗@@
巯@@
坳
薰
祟
镭
火花@@
疲
钻井@@
吏
危地@@
Υ
萼@@
場
蒲
韬
一化
突破@@
咫@@
cmd@@
喽
ã
祢
水土@@
建议@@
臃@@
沛@@
金字@@
曝
注目
诱
约瑟@@
臆@@
實@@
钐
こ
榻@@
电路@@
皙
幌
型肝炎
播放@@
枇@@
狒
崖@@
调制@@
蝉
開
砟
歩
挟
怜
㈡
支柱@@
一想
潦@@
類
地铁@@
旗舰@@
包商
狒@@
峭@@
腓
荆
永久@@
维加斯
楷
摩洛@@
璧
尉@@
议书
恺
国庆@@
特立@@
龛
装载@@
纪检@@
叽@@
填充@@
篡@@
斩
殷
嗑
骋
虫剂
倔@@
藿
对比@@
裆@@
竺@@
实习@@
忐@@
烘
š
掖
大肠@@
龚
agram
鹈@@
鹕
邵
突发@@
外线
拘
展商
擒@@
钕@@
以致@@
课堂@@
白血@@
振荡@@
娼
扦@@
伶@@
蓉@@
胨
珈
阐@@
峪@@
裳
貂@@
鲜明@@
021
萧
斯洛文@@
htt@@
穹
腆
珑
菪@@
匈@@
麻省@@
格鲁吉@@
梧
学前@@
攘
烩
胱氨酸
礴
 
嚎@@
疹@@
喆
比克
毫米@@
攘@@
剔@@
啃@@
联轴@@
酏
現@@
惕@@
获奖@@
益生@@
之为
结为
绢
當
厄瓜@@
同情@@
诙@@
琢
曳@@
黝@@
鬣@@
膛@@
大发
飙
靳@@
中枢@@
俞
魇
則
洙
瑛
偏振@@
臼@@
仆@@
绅
犹
个世纪
茯@@
屬
棺
小康@@
屹
坟
闰@@
僚@@
虞@@
浪费@@
哈马
寇
ø
皖
粹主义
舜@@
克什@@
赈@@
矣
▪
墨尔@@
孀
郝
前所@@
实现@@
琦@@
瞠@@
领土@@
叩@@
佟@@
经常@@
橘
柠@@
批评@@
杞@@
圩
務
随者
嗤@@
藕
腼@@
員@@
捐赠@@
塑性@@
康涅狄@@
亥
茹@@
圣彼得@@
糖苷@@
吸取@@
呛
镳
DMI
税务总局
踞
夫兰
制定@@
切身@@
唤@@
讥@@
因果@@
项式
排名@@
煤灰
藓@@
微波@@
丈@@
鼹@@
接入@@
援助@@
眺@@
佝@@
诽@@
洄@@
分之二
‍
斯特罗
妳@@
傣@@
谤@@
保龄@@
甬@@
泾@@
闭上@@
琥@@
夯
铿@@
瞅
赝@@
侃@@
妊@@
高岭@@
水族@@
溺
裆
昭
布里斯@@
筏@@
郡@@
犊@@
翰@@
牛津@@
婧
吉尔吉@@
钰
倩@@
陕
布达@@
堕@@
漾
lash
逆变@@
傍@@
栾@@
很多@@
膳
鲶@@
＿
擒
瑜@@
岑
碌
铮
⊙
棣
婶@@
咎
爹@@
纳税@@
嘧@@
鞅
蛤
杂货@@
频率@@
偎
昼
遮
過@@
嘌@@
蝎
讪
达州
民意@@
菌体
颧@@
鲤
尉
汾
蔚
♪
胛@@
率地
莘@@
靓
锍
土库@@
問
----------------@@
耿
路易斯安@@
犊
锲@@
射率
trl
戰@@
啜@@
酐@@
轿@@
泓
法特
結@@
總@@
嘶
彗@@
在此@@
摹
狄
马士@@
交道
瞰
昙@@
匈
變@@
戎
腙
包邮
流水@@
跤
雯@@
莠@@
蛟@@
後@@
檀
崂@@
秽@@
漉
杷
肟@@
鸡尾@@
娄
电偶
奉献@@
巫
麂@@
有限@@
首脑@@
amework
绸
icon@@
缔
涩@@
親
秧
意味@@
萸
漯@@
恫@@
美利坚合众@@
忻@@
氘@@
射线管
卉@@
堑
蟀
tx@@
煜
害人
埠@@
激动@@
疟
噻
线路@@
亩@@
达姆
應
竺
脂酸
葆@@
意向@@
榭@@
ú
西门@@
町
蟋@@
不负@@
补助@@
确保@@
可靠@@
铤@@
磋
衫@@
详细@@
骁@@
ｎ
之急
蓬勃@@
钴@@
续费
Whats@@
胳@@
钰@@
筝
鞑@@
睑@@
臻@@
哒@@
涣@@
等奖
出人@@
聖@@
證@@
崽@@
嚷@@
粧
伊拉克@@
阪@@
桁
胴@@
纭
柑
玫
甄

歹
Ｖ
酊@@
晦
玛格丽@@
藉@@
角度@@
锣
訴
阈@@
頭
丶
化因子
起诉@@
徕
谆@@
吲@@
加速@@
昧@@
芎
烽@@
卯
扪@@
线管
榉
么@@
实处
起落@@
拴@@
Univer@@
芋@@
时针
Ub@@
解剖@@
晗
確@@
赘@@
冤
氰胺
嗡
陜
三聚@@
佰@@
愕
ā
琨
谱法
次方
乇
Ζ
妨
昨
痹
奠
让你@@
罹@@
奚@@
破产@@
谕
邹
愉@@
會@@
新社
叼
Micha@@
有利@@
啪@@
特兰@@
帼
莽@@
皓@@
資@@
瓦纳
瞬
屠
運@@
格达
我发
數@@
窟@@
慷
ｒ
磊@@
沓
宁波@@
兖@@
藿@@
乞
Ｗ
霄@@
梏
偻@@
皑
创始@@
續
抠
真题
ί
桎@@
纾@@
锄@@
螳@@
盂@@
議
巴塞罗@@
鲁特
沁
皑@@
震器
獲@@
誰
矫
fli@@
监管@@
树脂@@
萱
爸@@
新罕@@
歇尔
艾哈@@
规范@@
祷@@
琏
蜥
篆@@
唆@@
谙
钣@@
槲
贬
玫@@
忿@@
笙
惟
冢
憨@@
鳃
蔷@@
马萨诸@@
滥
｡
气式
蝌@@
變
墩@@
冉
限性
钙素
谩@@
懵@@
跻@@
掐
蚪
‚
č
引资
疵
髂@@
鹫
不用@@
浏@@
號@@
徨
都会
號
驱逐@@
遵
獾
槃
揩@@
蹦
鼾@@
渥
瞿@@
權@@
下册
ΐ
饯
顽
滦@@
ō
孰
桓
璃
桢
骺
麟@@
權
歲
碲@@
开奖
祠
镝
锉
瞄
拙
烊
咚
覃@@
极其@@
胫@@
度图
岑@@
鄞@@
辖市
胼@@
記@@
飚
稱
无纺@@
溃疡@@
婕
ｏ
中之@@
贸易区
◇
国际货币@@
陆战队
俑@@
玮@@
垣
话语@@
東@@
问下
和谐@@
爾@@
呱@@
泡剂
ｃ
玄
適@@
锏
不觉
讷
摈@@
玥
撇
譬@@
榕
疡
莳@@
臭名昭@@
芮@@
鲭
備
tics
翩
脊椎@@
馨@@
｜
歷@@
谍@@
嵩@@
計@@
ython
Window@@
ｌ
凛@@
滓
锵
肃
馄@@
楦
工器
成层
短短@@
杵
乐部
覺
↓
构件@@
甾
螯
花岗@@
吠
離@@
汕
虔@@
闪闪@@
ePoint
厄姆
报率
哎@@
尼亚州
悚
踌@@
新几内亚
蹋
自给@@
溧@@
瘪
錢
枭
饨
坂@@
設@@
伯利亚
砰@@
兒@@
绗
诀
寇@@
饺
霆@@
寥
夙@@
绦@@
孚@@
│
谧
叮
弛
姗
羡
哝
掰
毓@@
刽@@
隻
匹林
籼@@
深深@@
夠
全息@@
惘
明治
機@@
∈
嗣@@
卻
踱@@
à
訂
钡@@
澄
人与@@
瞳@@
￥
保质@@
腋
一夜@@
游乐@@
晏@@
碁
岷@@
豚@@
淑
鹊
帷@@
础
叛乱@@
桅
绉
倘
浒@@
求是
家宝
佛罗@@
椿
杰斯
缛@@
夯@@
沦
邑@@
体系@@
朽@@
潼@@
黑龙@@
坨
坩@@
中继@@
是如此
氖@@
吩
ｂ
芦
祯
暇@@
馬
骨质@@
鸠
钢丝@@
瘫@@
踹
斯里兰@@
雅各@@
ⅲ
ABCD
犀
骥
膀@@
呤@@
特网
攥
鏻
丹利
窒@@
隊
蛔@@
欺
懵
曩
專@@
鞠
束器
饵@@
炯
藩
帝汶
墅@@
栎
祎
密歇根@@
況
達
霁@@
色板
事长
镌@@
袂
蛊@@
在实践@@
森特
樱
两制
肛
籁
帶
嵩
陲
内燃@@
复用@@
卟@@
欧安@@
祷
機
摄像@@
妾
邋@@
自足
甥
肇事@@
斌@@
硒@@
揭
產@@
癸
保修@@
犸@@
梓
孳@@
诺斯@@
️
气管@@
搡
柬@@
屉@@
焙
發
铮@@
捎@@
瀚@@
乌鲁@@
增值@@
敖
壑@@
鳗
等价@@
Ü
一览@@
哈根
谔
姻@@
森堡
組@@
汐@@
蜈@@
給@@
創@@
不同@@
珲@@
沐
俩@@
不耐@@
↑
沱@@
邬@@
該@@
擁@@
amew@@
往复@@
知情@@
剁
霰@@
忽
炯@@
岘@@
弥
怦@@
颐
岐
氩@@
許@@
吆@@
遢
婺@@
讣@@
榆
保障部
贼@@
迁移@@
嘿@@
囧
&#
卡人
芮
在生活@@
寮
酣@@
剤
胝
宇航@@
鲫@@
擂@@
Å
榫@@
眨@@
钧@@
马萨@@
慵@@
湍@@
助人
治亚@@
▍
轴箱
遨@@
匍@@
ｔ
鹊@@
道而@@
读卡@@
Ψ
愛
炜@@
鸢@@
哉
恬@@
克里斯托@@
▼
苋
不久@@
桡
骅
合众@@
﹤
⑸
羁
五年@@
書@@
选框
俪
茧@@
戍@@
掸@@
瓴
惺@@
鹳
燎@@
熠
态性
溯到
衍生@@
垣@@
潇
棺@@
⋯
复印@@
沥
雏
叩
搂@@
量分析
趸
架结构
兒
席会议

导者
跖
佘@@
缰@@
岱
esk
Tube
爭
爵@@
魔术@@
歡
汹
受性
笔记@@
ξ
荞
乳头@@
........@@
袒@@
钒@@
敛@@
寅@@
理所@@
烙
蚝
唧@@
禺@@
拭
識
繼@@
蜊
ψ
﹒
黍
扮演@@
É
愉
鹉@@
沓@@
蛾@@
稼@@
斯加
铽
褂
晏
H1@@
內@@
随地
鼓舞@@
韬@@
菁@@
轻轻@@
蹑@@
舜
唷
泣@@
搓@@
缚
诩
共振@@
峦
證
殃
虔
中秋@@
轼
俱
淆@@
多伦@@
去年@@
有者
蚜
徵@@
許
笔记本@@
三酯
蛛
岱@@
寓
ϋ
Bee
演唱@@
缇
處@@
吞吐@@
≠
人权宣言
玖
觎
捎
摁
恢
蜃@@
腘
掣
塾
蘖
袍@@
浑
噼@@
觊@@
蜢
郅
娟@@
狩@@
人秀
聲@@
聽
囿@@
爾
烬
動@@
咦
年纪念
ｓ
拄@@
啧@@
蓓

試
默德
Corr@@
懦
ｍ
涤
辘
呢@@
惶
瞰@@
職@@
充电@@
醺
中新@@
清器
Á
鄙
楣
褛
居高@@
師
碉@@
诶
indow@@
偕@@
珺
巅@@
褚@@
語
數
煞
裏
Ö
安东@@
绽
蓍@@
教科@@
蕉
昱
袄
方面@@
莪@@
淅@@
虏@@
←
弩@@
铧
蛆
篓
愚
Admin@@
鳏@@
亞@@
恺@@
³
蚣
Clou@@
烛
隧
炳
◦
瘁
形术
咎@@
乒
還@@
遠
蟒
髙
悯
邢
稞
殃@@
Š
遁@@
寶@@
俘@@
渚
濡@@
垠
芭
以上@@
浃@@
單
晾
疵@@
酊
长率
褴@@
焱
知之@@
蒎
眯
嬛
莺@@
屌@@
上述@@
角落@@
秸@@
峥
珥
隽
徜@@
链路@@
滔
撩@@
宸
糙
鳖
闫
⑦
氦@@
承载@@
饽
缔约@@
锁相@@
西省
¬
聂
斯大@@
隼
車
喳
饥
挎
饽@@
杲
晔
炱
痴
扳
比绍
‐
次世界大战
戛@@
菇@@
蚱@@
枞@@
绡
耙@@
迩
娴
決@@
意识@@
蚂@@
薏@@
至关@@
區
帖@@
哚
教科文@@
蕃@@
衙@@
忑
蒡
㈢
戎@@
科罗拉多@@
媛@@
IFI
擂
刍
梢@@
同一@@
ｄ
电池@@
蹿@@
曜@@
嗷
沭@@
唁
甚少
羡@@
狂犬@@
讷@@
来得@@
墟
報@@
限制@@
蓓@@
璞
科特@@
布什@@
硐
恃@@
財@@
俟
幵
箕
學
伊斯兰@@
蟆
龄化
柞@@
鹜
胛
妞@@
诅
羯
冊
辜
锉@@
增稠@@
胥@@
揪
哔
Ⅷ
節
璐@@
讫
遊@@
強@@
卡斯尔
偿还@@
幽
件人
癫@@
咧
合唱@@
龙头@@
啄
修道@@
車@@
∗
铨
焉@@
拗
級
錄
胯@@
愣@@
註
侮
製
團@@
､
侵权@@
俸
搽
奂
奢
璜
鳅
寫
璧@@
泰晤@@
喱@@
張
糗
喳@@
痼@@
oshop
獒
酉@@
珉
考虑@@
还价
豇@@
痰@@
长的
微分@@
蜇
什么@@
plor@@
格森
岖@@
prise
氓@@
梵蒂@@
谌@@
剁@@
稀土@@
棵@@
幾@@
镰
专卖@@
碴
轉@@
赦@@
珊瑚@@
铤
拖拉@@
侣@@
京津@@
暄
須@@
驮
煜@@
預@@
監@@
外科@@
缚@@
钗
辘@@
油厂
徉
踵
唧

擎
朊
鞣
導@@
產
所为
搔@@
壕@@
價@@
¢
粼@@
粼
皋
tianyancha
匕
驗
蹼
漉@@
冽
熹
酯@@
則@@
untu
小小@@
辄@@
绅@@
捂
娩@@
骇
昵

舖
宇航局
磐
帛
炊
係
亦然
达成@@
浒
陌
筷
湄
唏@@
戚
臧@@
合肥@@
潼
勋@@
土木@@
抗压@@
恣@@
廿@@
秸
裴
ﬂ
摩根@@
瓮@@
掖@@
伫@@
艇@@
記
燔
疥@@
哆
圖
科罗@@
流程@@
膊@@
视镜
转折@@
呛@@
伎
诚地
蟾
膳@@
粑
犷
资产@@
四氢@@
或少
鸦
線
矶
統
兢
或缺
分之@@
国际劳工@@
荀@@
潞@@
馍
随时@@
沲
嵊@@
佑@@
互补@@
倘@@
蘑@@
偌@@
从那@@
橡
領@@
门户@@
庸置疑
蓣
醺@@
Ｘ
噌
摩纳@@
翟
務@@
觐
靼@@
噎@@
戟@@
✔
霎@@
推特@@
躯@@
雖@@
靛
叨@@
澈
摩斯
確
莞@@
米松
參@@
嘹@@
俺@@
锝
醫@@
舀
受制@@
煦
å
珞@@
轶
觀@@
敞
際
軍@@
崴
⑺
臵
辕@@
峥@@
面包机
溥@@
西斯@@
鲟
你去
曼哈@@
炕
Pal
聚氨@@
出乎@@
暮
醪
†
复活@@
组化
禀
簡@@
弭
素体
IPv@@
弹道@@
蹶@@
啤
议者
傳@@
弩
訂@@
涿@@
姣
宕
性分析
监视@@
隋
逮
嵘
骄
蒴@@
鳌@@
褓
裱
绮@@
砚
磕
铱@@
━
瓢
â
嚢
冰淇@@
峪
大幅@@
睽@@
梵
ž
瑕@@
瓯@@
擇
忑@@
庶
脍@@
娶@@
單@@
光刻@@
計
叁
稷
实在@@
￣
復
琶@@
--------@@
次于
GPP
中关@@
对点
墉
镭@@
计值
撂@@
離
錯@@
掳
匐
药性
維@@
邊
腥
嫣
膀
腮
路器
哥本@@
一对@@
體@@
湛
钽@@
拚@@
∮
脖@@
毙@@
私权
踉@@
雎
全日@@
決
嚓
HTML@@
隶
襁@@
業@@
环控制
牙买@@
挛
铆
∙
爱沙@@
癎
隐形@@
伦比
叛
研究生@@
娣
稽
髌
涕@@
塞拉@@
瘙@@
蝠
焖
谑
锵@@
淖@@
酩@@
诧
母舰
呎
≡
親@@
窘
協@@
饕@@
鲷@@
準@@
懿
睽
椐
渭
樂@@
挞
樂
无线电@@
尋@@
影剂
西雅@@
襞
广西壮@@
巻@@

芷@@
羲
拮抗@@
苞
蛰@@
汲@@
特许@@
击队
一国@@
册子
Ⅶ
Ⅹ
线器
難
絕
锑@@
巯
對@@
骥@@
锕@@
鲟@@
吏@@
傍
拢@@
爱德@@
邛@@
ｐ
趴
踮@@
蕃
焘
生素
羌
录像@@
昉
偉@@
茗
ｇ
佃@@
迪瓦
轫
吭
波罗的@@
工信@@
麦迪@@
標@@
羅@@
進
袢
阖@@
綦@@
雾剂

救护@@
終@@
戲
鲆
捶@@
鸳@@
麓@@
妒
寐
光致@@
＇
忒
pk10
镫
餮
必不可@@
談@@
試@@
祠@@
4S@@
伊丽莎@@
胂
镥
葚
о
913@@
释放@@
螟
質
Ｕ
馋
膈@@
祟@@
默认@@
羅
士们
悼
威尔士@@
ë
姊
阿森@@
網@@

區@@
曙
苋@@
隽@@
胁
蛀
plorer
壞
遺@@
蚌
敝
螈

‖
顯@@
豉
蚱
讀
浜
蕈
阡@@
纟
亞
噗
缙@@
多巴哥
100.00
樵@@
亘
♫
承受@@
嫣@@
ookie
丕@@
ě
主权@@
椹
聯@@
狈
囔
渺
▶
麾@@
彤@@
鳕
犒@@
垄@@
幫@@
弋
涧
冼@@
呱
VIE@@
苏黎@@
報
化硅
門
擞
陪审@@
Ｋ
麗
巳
畲@@
全心@@
捜
珩
菖@@
颏
形态@@
科索@@
绀
買
可比@@
厥@@
牲
奥尔良
咔
團
巴塞@@
唬@@
鏖@@
领事@@
導
巴尔的@@
栉@@
俯
乂
苑@@
 
叁@@
裡@@
镣@@
酞@@
殺
丄
澍
法兰克@@
骛
ı

╱
亘@@
氣
渤
纰@@
剜@@
嵛@@
笞
谍
湎
庵
峨
襄
真是@@
獲
嚎
沙发@@
嬷
殳@@

牢固@@

顷@@
朝鲜民主主义@@
人民共和@@
靈@@
舸
度法
芷

阚@@
髙@@
沬
佰
琰
彳
炅
抗震@@
吖
钹
绩效@@
绺
断器
收发@@
佯@@
颍@@
索赔@@
啼
红十字@@
闵
險
托人
蕨
浐
呃@@
巿
妩@@
缈
直流@@
織
黜
吭@@
灞
苇@@
絕@@
茚@@
郫@@
遛
蝥@@
熱@@
跺@@
鎗
外围@@
睢@@
貨@@
點@@
夭
術
札
葺
楂@@
佟
嘣
眺
桓@@
恙@@
羰
必行
颠
掰@@
那州
痢
一席@@
匡
狀@@
涮
躇
劵
缨
妍@@
淞@@
脖
乾
棣@@
裥
顏@@
海淀@@
缥@@
苁@@
卞@@
闺
劃
垄
记卡
習
驚@@
魅
箫
身心@@
偃@@
怅
檢@@
捋
惴@@
ô
別@@
碇
骆
碚@@
灏
掳@@
構
訊
寞
赅
濠
沅@@
痧
皮细胞
撅
氛
佤@@
靼
躇@@
擘
採@@
嗷@@
自贸@@
炙
啕@@
特里亚
眾
教版
怼
達@@
狸@@
泾
迢@@
饺@@
毽@@
好好@@
而下
蝾@@
铥
¨
萨摩@@
赛克
傷@@
Spo@@
酸甲酯
✓
方药
啰@@
戶
呸
华德
增塑@@
梆@@
腩
討@@
璃@@
¼
嗣
ł
悸@@
惆@@
镛
百万计
眶@@
哩@@
誊@@
赂@@
蹬@@
費
逞@@
迢
嗖
湟@@
糅@@
余力
台币
誤
茱
æ
掂@@
爲
抠@@
濑@@
难说
拈@@
雍
法索
剐
绥
堃
連@@
嘀
町@@
废弃@@
戾
覺@@
義@@
笠
痫
溟
掸
丞@@
視
干机
独角@@
類@@
囤
ifi
诛@@
感器
荤@@
甭@@
泯@@
监会
氟乙烯
曲张
嗬
难性
射到

湿器
祐
钜
鬃
塬
潺@@
疸@@
快捷@@
蠊
篦
砚@@
旖@@
沭
˙
绉@@
夥@@
朕
泱@@
赟
坏血@@
屏幕@@
渥@@
倡
樟
執@@
咻
镊
娅@@
谷氨@@
啬@@
段性
Ó
鳝
濯
議@@
嗽
鲑
戴式
圖@@
奢侈@@
讧
㈤
盱@@
捅@@
結
矜@@
燧@@
髅@@
漕@@
秉
栀
霏
媳@@
呷
痍
必要@@
李克@@
啻
拎@@
斯达@@
喀麦@@
ê
拇@@
灌木@@
牟
骞
连串
桉
飛@@
ｈ
蕊@@
隨@@
筐@@
瓿@@
壬
axy
摹@@
辑@@
刈
耄@@
舉
酵
六方@@
瓮
錯
碾
蔺@@
蓦@@
鸯
癞@@
证会
勐@@
庇护@@
荪
珐
偕
谬
裘
較
巩
舔@@
帶@@
無
嗽@@
滦
聲
＄
昱@@
鹭@@
評@@
肓
马戏@@
懿@@
&&
髻
影响@@
脯@@
е
 
法轮@@
療
卞
苹
啧
畫
西州

風@@
谅@@
費@@
芃
豢@@
恪
槛
賽
娼@@
⑽
圣地@@
坂
诘@@
嘭
延到
叻
ß
罡
眈
珏
碚
冗
а
皋@@
燮
分支@@
種@@
搔
攠
榔@@
跄
琊
舉@@
赭@@
裝@@
愫
鳟
奘
ⅳ
㈣
眈@@
遑@@
麒
安大略@@
绮
糯
乌干@@
伩
涞@@
彝
頭@@
殇
牍
心房@@
墒@@
堅@@
旎
覃
雙@@
筠
颊@@
恸
拷
华州
谄@@
晟@@
為@@
笈
痉
Tunes
淖
藕@@
磡
不移
圍
邝@@
吒
瀛
棄
电筒
圄
驯
卯@@
⋅
匾@@
篑
‹
柘@@
⁄
铛@@
審@@
囹@@
總
拗@@
泌
蝗
罰
視@@
咆@@
燊
剿@@
僭
仨
紀@@
满贯
拉罕
郜@@
鲷
孵
痨
к
荤
孱@@
悯@@
寰@@
〞
密尔顿
掬

泓@@
ｕ

營@@
俄亥俄@@
窥镜
捺@@
成千@@
納@@
阿塞@@
痞@@
鲲@@
犰@@
壅@@
苒
狳

強
幄
矽
生人
埂
骸@@
弾
鹑@@
掮@@
柿
烁
倌
芫@@
荃
贰
蒺@@
編@@
Ⅸ
阙@@
佗
〝
殓
額
某种@@
呀@@
好了@@
椿@@
隅@@
陂
聿@@
瞟
蔫
萬@@
拚
啮@@
喇
佬@@
并发@@
豺@@
胡萝卜@@
毁灭@@
責
配器
不足为@@
阎
布宜诺斯艾@@
驿
荥@@
獨@@
舛
流子
倭
№
煨
￼
诏@@
癔@@
辍
必需@@
墨西@@
刁
樽
蝓
∩
咽癌
鲈
撵@@
個@@
亍
擊
卉
負@@
ū
翎
讶@@
烩@@
密苏里@@
飒@@
認
楸
蛞@@
秘书@@
叱@@
滿@@
昀
憨
搣
獐@@
儆@@
ş
態
继任@@
莓@@
筵@@
ï
潺
焯
⑨
微量@@
帑
骅@@
醴@@
雳@@
骁
衪
滿
捶

懋
间盘
僅
´
Ф
營
民进@@
甥@@
璟
燎
酉
睹@@
讹
菔
載
斯德哥尔@@
戰
蛰
違@@
筱
黃
檩@@
讬
願
部长@@
叟
馑
怔
厝
辙@@
妤
巴马州
圩@@
怖
⑩
汝
見@@
弁
嚴@@
合作用
難@@
龌@@
骐
腧@@
請@@
伶
旺达
瘸
跺
咩
蕙
嘗@@
煲@@
箴
杳@@
減@@
徘@@
∕
鼩
力学@@
唛
獎@@
澎
鲫

flix
祺@@
祁
擔@@
弋@@
党风@@
无功@@
阆@@
枷
他性
弈
奧@@
羿
墅
荼@@
昴
詞
郧@@
氣@@
扉@@
衢
无关@@
芈
绛
蹿
涓
辦
从业@@
璞@@
С
跛
獭@@
龊
旬@@
義
惡
徊@@
損@@
蘭
鳌
镣
外光
鲎
❤
扈
好了
杈
弼@@
蝮@@
利物@@
恃
枭@@
捐助@@
興@@
吝
窨@@
砑
瀑
護
涮@@

绰
直布罗@@
马其顿@@
咚@@
杓
昕@@

泽民
僱@@
Â
叽
輛
唠
觀
赝
藝@@
姝
嬷@@
维也@@
倭@@
秭@@
旻
各行@@
唉@@
芊
refox
懷@@
祛
柠
莒@@
約@@
谙@@
尘器
荽
и
源化
喏
稅
終
枳@@
閱@@
逵
夬

仏
价键
哧
仃
里斯@@
搮
入到
犸
诡
疚@@
岬@@
調@@
洮@@
谤
鲵
晌
耷@@
丝绸@@
讲话@@
廣@@
帯
虛@@
沣
茈
範@@
笋@@
閉
而言之
責@@
簽@@
說@@
馥@@
耆
靈
殆
楹@@
胤
耒@@
信机
噙
嵘@@
孑@@
ī
軍
祚
皲@@
论性
虑@@
〓
炸机
倏
館
剌@@
⇒
職
歷
柄@@
Č
願@@
楝@@
诏
此机会
判处@@
钵@@
 
邰@@
畿@@
爭@@
荏@@
斷
幣
离子水

梃
膨
聽@@
測@@
入点
対
哦@@
拇
獎
那不@@
邡
優@@
酣
誕@@
蘭@@
鹮
柩
裝
邳@@
貝@@
珞
養
幷
擀@@
富尔
腦
聯
納
忒@@
臉
佈
恻@@
蘸@@
槿
黨
咭
紅@@
劾@@
狰@@
恬
邡@@
婢@@
ă
不足@@
纷纷@@
獄
仟
穌
傷
谚
ا
孺
懋@@
講@@
镖@@
節@@
﹪
便利@@
睐
洪都@@
岬
噎
鸸@@
睛@@
原子能@@
改委
ý
骛@@
淞
艉
雜@@
铄
鹋
羸@@
緊@@
邕@@
楽
膊
﹣
鄢@@
莪
鲇@@
卿@@
收敛@@
擤
濟
纂@@
補
潸@@
懑
榭
鬓@@
峋
时器
僅@@
腑@@
痞
馥
蔷
標
∠
衣室
嶙@@
妲
沥青@@
襻
椽@@
楝
帳@@

缰
钶
殚@@
儡@@
蒡@@
誌
婀@@
鳃@@
敕@@
鲢@@
二维@@
咿@@
н
毀
ｘ
扪

谏
霭
饬
涟
蚝@@
曜
顶盒
陇
啟@@
戌@@
玟
脘
砒@@
舆
聩
烽
砀@@
惭
小伙@@
舶
憾@@
門@@
玑
蒌
¶
此而已
筝@@
蛳

飲@@
落于
佔
荠
旸
衩
細@@
郯@@
鸰
丞
л
瑪@@
澈@@
蕙@@
狞
ﬀ
仪表@@
锟
忖
傩
洗碗@@
･
岫@@
輕
簸@@
х
宦@@
赓

旳
怆
灰度@@
翳
鍵
豌@@
極@@
卦@@
绢@@
猾@@
纶@@
咝@@
锄
複
庶@@
莠
溫@@
狈@@
汨@@
莫桑@@
娥@@
瀛@@
選
娲
隱@@
塊
力于
送器
苝
ğ
稔
焗
話@@
抿
惺
言之
胧@@
於@@
荔
上角
抗拉@@
哈兹
‎
舫
晤@@
阿片@@
苈
喧
抡
輯
擘@@
ð
Autod@@
埋场
濮
甬
懲@@
高脂@@
遠@@
卣
冥
萬
幺@@
滢
羲@@
噔
靳
Ò
昶
沏
冢@@
理事@@
舊
運
天候
從@@
蘇@@
蛆@@
波纹@@
遽
園
債@@
宥
胥
辕
噜@@
蘧
馕
設
姝@@
虻
韶
據@@
琍
噩
項@@
亚太经@@
矍@@
海洛@@
趋向@@
鳖@@
痫@@
訪@@
頓
谟@@
科大学
皎@@
飨@@
眸@@
粳
р
揩
蛟
瘴@@
津巴布@@
筲@@
弼
資
痱@@
咛
眙
掴
ｆ
嫡@@
蝥
﹥
¹
鲕
傈@@
Ç
砻@@
婧@@
慮
敗
聖
高尔夫@@
調
隍@@
媽
槭
黒
忠诚@@
誠@@
嘞
0.000000
掂
窈@@
仄
歡@@
顆
麂
铿
钎
钋
阖
馊@@
響
停止@@
驭@@
轲
拉脱@@
屬@@
锕
毛里求@@


邬
夥
啤@@
圬
裱@@
階@@
晷
賽@@
孽@@
屮
邺@@
築@@
蓼
鬥
徳
藁@@
亊

邓小@@
玖@@
稅@@
汐
桀@@
勢
唁@@
Ｑ
耆@@
搪
眾@@
談
揄
♥
而代@@
窖@@
椎病

螫
稚
倏@@
解梦
墒
苡@@
˚
臾
樵
沱
补救@@
馬@@
阙
舐
∆
遁
惇
Ⓐ
準
陰@@
胼
旌@@
呋
語@@
内人士
嵇@@
鲲
蹉@@
劇
銮
掲
窠@@
幽默@@
枚@@
子孙@@
峙
¦
孺@@
垛@@
臊
媽@@
赈
撩
榉@@
输卵@@
澳大@@
歆
灞@@
嗔
烨@@
揶@@
層
麗@@
組
華@@
金正@@
謇
陂@@
剛@@
灵长@@
極
辦@@
淇@@
膘
莞
瞿
圳
镕
歐@@
ｋ
購@@
杼@@
Ä
υ
刳
从性
▽
怂
撵
蹭@@
位差
淨
凇
泮@@
谒
恩来
鲅@@
婵
繳@@
舀@@
同于
甑
Ž
蓥@@

徙
鄯@@
蓿@@
竣
匐@@
腳
課@@
屌
嘛@@
❑
蝽
啉@@
栎@@
凛
張@@
唢@@
赭
饪@@
锒@@
丌
々
滅
逻
滘

瘿
病率
嗖@@
小板
娆
奇怪@@
荸@@
崃
袅@@
Ｊ
恶作@@
胄
翀
戮
廢@@
毎

烷酮
心力@@

绛@@
瑄
壓@@
撷
涧@@
忱@@
蘑
阡
缫@@
￡
诘
箩@@
涠
耋@@
嗤
籼
訇
晞
说服@@
杷@@
讚
屐
粥@@
繫
脆弱@@
泔@@
盹@@
農@@
胯
徒步@@
蜇@@
ª
ｙ
忾
雒@@
黑塞@@
作曲@@
諾@@
拄
倔
加利亚
紀
篙
捩@@
ř
貝
鹬
粱@@
魚
应付@@
汲
脫@@
惡@@
谀@@
舢@@
珙@@
姣@@
亚伯@@
忻
橇@@
揆
佘
鹄
黠
統@@
蟠@@
前例
荻
訓@@
俐@@
Ｚ
環@@
蔗
扞
釋
豸
仫@@
價
怅@@
轉
因州
飒
骊@@
飯
顷
禮@@
谲
憤@@
三个@@
査
競@@
供货@@
稱@@

搀
荧
鼬@@
毓
凰
薩@@
碛
久性
僳@@
玛格@@
杰明
癈
omas
鹚
領
浔@@
碼
擅
埕
颍
炕@@
猷
祇
們@@
硖
飞利@@
瘆
正教
锴
垭
穆罕@@
詳@@
亚哥
崃@@
呙
師@@
褚
尬
檬
鸬@@
晔@@
分数@@
菟@@
撼
垅
疤@@
坭
嗳@@
羹@@
浔
淦
益于
麼@@
練
剛
ń
惩罚@@
跗@@
缬
住民
瑗
鐘
護@@
迄@@
上而下
堑@@
揿
倣
畫@@
枳
批判@@
帼@@
瓒
庖
潔
盅
叵@@
周公
稞@@
篦@@
棠@@
罔
隶@@
с

傳
镯
勞@@
ò
珪
伺
б
赁
规性
汴@@
蕲@@
宓
亂
榄@@
马尔代@@
鸩@@
茁
娑
人均@@
匮
萦

圭亚@@
讀@@
獠@@
幡@@
呲
顧@@
頁
蜷
託
東
噁
й
为力
鹧@@
椰
跋
芨
萊@@
粽
曦@@
曱
觐@@
皎
戕@@
坍
適
徵
鲔
漳
習@@
钊@@
鬓
圜
訝
驹@@
晖@@
嫖
衣裙
耶路撒@@
購
術@@
滂@@
荠@@
濉@@
邺
锪
扼
歙@@
崆@@
骡

丕
毀@@
濂
鸪
砲
澧@@
菡
輕@@
猝
殺@@
悌
緊
鸨
貴
耋
剰
占空@@
臧
ｖ
侗
鳐
祚@@
⒈
筘
藥@@
脫
奚
寫@@
汩

唰
跄@@
興
鬆
т
从来@@
侄
捺
哈瓦@@
坷@@
汩@@
忪
À
咤@@
盡
崧
Ş
測
蛲@@
光泽@@
安慰@@
谏@@
咂@@
譽
≦
島
昵@@
格拉斯@@
論@@
盡@@
駕@@
决权
稗
鹂
马耳@@
銷
補@@
逻@@
魯@@
袅
锦涛
沅
捉到

鬥@@
噤@@
⒉
劇@@
孔隙@@
栾
漩@@
祜@@
踱
髮
冼
邨
镎
尕@@
講
泯
伊斯坦@@
綠@@
怦
绫@@
質@@
戌
歸
弑@@
穆里@@
容式
瓯
哞
各业
疴
捩
雹@@
镅
⭐
瀑@@
參
憲@@
除草@@
跚@@
紐@@
柽@@
潟
氲
換
釭
劼
浚@@
泗
俎@@
怔@@
衞
伉@@
檫
Ή
赉@@
濒
迸
賣
蜓@@
嗒@@
獨
犄@@
佻

¿
佚@@
華
霓
絡
屆
Ÿ
艏
還
隘@@
坻@@
锺@@
选赛
ر
攸@@
掺杂@@
臬
诤@@
癀
訊@@
罘@@
蝰@@
诜
靜
麝
歸@@
绗@@
椴@@
运载@@
歆@@
臨@@
窮
睫
桠
貼
翊@@
菀
翊
馀@@
蛊
撂
醪@@
來@@
懼
賺
以人@@
墉@@
剜

趸@@
Ⅺ
硷
麥@@

藥
➤
从严@@
沉迷@@
邗@@
防范@@
正态@@
平线
罰@@
屎@@
琼脂@@
波罗@@
Ｙ
屉
畿
ⅴ
写信@@
榛
叭
璨@@
凱@@
瞑@@
赳
毛里@@
擁
幡
場@@
謂
樣@@
諾

婦@@
断层@@
纨@@
淼@@
蔺
锶@@
沆@@
颡
筵
相似@@
绎
佛得@@
唳
仡@@
方说
噶
摂
雉
苡
麦芽@@
愕@@
ē
嚯
衝@@
軟@@
鋻
臟
桤@@
渚@@
波多@@
霈
戮@@
辗
闳
纳斯达@@
璁
ì
卡扎@@
偎@@
雉@@
擊@@
氐
圻
为重要
慕尼@@
韪
劑
囡
芊@@
滹@@
風
偻
啫@@
肇
遜
Ω
榮@@
瀣@@
薹
壅
镯@@
锷
绶@@
▌
沮@@
榧
眙@@
骜@@
与时@@
决于
¤
岷
眦
嬰@@
鄄
咝
堞
晁@@
ù
勝@@
黩@@
輪
∼
铐@@
貧@@
髹
靥
郵@@
陸
顧
峭
淄
庹
Ϊ
蓋
禮
诨
琬
訪
椽
蚧
菪
荻@@

İ
蔻@@
联合共和国
幢@@
衙
到困难
鲣@@
堕
疳
霁
箐
絲
湍
熘
俳@@
名昭@@
接剂
Ecli@@
茭@@
分裂症
慣
М
诃
ч
殡
噪比
膨润@@
間@@
庾@@
篆
疣@@
遊
彧
博茨@@
苓@@
啵
擀
丟@@
藍@@
訴@@
連
锺
擾
㎜
鎗@@
暫@@
厭
凋
硬膜@@
囫@@
茛
筚@@
艹
維
築
琮
翎@@
溞
郓@@
阄
啜
瓤
祸首
埼
儲@@
橥
贏@@
分之三
謀
糅
搖@@
葳
近平
銀@@
夢

拋@@
致发光
行
屍@@
些时候
埸
灏@@
龉
峒@@
鐵@@
不
晰@@
嫔
♂
瞅@@
攝@@
岀
匹兹@@
簪
珮@@

鲁大学
仟@@
擔
酒石@@
毖@@
猞@@
幫
寧@@
憐@@
積@@
攝
阐
聍
瑰
猁
蘅
缢@@
輸@@
∥
啷
憶
淦@@
Đ
马铃@@
➢
贽
焼
濑
尕
鬟
醍@@
戲@@
薮
绀@@
砭@@
異
铩@@
戍
▓
禱
产资源
輸
燮@@
笙@@
耵@@
蛉
鳝@@
孑
渑@@
锃@@
橼
鲡
觸
诠@@
в
ل
覽
殒@@
茏
氤@@
跎

Έ
琉
龃@@
溥

泞@@
茗@@
瑟琳
扱
殴@@
正则@@
電
鹞
镘
Í
硚@@
樨
仝@@
可行@@
菘
忿
尔蒙

闾@@
啟
蠡@@
獻
î
鸾
势在@@
誠
厮
倫@@
嶂
洵
诛
拯
齒
筆
純@@
齡
缟


贰@@
壓
颉@@
嫉
艽
｣
蜗
俸@@

旮@@
∝
∧
婢
構@@
黝
怏@@
咤
陉@@
埯
阉
怵
擢@@
塔尼亚@@
貉
扈@@
豁
莰
償
銷@@
结果@@

谕@@
嗳
閱
宛
耘@@
抗器
濠@@
ن
苊
腴
棂
啮
陳
螅
儘
胳
楹
兩
岿@@
列支敦士@@
同轴@@
週@@
瘪@@
旯
Ñ
郦@@
⒊
畦
誡
牡
柒@@
阪
Ό
葶
勵
抒
嬴
绔@@
坻
&&@@
庹@@
抿@@
銮@@
擴@@
洇
豐@@
骰
一站@@
嘅
南部@@

纣@@
哥斯达黎@@
餓
毗
噗@@
辯@@
迄
蔑@@
轱@@
缦
垚
ⅵ
弢
飕
õ
如图@@
巽@@
绦
惕
瑁
堿
稃
蠖
苹@@
鹞@@
紙
憫

抻
磬
汊
谯@@
憂@@
噘
漩
幻灯@@
砣
朐@@
‡
蓁
喪
咂
Ⅻ

聒@@
ي
勠
氧体
缮@@
樹@@
蘖@@
脑脊@@
峁
方块@@
詩@@
祈
掇
薅
碜
呫
趵@@
㈥
煊
讪@@
铍@@
箕@@
矗
▷
疖@@
鄢
睒
铠
奘@@
铖
臨
м
順@@
瘜
谒@@
飕@@
奧
針@@
氹
觞
泠@@
馋@@
犇
鸮
旻@@
限内
嘤
讥
幔@@
归根结@@
А
诂
烏@@
∫
钏
規
樾
铡@@
و
佤
崮
奮
资委
臆
陨
姆林宫
厭@@
笺@@
茬@@
鹳@@
∅
诰
迺@@
翱
元区
梆
勝
Þ
峇
珂@@
药品@@
珅
内罗@@
簌
貢@@
窕
烹
舾@@
镐@@
倫
茉
蠹
姪
ɑ
蹚
淌@@
艱@@
泅@@

珲
籁@@
恽@@

峒
駛
積
鼐
竽@@
俣
鸥@@
棓
韓@@
鲼
識@@
熱
傑@@
傣
谴
滅@@
醅
槍
爿
犟
嗲
峦@@
孬@@
瑾@@

ė
蠓
ｗ
特立尼达@@
囿
瘋@@
＼
孪
缙
♀
埗
煩@@
飾
挈@@
螬
売
鳜@@
喬@@
硬质@@
跬@@
燈
芑
狀
惱
玺@@
鲽

蛴@@
蛹@@
蜉@@

П
洮
维夫
樓
苕
亳
漾@@
✅
靜@@
窕@@

鳢
箝
裟
击者
阿布扎@@
蛐@@
殳
8203
揬
ś
畈
篡
災@@
朐
codep@@
加共和国
趟@@

鸫
马达加@@
醐@@
י
衮
猓
薤@@
瘠@@
台式@@

馗
≧
鲳@@
恻
如前@@
萄
珏@@
筠@@

肪
芡@@
彈
椁

囟@@
網
恋者
莜@@
抟

ˉ
潞

舸@@
尓
龍
剔
柒

擬
舊@@
劢
鎏@@
勰
驚
杓@@
觸@@
钿
栉
凯尔@@
衛@@
狨
刘易@@
颢
島@@
秕

椭
驮@@
鸯@@
珮
揿@@

娛@@
潢@@
鹩
で
Г

鄱
逯@@
栲@@
籤
隊@@
痈
堀@@

疖
燧
ę
轫@@
凄
燊@@

稷@@
騙
檬@@
根深@@
蜕
ș

用人@@
盎
甭
鳀
矸
燒
玳@@
跗
邕
房间@@
邝
縮
祎@@

鳙@@
恆
袈@@
褒
庫
賜
嗓

仃@@
硌
賣@@
酢
和华

郏@@

賜@@
瑛@@
訟
嘚

鼇
В
篓@@
鲢
驗@@
悻@@
ą
薩

拯@@
謝@@
哉@@
馍@@
牝
淸
桧
蝙蝠@@
郗@@
贏
胪

腳@@
铨@@
痪@@
捭@@
挲
円@@
湿剂
細
千计
ب
糌@@
茲
Н
冋
課
惚@@
買@@

睨
膂@@
奪
泠
状及
浏
溉
蝣
缄
箅
癒
煸@@

Т
钫
付出@@
璠
湟

栖息@@
宦

尻
嬅
茴
異@@
宝网
Ō
م
葜
寶
騎@@
聞
趕@@
僕
勐
邈
盤
膚
镏
桧@@
週
擺@@
與@@
續@@
溱
憬@@
澹
漢@@

箫@@
ə
诮
賴
賞
鮮
د
Ú
浄
媾
ﬃ
創
众所@@
庥
息息@@
礎
金率
黟@@
莘
狞@@
Æ

谆
酢@@
祀@@
椋@@
暧
嫘@@
楸@@
詢@@
大奖@@
の

⒋
搡@@
妪
謀@@
卅@@
菝@@
佛罗里@@
嗦@@
萱@@

緣
衅
信力
囉
犍@@
角线
傩@@
❏
梅德@@


樹
謙@@
衛
薷
鸢
犧@@
逄@@
潛@@

俪@@
闰
价比
敵@@
诌
砼@@
箨
碳氢@@
☞
û

養@@
佔@@
喪@@
鐵
奄
Ë
笤@@
颓

斟
沖
钸
♭
富兰@@
頂
加达
臺
輪@@
疒
镂
敝@@
凼
舂
芡
睇
謝
笹@@
槎
飛
想象@@
ו
绫
蹇

栝@@
傾@@
等离子@@
瓦多
当地@@


蹟
同位@@
偃
貘
Д
埇
纂
琥

筆@@
泱
讦
闾
娓
钜@@
牆

骊
郃
奭
鹪@@

螟@@
缨@@
茼@@

殘@@
浣
攸
嚅
睐@@
谌
際@@
摺
溆@@
Р


佼
躅
廪
迳
厶
炆
镒
榀
❖
﹡
亚利@@
凃
Ý
伊丽@@
蠡
哮
悅
忤@@
媾@@
蝼@@
痿@@
釋@@
樽@@
錤
飑
憑
颦@@
態@@
感恩@@
煅

簌@@
п
笆@@
帛@@
蒗

垃
哐@@
夂
咣
碣@@
元前
Ł
庫@@
蒯@@
負
倜@@
缢
邁@@
踐
椤

愎@@
莆
帰
⊥
嗔@@
◊

đ
谛@@
蹙
低通@@
挹@@
∏
铢@@
逍
⊇
姹@@
明翰
錄@@
昇
傥

虏
ⅹ
丐@@
塞内@@
旲
颉
葎

ｚ
邊@@
戀@@

骐@@
铈@@
昶@@
祢@@
迅猛@@
憂
衄
疃
夢@@
鲻
踯@@
圾
收视@@
挡风@@
圍@@
肖特@@
鹘

К
彀
徳@@
婵@@
幹
ƒ
锨
鲎@@
緒
陸@@
す
西红@@
匮@@
啖
揖
太华
貸@@
踟@@
茌@@
億
牯@@

魚@@
襲@@

屄
里叶
呙@@
礙
骧

囗
飢@@
糍@@
浠@@
㊣
霏@@
頒@@
貨
厩@@
膻@@
飞速@@
筼


紙@@
┅

炀@@
孖
‣
垭@@
晤

搟
繞
揚
枱
展性
嬉
筜
槌@@
荀

額@@
亓@@
眦@@
幾

溫
懷
菸
緩@@
侈@@
镓@@
啐
瑪
罄@@
⃣
潲@@

总裁@@
暹
箩
龇@@
嗫@@
疋
蓥
纪录@@


可不@@
旌
遑
罝
｢
戽
潟@@

郫
同性@@
大致@@
д
迳@@
監
退伍@@
婊
煸
嬴@@
窸
相成
卒@@
ő

閃@@

喆@@
鄄@@
肄@@
彌@@
橹

佃
帷
驸@@
換@@
璩@@
诲@@
灣

篾
産
谪
洹
➥
卅
化床
佶
悻
侩
愠@@


熵@@
体制@@
朦
萮
佚
行之@@
併
噘@@
債
畑
钺
裈
囯
О

錢@@
湯@@
鳔
砒
咣@@
溏
₂
加紧@@
雞
泫
練@@
婦
髯
鹗
畢@@
俨
无能@@
碣
岙
汴
膑
桕

羿@@
运人
宓@@
臉@@
迤
盧@@
夔
祉
呣
潔@@
氓
哧@@
赳@@
霭@@
礦@@
仞
伦萨
橄@@
臜
猡
ʻ

¯
陽@@

載@@
槁
嶝
駛@@
磴@@
❶
蠕

蟠
浈
ż
饴
塾@@
竣@@

撙@@
葫

咲@@

孛
遞
呓@@
囟
萩@@
桀
挞@@
ⅸ
ф
喽@@


倶
雞@@
捌
闱

骀
菹
昙
滓@@
紅


缶
谗@@
囵@@

亚当@@
蠲@@
礽
隹
娈@@
茋
悄

庵@@
弑
蹼@@

匸
尷@@
伱
鹽
秣@@
蓋@@
醯
猶@@
損

贲
餘
焜
黢
⑪

ר
煙
謊

褫@@
抗坏血@@
耽
比里亚
黨@@
燚
等待@@
驷@@
康涅狄格@@
恸@@
徑
線@@
提条件
炀
畚@@
鬈
谢您
炷

布基@@
胭

愆
者说

聆
燈@@


ʼ
炘
嘆


胝@@
澧

獻@@
宮
桫@@
鮮@@
湜
彷
⼀

蹤
芗@@
寬
柢

針
س
夠@@
豺




鳥
衹
珉@@
呓
莼@@

∨
泷

☺
ь
圓@@
œ
鏡@@
趔@@
✦
廠
埭
癃@@
傅立@@
繪@@
徙@@
槍@@

铳
韭
枰
戀
髒
笏
分枝@@

楦@@
鏈

鲑@@
稗@@
茍
驟
珺@@
璜@@
誤@@
賦@@
锔
蛐
拈
锗@@
簋
篁
颔@@

蚶
姘@@
✎
宸@@
揮

萁

俾
蚋
碴@@



洺
厲
忸@@

筷@@
杖@@
茔
橋
煊@@
⌘
詞@@
婕@@
陛
牝@@
埙
｀
桟
ت
辋
揹
悫

邸@@
諸@@
瀏@@
г
加泰@@
黾
擬@@
掼
∪
嵋
у
葉

☉
咩@@

饕
跶
荭
砹
例
戬
蝈@@
阻抗@@

蟥
囵
琊@@
蝈
嫦


祜
慶@@
∂
隈

ancha

ⅶ
马其@@

慾
傧@@
赊
冇
陟@@


璘
₹
啲
錶
ㄧ
糸
蚩@@
詩
马达@@
￠
敵
弗吉@@
ς
踽@@
樘

苴

鲛
∽
寬@@

舨
墳
堇@@
備@@


頌
葉@@
郜
颦

腦@@
栩
扦
芾
俣@@
貔@@
谶
墮@@
鋼@@
劃@@
濟@@
頻
濞
叟@@
陉
麥
頻@@
庖@@
虛
萆
陈水@@
旼
髄
ك
槺

έ
硏

帏
Ã
鎮

怙@@

笪
江省
猗@@
疔

燒@@
蚬

鬣
✪
跡
饴@@
炅@@

镲
詈
虬@@
哐
上市@@
萤
特朗@@
馔
喚

谳
㆒
阚

闩@@

垧

蠹@@


ː
雙

‛
切实际
﹝

嗑@@

貅
糨@@

趄
崀
顯
钇@@
ț
譴@@
榖
骜
閉@@
沣@@
潋@@
底特@@
徉@@
↗
媞
滾@@
鉄
荑
煉


瀞

锱@@
壯

爻
阿富@@
ϕ

ל
螫@@

岙@@
討
飨
ｊ
純
多样@@
攜@@

煙@@
賬@@

✨
ه

址@@

枥

辭@@
┣
嗥@@

贊@@
蜴@@
粲
珑@@
ǎ
茆@@
怏
郢
疥
骈@@
♯
巽

滏@@
箸
範
酹
幹@@
峤

ה
尴@@
訓
瑯@@

薄弱@@

逖
鲐
圉
瑀

廳
蓍
廿
医护@@
❷
毛泽@@
姦

貓@@
诠
☰

饯@@
曆

簪@@

鲛@@
鏡
匙@@

א
気
賠@@
я
劭@@

褉
煳
泷@@

驷



焱@@
滟

Î
剝@@
彈@@
茯
險@@

驅@@
陽
ÿ


家可@@
焗@@

白炽@@
思议
肮@@
伢@@

仵
钷
诂@@
仅如此
簸

骼

儀@@
骠@@
琚
騷@@
蜣@@
出机

倬@@


轄@@
瞭
榮
侶
込
术期
潍
辏
蕞
玢
㆟
褋
遐
晌@@
氢酶
⒌
邋


呔
呯
柰@@
贖
旖
迴

貴@@
Ⓑ
瑚
骝
桷
徹@@
罹
辚
簡
頂@@
辯
谀
喿
旎@@

委员@@
椴
僱
¸
樨@@

評

ů
杵@@
Б

⚠
淙@@
詢
麵
鹫@@
隨
淙
‒
鹄@@
佢
隗@@

㈨
艦
热衷@@
毽

奮@@
醫
犤
獸
欸
璀
衲
✿


鲀
褂@@
恹

鲥@@
鎮@@
绻
錾


徭@@
戗
颧

歎
鐘@@
尋
ы
蛸
Х
镙

龅@@
牽@@
椪
歐
霰
翌


仝
犍
刪@@
値
ό
棄@@
涔
ň
罘
賭@@
有素
繊
狎@@
产阶级
觥@@
側
铡
℅
⟩
壇
碼@@

崚
囔@@
岫
環
﹞
壽@@
飏

漸@@
珣
甪
臌
鼢@@
貓
説
∴
鄉
联剂
Е
峄@@


氛@@

貪@@
蛄


酋

隍
怄@@

佾
煩
绾
黢@@
暾
墀
欄
理

渉
減
垡

这样@@

窣
嵋@@
俱进
觇
骉

陣@@
砻
镬
褍
畦@@

層@@
好奇@@
劭
员国
砭
審
恆@@
遽@@

漸
聰@@
楫
恹@@
鋆
沤
婪
驕@@
胗

琇
肅
鲂
☑

菅
聚类@@
蓑@@
随之@@
㈦
叱

荥




馊

埭@@
缤
咘
疍
糁
瞟@@
岘
醜@@
跎@@

乓@@

娩

军备@@
壞@@
樓@@
士丹利



涣

獵@@
邛
犦
掛@@

鹬@@
坨@@
掛
誕

南省
赧
瞞

盜
雲
韋@@

菔@@
璇@@
龍@@
峙@@
顆@@
笕
ℓ
遒@@
ţ
佷
郄@@
俎
塍
谴@@
潤

避难@@

糾@@
ˆ
✤
崛
鳎

翦
拽@@
擞@@
逶@@
痈@@
園@@
瑯
怩
质瘤

嗲@@
餍
泸
莊

嘁@@
蘇
蟲
⟨
賓@@
賃

裾
齊@@
鲠@@


娠
癯
艋
琯@@
擠
氕
◉
栢
猾

利
駄
Ð
斯德@@

蚬@@
⋮
肪@@
喑@@
佯
咻@@
◁
隰@@

褓@@
樯
ệ
憶@@

弱势@@
爛
苫
嫔@@
ש
阗
妫
驵

も
漁@@
У
嘬

倆
◾
槠

鹦
蹙@@

 
大韩@@
捨
檄@@
頔
鲇

呑
絲@@
翃

ⅷ

淚
孬
斷@@
ħ


浉
凫
捲


È
Ύ
厝@@
飪
踮
｛

颛@@


诤
績
烜
匯@@
樑

涿
瘋
戡@@
烝
珈@@
þ
錦@@
擺

蔟

脈
薁
螂@@
倬
❸
舭
铙@@
擋
癿
遙@@
亟

ꢀ
啭
噴@@
影像@@


塞州
雜
痺
侵者
骢
暫
獅@@
嵎
镏@@
纨
濃@@
譯
輔@@
巳@@
鹜@@
祐@@
啕

葺@@
楮

甘膦
柘
遲
ŋ
鬱
蔹
趨@@
⚡
偽@@
擢
葭

琰@@
漢
胤@@
∷
Ê
昀@@
杳
臓
檔
圹
鎖
甦
伕
纖@@

診@@
沕
逡@@

李登@@
尬@@
訾@@
餵
邴@@
ב
罅@@


馐


礦

癣@@
乌兹@@
狍@@
鳥@@
♡
♣
莖
琬@@
聃
撺@@
懺@@
橫@@
窮@@
⊿
辎@@
鸵

嗪@@
杉醇
◀
灘

郞

垟

櫃
雲@@
贝巴
玠
ɛ
嶼
纜@@
苫@@
缱@@
杧
ی

囷
紛
寧
黯

ˊ
案设计

窒
篼
Ś
滾
編
覽@@
⊕
蟆@@
з
枥@@
瘿@@
ɪ
恂
檔@@
｝
单体@@
撫@@

兖
蕭@@


绯
㎝
囱
着色@@
颀
稣
題@@
圪@@
鲳
重量@@
스
傑
災

阃
嗟@@
箬
俶
郇@@
遄
梣
枧
楤
◈
炝
妊
谶@@
︱
崐


彖
ķ
痤@@
腚
礡
髭

枸
嫌疑@@

璿
瘩@@
僳
锎
冠状@@
维基@@
晩
億@@
狍
匯
嫚
緩
曲棍@@
壯@@
臊@@
┃

螺仪
岿
╳
侑@@

诒@@
茨海@@
咄
蓁@@
锾

暌@@

瘢
溘@@



橛@@
伢
慘
矜
Ĵ
麋
財
穩@@

莊@@

詐
邯

邰
尼派

遞@@
谡
☀
猩
惘@@
鲮@@
愈率


棹
闊
褔
淝@@
軟
孀@@
吣
畹@@
悱@@
僮
簷
釣@@
咁
睚@@
indows
过身

罵
顼
孓
鬧

咛@@
痩
愠
萄@@
顸
逑
钤
瞩@@
汨
娉
柃
禍
迤@@
管辖@@
鳙
敘@@

ϊ
蹰@@
∀

鳉
囍
遷
栌
娑@@
璎@@
騎
ح
⁰
豉@@
熹@@
侈


墜@@
唿@@

嫡
ج
瞋
年

嗄
釘
円
縮@@
嫒
閒
霖@@
Ż
虢@@
否是
謬@@

萋
収
MOSF@@
茲@@

晁
蕤
鄉@@
槟
偽
雒
謊@@
绶
畴@@

⚫
煽
澤@@
嵬

鍛@@
較@@
圧
㎏
И
搶

濛
肏
宮@@
谷胱@@
睥@@
∇
耒
蕻
ǐ
虧@@
繳
├
遒
刎
▎
撥@@
眭@@
獴
僕@@

先决@@
咗
枞
順
嗉@@
漪@@
裉
聿
恁
哥尔@@
趺
不足道
酋@@
吉隆@@
冈州
♠
檩
傾
ת
置换@@


掃@@
殉
Л
韫@@
南南@@
磲
蓠
汆
諮
治性
孫@@


￭
窠
殁@@
以色@@

骈
◄
恥
皴@@
Ⴗ

马英@@
鷹
癥
療@@
醮
褬

眭

瑷
乜
嗵
饩
存者
販@@


愔
颏@@
葖

徬@@
壽

彿

↘
兰氏
郾@@
晗@@
搐@@

逯
逦
吿

飽
賓

蛏
碛@@
曰@@
囝

́
鼹
煦@@
昝@@
漕
搖


曈

菈
紹
崑
迚
澍@@
挝
蓇@@
千斤@@

耧
駐
飾@@
娌
哏
桢@@

彼此@@
韫
枋

巴布亚@@
輝@@
鲱

蹊
∣
ḥ
秆@@
曌
鳊@@
舺
簕

蕲
ё
揠@@


伥
颔
ｑ
屾
戶@@
︎
鲦

嘢

皚
艦@@
廚@@
砗@@
瘴
躍@@
殄@@

黧@@
償@@
泺
蕩
蚂
籃@@
瘕

爰
赟@@
垃@@
贈

勞
⑯
嚓@@
郴

‵
崁
З
玘
新加@@
帚@@

⚑
崛@@
鑰@@
ή
嚴

綮

ト
渖
娉@@
劻


ώ
殁
龆
酗@@
搾
荨

榅
✈
绐
钗@@
腸@@
餘@@
桲
≯

儆
全意
捱

菰
誘@@
霧
➡
蔫@@
仵@@
舯
Ô

囑
茛@@
淅
内障
掇@@
苐
琌
·
鳇@@

綜@@
다

咿
陳@@

荜
魯
粝
賴@@
⑾

ź

颀@@
摭
이
渟
龐@@
﹚
飲
濞@@
卍
艿
Ш

陟
⽅
蚵
屣
鮑@@
ά
焯@@
贻

誇@@
贠@@
国企@@

ш
砦
妁
玎
濕@@
钏@@
璎
谥@@
宥@@
鄰@@
廟
妯@@
慜

獵
淨@@
阊
勁
噤
騙@@
ˇ
笠@@

訟@@
狙
痨@@
し


饑
＠
協

畑@@
鋼
‬
怍
淺
戕
葳@@
玹

寵@@
薦
攞
总有@@

硂
喑
垌

蒌@@
鄠
西班@@
羈@@
▸

ぃ
膻
ɔ
ル
Ā
◥
豬@@
叡
粿
ع
芨@@
鬱@@
ق
貼@@
穀
捍
蹰
ṣ
羸
蓐
妁@@
渲
軌@@

⽤
黑塞哥@@
椇
敗@@
枏
ˈ
囡@@
橐
欖@@
豕

柰
喬
香糖
力
장

禱@@
儀

讴
牾
哋
涔@@
臥@@
娭
菏
痤

錫@@
袮
祼
抯
䓬
颃
〆
赂
埝
萊
竑
跹
金
ṭ
唏
浯
戡
趕
砵

箧
劍
纏

唾
‟
莼

Ť

碶


睜@@
爺

恰恰@@
掙@@
狓
骒
罟
籲
毑
籌@@
灣@@
囗@@
揾
肇星
贠
苻
締@@

怵@@

聞@@
竊

謹@@
珵
氺
栃
帙@@
搦
﹢
焐

蕹@@
鏈@@
玨
噸
齊
菂
澹@@
辭
鼱

嗞

蟑
娲@@
湫
祯@@
罷@@
瞇
鑛

荜@@
躍
ц
邙@@

濡
藍

谲@@
霑
咲
銜
壆
嵛
艙
熟虑
赉
捱@@
瘢@@
掊
纡
☐
吆
蒟
视性
ف
ɡ
入物
牆@@
赀
傭
梃@@
熜
蚩
髎
聶@@

賈@@
畲

鼽
凰@@
ク
痲
倨@@

豬
˜

佞
镴
戥

岜
镞
≌
谯
痲@@
僰

隱
ế
ﾟ
濙
殼
赡
霎
醑
哽
辻@@

觚
芫


美利坚@@
伋

昺
מ

涞
崮@@
ة
偵@@
綠
哂
└
楯
爨
紛@@
綁
餅
璈
栲
轳
鱀
蠓@@
筮
抅
נ
缂@@
稳健@@
痊
绚
薏
繪
沏@@
▁
勢@@

獄@@
髑@@

剡
笳
垴

纭@@
遝
睢
ッ
響@@
鋪
噫
賞@@
乩
了

祕
帔
庠
抉@@
奪@@
琛@@
Ï
帳
勳@@
疡@@


闆
侑
圳@@
喟@@
吒@@
懸@@
鸶
丅
稹
℠
﹏


玆

孫

莅
シ
來
◣
螵@@
һ
蒼@@
衿
蘋@@
執
锛
ʃ
ン
Ì
⎯
⼈
光眼
紮
隸

洸

〒
ṇ
漲
⌒
譯@@

嗥
丼
謗
馓@@
流变@@
鋐
勍
殒
洞察@@
玒
釐
虢
ų
ˋ
瞻性
筌
Э

魉
暱

翦@@

欄@@
濫@@
暸
一如@@
織@@
徊
垓@@
貯@@
辇
ش
劑@@
单胞@@
窣@@
고
跆
縱@@
沌@@
獐

耷
嚇@@
猗
検
怩@@
劉@@
ư
朿

东省
碹
禛
☛
绔
➜
苘@@
暢@@
戛
鱿


溝@@
๑
斡
阋@@
缷

蠃
洚
館@@

偈
地塞@@
猢@@
庾
ㄒ
悭@@
卐
糍
剖宫@@
磋@@
詭@@
铧@@

轸
渌
畀

嫱
矣@@
Ù
茇
烔

鍊
兇@@

焓@@
星期@@
濂@@
堺
縻
邏@@
揀

葑
イ
﹙
鎖@@
嵬@@
葸
鲚
蒈
‭
疬


ť
級@@
沤@@
脅

嘗
贝叶@@
缃

姒
郵

魈
绂
爺@@
蝰
罨
窨
衝
起搏@@
蟻
璟@@


縣
і
瘰@@
ㄨ
琨@@
諒
姆林@@
郦
基文
蚺
镘@@
⁃
艙@@
賊
琎
効
ד

枨
徂
黃@@
氅
蝠@@
枓
⒍
缛

铗
贖@@
滁
圮

锲
挡层
遲@@
箅@@
⒎
鎊
姮
佥
㈩
莳
锫
曉@@
蛎@@
憐

炷@@
奁
臌@@
‥
蒾

貿@@

喟
鲉
亓
蚣@@
樸
苈@@
呒
僜
↩
诒
章制度
婭
葶@@
鹍
阕
毋
布宜@@
農
坜

龜
➕
斫
訏
ʿ
菽
▫
骞@@
塵@@
⁠
屙
歴
徹
攫
証
⅓
婊@@
聼
鳜
蟲@@
ز
蘿@@

诅@@
凖
濱
牺
陣
迩@@
吲
禪@@

佺
戸
︒
爐
湉
銀
芗
嘁
盤@@
矬@@

翚
昰
骯
翕
飼@@
螞@@
▉
党和@@
缒
郇
纥
甑@@
氵
狩
崭
臘
傢
憷
癍
项卡
╰

糧
簽
喁

哙
綽@@
郄
鲶
楊@@
기
ŏ
穧
蒨
膺@@
遷@@
尢

燐@@
猥
棰
倮
膚@@

鬘

ơ
郾
忖@@
ח
喺
畠
镔
撫
譜
籴
伋@@
茆
專
鈴@@
棟
恽
毆
輛@@
≫
ℝ
❹
敍
賭
ㄉ
盃
騋

酽
鎏
⒄
揚@@
谑@@
ּ
耄

禤
浠
厲@@
轾
轟@@
缁
虬
俚
枋@@
不列@@
╯
祌
貉@@
犟@@
篌


蘩
骋@@
鸻
鉛
圣节
✌
嗟
ㄍ
搽@@
嚇
軌

頓@@
锘
傭@@
彙
褡@@
磴
疳@@

鲹
鯨
狷
琵
俠
膘@@
埚
頰
燦@@
螃@@
鬻@@
诽
厍
어
巴厘@@
荳
원

鹀
㓥
兌@@
透社
트
㆗
呶
诹
ָ
禪

翡
墊
鼋@@
莸
讶
鋒
尪
垡@@
眉睫
粲@@

度
榍
捯

砺@@
圌
圓
❀
參
嘈
脢
佗@@
姅
咅
望值
颛
雖
瀆
┐
旃
滉
哕
叢@@
料
瀕@@
く
數
勸@@
嚨
岢@@
百叶@@

佶@@
栝
沮

刖
恵
踅
◤
北省

厖
期日
桖
瓠
┄
趿@@
荩
諸
梿
鳳@@
彳@@
伹
Œ
魟
학
腫@@
綦
列
敕
蒗@@
赜
擇@@
団
吸血@@
秣
诟
郗

閣
喚@@
韡
癞
廸
墳@@
ा
豎@@
槛@@
梶@@
蜊@@
圃@@
畊@@
怿
尼加拉@@
鸩
涸@@


慣@@
頒
膽
诓
ạ
餉
镪
暝
膽@@
堠
◢
褔@@
ย

榊
痊@@
리
撐
癋
墁

ả
磯
כ
菠
凍
玦
⫽
鼯@@
阿密
壟@@
玷
ゴ
э
周血
醣
翥
蛏@@
阊@@
頗
タ
祆
沵
诬
‗
踫
澤
峄
魍@@
毛泽东@@
谥
髦
胲
灬
琤
偬
違
乜@@
逄
谚@@
臟@@
綿@@
敩
氫
他妈@@
瑢
搶@@
藝
餵@@
ϵ
忝
鸾@@

憧
颙
⦁
糧@@
仨@@
賀@@
黍@@
蛘
缇@@
廋
侓
桿
儲
晉@@
蒻
汔
忏
腎@@
鑽@@
褊@@
飯@@
凼@@
痺@@
⊗
逹
า
惋
い
暱@@
蔸
淠@@
尴
Ć
髦@@
硪
盪
黻
蛔
卻@@
拿破@@
誊
鬲
豔
夾@@
戋
檢
袪

採
خ
杼
蹉
滢@@
倉@@
酩
匆
穰
鴉
曽@@
ן
锜
刈@@
媪

笄
诨@@
氽
Õ
回阀
纰

鯊@@
螭
ん
塵
妩
偲@@
砩
穥
䶮
汊@@
彊
아
方图
⇓
驽@@
杌
伡
藨
仚
輋
ǔ
堀
盈率
肮
篾@@
基米尔
塗@@
ด
圆桌@@
慵
不言而@@
猇
螢@@
箜@@
廣
翕@@
蒹
鹽@@
奂@@
褽
薑
袓
ע
蓖
甘露@@
撥
壌
⑿

觏
倖@@
偈@@
浬
诳@@

인
⊆
隕@@

婪@@
أ
迺
岢
蠻
龢
瞽
揮@@
舋
撿
미
瓊@@
∵
ک
畬@@
匦
癨
偌
蓊@@
隸@@
＾
鲯
枬
虺
塗
滆
矬

吳@@
醐
紋
碓
妲@@
偲
┆
鼋
鞥
㆞
≮
涐
耜
夔@@
指肠
铙
庑
撲@@
垕
怛
槓@@
洌
倞
諜
迖
钺@@
倥@@
湔
凱
人脸@@
橛
衆
⒏
駁
琹

鸳
瞀
湧
贊
蝴
恍
率
ぁ
路里
檸@@
⟶
鞑
逬
Ș
鸨@@
襯@@
鋳
嵯@@
菩
尻@@
廢
紋@@
赛德斯
莨
俅
臁
賺@@
㆖

嘧
시
瞇@@
扥
̂
✱

❒
惫
杲@@
荏
ם
橾
訾
讅

滲@@
宾夕@@

⒀
═
隗
閒@@
❄
儋
縫
菓
岈
更
盜@@
迥
圪
̇
犏
嚒
ム
圜@@
荇
量
倜
ǒ
劍@@
屺@@
捋@@
蟮
閃
鹓
마
肫
鹹
徼
▨
塬@@

纣
▋
陛@@
錾@@
阗@@
癮
洇@@
詳
飄@@
嵖
黕
利班
镆
鴿@@
罷
嗝@@
綎
鑒
瓤@@
▾

籃
慚@@
동
誹@@
摺@@
櫃@@
鍾
崤
蛱@@
慘@@
凈
桿@@
鍵@@
罅
蘼
☎
谗
诓@@
㎎
俄罗@@
癱@@
鸷
コ
毬
鲠
ʰ

誰@@
♢
原油@@
髡
湧@@

笥
摯@@
ồ
☼
憑@@
謎
亰
鉛@@
凍@@
沄
鲩
膠
烀
⑫
盥
僖@@
น
立

綱
纮
優
自闭@@
鯨@@
⠀
柞
鲃
臾@@
亂@@
﹍
変

貫@@
遯
鑑@@
脔
颢@@
鏊
挈
鬍
瑏
▇
آ
辂
叒
褻@@
拫
籠@@
側@@
饸
虧
瑭
汜
易
緣@@
糬
錄
膠@@
濕

佥@@
袆
信片
菖
豈
長@@
ж
焖@@

ễ
衲@@
羨@@
桤
繇
繖
嫄
瘓
姉
岺
圑
哥伦@@
酔
愎
恥@@
饨@@
闖@@
嘌

迂
嚐
貸
戾@@
拮
昝
衽
剀
マ
硷@@
旃@@
龇
荬@@
嗮
驽
缍
抨@@
饪
廻
忤

赓@@
嬿@@
狲
蹓
狲@@
裨
蔴
貭
褙
雩
壘
사

尅
ס
儂
浍
ㄓ
공
抉
軸@@
裢

揸
晡
❗
畹
嬗
鴨@@
暐@@
汭
淆
瓠@@
砥
炻@@
薢
緬@@
酗
乗
嗐
鄣
吔
彎
幛
오
滞不前
歃@@
模剂
蠅
騰
曉
镤
➊
Û
薜@@
旼@@
∘
樗
蟊@@

沘
龌
ص
玳
法论
湊
跩
炤
贈@@
穂
筿
跟鞋
匚
र
✏
鹨
发达@@
缗
皴
類
惦
亻
ũ
幣@@
預
醬
繆@@

繩@@
挢
グ
骓
尙
鏊@@
塱
德黑@@
瘡
ņ
腸
ŭ
脷
湯
摯
ъ
帥
蘿
∃
图案@@
濬

嵇

蓮@@

伲
玢@@
堉
谝
菀@@
蠵
燹
虜
饹
嵴@@
Ч
翮
窩

锴@@
⾏
貍
遺
硙
啓
蒯
钅
嫫
로
ら
齑@@
波多黎@@
剡@@
垆@@
処
한
狹@@
穩
暸@@
纜
慶
脹
嗚
鶠
蒴
泺@@
柢@@
黜@@
鬯
戢
酎
嶷@@
甘肽
睪
莒
蹠
律
ง
◑
✧
垓
靺
痪
馃
佴@@
₃
鲧
暻
譬
径约
┊

股沟
鄰
眬
钭@@
形剂
魑@@

颟@@
籾
聯
闼
騰@@
 
褕
銆
钲
ㄚ
≪
醜
彗
✽
苎
麇
榈
仄@@
褲
煆
⊃
盧
炻
钃
镌
冊@@
漷
罍
ㆍ
ٱ
褻
詛@@
가
牍@@
镠
逋
ア
恁@@
漈
竊@@

晋三
靭
鍋
莶
우
竽
堃@@
擲
棻
蓑
┱
箓
勻
Ώ
腠@@
⅔
绨
袼
╮
鞨
谠
苕@@
ラ
輩
皗
偾
繩
ầ
埴

匏@@
痱

ま
̃
见度
斱
橋@@
錬
沢
疠
夙
衾
妣
埘
缭
ʊ
髑
偉
蠼
榧@@
窳
雠
尽可@@
铎@@
韓
駝
誗
鄧@@
輩@@
呖
瑉
畛@@
蕻@@
纛
牦
錦
轺
蟅
嶋
⼼
覓
閣@@
輯@@
悶
攤@@
鍋@@
瘅
失所
靑
絶
縱
螋
葙
詐@@
謎@@
爛@@
锠
邾
̀
傚
长国
ゥ
्
↙
襲
様
ก
撹
漿@@
寤
垱
顫
獗@@
況@@
浈@@
巣
勸
誼
陔
카
悌@@
蹴
禇
殘
獉
ק
銤
髀
tiany@@
睨@@
硅藻@@
胴
瀍
ط
廁@@
라
玥@@
龊@@
昉@@
❍
抺
盞
珽
ʔ
ス
ﾌ
攷
ち
硗
┮
囓@@
ộ
金枪@@
オ
鸲
棗
埂@@
氤
罟@@
‏
鈥
谂
의
茕
笵
皞
缫
铄@@
ị
璩
闿
硖@@
酃
蠟@@
嬿
幟
階
洩@@
氆@@
輝
觳
Ř
綢
涪
︶
︽
鲣
暄@@
褯
➔
栻
喲
斯亚贝巴
洵@@
嚮
眵
淏
氇
各向@@
淝
䴘
硇@@
餒

攤
籠
ม
麾
踇
澔
軀@@
薜
葭@@
櫻@@
簃
涼
骃
蹶
茌
咙

紳@@
艄@@
⊂
韋
冮
裇
˝
‪
辔

煺
袴
伧
饒
疸
琮@@
鑑
稔@@
銅@@
釀
魆
屍
帏@@
趙
桠@@
钭
洩
垤
轱
濯@@
娈
緻
搧
卮
リ
蘆@@
妝
倓
禳
賬
자
藐
溧
飽@@
鲾
窈
颥
신
働
眀
憤
竅
沩@@
别忘@@
⚽
锦标@@
獸@@
唵

艷
︼
婼
垆
繞@@
✩
ʌ
墻
橄
菽@@
茀
洎
藠@@
沩
刪
碩@@
擻
溻
槚
廈
秫@@
諧
蔵
瓩
惴
芩@@
驢@@
褲@@
諷
菟
⽂
洨
賢@@
谰@@
顛@@
囑@@
た
駱@@
唸
苌
埌
抨
颱
丏
レ
✰
ノ
懶
⒑
埈
逅@@
⁴
♬
ט
氫@@
夼
畢
仸

不及待
㊙
逖@@
岣
僮@@
镚@@
掃
熇
⁺
論
骙
吶@@
揽子
鸷@@
貶@@
バ
姵@@
礅
瞵
⽣
巖
ג
主党
潛
゜
讓@@
苾
蟛@@
郏
堋
癡
⁣
癃
禦
赛因
维网
曠@@
蜞@@
多路@@
嘡
َ
谞
谪@@
觋
椋
鹱
切
缜
剎@@
樁
铉@@
ぷ
嗨@@
⑮
媺
⾥
仳
飆@@
迨
棑
莜
閑
曷
噼
蜘
表水
娠@@
潰@@
腧
蚍@@
寀
레
⾯
﹟
圴
甯
碉
蠲
骹
橦
頫
殛
桄
輻@@
懼@@
濾@@
馴@@
枧@@
叕
撘
颎
矩器
溲
槊
卲
訚@@
⼤
碞
彎@@
喋

경

手架
藦
狯
穦
闡@@
峣
☒
瘊@@
न
✸
訣
↵
豨@@
孳
饧
≒
怹
帀
婳
ˎ
ⓘ
唿
太尼
่
诎
偱
阓
扺
髪
髭@@
翾

醍
暈
❓
嗍
菉
一无二
恚
⽽
耱
缯
燭
지
踺
麿
苜

牴@@
韻
정
锩
া
謬
貫
鄭@@
ġ
堙
原理@@
錫
ֵ
모
芏
脈@@
帙
Ⓒ

鈣
❺
蜚
褀
囯@@
ṛ
実
猕
潴
甡
濉
嚟

鲅
嬢
吶
䌷
繼
Ⓡ
镡
畝
摒
鸚@@

樞@@
忘录
گ
槑
暲
琯
蹩
鋅
釐@@
庋
綷
✘
塝
徏
卷风
戓
呖@@
垲
あ
颶@@
螽@@
颋
賛
棪
塄
斯亚@@
屛
술
蓮
饋
黥
洧
峽
组成@@
缑@@
پ
廂
澆@@
鹼
飧
诿@@
淵
蝙@@
佞@@
哥斯达@@
言论@@
湳
塆
岡
狺
΅
丿
⒁
灑
蒐@@
郯
塚
懇@@
鋈
銘@@
翙
穫
狡
鹇
蝌
니
揃
ᐉ
ಥ
梱
跡@@
暢
פ
毳
鵡
柁
Ь
淠
⼊
璶
疕
玕
⇨
〉
楊
ỳ
凉
蝮
▆
̄
禿@@
溷
恣
驢
斃
懊
洄
礙@@
剎
靰
⑬
哓@@

県
ㄟ
₱
鈴
擾@@
✖
म
諮@@
❥
滠
袛
俜
ΰ
絜
坶
頑@@
І
齁
攪@@
崂
⁵
診


敁
毘
❃
鹌
墣
磬@@
ʒ
轵
안
ǜ
靬
㆘
蚨@@
欽
儁
燠@@
煖
砬@@
嶙
骟
旆
垚@@
鲗
摰
熺
煉@@
荦
痳
悝
跫
痍@@
猊
Ж
若
➠
滏
⇔
昃
ա
赍
髻@@
อ
姹
浡
ˑ
矻
ィ
愦
功于
ṃ
迓
頌@@
傘
鬚
錘@@
✭
軸
⒐
檻
莶@@
爻@@
鮈
〈
誦
爍
涑@@
齦
玏
鞔
褡
な
塭
砳

舐@@
ɣ
綫
㘯
鑿
➣

昳
茕@@
时捷
康涅@@
관
鸱
Ј
⚔
迪士@@
仂
讣
淒@@
ŧ

熥
⚙
洐
吽
驅
鸱@@
臘@@
노
黚
晧
ั
髁@@
ọ
芶
즈
石流
드
襦
譽@@
内斯堡
苤@@
咆
╲
皒
癢
刿
͡
鈉
劼@@
異
栊

禍@@
锒
그
鸸
̶
粦
Ḥ
鱷@@
⒃
橫
噱
紹@@
▃
ŷ
僖
潤@@
妺
玑@@
糞
Ḩ
怄
غ
搆
廠@@
谇
薙
蓼@@
요
缋
耨
箪@@
﹄
砯
デ
糢
歺
果说
玙
﹃
漿
溍
沔@@
诳
路
鮰
⑭
竦
珙
穰@@
貞@@
ύ
搛
勖
☻
瓊

纡@@
噓
茭
맞
甶
馐@@
症性
牻
狻@@
秕@@
唻
髫
ŵ
澪
远镜
溷@@
謦

豳

凪
刋
鉀
嫲
◕
堽
┬
所作@@
眪
棲@@
瘗
拋
晝@@
浞
艾滋@@
諺@@
潆
 
╭
齢
厎
서
舣
と
怙
嗉
謙
﹁
泖
轲@@
戆@@
豊
疊
笏@@
餅@@
국
瞑
踞@@
徇
猶
牽
镚
駁@@
缟@@
深思@@
樋@@
粜
淯
觯
热内卢
瑐
대
倉
鵝
坜@@
撃
瘍
蚶@@
➁
槤
墑
兇
哢
銅

檯
沔
▄
峩
紗
盪@@
箎
椟@@
堎
ĩ
琚@@
駐@@
妗
⼒
壸

崗@@
螳
铹
ღ
擠@@
雫
殚
謠
하
菸@@
揖@@
耔
侏
伫
婺
暋
⼯
❙
瘭
夾
☠
ִ
檞
ố
द
щ
挐
犾
甴
冏
齡@@
蝕
暐
▏
抰
廛
‼

呂@@
蝻
鍃
郤
淺@@
潑
掾
诔
藁
穑
鑽
鼍
満

俳
柝
ث
阇
発
澙
岽
鴨
疇
謹
曖@@
菡@@
懧
◼
匍
縠
峘
鸹
誨
埤
慊
辁
筲
彥
Ц
菝
绡@@
苺
⾃
芰
滯
踊
足率
ᆼ
诼
殍
나
撚
歲@@
欽@@
음
辔@@
紐
谩
✍
涼@@
蝦
伝
鬧@@
स
임
檄
裎
髯@@
⾮
叵
蠋
噸@@
裰
漲@@
❐
邁
峯

膩
嗇
锢@@
頸
鲞
丟
ז
綺
搋
攔@@
╥
ㅠ
چ
⒆
睥
啞
說
圯
鋪@@
瘼
➋
潸
무
毖
呾
軚
缡
囂
霧@@
瘥
欤
虓
冨

怎样@@
⒂
☢
寛

玭
賀
酝@@
谖
暌
ớ
魷@@

灑@@
祿
寵
埜
辇@@
奌
跣
痴呆@@

廼@@
瘰
濃
ю
渦@@
鼇@@
전
渼
腼
澂

駆
도
暎
蜘@@
⒒
❌

ļ
鐡
摬
瑚@@
幄@@
頁@@
蹑
鉤
襪
呼和@@
敫
饫
邴
縛
⌀
塅
摟
粄
▅
㊀
Я
鼯
︾
掟
郓
璁@@
▬
朕@@
絡@@
Ț
⽆
塢
♚
ꢁ
磙@@
闸管
鲮
諦
閥
缐
飓@@
เ
虒
키
晢
齣
ㄇ
揾@@
爐@@
谰
懇
禚@@
佝
枱@@
嫈
賦
噛
羼
≋
喰
峽@@
ľ
酡
贶
痦@@
钤@@
墺
⁸
㎞
해
仼
碓@@
陞
飓
吳
嫚@@
觃
︻
❻
薨
楕
̥
き
ホ
罂
揝
嵯
寘

絞@@
冃
笊@@
跸
麹
趼@@
踉
徘
胣
稫
衰期
曬
⑰
桴
揇
悛
啁
➌
燄
▂
槙
蓦
珧
榎
遜@@
凊
蠍@@
蘗
貞
◻
殇@@
岡@@
溁
靘
ウ
΄
憲
蘅@@
劬@@
癲@@
刂
箬@@
兎
鮨
玚
鳴@@
彘
颿
제
포
霩
虉
緯
祧
餡@@
⼦
罴
鍛
邳
Ɵ
皕
溽@@
柾
鮀
酆
兲
獠
ェ
㎥
濛@@
ร
嘏
非营@@
釀@@
镔@@
銲@@
杪
鸬
浵
炁
醴
燚@@
豌
玧
泐
経
镢@@
搌
阆
胩

陬
詮@@
鈔@@
阍
觥
联酋
槳
蹁@@
肜
掬@@
踽
鳴
墟@@
狎
⁻
吅
僦
叶派
豿
면
曽
お
镟
歳
龐
撌
➀
鹈
澀
⽬
Ά
毪
抜
氷@@
ǖ
聱@@
潰
旿
锃
터
侔
鹟
⩾
つ
摽
黙
骎
ắ
濾
莙
勳
渾@@
賠
ḍ

筦
磚@@
⏹
轟
ि
犠
醌@@
擱
є
乊
畐
醬@@
坳@@
ְ
฿
皛
赧@@
瘧@@
奡
﹀
래
ヽ
岌
凫@@
喾
眔
晳
当务@@
摀@@
鎚
骘
岞

仉
拉圭
漶
ɾ
鲌
衎
Ϋ
聰
フ
牯
酝
⇌
笸@@
欷
孃
戦
笳@@
銳@@
鹩@@
醡
廟@@
キ
♛
钖
钿@@
嵊
葸@@
沨
ַ
妏
馮
殲@@
洣
氽@@
竜
溦

聳
賃@@
疙
関@@
珰
流
浤
倮@@
鱹
懶@@
筁
傧
谮
遼@@
顔
濺
潋

瀜
磙
蔔
忞
戆
창
柽
䌸
壩
ɲ
ฅ
ⁿ
ส
痄@@
聃@@
総

隠
魑
靱
⛅
ǫ
❦
鬻
커
荅
慄
穎
挹
晙
睱
囖
咎于
舾
설
Ħ
み
褰
̈
蜻
渖@@
眇
与众@@
锬
ガ
帄
脍
牂
浜@@
辚@@
燙
見
悶@@
ｬ
य
衧
諭
柸
崴@@
❁
趄@@
遴
蠣
睏

洑
㹴
チ
顫@@
榈@@
伛@@
茑
緯@@
锖
萩
枘
⬇
铫
₁
飄
ド
诋

צ
骠
卬
籌
囙
朓
ِ
바
鹛
➂
搥
栳
筅
Ţ
谄
บ
臥
墬

ジ
勛
े
纔
繭
비

惬
蛴
秏
セ
澥
豢
伉
钪@@
遗症
柵@@
성
椹@@

埽
攲
พ
図
磚
⏰
恏
․
銳
は
崁@@
驸
皈
☕
旰@@
嘔@@
っ
揂
紬
粵@@
歛
葙@@
莛
◡
硎
炤@@
倖
鼙
闢
痖
踺@@
琇@@
袂@@

賩
⚓
撖@@

醞@@
耪
硇
鄫

运而生
縫@@
ネ
隼@@
☹
讵
惪
蕖
餮@@
潦
鳚
눉
覧
磻@@
凵
賢
劬
톱
ʷ
聾

囹

懲
ㅂ
ิ
卝
俍
詫@@
揺
霂
鳡
鑄@@
鹎
俦
︿
紡@@
郛
寳

る
翯
綴
鳓
菧
ี
♞
嶺
掴@@

湮
侥
坲
소
牞
檎
诰@@
禦@@
圾@@
叢
怿@@
曬@@
皦
跻
牁
⽴
略
讀
现在@@
抎
輟@@

❋
涑
遨
パ
櫚@@
阒@@
屺
椑
缧
⋆
̅
➺
郿
摀
凾
코
琲
靣
跞
إ
祉@@
ʁ
豐
篩@@
淩
♕
侖
ʾ
้
臃
并论
剀@@
ض
儅
⅛
缵
饔
輔
辺
东道@@
蜿
黵
嘆@@
皺@@
馭
荦@@
屇
骼@@
舁
掙
纮@@
済
烏
詠
羣
遶
⺠
怫
筇@@
埒
ḳ
輿@@

ϑ
鷉
皺
嬰
狀
陰
☯
璆
鈍
沆
ď
苣@@
髈
悒@@
喦
龅
﹦
繽@@
呻
鎂
土耳@@
郢@@
髛
馒
▊
じ
在眉睫
舡
褑
禊
悭
罡@@
仉@@
腫
鴉@@
敉@@
蟓
세
⼩
奀
䴙
작
頀
滙
瀬
晝
滌@@
嚕
攣
Ю
竑@@
鹣
葑@@
≅
ى
朧
负有@@
uicon@@
̊
鲏
悳
ァ
俋
摈
쿨
乀
澶@@
荄
湲
轄
蕺@@
ブ
韡@@
埵
嶷
✯
車
✮
嗾
ֹ
棼
反之@@
侷
広
盍
ậ
睃
渫
贍
❈
Ө
販
薤
倰
┎
瑨
▯
婓
纏@@
喔@@
̯
寛@@
달
㖊
燐
谫
瑷@@
痷
疪
叻@@
ㄆ
抔
ṅ
窺@@
夲
揟
砀
鴻@@
♔
脗

玎@@
觊
⁷
衮@@
澉@@
溝
罙
﹠
讠
鹪
砝
扌
ケ
便
抦
너
茼
锳
汙
⚪
頃
ѡ
モ
ֶ
頸@@
嬖
ɸ
ɹ
濫
钲@@
侉
倨

铩
绲
燿
忸
⊹
구
昇@@
畋
銲
ḫ
蕰
獬@@
酴
擱@@
齑
⁶
賂
槪
氷
鐟
猷@@
鈣@@
觌
掮
皤
悅@@
貔
郈
艽@@
排行@@
慫@@
沚
嗙
曁
瑣@@
↖
垠@@
テ
牖
鳳
缳


礐
穏
嘣@@

ĕ
鮭@@
り
ど
메
汚
粢
扽
哝@@
&&&&@@
黧
ʲ
轆
璪
،
ห
サ
懔
同龄@@
れ
賈
显子
┈
부

조
悒
メ
祘
相辅@@
韪@@
渦
貿
鞯
匼
冚

檚
鍪
姦@@
跣@@
珜
⽇
≙

偁
缥
艷@@
۰
⾼
褮
囘
ㄌ
수
瑑
်
▹
애
蠛
厄立@@
燠
▵
﹛
₩
欖
러

김
愿书
ね
襪@@
惱@@
誇
⽐
⸺
牤
袗
프
縣@@
苤
氾
緝
檠
中之重
ल
鞒
↦
ɨ
杮
व
韌@@
榊@@
酲

⒅
舛@@
肴@@
➞
碡

楮@@
劉
辻
刜
顏
癲
楫@@
ấ
椥
‿
畬
湃@@
啨
䲟
撺
絨
✳
蔌
鵝@@
Ў
噴
❉
초
岆
塨
碩
▣
錞
貊
揑
Ġ
₄
崟
柊
ㄠ
虼@@
阒
ミ
媖
邈@@
보
忄
卄
ْ
籐
铖@@
势图
ㄩ
嘍
釘@@
琁
檳
鈎
摪
媗
遙
阛
;
게
瑧
叚
辶
擄
燏
什
痙@@
俤
鲋
蔭@@
妫@@
漥
耵
ĭ
繃
ր
沺
観
瘵
醢
郅@@
ɒ
명

镋
馳
悾
鄕
癱
絆@@
寔
ᔪ
戯
炣
釣
玓
赀@@
諱
鹡

閏@@
ї
珋

俵@@
韌
ʹ
岵
٢
˘
離
刟
絞
籓
浃
泂
疎
埚@@
迗
牓
滲
墊@@
苁
ख
坵
傕
連
怍@@
洫
䇲
莞市
타
橿
餽@@
聒
簠
冫
に
Ɛ
鹧
镄
疋@@
瘊
柝@@
咴
柙
ờ
擧
禿
주
镪@@
∎
赁@@
め
咾@@
绲@@
锟@@
⩽
瞾
┉

覚
螽
鼷
壺
櫥@@
耥
炟
睺
以下@@
茺
塍@@
廯
帥@@
綁@@
ဪ
堍
留
蝸@@
釁
☝
坌
翹
❎
廁
⾊
豨
눇
淚@@
瑡
貢
猹
钔
섯
眚
轷
を
┘

賄@@
擕
識
蜉
僟
乄
⬍
贍@@
錨
汯
❞
擡
絆
ᮁ
銘
상
ј
觜
澱
蠻@@
ǀ
濶
١
腩@@
ű
譜@@
☘
祃
舄
梾
緒@@

蝙
✕
瑠@@
迕
缱
漯
嶄@@
팡
⒓
滌
Ŗ
Ķ
瓅
癇
む
ㄈ
烚
ต
痼
愰
垵



觖
杻
镮
蕞@@
昖
捌@@
誘

譚@@
阋
芠
蚪@@
Ē
嘹
Ī
甏
誣@@
嗫
袪@@
翴
瘙
치
개
㎠
宀
┌
玾
厣
鸺
佧
疰@@
哂@@
⟵
ّ
❂
크
ი
ㅋ
焠
을
媸
Ğ
鹆
蜃
ɬ
㊁
攬

杢
ﾉ
罾
씨
는
骒@@
ћ
苘
殯@@
邙
駭@@
毌
ẓ
髖
凧
᠆
尜
缣
嚅@@
연
牀
笮
ツ
抱死
瓻
型期
眹
擴
钑
儉
림
委内@@
荛
慱
啞@@
魃

鳘
ಡ
舢
狝
骕
발
箪
兌
匏
殭
ⅺ
潾
廇
鹁@@
肣
진
濤
鳦
袷
瘌@@
崗
塩
肅@@
堦
क

⬎
灜
椟
踹@@
坩
霪@@
┗
ℵ

諷@@
鲽@@
洳
鳏
阏@@

⬅
浥
繚@@
冴@@
畷
ứ
芐
䜣
瑥

抣
窭
⼿
邂
媜
鋁@@

飆
陼
妬
齋
葠
洈@@
Ĥ
佴
ᐅ
療
ʕ
苳
Ň
ׁ
纈
缑

↠
湴
들
囪
⾝
惓

仹
侘
桕@@
ն
ˤ
❝

鲊
㧑
爇
绱
ә
菫
ụ
賤
搧@@
郐
燼

ว
プ

侪@@
篙@@
鷗
撜
浼
ի
锔@@
♻
巔
脬
Ђ
瓈
베
袤@@
愜@@
방
そ
枇
霈@@
┼
鹣@@
诙
㎛
鉮
ท
⌵
胬
滂
せ

核不@@
隳
氶
ল
殂
ब
絢@@
廒

跼
은
形状@@
宬
圉@@
靄
✻
ⓒ
泩
闙
綿
鋆@@
婀
骯@@
閥@@
溆
瘖
梶
蒂固
❣

競
嘯
壇@@
坼
彽
茳
貪
箇
歙
剞
ĝ
鞏@@
ব
僑

း
砘
̱
쳄
桜
荬
砢
ㄊ
啣
懾
ㄅ
虮
檗@@
ề

匋
麩@@
赑
鐸
Ū
⽰
鉅
偸
攜
綾@@
揦
锿
碇@@
목
忭
ȝ
☂
缵@@
刄
敉
攔
₉
髧
栱
旒
ذ
煕
貯
鍙
俬
踬
侴
鲥

✡
嵚
ǚ
老汇
哱
천
狛
櫈
ｰ

谿
⒇
烺
顱
渌@@
眜
阝
堌
劊@@
반
婞
⁹
疊@@
⇧
韻@@
犮
祓
ợ
鳑
龃
堅
貎
哓
腎

扞@@
鬲@@
喈
鋸@@
罥
讃

ℤ
茺@@
冦
芟
氿
Ľ
傢@@
殼@@
泔
플
懃
霙
┍
袦
鶯
础@@
兩
駕
枹
犼
攪
骷
斲

唪
鑰
娛
轆@@
鄯
伛
郧
抳

馇
潑@@
殍@@
₾
犡
菆
鬄
塁
柃@@
槁@@
㊂
綑
淂
俵
爀


羙
だ
嶄
硭
锞
蜮
❚
ヒ
昐

虿
専
笩
秫
崾
ㄖ
畛
臑
歘
筍
搵
┯
笞@@
蝾
泅
韮
芵
袩
滝
搿
屢
화
檑
║
네
醃
厰

ম
嬲
啱
韆
挙
袘
馼
鎔@@
脇
蒺
ी
晛
嚥
瑠
索
舄@@
嬌@@
ⓛ
忐
瘌
逶
ỹ
ไ
榼
賨
₪
尼治
筊
荘
黠@@
旄
✗
汧
艨@@
료
羮
锓
ຶ
多巴@@
扃
鐳
応
험
缏
霹

庳
唸@@

렌
۩
梠
牴
廳@@
ㄋ
ㄕ
盺
誼@@
∟
謑
鷲
隣
萣
苧@@
栒
摫
撓
✶
槡
荩@@
␣
驒
敎
➄
☔
蜒@@
疌
骖
鋰
악
鈔
簾
妘
﹎
荇@@
礤
蟊
踀
알
憊
鼷@@
鋧
愽
į
鈾
屆@@
揙
螃
擭

侩@@
刽
洧@@
萚
鈕
缼
蠟
₽
艟
昤
嫰
曚
᜽
괴
蟋
邗
樸@@
里兰@@
ꆊ
鋁
卨
﹩
迆
撈
棟@@
≃
槻
鉨
湫@@
禔
眛
ℕ
甁
澶
ỏ
肷
눈
镒@@
攉
鄜
笕@@
澉
蘆
籬@@
冖
転
踨
潩
牮
ُ
曛
ナ
佂
显而易@@
姵
剽
鷟
詠@@
櫣
箦
☜
鉻
噹
鷹@@
耖
ㄹ
麴
翛
浧
ﷺ
ㅇ
獅
艄
揰
격
鮠
謢
茪
叾
ु
鶏
佀
피
᯲
鐺
慇
踌
脞
중
⌥
여
☟


민
砅
ㄐ
羑
⼉
暍

枒
┏
怱
悱
麑
豇
駭
帱
蹀@@
峁@@
掎@@
搴
挌
鋕
魘
郪
塚@@
박
稂
鳊
媲
惆
蚨
徴
簾@@
俢
昄
都
駿
関
饷@@
ズ
妝@@
ổ

郷
懽
ㄱ
酦
拊
ช
嶽
剷
菥
暈@@
㎟
◘
叧
ئ
◙
Ṭ
佉
র
笱
撄@@

汜@@

躊@@
ㄛ
鲭@@
鯊
か
蒇
입
缌
鮪
玗
骱
榇
紗@@
屃
⼭
강
ギ
児

ᰆ
鋒@@
✫
♮
毹
锸
搠
ủ
☫
蚰
✬
٣
硚
တ

揤
刕
⅜
愄
昍
珝
噐
犰
缊
鵬
嫘
帴
猃
Ṣ
阼
歀
躉
踭
吥
⌬
티
弇
綱@@
⑲
┙
✉
杄
徑@@
Й
駽
稜
昜
㉟
黐
黼
湓
摲
ซ
Ḳ
단
瞼
汭@@
ㄢ
敚
肸
蚯
誦@@
闳@@
籀
岍
◐
날
歔
⓪
渟@@
鯤
裔@@
褴
鄞
።
건
漬
ἄ
ǝ
攴
燦
荾
笾
鏟@@
﹌
ꁹ

槔
弪

橹@@
蛻@@
鱘
燙@@
慮@@
念
ㅎ

ে
揘
蟪
緋@@
欹
鑄
โ
ử
坰
崆
絵
騾@@
赕
穌@@
芣
塊@@
ڤ
以赴
┕
羝
ゲ
蕭
예
醣@@

六
ⓞ
矯@@
盱
鵙
禆
녀
馳@@

瞓
髞
⽓
寢
ữ
俠@@
ἐ
継

磔
殮
일
筇
澌
烎
㶲
旮
ာ
睌
乛


仧
囲
鞫
溇
贇
莴
Ě

龀
淪@@
ĉ
ģ
挻

墜
ꞌ
✐
陴
摖
瀉
茳@@
桎
왘
⁡
郚
柟
后赛
颕
Ѳ
樺
⃞
穢
旴@@
광
齄
袈
북
畤
簟
袧
秨
憓

軛

₤
복

夶
鹼@@
躪
✚
侉@@
崦
⭕
珶
孮
嘠
凨
◗
袠
宍
荊@@
鞴
臷
莋
潽
刣
筻
揍@@

⽹
艸
窩@@
椀
蛲
踔@@
ȁ
蝨@@
齒@@
瓒@@
贳
苖
⾦
鹾
ẽ
纳法索
虼
❽
鞲
庝
ץ
櫻
鈜
蒳
訣@@
軋
禰
砬
ो
٩
鞦
屢@@
亇
躞
无与@@
쌤
㖞
巉@@
워
饒@@
✴
孥
渃
嗌
縯
麺
墼
猄
ं
汫
曈@@
裒
鼟
巜
攢
夤
閘@@
凎
撋
廾
礻
踴@@
馓
⑳
۞
跹@@
畳
㆔
梟
拉
犃
懆
்
軏
悪
愍@@
영
亻@@
累
懮
縂

讉
刧
饣
⑱
ค
撱
⻓
沋
ء
秱
髃
蕺
༎
聾@@
驺
髤
٠
揅
▐
嬸
➝
근
剋
鶴
穉
泃

仡
荖
ċ
┻
簙
鼗
摻@@
啫
凕
攺
趨
➃
ⓔ
蕗
噚
僔
囬
餌
趵
浯@@
凬
ℚ
脎
黟
篐
冂
蒚
鈊
叏
窻
鄭
児@@
翨
̪
意大@@
嘔
☮
譏@@
➛
哿
ʘ
亶
蔥
綜
女
妯
靦@@
蹒
鈇
絹
蔲
罯
尨
冧
楓
집
ɐ
閹@@
闖
罞
儍
䴀
廨

礞
⒘
藹
❾
☃
里
틀

◯
₨
մ
巔@@
諧@@
瞠
阌
啇
鳁
酆@@
歷
त
㧐
趑@@
倞@@
坞@@
勻@@
絔
楪
ף
薈
撲
ग

ḷ
倂
尛
閾@@
眍

槊@@
용
ാ
嘮@@
⽌
ビ
⫺
恂@@
瞆
墮
繙
⿻
閦
令
雑
隰
苌@@
熾@@
鉏
苪
ご
膄
犢
栟
謠@@
桄@@
瀕
汙@@
樯@@
綪
胙
踣
酂
ɯ

罠
鬏
槓
崟@@
್
絖
畎
﹂
㎍
闔
捽
̞
尥@@
蜞
鹖
旵
➲
耑
淜
淵@@
迮
嫑
踔
筯
诖
鲺
傘@@
嵐
姘
ა
腠

鉑
梼

齋@@
디
攮

亽

⁇
楱
さ
搗
僾
泥

鐇
両
払
凣
鲴
臨
卺
蘊@@

藊
牐
惝@@
寢@@
奷
晉
宅
忬
薙@@
姩
摴
犭
렀
摿
崞
鷠
鲒
揢
樓
ピ
姳
畯
暘
醂
檥
琏@@

鄌
✒
ე
ⅻ
聚碳@@
襌
稊
蔋
庒
鼡
褭
