{"</s>": 0, "<unk>": 1, ",": 2, "\u2581the": 3, "\u2581of": 4, ">>cmn_Hans<<": 5, ".": 6, "\u2581and": 7, "\u2581": 8, "\u2581to": 9, "\u3002": 10, "\u2581in": 11, "\u7684": 12, "\u2581a": 13, "\u3001": 14, "\u2581for": 15, "-": 16, ")": 17, "\u548c": 18, "\u2581on": 19, "\u2581that": 20, ">>cmn_Hant<<": 21, "\u2581(": 22, "'": 23, "s": 24, "?": 25, "\u2581The": 26, ";": 27, "\u2581I": 28, "\u2581with": 29, "\u2581-": 30, "\u2581by": 31, "\u2581is": 32, "\u5e74": 33, "\u2581be": 34, "\u2581as": 35, "(": 36, ":": 37, "\u5728": 38, "\u2581you": 39, "\u2581\"": 40, "\u2581it": 41, "/": 42, "\u2581was": 43, "\u6708": 44, "\u2581its": 45, "\u2581are": 46, "\u2581United": 47, "\u2581at": 48, "\u300b": 49, "!": 50, "\u2581from": 51, "\u2581or": 52, "\u300a": 53, "\u2581Nations": 54, "\u2581have": 55, "\u2581not": 56, "\u4e86": 57, "\u2581this": 58, "\u2581an": 59, "t": 60, "\u2581all": 61, "\u2581which": 62, "\u2581their": 63, "\u2581Committee": 64, "\u5bf9": 65, "\u2581has": 66, "\u4e0e": 67, "\u2581In": 68, "\u2581States": 69, "...": 70, "\u6216": 71, "\u662f": 72, "\u2581international": 73, "\u2581been": 74, "\u2581will": 75, "\u4e3a": 76, "\u65e5": 77, "\u2581had": 78, "\u7b2c": 79, "\u2581A": 80, "\u2581also": 81, "\u4e2d": 82, "A": 83, "\u2581It": 84, "\u2581'": 85, "\u2581were": 86, "\u2581other": 87, "a": 88, "\u4ee5\u53ca": 89, "\u2581should": 90, "\u2581Council": 91, "\u2581development": 92, "\u5e76": 93, "\u2581would": 94, "\u2581rights": 95, "\u2581countries": 96, "\u5c06": 97, "\u2581s": 98, "1": 99, "m": 100, "\u2581report": 101, "\u2581You": 102, "\u5305\u62ec": 103, "d": 104, "\u2581\u6211": 105, "\u2581\u5728": 106, "\u2581we": 107, "\u2581me": 108, "\u2581resolution": 109, "b": 110, "\u2581including": 111, "\u4ee5": 112, "\u95ee\u9898": 113, "\u2581under": 114, "\u2581women": 115, "\u2581such": 116, "3": 117, "\u2581human": 118, "\u2581work": 119, "\u2581General": 120, "\u2581Assembly": 121, "\u6709": 122, "\u2581can": 123, "\u6211": 124, "\u2581support": 125, "\u2581information": 126, "\u2581\u4f60": 127, "\u2581national": 128, "ing": 129, "\u4eba": 130, "2": 131, "\u2581out": 132, "\u2581State": 133, "re": 134, "6": 135, "\u2581session": 136, "\u2581they": 137, "General": 138, "4": 139, "\u5173\u4e8e": 140, "\u2581one": 141, "\u2581We": 142, "\u4f60": 143, "\u2581implementation": 144, "\u2581Secretary": 145, "\u2581do": 146, "\u2581Convention": 147, "\u65f6": 148, "c": 149, "\u5411": 150, "\u5c31": 151, "5": 152, "\u5176": 153, "\u2581right": 154, "\u2581more": 155, "\u4e0d": 156, "\u2581made": 157, "\u4e0a": 158, "\u56fd\u5bb6": 159, "\u63d0\u4f9b": 160, "12": 161, "\u2581my": 162, "\u2581there": 163, "\u2581Commission": 164, "7": 165, "\u800c": 166, "\u2581into": 167, "\u2581those": 168, "\u2581Government": 169, "\u2581International": 170, "\u2581your": 171, "\u2581he": 172, "\u2581activities": 173, "\u2581against": 174, "\u2581his": 175, "\u8fdb\u884c": 176, "C": 177, "\u2581well": 178, "e": 179, "\u516c\u7ea6": 180, "\u2581through": 181, "\u2581no": 182, "\u4ed6": 183, "\u2581about": 184, "10": 185, "\u2581up": 186, "\u2581but": 187, "),": 188, "\u2581any": 189, "\u53ca": 190, "\u2581law": 191, "\u2581between": 192, "\u59d4\u5458\u4f1a": 193, "\u2581so": 194, ")\u3002": 195, "\u2581\u201c": 196, "\u2581meeting": 197, "\u5de5\u4f5c": 198, "\u65b9\u9762": 199, "\u2581them": 200, "\u2581who": 201, "\u2581What": 202, "\u2581per": 203, "\u2581know": 204, "\u901a\u8fc7": 205, "\u2581need": 206, "\u2581measures": 207, "\u2581This": 208, "\u2581system": 209, "\u2581what": 210, "\u2581country": 211, "\u2581Security": 212, "\u2581security": 213, "\u2581new": 214, "9": 215, "\u2581organizations": 216, "\u201d": 217, "\u6709\u5173": 218, "\u2581No": 219, "\u2581time": 220, "\u2581Mr": 221, "\u2581Conference": 222, "\u25811": 223, "\u00b7": 224, "\u2581Republic": 225, "\u8054\u5408\u56fd": 226, "\u2581cooperation": 227, "S": 228, "\u2581efforts": 229, "\u2581these": 230, "\u2581draft": 231, "\u2581could": 232, "L": 233, "\u6211\u4eec": 234, "\u4ece": 235, "\u2581people": 236, "\u6761": 237, "\u2581children": 238, "\u2581take": 239, "\u2581like": 240, "\u2581some": 241, "\u2581Development": 242, ").": 243, "\u2581if": 244, "8": 245, "\u65b9\u6848": 246, "\u2581resources": 247, "\u5730": 248, "\u2581programme": 249, "\u2581He": 250, "\u4e5f": 251, "\u2581may": 252, "\u2581Rights": 253, "11": 254, "\u4e2a": 255, "\u9700\u8981": 256, "\u2581non": 257, "ed": 258, "\u2581regional": 259, "\u4e8e": 260, "\u53f7\u51b3\u8bae": 261, "\u6bb5": 262, "\u2581two": 263, "\u62a5\u544a": 264, "\u6240": 265, "\u2581--": 266, "\u88ab": 267, "\u7531": 268, "\u2581number": 269, "\u2581cent": 270, "\u5148\u751f": 271, "\u56fd\u9645": 272, "\u6765": 273, "\u5230": 274, "\u2581only": 275, "\u2581Group": 276, "\u2581assistance": 277, "\u2581order": 278, "\u2581ensure": 279, "\u2581issues": 280, "\u2581provide": 281, "\u653f\u5e9c": 282, "\u5e94": 283, "\u2581use": 284, "\u6267\u884c": 285, "\u2581paragraph": 286, "\u2581over": 287, "\u2581financial": 288, "\u2581our": 289, "\u2581process": 290, "\u90fd": 291, "\u8fd9\u4e9b": 292, "\u2581economic": 293, "ll": 294, "\u6d3b\u52a8": 295, "\u2581Human": 296, "\u2581her": 297, "\u2581don": 298, "\u2581than": 299, "\u2581further": 300, "\u2581members": 301, "\u2581social": 302, "\u6839\u636e": 303, "\u2581article": 304, "\u2581just": 305, "\u8bf4": 306, "\u2581services": 307, "\u2581Office": 308, "\u2581And": 309, "\u2581must": 310, "\u4e00\u4e2a": 311, "\u2581Special": 312, "\u6ca1\u6709": 313, "\u2581particular": 314, "\u2581here": 315, "\u652f\u6301": 316, "\u8981\u6c42": 317, "\u2581party": 318, "\u2581\u4ed6": 319, "\u2581developing": 320, "\u53ef": 321, "\u2581provided": 322, "\u2581relevant": 323, "\u2581shall": 324, "\u25812.": 325, "\u201c": 326, "\u2581within": 327, "\u2581C": 328, "\u2581him": 329, "\u2581years": 330, "\u2581programmes": 331, "\u2581That": 332, "\u2581decision": 333, "\u25811.": 334, "\u4f46": 335, "\u4e00": 336, "\u2581\u6211\u4eec": 337, "E": 338, "\u4ed6\u4eec": 339, "\u4f1a\u8bae": 340, "\u2581first": 341, "\u2581management": 342, "\u5417": 343, "\u2581public": 344, "\u2581[": 345, "\u2581when": 346, "\u5df2": 347, "\u2581December": 348, "\u2581areas": 349, "\u2581adopted": 350, "\u2581make": 351, "\u8981": 352, "\u2581period": 353, "\u6240\u6709": 354, "\u2581staff": 355, "\u2581health": 356, "\u6cd5": 357, "\u2581now": 358, ");": 359, "\u2581held": 360, ">>cmn<<": 361, "\u2581where": 362, "\u2581during": 363, "\u2581level": 364, "\u8fd8": 365, "\u2581being": 366, "\u6027": 367, "\u2581persons": 368, "\u8005": 369, "\u2581B": 370, "\u4ee3\u8868": 371, "\u540e": 372, "\u4e0b": 373, "\u2581go": 374, "\u7ee7\u7eed": 375, "\u2581review": 376, "\u2581regard": 377, "i": 378, "\u8be5": 379, "\u2581protection": 380, "\u2581education": 381, "\u9879\u76ee": 382, "30": 383, "\u4f1a": 384, "\u2581President": 385, "\u5987\u5973": 386, "\u2581action": 387, "\u2581parties": 388, "\u2581At": 389, "\u7ec4\u7ec7": 390, "\u5b83": 391, "\u53ef\u4ee5": 392, "]": 393, "\u2581political": 394, "\u2581legal": 395, "\u2581Programme": 396, "\u7b49": 397, "\u4f5c\u4e3a": 398, "\u53d1\u5c55": 399, "\u2581situation": 400, "\u4f7f": 401, "\u2581get": 402, "\u5efa\u8bae": 403, "\u5df2\u7ecf": 404, "\u2581continue": 405, "\u2581As": 406, "\u2581peace": 407, "\u2581taken": 408, "\u2581community": 409, "\u2581Organization": 410, "ve": 411, "\u2581capacity": 412, "\u2581accordance": 413, "\u25813.": 414, "\u2581said": 415, "\u7684\u62a5\u544a": 416, "\u2581following": 417, "\u2581training": 418, "\u2581policy": 419, "\u5408\u4f5c": 420, "\u2581agenda": 421, "\u25812": 422, "\u2581respect": 423, "\u4f7f\u7528": 424, "\u2581among": 425, "\u2581recommendations": 426, "\u2581part": 427, "\u2581special": 428, "\u2581did": 429, "\u2581Member": 430, "\u2581world": 431, "\u5979": 432, "\u5fc5\u987b": 433, "\u2581effective": 434, "\u2581important": 435, "\u4fc3\u8fdb": 436, "\u7f8e\u5143": 437, "\u2581before": 438, "\u2581\u7b2c": 439, "\u2581access": 440, "\u60c5\u51b5": 441, "\u8fd9\u4e00": 442, "\u8ba4\u4e3a": 443, "15": 444, "\u673a\u6784": 445, "\u2581both": 446, "\u2581most": 447, "\u2581reports": 448, "20": 449, "\u884c\u52a8": 450, "\u2581They": 451, "\u2581established": 452, "\u2581S": 453, "\u53ef\u80fd": 454, "\u2581P": 455, "\u2581Africa": 456, "\u2581To": 457, "\u2581role": 458, "\u89c4\u5b9a": 459, "\u7ecf\u6d4e": 460, "\u540d": 461, "\u5904\u7406": 462, "\u65e5\u7b2c": 463, "\u2581progress": 464, "\u2581related": 465, "\u2581Parties": 466, "\u53c2\u4e0e": 467, "\u2581year": 468, "\u2581working": 469, "\u258110": 470, "\u2581same": 471, "\u2581many": 472, "\u4fdd\u62a4": 473, "\u786e\u4fdd": 474, "\u2581gender": 475, "\u2581good": 476, "\u2581There": 477, "\u63aa\u65bd": 478, "\u540c": 479, "\"": 480, "\u2581June": 481, "\u2581violence": 482, "\u2581way": 483, "\u2581view": 484, "\u2581World": 485, "\u653f\u7b56": 486, "\u6cd5\u5f8b": 487, "\u2581present": 488, "\u2581see": 489, "er": 490, "\u2581global": 491, "\u25814.": 492, "\u2581want": 493, "th": 494, "\u670d\u52a1": 495, "\u25813": 496, "\u5185": 497, "\u5427": 498, "\u2581she": 499, "\u7ba1\u7406": 500, "\u53f7": 501, "\u2581Economic": 502, "\u5ba1\u67e5": 503, "\u5efa\u7acb": 504, "\u2581appropriate": 505, "\u2581technical": 506, "\u7279\u522b\u662f": 507, "\u2581But": 508, "\u2581E": 509, "\u2581nuclear": 510, "\u51b3\u5b9a": 511, "\u2581three": 512, "\u5927\u4f1a": 513, "\u628a": 514, "\u2581us": 515, "\u5b9e\u65bd": 516, "\u8fd9": 517, "\u8fd9\u79cd": 518, "\u2581Social": 519, "\u2581budget": 520, "\u83b7\u5f97": 521, "\u2581item": 522, "\u2581full": 523, "\u5373": 524, "\u2581Board": 525, "\u2581set": 526, "\u2581necessary": 527, "18": 528, "\u2581how": 529, "\u2581basis": 530, "\u2581African": 531, "ly": 532, "\u52a0\u5f3a": 533, "\u7684\u4eba": 534, "\u2581\u56e0\u6b64": 535, "\u2581institutions": 536, "\u2581without": 537, "\u2581\u300a": 538, "\u2581case": 539, "\u4efb\u4f55": 540, "\u52aa\u529b": 541, "\u793e\u4f1a": 542, "\u80fd": 543, "\u2581possible": 544, "\u2581place": 545, "):": 546, "\u589e\u52a0": 547, "\u65e5\u81f3": 548, "\u6b3e": 549, "\u2581million": 550, "y": 551, "\u91c7\u53d6": 552, "\u81f3": 553, "\u2581\u5173\u4e8e": 554, "\u2581National": 555, "\u8ba1\u5212": 556, "\u63d0\u51fa": 557, "\u2581groups": 558, "P": 559, "\u2581after": 560, "\u5927": 561, "\u2581think": 562, "\u2581provisions": 563, "\u2581got": 564, "\u2581meetings": 565, "\u53ca\u5176": 566, "\u2581cases": 567, "\u513f\u7ae5": 568, "\u2581since": 569, "\u2581All": 570, "\u91cc": 571, "\u2581policies": 572, "\u2581July": 573, "\u2581consideration": 574, "\u2581general": 575, "\u2581Working": 576, "g": 577, "\u2581needs": 578, "\u2581\u6b64\u5916": 579, "\u25815.": 580, "\u7684\u5de5\u4f5c": 581, "\u2581For": 582, "\u533a\u57df": 583, "\u2581On": 584, "\u2581very": 585, "\u2581upon": 586, "\u80fd\u591f": 587, "\u2581include": 588, "\u5f00\u5c55": 589, "\u2581end": 590, "Add": 591, "\u6218\u7565": 592, "\u5b9e\u73b0": 593, "f": 594, "\u2581data": 595, "\u89e3\u51b3": 596, "\u2581concerned": 597, "\u2581while": 598, "\u2581trade": 599, "\u53bb": 600, "\u2581Court": 601, "\u2581local": 602, "\u2581issue": 603, "\u2581account": 604, "\u2581each": 605, "17": 606, "\u4ee5\u4fbf": 607, "\u4e00\u4e9b": 608, "\u2581framework": 609, "\u2581high": 610, "\u2581available": 611, "\u65b0\u7684": 612, "\u2581\u5979": 613, "\u2581So": 614, "\u5404": 615, "\u2581used": 616, "\u2581back": 617, "\u25815": 618, "\u2581D": 619, "B": 620, "Z": 621, "\u2581She": 622, "\u6559\u80b2": 623, "\u2581New": 624, "\u2581region": 625, "\u2581Oh": 626, "\u7279\u522b": 627, "\u2581increase": 628, "\u2581Yeah": 629, "\u786e\u5b9a": 630, "\u8ba8\u8bba": 631, "Q": 632, "\u66f4": 633, "\u2581noted": 634, "\u2581Fund": 635, "\u25814": 636, "\u524d": 637, "\u2581proposed": 638, "\u2581group": 639, "\u2581European": 640, "\u7528": 641, "\u2581May": 642, "\u56e0\u4e3a": 643, "\u2581importance": 644, "\u2581area": 645, "\u671f\u95f4": 646, "\u6280\u672f": 647, "\u2581humanitarian": 648, "\u2581Secretariat": 649, "14": 650, "\u2581considered": 651, "\u25818": 652, "\u2581based": 653, "\u2581Women": 654, "\u5176\u4ed6": 655, "\u2581society": 656, "\u2581delegation": 657, "\u2581address": 658, "\u2581promote": 659, "\u2581September": 660, "\u2581submitted": 661, "\u673a\u5236": 662, "\u258115": 663, "\u2581conflict": 664, "\u2581developed": 665, "\u7684\u56fd\u5bb6": 666, "\u5ba1\u8bae": 667, "13": 668, "\u7cfb\u7edf": 669, "\u65b0": 670, "\u2581Action": 671, "\u25816.": 672, "\u7ed9": 673, "\u53c2\u52a0": 674, "\u5229\u7528": 675, "25": 676, "\u5f97\u5230": 677, "\u7f14\u7ea6\u56fd": 678, "\u2581particularly": 679, "\u2581Union": 680, "\u2581November": 681, "\u2581participation": 682, "\u5b89\u5168": 683, "\u2581life": 684, "\u2581If": 685, "\u2581resolutions": 686, "\u7684\u95ee\u9898": 687, "\u2581sustainable": 688, "\u25816": 689, "\u8bf4\u660e": 690, "\u2581October": 691, "\u2581poverty": 692, "\u63d0\u4ea4": 693, "\u2581child": 694, "or": 695, "\u51cf\u5c11": 696, "\u2581because": 697, "\u591a": 698, "\u2581bodies": 699, "\u2581plan": 700, "16": 701, "\u7684\u60c5\u51b5": 702, "\u2581sector": 703, "\u2581document": 704, "n": 705, "\u548c\u5176\u4ed6": 706, "\u258130": 707, "\u2581levels": 708, "\u4eba\u5458": 709, "2005": 710, "\u2581note": 711, "\u2581specific": 712, "\u4eba\u6743": 713, "al": 714, "\u5176\u4e2d": 715, "\u2581Article": 716, "\u2581going": 717, "\u8c03\u67e5": 718, "\u25819": 719, "\u554a": 720, "\u2581help": 721, "\u258112": 722, "\u2581Mission": 723, "19": 724, "\u2581field": 725, "\u2581long": 726, "\u5168\u7403": 727, "\u6307\u51fa": 728, "\u6b63\u5728": 729, "\u2581required": 730, "31": 731, "\u2581current": 732, "\u2581come": 733, "\u2581still": 734, "\u2581weapons": 735, "\u5462": 736, "\u2581project": 737, "23": 738, "\u2581Department": 739, "\u2581agencies": 740, "\u2581future": 741, "\u65af": 742, "\u2581civil": 743, "\u8d44\u6e90": 744, "\u6587\u4ef6": 745, "\u5982": 746, "\u2581requirements": 747, "\u8fd9\u4e2a": 748, "\u5177\u6709": 749, "\u5236\u5b9a": 750, "\u7814\u7a76": 751, "\u652f\u52a9": 752, "\u2581military": 753, "\u79d8\u4e66\u5904": 754, "22": 755, "\u2581Declaration": 756, "\u597d": 757, "\u4f5c\u51fa": 758, "\u2581requested": 759, "\u2581operations": 760, "\u2581various": 761, "\u2581Law": 762, "\u5e76\u4e14": 763, "\u2581Governments": 764, "\u2581authorities": 765, "\u9886\u57df": 766, "in": 767, "\u2581\u4e0d": 768, "up": 769, "\u258120": 770, "\u2581context": 771, "\u8bc4\u4f30": 772, "\u6d89\u53ca": 773, "21": 774, "\u2581additional": 775, "\u2581March": 776, "\u5f97": 777, "D": 778, "\u2581addition": 779, "\u672c": 780, "\u800c\u4e14": 781, "\u7a0b\u5e8f": 782, "\u56fd": 783, "\u25812005": 784, "24": 785, "\u5f71\u54cd": 786, "\u25817.": 787, "\u2581p": 788, "\u2581\u8fd9": 789, "\u63a5\u53d7": 790, "\u4e2d\u5fc3": 791, "\u2581means": 792, "\u2581\u59d4\u5458\u4f1a": 793, "\u2581High": 794, "\u8d1f\u8d23": 795, "\u2581control": 796, "\u55ce": 797, "\u2581representatives": 798, "\u25817": 799, "\u2581agreed": 800, "\u2581then": 801, "\u2581police": 802, "\u2581even": 803, "\u2581Protocol": 804, "\u8fdb\u4e00\u6b65": 805, "\u2581\u6839\u636e": 806, "\u2581contained": 807, "\u5404\u56fd": 808, "2000": 809, "\u2581South": 810, "\u2581down": 811, "\u2581Report": 812, "\u6bd4": 813, "\u2581mandate": 814, "\u2581towards": 815, "\u2581given": 816, "\u5de5\u4f5c\u7ec4": 817, "\u4e4b\u540e": 818, "\u2581However": 819, "\u2581April": 820, "\u81ea": 821, "\u258118": 822, "\u2581concern": 823, "\u2581impact": 824, "\u2581above": 825, "\u2581approach": 826, "\u2581representative": 827, "\u2581continued": 828, "I": 829, "\u258111": 830, "\u2581change": 831, "28": 832, "\u2581family": 833, "\u2581projects": 834, "CN": 835, "\u2581conditions": 836, "\u89c1": 837, "\u2581attention": 838, "o": 839, "2004": 840, "2006": 841, "\u76ee\u6807": 842, "\u2581Rapporteur": 843, "\u2581population": 844, "\u2581does": 845, "\u534f\u52a9": 846, "\u2581Affairs": 847, "\u80fd\u529b": 848, "\u5de5\u4f5c\u4eba\u5458": 849, "2002": 850, "\u5b50": 851, "2001": 852, "\u5404\u79cd": 853, "\u4e3b\u8981": 854, "\u6807\u51c6": 855, "\u2581organization": 856, "\u2581give": 857, ".1": 858, "\u5206": 859, "\u2581\u5bf9": 860, "2003": 861, "\u5b89\u5168\u7406\u4e8b\u4f1a": 862, "\u2581request": 863, "\u6700": 864, "\u7684\u6743\u5229": 865, "27": 866, ")\u3001": 867, "\u2581member": 868, "\u2581concerning": 869, "\u2581status": 870, "\u79d8\u4e66\u957f": 871, "\u2581private": 872, "\u4e4b": 873, "\u4e4b\u95f4": 874, "\u51fa": 875, "\u534f\u8c03": 876, "\u2581major": 877, "\u2581\u4f46\u662f": 878, "\u2581establishment": 879, "\u4fe1\u606f": 880, "\u8868\u793a": 881, "\u7406\u4e8b\u4f1a": 882, "\u6210\u5458": 883, "\u65e0": 884, "\u6761\u7ea6": 885, "\u73af\u5883": 886, "\u2581Well": 887, "\u5b89\u6392": 888, "\u2581relating": 889, "\u2581January": 890, "\u8003\u8651": 891, "\u25812006": 892, "\u8fc7": 893, "\u2581discrimination": 894, "\u56e0\u6b64": 895, "\u2581say": 896, "\u2581statement": 897, "\u2581gonna": 898, "see": 899, "\u2581rules": 900, "\u5b83\u4eec": 901, "\u63f4\u52a9": 902, "\u2581consider": 903, "\u60f3": 904, "\u2581justice": 905, "\u2581How": 906, "\u25818.": 907, "on": 908, "\u62c9": 909, "\u2581care": 910, "\u5730\u533a": 911, "\u258119": 912, "\u4e3b\u5e2d": 913, "26": 914, "\u2581Palestinian": 915, "\u2581comprehensive": 916, "\u2581second": 917, "\u2581better": 918, "\u2581question": 919, "\u2014": 920, "\u5236\u5ea6": 921, "\u662f\u5426": 922, "\u2581force": 923, "\u7279": 924, "\u25812000": 925, "\u2581total": 926, "\u56e0": 927, "\u2581legislation": 928, "\u2581entitled": 929, "\u2581own": 930, "\u25812002": 931, "\u2581monitoring": 932, "\u25812004": 933, "\u2581provision": 934, "\u2581reporting": 935, "\u2581systems": 936, "\u2581taking": 937, "\u5e94\u5f53": 938, "2007": 939, "\u53d7": 940, "\u2581whether": 941, "\u2581inter": 942, "2008": 943, "\u2581expressed": 944, "\u2581strengthen": 945, "\u2581coordination": 946, "\u505a": 947, "\u2581received": 948, "\u2581F": 949, "\u653f\u6cbb": 950, "\u2581domestic": 951, "\u2581men": 952, "\u2581addressed": 953, "\u6743\u5229": 954, "\u4e16\u754c": 955, "\u2581Yes": 956, "\u4e3e\u884c": 957, "\u4e4b\u524d": 958, "\u57f9\u8bad": 959, "\u25812003": 960, "\u2581much": 961, "\u2581existing": 962, "\u2581different": 963, "\u2581mechanisms": 964, "\u2581implement": 965, "\u2581Executive": 966, "\u2581responsibility": 967, "\u2581II": 968, "29": 969, "\u90e8\u95e8": 970, "\u2581armed": 971, "\u2581result": 972, "\u258116": 973, "\u2581therefore": 974, "\u2581practices": 975, "\u8bf7": 976, "\u2581increased": 977, "\u2581especially": 978, "\u5f00\u59cb": 979, "\u2581last": 980, "\u2581costs": 981, "\u6709\u5173\u7684": 982, "\u2581annex": 983, "\u2581man": 984, "\u2581Act": 985, "\u2581too": 986, "\u63d0\u9ad8": 987, "\u2581\u5982\u679c": 988, "\u2581principles": 989, "\u5171\u540c": 990, "\u2581technology": 991, "\u258114": 992, "\u2581Arab": 993, "\u70b9": 994, "\u2581included": 995, "\u2581procedures": 996, "\u2581obligations": 997, "\u258113": 998, "\u5e2e\u52a9": 999, "\u672a": 1000, "\u4ee3\u8868\u56e2": 1001, "\u5f88": 1002, "%": 1003, "\u25819.": 1004, "\u6309\u7167": 1005, "\u5bf9\u4e8e": 1006, "\u2581fully": 1007, "\u8d39\u7528": 1008, "\u6cd5\u9662": 1009, "\u2581personnel": 1010, "\u2581results": 1011, "\u25812007": 1012, "\u884c\u4e3a": 1013, "\u7684\u5efa\u8bae": 1014, "\u516c\u53f8": 1015, "\u5f3a\u8c03": 1016, "\u2581might": 1017, "\u25812008": 1018, "\u76ee\u524d": 1019, "\u65b9\u5f0f": 1020, "\u2581key": 1021, "\u53d7\u5230": 1022, "\u4ec0\u4e48": 1023, "\u5916": 1024, "\u2581rule": 1025, "\u6c34": 1026, "\u2581\u4ed6\u4eec": 1027, "\u7528\u4e8e": 1028, "\u258117": 1029, "\u2581standards": 1030, "\u5982\u679c": 1031, "\u2581water": 1032, "\u2581criminal": 1033, "\u65f6\u95f4": 1034, "\u5fb7": 1035, "\u2581adoption": 1036, "\u2581small": 1037, "\u2581terms": 1038, "\u2581subject": 1039, "\u2581fact": 1040, "\u5e94\u8be5": 1041, "\u25812001": 1042, "\u8d44\u6599": 1043, "\u6210\u4e3a": 1044, "\u90e8\u5206": 1045, "\u2581regarding": 1046, "\u2581These": 1047, "\u2581environment": 1048, "\u5c0f\u7ec4": 1049, "\u53d1\u8a00": 1050, "\u2581funds": 1051, "\u2581already": 1052, "\u2581000": 1053, "\u4e2d\u7684": 1054, "\u2581Representative": 1055, "\u539f\u5219": 1056, "\u627f\u8bfa": 1057, "\u258131": 1058, "\u65b9\u9762\u7684": 1059, "\u81ea\u5df1": 1060, "\u2581contributions": 1061, "\u00e9": 1062, "\u2581day": 1063, "\u2581With": 1064, "*": 1065, "\u5982\u4f55": 1066, "\u2581improve": 1067, "\u4e0d\u80fd": 1068, "\u2581follow": 1069, "\u9ad8": 1070, "\u2581peacekeeping": 1071, "\u2581challenges": 1072, "\u534f\u5b9a": 1073, "\u7531\u4e8e": 1074, "\u4eba\u6c11": 1075, "\u5219": 1076, "\u2581My": 1077, "\u2581agreement": 1078, "\u975e\u6d32": 1079, "\u2581decided": 1080, "\u2581Ministry": 1081, "\u5c0f": 1082, "\u2581risk": 1083, "\u627f\u8ba4": 1084, "\u90a3": 1085, "\u2581consultations": 1086, "\u2581\u4f46": 1087, "\u2581providing": 1088, "\u2581response": 1089, "\u2581person": 1090, "\u5973\u58eb": 1091, "\u2581strengthening": 1092, "\u2581called": 1093, "based": 1094, "\u2581Come": 1095, "\u2581secretariat": 1096, "\u5e0c\u671b": 1097, "\u2581\u662f": 1098, "\u2581decisions": 1099, "\u8d44\u91d1": 1100, "\u975e": 1101, "\u2581August": 1102, "\u5bb6\u5ead": 1103, "\u2581indigenous": 1104, "\u2581together": 1105, "\u53c8": 1106, "\u2581terrorism": 1107, "\u2581food": 1108, "\u2581best": 1109, "\u6570\u636e": 1110, "\u2581commitment": 1111, "\u2581victims": 1112, "\u2581Advisory": 1113, "\u258110.": 1114, "\u57fa\u91d1": 1115, "h": 1116, "\u9884\u7b97": 1117, "\u2581call": 1118, "\u540c\u65f6": 1119, "\u9f13\u52b1": 1120, "\u2581post": 1121, "\u2581off": 1122, "\u2581HIV": 1123, "\u2581least": 1124, "\u2581service": 1125, "\u2581behalf": 1126, "\u2581disarmament": 1127, "\u2581America": 1128, "un": 1129, "governmental": 1130, "\u2581de": 1131, "\u2581Let": 1132, "\u2581amount": 1133, "\u7740": 1134, "\u90e8": 1135, "\u8ba9": 1136, "\u79d1": 1137, "\u2581assessment": 1138, "\u2581environmental": 1139, "\u2581Do": 1140, "\u65e0\u6cd5": 1141, "\u4e00\u9879": 1142, "\u2581February": 1143, "\u529e\u6cd5": 1144, "building": 1145, "\u2581example": 1146, "\u2581initiatives": 1147, "\u2581Iraq": 1148, "\u2581put": 1149, "r": 1150, "\u2581government": 1151, "\u2581*": 1152, "\u2581due": 1153, "\u6ce8\u610f\u5230": 1154, "\u2581matter": 1155, "\u5b8c\u6210": 1156, "\u2581recent": 1157, "\u2581mission": 1158, "\u2581five": 1159, "\u2581prevention": 1160, "\u5168\u9762": 1161, "\u4f1a\u5458\u56fd": 1162, "\u2581Israel": 1163, "\u2581Why": 1164, "\u9879": 1165, "\u2581develop": 1166, "\u2581another": 1167, "\u5177\u4f53": 1168, "\u2581provides": 1169, "\u2581Hey": 1170, "F": 1171, "\u548c\u5e73": 1172, "\u2581reported": 1173, "\u2581several": 1174, "\u2581dialogue": 1175, "\u2581meet": 1176, "\u5316": 1177, "\u7684\u80fd\u529b": 1178, "\u514b": 1179, "\u2581took": 1180, "\u2581every": 1181, "\u6743": 1182, "\u2581G": 1183, "\u4ee5\u8272\u5217": 1184, "\u5929": 1185, "\u2581actions": 1186, "\u2581...": 1187, "\u7684\u5f71\u54cd": 1188, "\u76f8\u5173": 1189, "\u2581space": 1190, "\u2581equality": 1191, "\u2581common": 1192, "\u2581never": 1193, "\u2581significant": 1194, "\u2581little": 1195, "\u2581strategy": 1196, "\u91c7\u7528": 1197, "\u6309": 1198, "\u5bb6": 1199, "\u6539\u5584": 1200, "\u2581land": 1201, "\u2581East": 1202, "\u2581four": 1203, "\u258111.": 1204, "\u2581Service": 1205, "\u2581Ms": 1206, "1999": 1207, "\u4ee5\u4e0b": 1208, "\u2581cost": 1209, "\u2581again": 1210, "\u2581application": 1211, "\u2581problems": 1212, "\u4e8c": 1213, "\u65b9\u6cd5": 1214, "\u90a3\u4e9b": 1215, "\u2581reform": 1216, "\u2581missions": 1217, "\u258122": 1218, "\u2581really": 1219, "\u2581matters": 1220, "\u2581look": 1221, "\u2581next": 1222, "\u2581trafficking": 1223, "\u2581done": 1224, "\u2581lack": 1225, "\u4f8b\u5982": 1226, "es": 1227, "\u2581documents": 1228, "\u2581something": 1229, "\u4e0d\u662f": 1230, "2009": 1231, "\u2581am": 1232, "\u518d": 1233, "\u258121": 1234, "\u7279\u6d3e\u56e2": 1235, "\u2581requests": 1236, "\u2581\u8fd9\u4e9b": 1237, "\u2581arms": 1238, "\u2581\u8054\u5408\u56fd": 1239, "\u6846\u67b6": 1240, "\u5c24\u5176\u662f": 1241, "\u2581peoples": 1242, "\u4e09": 1243, "\u2581\u7136\u800c": 1244, "\u2581establish": 1245, "\u8bbe\u7acb": 1246, "\u2019": 1247, "\u2581UNDP": 1248, "\u2581regular": 1249, "\u63a8\u52a8": 1250, "\u2581biennium": 1251, "\u9488\u5bf9": 1252, "\u7684\u6d3b\u52a8": 1253, "\u2581found": 1254, "\u2581promotion": 1255, "\u540c\u610f": 1256, "\u76d1\u6d4b": 1257, "\u2581\u5b83": 1258, "\u6279\u51c6": 1259, "\u2581para": 1260, "\u2581Permanent": 1261, "\u2581business": 1262, "\u4f5c": 1263, "\u2581crime": 1264, "\u624b": 1265, "\u2581tell": 1266, "\u2581Information": 1267, "\u6295\u8d44": 1268, "\u4fdd\u8bc1": 1269, "\u6539\u9769": 1270, "\u2581girls": 1271, "\u53d1\u751f": 1272, ")(": 1273, "\u7f8e\u56fd": 1274, "\u2581planning": 1275, "\u258112.": 1276, "\u2581practice": 1277, "\u258125": 1278, "\u2581doing": 1279, "\u2581acts": 1280, "\u5904": 1281, "term": 1282, "\u2581main": 1283, "\u7684\u6240\u6709": 1284, "\u2581cultural": 1285, "\u2581didn": 1286, "\u2581employment": 1287, "\u2581focus": 1288, "\u2581priority": 1289, "\u2581One": 1290, "\u8054\u5408": 1291, "\u2581While": 1292, "\u2581needed": 1293, "\u2581re": 1294, "\u8d77": 1295, "\u2581\u90a3": 1296, "\u7684\u60c5\u51b5\u4e0b": 1297, "\u5229": 1298, "\u2581find": 1299, "\u9650\u5236": 1300, "\u63d0\u4f9b\u4e86": 1301, "\u2581administrative": 1302, "\u2581Don": 1303, "\u2581research": 1304, "\u5c14": 1305, "\u2581course": 1306, "\u2581Commissioner": 1307, "\u5baa\u6cd5": 1308, "\u2581Okay": 1309, "\u2581China": 1310, "\u2581Millennium": 1311, "\u7981\u6b62": 1312, "\u2581\u4e3a": 1313, "\u2581problem": 1314, "\u2581growth": 1315, "\u5728\u5176": 1316, "\u258123": 1317, "\u2581procedure": 1318, "\u2581funding": 1319, "\u2581violations": 1320, "\u6709\u6548": 1321, "\u5236\u8ba2": 1322, "\u2581recommended": 1323, "\u4f60\u7684": 1324, "2010": 1325, "\u7f51\u7edc": 1326, "\u2581serious": 1327, "\u2581third": 1328, "\u2581Democratic": 1329, "\u2581great": 1330, "\u63d0\u51fa\u7684": 1331, "\u2581sexual": 1332, "M": 1333, "\u2581mean": 1334, "\u2581partners": 1335, "\u2581prevent": 1336, "\u4e2a\u4eba": 1337, "\u2581yet": 1338, "\u4e0d\u540c": 1339, "\u5361": 1340, "\u2581Panel": 1341, "\u2581operational": 1342, "\u2581\u8bf7": 1343, "\u2581strategies": 1344, "\u2581agreements": 1345, "\u2581treaty": 1346, "\u2581clear": 1347, "\u2581Director": 1348, "\u9009\u4e3e": 1349, "\u4f60\u4eec": 1350, "\u4eba\u53e3": 1351, "\u8fdb\u7a0b": 1352, "\u2581around": 1353, "\u2581discussion": 1354, "\u25812009": 1355, "l": 1356, "\u4e13\u5bb6": 1357, "\u2581Treaty": 1358, "\u2581\u6211\u5011": 1359, "\u76f4\u63a5": 1360, "40": 1361, "[": 1362, "\u2581treatment": 1363, "\u258124": 1364, "\u2581instruments": 1365, "\u73b0\u5728": 1366, "\u8868\u660e": 1367, ";(": 1368, "\u2581forces": 1369, "\u8bba\u575b": 1370, "\u2581reduction": 1371, "\u2581statements": 1372, "\u2581annual": 1373, "\u25811999": 1374, "\u6761\u4ef6": 1375, "\u2581promoting": 1376, "\u2581achieve": 1377, "\u4e86\u89e3": 1378, "\u533a": 1379, "\u2581Covenant": 1380, "\u2581\u5c31": 1381, "\u2581however": 1382, "\u770b": 1383, "\u2581responsible": 1384, "\u4f0a\u62c9\u514b": 1385, "\u2581Chairman": 1386, "\u2581Centre": 1387, "\u2581let": 1388, "\u2581office": 1389, "\u5206\u6790": 1390, "\u9020\u6210": 1391, "\u897f": 1392, "\u8bb8\u591a": 1393, "\u7684\u89c4\u5b9a": 1394, "\u2581\u6709": 1395, "\u529e\u516c\u5ba4": 1396, "\u5408\u540c": 1397, "\u2581involved": 1398, "\u4e4b\u95f4\u7684": 1399, "\u2581committed": 1400, "G": 1401, "\u4f5c\u7528": 1402, "\u4efb\u52a1": 1403, "\u5c31\u662f": 1404, "\u2581past": 1405, "\u2581equipment": 1406, "\u6253": 1407, "\u2581Division": 1408, "\u2581light": 1409, "\u2581implementing": 1410, "\u5b8c\u5168": 1411, "\u2581section": 1412, "\u7ecf": 1413, "\u2581list": 1414, "\u2581::": 1415, "\u2581laws": 1416, "\u2581production": 1417, "\u2581become": 1418, "\u4ecd\u7136": 1419, "\u2581notes": 1420, "\u8d70": 1421, "\u2581objectives": 1422, "\u2581organized": 1423, "\u2581property": 1424, "\u6d88\u9664": 1425, "\u5c65\u884c": 1426, "\u8b66\u5bdf": 1427, "\u2581dated": 1428, "\u2581Tribunal": 1429, "\u258113.": 1430, "\u8d38\u6613": 1431, "\u5b89\u7406\u4f1a": 1432, "level": 1433, "\u963f": 1434, "\u2581performance": 1435, "\u9632\u6b62": 1436, "\u89c4\u5219": 1437, "\u2581home": 1438, "\u4e0a\u8ff0": 1439, "\u2581awareness": 1440, "\u2581aimed": 1441, "\u7acb\u6cd5": 1442, "\u6b21": 1443, "\u2581rate": 1444, "\u2581Where": 1445, "\u56fd\u9645\u793e\u4f1a": 1446, "\u2581Minister": 1447, "\u2581date": 1448, "\u6211\u5011": 1449, "\u2581steps": 1450, "\u51b2\u7a81": 1451, "\u4f46\u662f": 1452, "\u2581position": 1453, "\u201d,": 1454, "\u6539\u8fdb": 1455, "\u53d1": 1456, "\u6b63": 1457, "\u2581adequate": 1458, "\u2581open": 1459, "\u2581\u7531\u4e8e": 1460, "\u2581certain": 1461, "50": 1462, "\u2581pursuant": 1463, "\u8349\u6848": 1464, "\u53d6\u5f97": 1465, "\u2581Asia": 1466, "\u5c3c": 1467, "\u2581facilitate": 1468, "\u2581forms": 1469, "\u2581believe": 1470, "\u2581supported": 1471, "\u2581previous": 1472, "\u2581individual": 1473, "\u2581living": 1474, "\u2581Other": 1475, "\u6062\u590d": 1476, "\u2581why": 1477, "\u8bf7\u6c42": 1478, "\u2581official": 1479, "\u52a0\u5165": 1480, "\u2581Central": 1481, "\u2581approved": 1482, "\u2581d": 1483, "\u7684\u4e00\u4e2a": 1484, "\u7eb3\u5165": 1485, "\u2581free": 1486, "\u2581communities": 1487, "\u2581M": 1488, "\u2581knowledge": 1489, "\u2581author": 1490, "\u258114.": 1491, "\u2581joint": 1492, "\u2581An": 1493, "\u2581God": 1494, "te": 1495, "\u25812010": 1496, "\u2581plans": 1497, "\u2581school": 1498, "\u2581V": 1499, "\u2581posts": 1500, "\u6536\u5165": 1501, "\u2581investment": 1502, "\u2581form": 1503, "\u81ea\u7531": 1504, "\u2581early": 1505, "\u2581energy": 1506, "\u77e5\u9053": 1507, "u": 1508, "\u2581purpose": 1509, "\u2581able": 1510, "\u2581days": 1511, "\u6269\u5927": 1512, "\u2581Criminal": 1513, "tergovernmental": 1514, "\u258128": 1515, "\u9a6c": 1516, "\u2581strategic": 1517, "\u2581proposals": 1518, "\u53d1\u5c55\u4e2d\u56fd\u5bb6": 1519, "\u2014\u2014": 1520, "\u2581interest": 1521, "\u2581enhance": 1522, "\u4e8b": 1523, "\u4fdd\u969c": 1524, "\u2581assist": 1525, "\u2581income": 1526, "\u53f8\u6cd5": 1527, "\u2581Charter": 1528, "\u2581essential": 1529, "\u2581understanding": 1530, "\u4e3e\u884c\u7684": 1531, "\u8fdb\u884c\u4e86": 1532, "\u2581greater": 1533, "\u63a7\u5236": 1534, "\u5021\u8bae": 1535, "\u2581recommendation": 1536, "\u2581Agenda": 1537, "\u975e\u653f\u5e9c\u7ec4\u7ec7": 1538, "\u2581issued": 1539, "\u2581\u5728\u8fd9\u65b9\u9762": 1540, "\u2581H": 1541, "\u2581self": 1542, "\u4e1a\u52a1": 1543, "\u9002\u5f53": 1544, "\u2581Trade": 1545, "\u6765\u81ea": 1546, "\u975e\u5e38": 1547, "\u2581communication": 1548, "\u6b22\u8fce": 1549, "\u2581analysis": 1550, "\u2581principle": 1551, "\u2581wish": 1552, "\u5fc3": 1553, "to": 1554, "\u4e0b\u5217": 1555, "\u2581implemented": 1556, "\u2581age": 1557, "\u8c08\u5224": 1558, "\u2581ensuring": 1559, "\u9009\u62e9": 1560, "\u2581offices": 1561, "\u2581Bank": 1562, "\u2581Plan": 1563, "\u2581arrangements": 1564, "\u2581Review": 1565, "\u6211\u7684": 1566, "\u5f53\u5c40": 1567, "\u2581carried": 1568, "\u4fdd\u7559": 1569, "\u300b(": 1570, "\u2581T": 1571, "\u53ea": 1572, "\u957f\u671f": 1573, "\u2581having": 1574, "\u2581expected": 1575, "\u2581experts": 1576, "\u2581evaluation": 1577, "\u62e5\u6709": 1578, "1998": 1579, "\u2581equal": 1580, "\u2581Implementation": 1581, "T": 1582, "\u2581Kingdom": 1583, "\u2581potential": 1584, "\u2581undertaken": 1585, "\u2581line": 1586, "\u7efc\u5408": 1587, "\u2581Russian": 1588, "\u2581large": 1589, "\u6cd5\u5b98": 1590, "\u5145\u5206": 1591, "\u793e\u533a": 1592, "\u65b9": 1593, "\u2581foreign": 1594, "\u258115.": 1595, "\u2581text": 1596, "\u9075\u5b88": 1597, "\u2581UN": 1598, "\u2581protect": 1599, "\u8868": 1600, "en": 1601, "\u2581stated": 1602, "\u6ce8\u610f": 1603, "\u6c11\u4e3b": 1604, "\u7ed3\u679c": 1605, "\u2581goals": 1606, "\u2581Geneva": 1607, "\u2581His": 1608, "\u5185\u5bb9": 1609, "\u534f\u8bae": 1610, "\u2581contribute": 1611, "\u2581prepared": 1612, "\u2581affected": 1613, "\u2581guidelines": 1614, "\u5a01\u80c1": 1615, "\u2581basic": 1616, "\u2581Federation": 1617, "\u52a0": 1618, "\u72af\u7f6a": 1619, "\u2581Summit": 1620, "\u2581opportunities": 1621, "\u2581K": 1622, "\u258127": 1623, "\u2581until": 1624, "\u786e\u8ba4": 1625, "\u2581study": 1626, "\u6700\u8fd1": 1627, "\u2581Global": 1628, "\u901a\u77e5": 1629, "\u2581York": 1630, "\u6210\u5458\u56fd": 1631, "\u2581fundamental": 1632, "\u7684\u65b9\u5f0f": 1633, "\u7f3a\u4e4f": 1634, "\u2581financing": 1635, "\u2581making": 1636, "\u2581conduct": 1637, "\u53f7\u51b3\u5b9a": 1638, "\u2581months": 1639, "\u2581Israeli": 1640, "\u2581others": 1641, "\u5b58\u5728": 1642, "\u534f\u4f1a": 1643, "\u4e00\u6837": 1644, "\u2581proposal": 1645, "\u7684\u662f": 1646, "\u2581informed": 1647, "\u2581market": 1648, "\u2581far": 1649, "\u2581nature": 1650, "\u2581facilities": 1651, "\u258126": 1652, "H": 1653, "\u2581aspects": 1654, "\u4f86": 1655, "\u2581vote": 1656, "\u2581today": 1657, "\u2581fifty": 1658, "\u9636\u6bb5": 1659, "\u2581processes": 1660, "\u2581Management": 1661, "\u884c": 1662, "\u4e07\u7f8e\u5143": 1663, "\u2581building": 1664, "\u2581delegations": 1665, "\u751f": 1666, "\u6cd5\u5ead": 1667, "\u2581rural": 1668, "\u2581body": 1669, "\u4f01\u4e1a": 1670, "\u4e8b\u52a1": 1671, "\u2581Justice": 1672, "\u8fbe": 1673, "\u2581mechanism": 1674, "\u2581bring": 1675, "\u2581R": 1676, "\u9898\u4e3a": 1677, "\u2581exchange": 1678, "\u2581Cooperation": 1679, "\u2581money": 1680, "\u5ba3\u5e03": 1681, "\u5f00": 1682, "\u6848\u4ef6": 1683, "\u4e49\u52a1": 1684, "\u2581point": 1685, "\u2581climate": 1686, "\u8282": 1687, "\u66f4\u52a0": 1688, "\u258116.": 1689, "\u2581natural": 1690, "\u673a\u4f1a": 1691, "\u2581Forum": 1692, "\u2581independent": 1693, "\u2581limited": 1694, "\u2581individuals": 1695, "\u5c40": 1696, "\u2581During": 1697, "\u5404\u9879": 1698, "\u2581war": 1699, "\u7684\u7b2c": 1700, "AC": 1701, "\u6210": 1702, "\u2581manner": 1703, "\u5bfc\u81f4": 1704, "\u9002\u7528": 1705, "\u2581quality": 1706, "\u2581six": 1707, "\u2581\u4e00": 1708, "\u2581whole": 1709, "\u5ba3\u8a00": 1710, "\u2581recommends": 1711, "\u7b26\u5408": 1712, "\u5176\u4e2d\u5305\u62ec": 1713, "\u25811998": 1714, "\u4e00\u79cd": 1715, "\u2581evidence": 1716, "\u6761\u7b2c": 1717, "\u96be\u6c11": 1718, "\u2581\u8fd9\u662f": 1719, "\u5173\u7cfb": 1720, "\u2581leave": 1721, "\u5730\u65b9": 1722, "\u2581commitments": 1723, "\u2581Meeting": 1724, "AIDS": 1725, "\u2581currently": 1726, "\u2581opportunity": 1727, "\u72b6\u51b5": 1728, "\u91cd\u8981": 1729, "\u4e07": 1730, "\u2581thus": 1731, "\u2581negotiations": 1732, "\u2581always": 1733, "\u2581Now": 1734, "K": 1735, "\u2581authority": 1736, ".2": 1737, "\u2581Non": 1738, "\u2581often": 1739, "\u2581\u662f\u7684": 1740, "\u2581love": 1741, "\u4ece\u800c": 1742, "\u4f9b": 1743, "\u2581labour": 1744, "\u2581When": 1745, "\u827e\u6ecb\u75c5": 1746, "\u751f\u4ea7": 1747, "\u843d\u5b9e": 1748, "\u91cd\u65b0": 1749, "\u2581L": 1750, "\u4e00\u76f4": 1751, "\u5df4": 1752, "\u8d23\u4efb": 1753, "\u2581questions": 1754, "\u547c\u5401": 1755, "\u2581workers": 1756, "\u7ed9\u4e88": 1757, "\u2581play": 1758, "\u2581\u8be5": 1759, "\u2581Support": 1760, "\u2581act": 1761, "\u2581increasing": 1762, "\u2581benefits": 1763, "\u7684\u4efb\u4f55": 1764, "\u5e76\u5728": 1765, "\u2581effect": 1766, "\u91cd\u7533": 1767, "\u2581recognized": 1768, "\u6b7b": 1769, "\u529e\u4e8b\u5904": 1770, "k": 1771, "\u7f14\u7ea6\u65b9": 1772, "\u5b9e\u884c": 1773, "\u671f": 1774, "\u4e24\u4e2a": 1775, "\u5b9e\u9645": 1776, "\u2581contribution": 1777, "\u258129": 1778, "\u90e8\u961f": 1779, "\u67d0\u4e9b": 1780, "\u5e02\u573a": 1781, "\u2581concerns": 1782, "an": 1783, "\u2581transfer": 1784, "\u975e\u6cd5": 1785, "\u8fdd\u53cd": 1786, "\u6587\u5316": 1787, "\u72ec\u7acb": 1788, "\u2581officials": 1789, "\u2581Is": 1790, "\u2581functions": 1791, "\u2581alia": 1792, "\u6050\u6016\u4e3b\u4e49": 1793, "\u2581referred": 1794, "\u2581Congo": 1795, "\u2581entities": 1796, "\u2581\u597d": 1797, "\u5173\u6ce8": 1798, "\u2581submit": 1799, "\u2581forward": 1800, "\u258117.": 1801, "\u6216\u8005": 1802, "\u2581name": 1803, "\u7279\u522b\u62a5\u544a\u5458": 1804, "\u2581Crime": 1805, "\u2581remain": 1806, "\u5934": 1807, "\u2581close": 1808, "\u2581thing": 1809, "\u4fdd\u6301": 1810, "\u2581away": 1811, "\u2581\u4e3b\u5e2d": 1812, "\u2581young": 1813, "2011": 1814, "\u2581letter": 1815, "\u2581Agreement": 1816, "\u4eab\u6709": 1817, "\u2581crimes": 1818, "\u2581Under": 1819, "\u2581III": 1820, "\u2581below": 1821, "\u2581crisis": 1822, "\u91cd": 1823, "\u8aaa": 1824, "\u2581articles": 1825, "\u2581outcome": 1826, "\u79ef\u6781": 1827, "\u5458\u989d": 1828, "\u2581\u4ece": 1829, "\u2581People": 1830, "\u2581final": 1831, "\u2581Code": 1832, "\u6570": 1833, "\u258118.": 1834, "\u4e25\u91cd": 1835, "\u2581freedom": 1836, "\u2581presented": 1837, "\u8fdb\u5165": 1838, "\u2581multilateral": 1839, "\u2581Al": 1840, "\u8fd9\u662f": 1841, "\u2581connection": 1842, "\u2581cannot": 1843, "\u2581remains": 1844, "\u5e94\u5bf9": 1845, "\u8fbe\u5230": 1846, "\u2581integrated": 1847, "\u2581media": 1848, "\u2581\u901a\u8fc7": 1849, "\u2581refugees": 1850, "\u6210\u679c": 1851, "\u5b66\u6821": 1852, "\u5f53\u5730": 1853, "\u2581UNCTAD": 1854, "\u2581Some": 1855, "\u2581Sudan": 1856, "\u2581value": 1857, "\u610f\u89c1": 1858, "\u2581claims": 1859, "\u2581overall": 1860, "\u51fa\u73b0": 1861, "the": 1862, "\u65e8\u5728": 1863, "\u2581experience": 1864, "\u516c\u6c11": 1865, "\u7684\u4e3b\u8981": 1866, "\u2581informal": 1867, "\u25812011": 1868, "\u8fd8\u662f": 1869, "\u2581communications": 1870, "\u4e2d\u56fd": 1871, "\u5371\u673a": 1872, "\u57ce\u5e02": 1873, "\u2581Annex": 1874, "\u2581identified": 1875, "\u2581provisional": 1876, "\u2581\u4e3a\u4e86": 1877, "\u2581Please": 1878, "\u529b": 1879, "\u2581Are": 1880, "\u2581conducted": 1881, "\u4e0d\u4f1a": 1882, "\u884c\u52a8\u8ba1\u5212": 1883, "\u534f\u5546": 1884, "\u2581exercise": 1885, "\u9884\u9632": 1886, "\u2581reference": 1887, "\u8bae\u5b9a\u4e66": 1888, "\u7eb3": 1889, "\u7ed3\u675f": 1890, "\u8bc4\u4ef7": 1891, "\u4e24": 1892, "45": 1893, "\u5f53": 1894, "\u5982\u4e0b": 1895, "\u660e\u786e": 1896, "related": 1897, "\u2581purposes": 1898, "\u662f\u4e00\u4e2a": 1899, "\u2581sessions": 1900, "\u519b\u4e8b": 1901, "\u827e\u6ecb\u75c5\u6bd2": 1902, "\u201d.": 1903, "\u5c3d\u7ba1": 1904, "\u6703": 1905, "\u2581real": 1906, "\u2581Just": 1907, "\u2581Unit": 1908, "\u5de5\u5177": 1909, "\u4e00\u8d77": 1910, "\u2581court": 1911, "\u2581items": 1912, "\u624b\u6bb5": 1913, "\u800c\u8a00": 1914, "\u4ea7\u751f": 1915, "\u4ecb\u7ecd": 1916, "\u2581preparation": 1917, "\u6311\u6218": 1918, "\u2581participate": 1919, "\u7684\u6cd5\u5f8b": 1920, "\u2581infrastructure": 1921, "\u5168\u56fd": 1922, "\u2581Regional": 1923, "\u2581paragraphs": 1924, "\u2581changes": 1925, "\u6761\u6b3e": 1926, "\u4ece\u4e8b": 1927, "\u2581pay": 1928, "\u652f\u4ed8": 1929, "\u2581conference": 1930, "\u90fd\u662f": 1931, "\u4e00\u6b21": 1932, "\u2581territory": 1933, "60": 1934, "\u8be5\u56fd": 1935, "\u2581death": 1936, "\u7684\u91cd\u8981\u6027": 1937, "\u258119.": 1938, "\u2581\u867d\u7136": 1939, "2012": 1940, "\u2581substantive": 1941, "st": 1942, "\u2581drug": 1943, "\u2581institutional": 1944, "\u2581enforcement": 1945, "\u2581governance": 1946, "\u56db": 1947, "\u751f\u6d3b": 1948, "\u2581Europe": 1949, "\u2581\u5c3d\u7ba1": 1950, "\u4e5f\u662f": 1951, "\u2581compliance": 1952, "\u624d": 1953, "\u6b64\u7c7b": 1954, "\u2581officers": 1955, "\u2581power": 1956, "\u5360": 1957, ".\"": 1958, "\u505a\u6cd5": 1959, "\u51c6\u5219": 1960, "\u6027\u522b": 1961, "\u2581few": 1962, "\u2581N": 1963, "\u51c6\u5907": 1964, "\u5c06\u5728": 1965, "\u2581views": 1966, "\u2581mind": 1967, "\u73b0\u6709": 1968, "\u2581primary": 1969, "\u7684\u52aa\u529b": 1970, "\u7684\u76ee\u6807": 1971, "\u2581ongoing": 1972, "\u8054\u76df": 1973, "\u5f00\u53d1": 1974, "\u6253\u51fb": 1975, "\u2581Protection": 1976, "\u2581achieved": 1977, "\u5e74\u5ea6": 1978, "\u603b\u7edf": 1979, "\u5c31\u4e1a": 1980, "\u2581Section": 1981, "\u2581return": 1982, "\u56fd\u5185": 1983, "\u2581UNICEF": 1984, "\u6b66\u5668": 1985, "\u4ee5\u6765": 1986, "\u2581okay": 1987, "35": 1988, "\u2581direct": 1989, "\u2581\u5927\u4f1a": 1990, "\u5141\u8bb8": 1991, "\u52a0\u4ee5": 1992, "\u2581Public": 1993, "\u2581internal": 1994, "\u8bc1\u660e": 1995, "\u2581resource": 1996, "\u2581safety": 1997, "\u4e88\u4ee5": 1998, "\u2581Institute": 1999, "\u5217\u5165": 2000, "\u2581state": 2001, "\u2581enable": 2002, "\u5bf9\u8bdd": 2003, "\u2581Recalling": 2004, "\u5747": 2005, "\u7684\u884c\u4e3a": 2006, "\u4ecd": 2007, "\u2581Japan": 2008, "\u2581proceedings": 2009, "\u2581judicial": 2010, "\u6539\u53d8": 2011, "\u6838": 2012, "\u2581detention": 2013, "\u2581indicated": 2014, "\u2581Health": 2015, "\u2581effectively": 2016, "\u5c0a\u91cd": 2017, "year": 2018, "\u258120.": 2019, "\u957f": 2020, "\u683c": 2021, "\u2581integration": 2022, "\u2581former": 2023, "\u2581medical": 2024, "\u2581low": 2025, "\u2581See": 2026, "\u2581O": 2027, "\u2581combat": 2028, "\u2581less": 2029, "\u2581expert": 2030, "\u2581keep": 2031, "\u2581positive": 2032, "\u91cf": 2033, "\u25812012": 2034, "\u7ba1\u5236": 2035, "org": 2036, "\u8bb0\u5f55": 2037, "\u6587": 2038, "\u7ef4\u6301": 2039, "\u91c7\u53d6\u884c\u52a8": 2040, "\u2581regions": 2041, "\u9644\u4ef6": 2042, "\u2581Agency": 2043, "\u2581situations": 2044, "\u2581Not": 2045, "\u7684\u4f5c\u7528": 2046, "\u6b63\u5f0f": 2047, "\u2581reduce": 2048, "\u4e8b\u4ef6": 2049, "\u62df\u8ba2": 2050, "\u2581objective": 2051, "\u2581lead": 2052, "\u4e4b\u4e00": 2053, "\u4ebf\u7f8e\u5143": 2054, "\u65e5\u672c": 2055, "\u5927\u5b66": 2056, "\u2581things": 2057, "\u804c\u80fd": 2058, "\u2581Political": 2059, "\u53f8": 2060, "\u8bae\u4f1a": 2061, "\u2581{\\": 2062, "\u6b21\u4f1a\u8bae": 2063, "\u2581share": 2064, "\u2581Afghanistan": 2065, "\u2581met": 2066, "\u258150": 2067, "\u56e0\u7d20": 2068, "\u5185\u90e8": 2069, "\u2581kind": 2070, "\u4e3a\u4e86": 2071, "\u95f4": 2072, "\u6cd5\u56fd": 2073, "\u8fd9\u6837": 2074, "\u2581Since": 2075, "\u258121.": 2076, "\u81ea\u5df1\u7684": 2077, "\u884c\u653f": 2078, "\u2581sorry": 2079, "\u53d1\u73b0": 2080, "\u53ea\u6709": 2081, "\u2581circumstances": 2082, "\u2581un": 2083, "\u2581material": 2084, "\u2581initiative": 2085, "\u9752\u5e74": 2086, "\u2581economy": 2087, "\u8fdb\u5c55": 2088, "\u2581administration": 2089, "\u2581revised": 2090, "\u2581hours": 2091, "\u2581Who": 2092, "\u4ee5\u786e\u4fdd": 2093, "\u5b9e\u4f53": 2094, "\u2581b": 2095, "\u6388\u6743": 2096, "\u2581ever": 2097, "\u2581improving": 2098, "N": 2099, "\u98ce\u9669": 2100, "\u2581once": 2101, "\u2581centres": 2102, "\u7edf\u8ba1": 2103, "\u7684\u8d44\u6599": 2104, "\u2581assets": 2105, "\u2581families": 2106, "\u2581higher": 2107, "\u6750\u6599": 2108, "\u8054\u7cfb": 2109, "\u2581hope": 2110, "\u2581active": 2111, "\u2581using": 2112, "\u4f19\u4f34": 2113, "\u57fa\u672c": 2114, "\u767b\u8bb0": 2115, "\u89c4\u5212": 2116, "\u4f19\u4f34\u5173\u7cfb": 2117, "\u2581Children": 2118, "\u76f8\u5173\u7684": 2119, "\u2581Also": 2120, "\u4e9a": 2121, "\u2581effects": 2122, "\u2581effort": 2123, "\u2581critical": 2124, "\u2581allow": 2125, "\u2581benefit": 2126, "\u7684\u4fe1\u606f": 2127, "\u8c03\u6574": 2128, "\u2581thought": 2129, "\u2581left": 2130, "\u6b27\u6d32": 2131, "\u7ec4": 2132, "\u2581Canada": 2133, "\u603b": 2134, "\u62c5\u4efb": 2135, "\u2581discussions": 2136, "\u9700\u6c42": 2137, "\u8fd0\u52a8": 2138, "\u7ea6": 2139, "\u53d7\u5bb3\u8005": 2140, "\u2581brought": 2141, "\u2581participants": 2142, "\u6700\u4e0d\u53d1\u8fbe\u56fd\u5bb6": 2143, "\\": 2144, "\u7684\u5176\u4ed6": 2145, "p": 2146, "\u2581throughout": 2147, "\u66fe": 2148, "\u65e5\u5728": 2149, "\u4e34\u65f6": 2150, "\u2581welcomed": 2151, "\u5973": 2152, "\u2581First": 2153, "\u2581Services": 2154, "\u7684\u51b3\u5b9a": 2155, "\u6307\u6807": 2156, ".6": 2157, "\u2581calls": 2158, "\u2581Constitution": 2159, "\u8bbe\u65bd": 2160, "\u2581\u4e0d\u8fc7": 2161, "\u9762": 2162, "\u6700\u540e": 2163, "\u2581\u6700\u540e": 2164, "\u52a0\u62ff\u5927": 2165, "\u53cd\u5bf9": 2166, "\u2581civilian": 2167, "\u2581elements": 2168, "\u2581Such": 2169, "\u2581prior": 2170, "\u2581indicators": 2171, "\u6301\u7eed": 2172, "\u2581priorities": 2173, "\u8f66": 2174, "\u2581guidance": 2175, "\u2581itself": 2176, "\u6b8b\u75be\u4eba": 2177, "\u2581Goals": 2178, "\u2581stakeholders": 2179, "\u2581night": 2180, "\u2581please": 2181, "\u4e24\u5e74\u671f": 2182, "\u2581effectiveness": 2183, "\u8003\u8651\u5230": 2184, "\u592a": 2185, "\u91d1": 2186, "\u2581Environment": 2187, "\u6b21\u4f1a\u8bae\u4e0a": 2188, "\u2581live": 2189, "\u2581Force": 2190, "\u5c81": 2191, "\u2581ways": 2192, "\u8303\u56f4": 2193, "\u57fa": 2194, "\u8bbf\u95ee": 2195, "\u5c5e\u4e8e": 2196, "\u2581debt": 2197, "\u2581sure": 2198, "\u2581Can": 2199, "\u589e\u957f": 2200, "\u2581torture": 2201, "\u7684\u8981\u6c42": 2202, "\u2581\u73b0\u5728": 2203, "\u5065\u5eb7": 2204, "ation": 2205, "\u66b4\u529b": 2206, "\u2581term": 2207, "\u2581sources": 2208, "\u2581Caribbean": 2209, "\u2581\u54e6": 2210, "\u4e00\u5207": 2211, "\u258122.": 2212, "as": 2213, "\u5c1a\u672a": 2214, "\u89e3\u91ca": 2215, "\u2581sectors": 2216, "\u8bae\u7a0b\u9879\u76ee": 2217, "\u2581Countries": 2218, "\u2581team": 2219, "\u2581Good": 2220, "\u258140": 2221, "\u5854": 2222, "ers": 2223, "\u2581achieving": 2224, "\u63d0\u8bae": 2225, "\u7533\u8bf7": 2226, "\u2581outside": 2227, "\u91cd\u5927": 2228, "man": 2229, "\u7a7a\u95f4": 2230, "\u7684\u610f\u89c1": 2231, "\u2581whose": 2232, "\u2581poor": 2233, "\u2581anything": 2234, "\u25812005,": 2235, "\u2581strong": 2236, "\u6ee1\u8db3": 2237, "\u2581debate": 2238, "\u2581\u597d\u5427": 2239, "\u2581regulations": 2240, "\u2581collaboration": 2241, "\u666e\u904d": 2242, "\u2581terrorist": 2243, "\u2581\u6211\u60f3": 2244, "\u519c\u4e1a": 2245, "\u2581require": 2246, "\u2581hand": 2247, "\u2581Peace": 2248, "\u63d0\u4ea4\u4eba": 2249, "\u2581Get": 2250, "responsibilities": 2251, "\u6848": 2252, "\u2581abuse": 2253, "V": 2254, "\u51fa\u53e3": 2255, "\u2581Go": 2256, ".5": 2257, "\u2581face": 2258, "\u2581Party": 2259, "\u51b3\u8bae\u8349\u6848": 2260, "`": 2261, "\u2581legislative": 2262, "\u7387": 2263, "\u2581\u4f60\u4eec": 2264, "\u2581comments": 2265, "\u2581transport": 2266, "\u2581disabilities": 2267, "\u2581claim": 2268, "\u9002\u5f53\u7684": 2269, "\u2581table": 2270, "\u2581rates": 2271, "\u56f0\u96be": 2272, "\u7f57": 2273, "\u7684\u673a\u4f1a": 2274, "\u7f16\u5236": 2275, "\u6761\u4f8b": 2276, "\u2581Requests": 2277, "\u2581Look": 2278, "\u2581Korea": 2279, "\u56fd\u9645\u6cd5": 2280, "\u2581addressing": 2281, "\u6784\u6210": 2282, "O": 2283, "\u2581appreciation": 2284, "\u2581old": 2285, "\u2581Your": 2286, "\u2581range": 2287, "80": 2288, "\u4e0d\u65ad": 2289, "\u258123.": 2290, "70": 2291, "\u4e8b\u9879": 2292, "\u2581twenty": 2293, "\u2581technologies": 2294, "\u7ed3\u6784": 2295, "\u2581invited": 2296, "\u662f\u5728": 2297, "\u94f6\u884c": 2298, "\u6d77": 2299, "\u2581developments": 2300, "\u2581introduced": 2301, "\u63d0\u51fa\u4e86": 2302, "\u2581continues": 2303, "\u627e\u5230": 2304, "\u2581Foreign": 2305, "\u25812006,": 2306, "\u91c7\u8d2d": 2307, "\u4e00\u4efd": 2308, "\u673a": 2309, "le": 2310, "\u2581deal": 2311, "\u518d\u6b21": 2312, ".3": 2313, "\u2581scope": 2314, "\u5e73\u7b49": 2315, "\u2581operation": 2316, "\u95ee\u9898\u7684": 2317, "\u5c40\u52bf": 2318, "\u5168": 2319, "\u4ed6\u7684": 2320, "\u2581obligation": 2321, "\u2581either": 2322, "\u2581interests": 2323, ".4": 2324, "\u2581themselves": 2325, "\u7684\u5408\u4f5c": 2326, "\u4eba\u4eec": 2327, "\u2581seen": 2328, "\u8fc5\u901f": 2329, "\u2581India": 2330, "\u5e03": 2331, "\u6536\u5230": 2332, "\u8bae\u7a0b": 2333, "\u2581estimated": 2334, "\u2581elections": 2335, "\u2581sixty": 2336, "\u2581fight": 2337, "\u2581told": 2338, "\u4e00\u540d": 2339, "\u6b64": 2340, "\u2581extent": 2341, "\u2581continuing": 2342, "\u963f\u5bcc\u6c57": 2343, "\u5728\u5185\u7684": 2344, "\u8fd0\u8f93": 2345, "\u2581travel": 2346, "\u2581co": 2347, "\u2581soon": 2348, "\u2581vulnerable": 2349, "\u8ba4\u8bc6\u5230": 2350, "\u7684\u4ee3\u8868": 2351, "\u2581activity": 2352, "\u4e66": 2353, "\u2581later": 2354, "\u663e\u793a": 2355, "\u2581Civil": 2356, "\u2581Discrimination": 2357, "\u2581coming": 2358, "\u5b89": 2359, "\u2581peaceful": 2360, "\u8865\u5145": 2361, "\u5fb7\u56fd": 2362, "\u4eba\u6570": 2363, "\u25812002,": 2364, "\u4fdd\u5065": 2365, "\u2581Sustainable": 2366, "\u2581delivery": 2367, "\u258124.": 2368, "\u2581associated": 2369, "\u90e8\u7f72": 2370, "\u2581universal": 2371, "\u2581specialized": 2372, "\u79fb\u6c11": 2373, "\u652f\u51fa": 2374, "37": 2375, "able": 2376, "\u2581materials": 2377, "\u51b3\u8bae": 2378, "\u6ca1": 2379, "3.": 2380, "\u2581threat": 2381, "\u4e0d\u5f97": 2382, "\u5370\u5ea6": 2383, "\u76f8": 2384, "\u8d39": 2385, "\u2581asked": 2386, "\u4e00\u4e0b": 2387, "\u2581goods": 2388, "\u2581voluntary": 2389, "\u2581Headquarters": 2390, "\u6b64\u79cd": 2391, "\u4e94": 2392, "\u53cd": 2393, "\u266a": 2394, "\u5355\u4f4d": 2395, "\u2581\u8981": 2396, "\u5b66": 2397, "\u2581according": 2398, "\u2581relation": 2399, "\u2581transition": 2400, "\u7684\u65f6\u5019": 2401, "\u2581includes": 2402, "\u2581France": 2403, "\u8d44\u4ea7": 2404, "\u6b67\u89c6": 2405, "\u2581sub": 2406, "\u2581\u4f8b\u5982": 2407, "\u2581periodic": 2408, "\u25812003,": 2409, "\u571f\u5730": 2410, "\u2581Administrative": 2411, "Rev": 2412, "2013": 2413, "\u5973\u6027": 2414, "\u5df4\u52d2\u65af\u5766": 2415, "77": 2416, "\u25812,": 2417, "\u2581By": 2418, "\u2581Disarmament": 2419, "\u2581identify": 2420, "\u25812004,": 2421, "\u9019": 2422, "\u5374": 2423, "\u2581According": 2424, "\u4f4e": 2425, "\u2581Draft": 2426, "\u25811,": 2427, "\u2581plenary": 2428, "\u2581create": 2429, "\u8fd9\u7c7b": 2430, "\u25812007,": 2431, "\u2581Child": 2432, "\u6bcf\u5e74": 2433, "\u5728\u8fd9\u65b9\u9762": 2434, ".7": 2435, "\u2581capital": 2436, "\u4ea4\u6d41": 2437, "\u2581encourage": 2438, "\u2581apply": 2439, "\u2581treaties": 2440, "\u6709\u52a9\u4e8e": 2441, "\u6c34\u5e73": 2442, "\u2581Second": 2443, "\u7a0b\u5ea6": 2444, "\u2581rather": 2445, "\u2581show": 2446, "\u2581THE": 2447, "\u76d1\u7763": 2448, "\u2581Joint": 2449, "\u2581\u4ec0\u4e48": 2450, "\u2581schools": 2451, "\u79d1\u5b66": 2452, "\u258125.": 2453, "\u2581hold": 2454, "39": 2455, "\u5b9a\u671f": 2456, "\u5bfb\u6c42": 2457, "\u2581methods": 2458, "36": 2459, "j": 2460, "\u2581talk": 2461, "\u2581won": 2462, "\u4e00\u822c": 2463, "\u2581Education": 2464, "\u2581e": 2465, "\u2581maintenance": 2466, "\u2581Pacific": 2467, "33": 2468, "\u4eca\u540e": 2469, "\u6574\u4e2a": 2470, "\u4fee\u6539": 2471, "\u2581\u6211\u8981": 2472, "\u4ee5\u82f1\u8bed\u53d1\u8a00": 2473, "\u2581contract": 2474, "\u4eec": 2475, "\u2581partnership": 2476, "\u68ee\u6797": 2477, "\u8d22\u4ea7": 2478, "\u7ecf\u5e38": 2479, "\u672c\u56fd": 2480, "90": 2481, "\u5371\u9669": 2482, "\u5927\u4f1a\u7b2c": 2483, "\u50cf": 2484, "\u25812008,": 2485, "\u2581Great": 2486, "\u25811997": 2487, "\u4ed6\u5011": 2488, "\u2581adopt": 2489, "at": 2490, "\u4fee\u8ba2": 2491, "\u2581establishing": 2492, "\u2581difficult": 2493, "\u74e6": 2494, "\u2581violation": 2495, "\u53ef\u6301\u7eed\u53d1\u5c55": 2496, "\u96c6\u56e2": 2497, "\u2581paid": 2498, "\u2581displaced": 2499, "\u2581understand": 2500, "\u2581supporting": 2501, "\u522b": 2502, "\u7ecf\u8d39": 2503, "\u2581stability": 2504, "\u8fc7\u7a0b\u4e2d": 2505, "\u56de": 2506, "\u5feb": 2507, "\u8bbe\u5907": 2508, "\u2581events": 2509, "\u2581destruction": 2510, "\u25812013": 2511, "\u7edf\u4e00": 2512, "\u2581aid": 2513, "\u505a\u51fa": 2514, "\u8054\u90a6": 2515, "making": 2516, "\u7269": 2517, "\u2581UNHCR": 2518, "\u2581Room": 2519, "\u2581100": 2520, "\u8428": 2521, "\u2581relations": 2522, "\u6210\u529f": 2523, "\u2581Cuba": 2524, "\u5b98\u5458": 2525, "\u76ee\u7684": 2526, "\u2581Furthermore": 2527, "\u2581anti": 2528, "\u4eba\u7c7b": 2529, "\u2581move": 2530, "\u53ea\u662f": 2531, "\u4f0a": 2532, "\u4efb\u62e9\u8bae\u5b9a\u4e66": 2533, "\u2581job": 2534, "\u2581nothing": 2535, "\u258126.": 2536, "0": 2537, "\u7684\u63aa\u65bd": 2538, "\u7684\u65b0": 2539, "\u2581build": 2540, "\u8fd9\u9879": 2541, "48": 2542, "\u2581Prevention": 2543, "\u2581encouraged": 2544, "\u68c0\u67e5": 2545, "\u25812001,": 2546, "\u2581Thank": 2547, "\u5e26": 2548, "\u4ed6\u4eec\u7684": 2549, "1997": 2550, "\u80fd\u6e90": 2551, "\u7684\u8d23\u4efb": 2552, "\u5a92\u4f53": 2553, "\u8001": 2554, "\u80a1": 2555, "\u2581follows": 2556, "\u25812000,": 2557, "\u2581opinion": 2558, "\u2581American": 2559, "\u2581balance": 2560, "\u589e\u5f3a": 2561, "\u906d\u53d7": 2562, "55": 2563, "\u2581applicable": 2564, "\u2581came": 2565, "\u2581heard": 2566, "\u2581directly": 2567, "\u2581sent": 2568, "\u2581Mexico": 2569, "\u2581Latin": 2570, "\u2581consensus": 2571, "\u536b\u751f": 2572, "\u2581improved": 2573, "\u2581Iran": 2574, "\u7f16\u5199": 2575, "\u2581fund": 2576, "el": 2577, "\u2581jurisdiction": 2578, "\u2581consultation": 2579, "\u58a8\u897f\u54e5": 2580, "\u2581Persons": 2581, "\u5730\u4f4d": 2582, "\u8054\u5408\u56fd\u7cfb\u7edf": 2583, "\u2581compensation": 2584, "\u624d\u80fd": 2585, "\u4f4f": 2586, "\u7684\u4e00\u90e8\u5206": 2587, "\u2581similar": 2588, "\u81f4\u529b\u4e8e": 2589, "\u2581creation": 2590, "\u2581J": 2591, "\u635f\u5931": 2592, "\u2581applied": 2593, "\u2581emergency": 2594, "\u2581start": 2595, "\u201d\u3002": 2596, "\u7c73": 2597, "\u5165": 2598, "\u6709\u6743": 2599, "\u2581actors": 2600, "\u8fdb\u884c\u7684": 2601, "\u2581\u8bae\u7a0b\u9879\u76ee": 2602, "\u627f\u62c5": 2603, "\u2581\u522b": 2604, "\u63d0\u5230": 2605, "\u2581hear": 2606, "\u9886\u571f": 2607, "2.": 2608, "\u5de5\u4f5c\u7684": 2609, "\u8054": 2610, "\u5404\u65b9": 2611, "32": 2612, "\u4efd": 2613, "J": 2614, "\u2581\u9019": 2615, "\u2581complete": 2616, "\u2581investigation": 2617, "\u2581conferences": 2618, "\u2581achievement": 2619, "\u2581positions": 2620, "\u6d3e": 2621, "\u258127.": 2622, "\u2581Right": 2623, "\u2581UNEP": 2624, "\ue019": 2625, "\u6709\u5fc5\u8981": 2626, "\u5458": 2627, "R": 2628, "34": 2629, "\u516c": 2630, "\u2581paper": 2631, "\u2581Optional": 2632, "\u603b\u90e8": 2633, "\u5bf9\u5176": 2634, "\u5403": 2635, "\u82e5\u5e72": 2636, "\u8fea": 2637, "\u8ddf": 2638, "\u4efb\u547d": 2639, "\u7acb\u5373": 2640, "\u7684\u884c\u52a8": 2641, "\u7535\u8bdd": 2642, "\u79f0": 2643, "\u7684\u4efb\u52a1": 2644, "\u539f\u56e0": 2645, "\u2581regime": 2646, "\u2581\u4e8c": 2647, "\u2581Islamic": 2648, "\u66f4\u591a": 2649, "\u2581receive": 2650, "\u611f\u8c22": 2651, "\u2581physical": 2652, "\u2581central": 2653, "\u6069": 2654, "\u2581language": 2655, "\u2581distribution": 2656, "\u7f14\u7ea6\u65b9\u4f1a\u8bae": 2657, ".8": 2658, "\u7684\u7ed3\u679c": 2659, "\u53e4\u5df4": 2660, "\u2581Syrian": 2661, "\u2581Table": 2662, "\u516c\u5171": 2663, "\u2581religious": 2664, "ity": 2665, "\u2581Of": 2666, "CP": 2667, "\u2581respective": 2668, "\u5e74\u671f\u95f4": 2669, "\u5343\u5e74\u53d1\u5c55\u76ee\u6807": 2670, "\u6a21\u5f0f": 2671, "\u2581\u6211\u662f": 2672, "\u800c\u4e0d\u662f": 2673, "\u2581air": 2674, "49": 2675, "\u4e3e\u63aa": 2676, "\u2581reached": 2677, "\u6765\u8bf4": 2678, "\u25811990": 2679, "\u2581led": 2680, "\u4ef7\u503c": 2681, "\u2581illicit": 2682, "\u2581practical": 2683, "\u4f4d": 2684, "\u2581times": 2685, "\u2581loss": 2686, "\u2581products": 2687, "\u2581Kosovo": 2688, "\u2581citizens": 2689, "\u2581Elimination": 2690, "6.": 2691, "38": 2692, "\u5171\u548c\u56fd": 2693, "\u5f62\u5f0f": 2694, "\u2581concluded": 2695, "1.": 2696, "\u2581points": 2697, "\u9053": 2698, "\u2581across": 2699, "\u5dde": 2700, "\u53f7\u51b3\u8bae\u7b2c": 2701, "\u8bc1\u636e": 2702, "\u2581partnerships": 2703, "\u2581implications": 2704, "\u2581economies": 2705, "\u2581housing": 2706, "\u2581\u6240\u4ee5": 2707, "\u4eca\u5929": 2708, "\u2581feel": 2709, "\u258128.": 2710, "\u7684\u505a\u6cd5": 2711, "\u53e3": 2712, "\u7684\u8bdd": 2713, "ro": 2714, "47": 2715, "\u2581conflicts": 2716, "\u2581Lebanon": 2717, "\u6218\u4e89": 2718, "\u884c\u4f7f": 2719, "\u2581permanent": 2720, "\u2581bilateral": 2721, "\u56e2\u4f53": 2722, "\u2581Germany": 2723, "\u57fa\u7840\u8bbe\u65bd": 2724, "ar": 2725, "\u2581structure": 2726, "\u2581courts": 2727, "\u4e13\u95e8": 2728, "\u58f0\u660e": 2729, "\u7d22\u8d54": 2730, "\u7834\u574f": 2731, "\u2581c": 2732, "\u5404\u56fd\u653f\u5e9c": 2733, "\u2581youth": 2734, "\u4ee5\u524d": 2735, "\u5148": 2736, "\u2581West": 2737, "\u2581seek": 2738, "\u2581carry": 2739, "\u5de5\u4e1a": 2740, "\u2581\u563f": 2741, "\u5357": 2742, "\u79bb\u5f00": 2743, "\u5f8b\u5e08": 2744, "\u2581factors": 2745, "\u2581Coordination": 2746, "\u2581standard": 2747, "us": 2748, "\u2581Vienna": 2749, "\u2581words": 2750, "\u2581consistent": 2751, "\u2581core": 2752, "\u2581reflected": 2753, "\u8f6c\u8ba9": 2754, "\u2581ground": 2755, "\u57fa\u4e8e": 2756, "\u2581judges": 2757, "\u7ecf\u6d4e\u53ca\u793e\u4f1a\u7406\u4e8b\u4f1a": 2758, "1996": 2759, "\u2581accountability": 2760, "\u8eab": 2761, "\u2581Middle": 2762, "-3": 2763, "\u2581half": 2764, "\u2581pre": 2765, "\u4e14": 2766, "\u2581leaders": 2767, "\u2581Ireland": 2768, "\u2581illegal": 2769, "\u2581signed": 2770, "\u2581Territory": 2771, "\u2581enough": 2772, "\u2581procurement": 2773, "\u5ba1\u8ba1": 2774, "\u2581completed": 2775, "\u2581Administration": 2776, "\u2581\u8fd8": 2777, "\u2581dollars": 2778, "\u9ece\u5df4\u5ae9": 2779, "first": 2780, "\u2581initial": 2781, "\u6258": 2782, "\u88c1\u519b": 2783, "\u2581settlement": 2784, "\u2581states": 2785, "\u8303\u56f4\u5185": 2786, "\u4fe1": 2787, "\u6240\u6d89": 2788, "\u2581raised": 2789, "\u2581submission": 2790, "\u2581girl": 2791, "\u2581serve": 2792, "\u2581house": 2793, "\u60c5\u51b5\u4e0b": 2794, "\u7684\u653f\u7b56": 2795, "\u7d22\u9a6c\u91cc": 2796, "\u2581head": 2797, "\u2581\u81ea": 2798, "\u907f\u514d": 2799, "\u8d85\u8fc7": 2800, "\u2581parts": 2801, "\u53eb": 2802, "\u2581reasons": 2803, "\u2581\u8fd9\u4e00": 2804, "46": 2805, "-4": 2806, "it": 2807, "\u4f4f\u623f": 2808, "\u9875": 2809, "\u5b97\u6559": 2810, "\u2581efficiency": 2811, "\u258129.": 2812, "\u2581French": 2813, "\u63d0": 2814, "\u6709\u6548\u7684": 2815, "\u2581Nuclear": 2816, "\u2581requires": 2817, "\u4ea7\u54c1": 2818, "\u6700\u7ec8": 2819, "\u4f1a\u8bae\u5ba4": 2820, "\u867d\u7136": 2821, "\u5171": 2822, "\u25811995": 2823, "\u901a": 2824, "\u8d38\u53d1\u4f1a\u8bae": 2825, "\u8d54\u507f": 2826, "\u2581step": 2827, "\u2581thank": 2828, "\u6587\u4e66": 2829, "\u2581majority": 2830, "\u2581beyond": 2831, "\u76d1\u72f1": 2832, "\u7684\u53d1\u5c55": 2833, "ii": 2834, "\u2581OF": 2835, "\u7a33\u5b9a": 2836, "\u77e5\u8bc6": 2837, "\u65e5\u548c": 2838, "\u2581record": 2839, "\u6c14\u5019\u53d8\u5316": 2840, "\u2581Guinea": 2841, "\u2581created": 2842, "\u67e5\u660e": 2843, "\u2581detailed": 2844, "\u6d77\u6d0b": 2845, "\u2581successful": 2846, "\u7d27\u6025": 2847, "\u2581room": 2848, "\u2581short": 2849, "\u7701": 2850, "\u2581leadership": 2851, "\u2581approaches": 2852, "\u2581exploitation": 2853, "\u5982\u6b64": 2854, "\u2581along": 2855, "\u5149": 2856, "\u4e3b": 2857, "The": 2858, "\u4eba\u9053\u4e3b\u4e49": 2859, "\u6838\u51c6": 2860, "\u8fd8\u6709": 2861, "\u2581challenge": 2862, "\u2581capacities": 2863, "\u2581\u9274\u4e8e": 2864, "\u53ca\u65f6": 2865, "\u548c\u7b2c": 2866, "\u2581maintain": 2867, "\u2581instrument": 2868, "\u989d": 2869, "\u2581covered": 2870, "\u2581IV": 2871, "\u258130.": 2872, "\u4fb5\u72af": 2873, "9.": 2874, "\u2581Inter": 2875, "5.": 2876, "\u2581sufficient": 2877, "\u5ba3\u4f20": 2878, "\u90a3\u4e48": 2879, "\u7ebf": 2880, "\u2581\u6ca1\u6709": 2881, "\u7814\u8ba8\u4f1a": 2882, "\u2581subregional": 2883, "\u4fc4\u7f57\u65af\u8054\u90a6": 2884, "\u7ef4\u62a4": 2885, "\u2581\u6ce8\u610f\u5230": 2886, "\u2581stop": 2887, "SR": 2888, "\u2581Re": 2889, "\u7b2c\u4e8c": 2890, "\u2581goal": 2891, "\u6bcf\u4e2a": 2892, "\u7231": 2893, "\u2581Note": 2894, "\u56fe": 2895, "\u5206\u914d": 2896, "\u2581civilians": 2897, "\u7684\u9879\u76ee": 2898, "\u2581trust": 2899, "\u8fc7\u53bb": 2900, "\u5b66\u4e60": 2901, "\u2581educational": 2902, "\u8d77\u6765": 2903, "\u5e02": 2904, "\u96f7": 2905, "\u8fd9\u6837\u505a": 2906, "\u2581side": 2907, "\u2581event": 2908, "\u2581\u8868": 2909, "\u2581presence": 2910, "\u2581temporary": 2911, "\u505c\u6b62": 2912, "\u5b69\u5b50": 2913, ":(": 2914, "\u2581welcome": 2915, "\u2581sanctions": 2916, "\u6bcf": 2917, "\u2581supply": 2918, "\u2581woman": 2919, "\u2581cover": 2920, "\u7f51": 2921, "\u7f8e": 2922, "\u2581remained": 2923, "\u672c\u7ec4\u7ec7": 2924, "\u5e7f\u6cdb": 2925, "U": 2926, "\u4e0d\u4ec5": 2927, "\u2581advice": 2928, "\u8d2b\u7a77": 2929, "\u2581Legal": 2930, "\u2581consequences": 2931, "\u2581Then": 2932, "ul": 2933, "\u2581disaster": 2934, "\u2581discussed": 2935, "\u2581expenditure": 2936, "\u6b7b\u4ea1": 2937, "\u2581Brazil": 2938, "\u5979\u4eec": 2939, "\u901a\u5e38": 2940, "\u7ad9": 2941, "\u8054\u5408\u56fd\u5baa\u7ae0": 2942, "\u5efa\u7acb\u4e00\u4e2a": 2943, "\u6838\u6b66\u5668": 2944, "\u54c8": 2945, "\u2581safe": 2946, "8.": 2947, "\u2581Chief": 2948, "ir": 2949, "\u2581external": 2950, "\u2581Australia": 2951, "\u7279\u522b\u662f\u5728": 2952, "\u6fb3\u5927\u5229\u4e9a": 2953, "\u2581female": 2954, "\u2581guy": 2955, ".9": 2956, "\u53cc\u65b9": 2957, "1990": 2958, "\u2581\u4e09": 2959, "\u2581ethnic": 2960, "\u2581\u5982": 2961, "\u2581task": 2962, "\u8def": 2963, "\u5df4\u897f": 2964, "\u8bb2\u4e60\u73ed": 2965, "\u4f60\u5011": 2966, "\u6b27\u6d32\u8054\u76df": 2967, "and": 2968, "\u5fc5\u8981\u7684": 2969, "\u2581\u9879\u76ee": 2970, "\u2581Although": 2971, "\u627e": 2972, "\u6307\u5bfc": 2973, "\u987e\u95ee": 2974, "\u751f\u6548": 2975, "\u2581Community": 2976, "\u7ba1": 2977, "\u2581Those": 2978, "\u2581resulting": 2979, "\u2581suggested": 2980, "\u2581urban": 2981, "\u5546\u4e1a": 2982, "\u4e0d\u8981": 2983, "\u2581Item": 2984, "\u53d8\u5316": 2985, "\u81f3\u5c11": 2986, "\u770b\u5230": 2987, "\u2581Operations": 2988, "\u2581recovery": 2989, "\u2581counter": 2990, "\u8457": 2991, "\u81f3\u5173\u91cd\u8981": 2992, "\u258131.": 2993, "\u2581read": 2994, "\u9002\u7528\u4e8e": 2995, "\u2581single": 2996, "\u2581mandates": 2997, "\u6cbb\u7597": 2998, "\u8d22\u52a1": 2999, "\u2581observations": 3000, "\u7fa4\u4f53": 3001, "\u2581demand": 3002, "\u2581monitor": 3003, "\u2581clearly": 3004, "ri": 3005, "1995": 3006, "\u4e0d\u5e94": 3007, "\u2581although": 3008, "\u56fd\u9645\u7ec4\u7ec7": 3009, "\u82cf\u4e39": 3010, "\u59c6": 3011, "\u7814\u7a76\u6240": 3012, "\u516d": 3013, "\u2581everything": 3014, "\u901a\u8fc7\u4e86": 3015, "\u5916\u56fd": 3016, "\u73b0\u8c61": 3017, "\u2581Did": 3018, "\u95e8": 3019, "\u8fd1": 3020, "\u613f\u610f": 3021, "\u2581\u4f1a\u8bae": 3022, "\u0438": 3023, "\u2581Pakistan": 3024, "\u2581reason": 3025, "\u2581Sierra": 3026, "\u2581welcomes": 3027, "\u2581recently": 3028, "\u7537\u5973": 3029, "44": 3030, "\u4e3b\u7ba1": 3031, "\u6536\u96c6": 3032, "\u5ea6": 3033, "\u5df4\u57fa\u65af\u5766": 3034, "\u25811996": 3035, "\u258132.": 3036, "7.": 3037, "\u2581involving": 3038, "\u2581lives": 3039, "\u2581Here": 3040, "\u91c7\u53d6\u63aa\u65bd": 3041, "\u65b0\u95fb": 3042, "\u6570\u91cf": 3043, "\u2581scientific": 3044, "\u2581audit": 3045, "\u9762\u4e34": 3046, "\u8fc7\u7a0b": 3047, "\u4ee5\u540e": 3048, "\u2581criteria": 3049, "\u4e0d\u8db3": 3050, "\u2581Federal": 3051, "\u666e": 3052, "\u2581killed": 3053, "\u2581culture": 3054, "\u83b7\u53d6": 3055, "\u6e05\u5355": 3056, "\u2581designed": 3057, "\u4e4b\u5916": 3058, "\u2581duty": 3059, "\u258160": 3060, "\u2581mother": 3061, "\u4ea4\u6613": 3062, "\u5173\u952e": 3063, "\u904e": 3064, "\u7f6a": 3065, "\u7684\u4e8b": 3066, "\u2581timely": 3067, "\u2581traditional": 3068, "\u6743\u529b": 3069, "\u2581donors": 3070, "\u2581v": 3071, "\u5236": 3072, "\u2581statistics": 3073, "\u2581mentioned": 3074, "\u2581solution": 3075, "\u4f20\u64ad": 3076, "\u2581relationship": 3077, "\u2581focused": 3078, "\u7684\u513f\u7ae5": 3079, "\u2581entry": 3080, "am": 3081, "\u2581source": 3082, "\u5ba1\u5224": 3083, "\u2581average": 3084, "\u592b": 3085, "\u9886\u5bfc": 3086, "\u2581\u0438": 3087, "\u2581transparency": 3088, "\u571f\u8457\u4eba\u6c11": 3089, "\u2581Somalia": 3090, "\u6709\u53ef\u80fd": 3091, "\u62d2\u7edd": 3092, "100": 3093, "\u2581Leone": 3094, "\u6559": 3095, "\u4f9d\u7167": 3096, "\u503a\u52a1": 3097, "\u5730\u70b9": 3098, "\u9886\u5bfc\u4eba": 3099, "\u79c1\u8425\u90e8\u95e8": 3100, "\u5927\u91cf": 3101, "\u258133.": 3102, "\u2581Labour": 3103, "\u4e09\u4e2a": 3104, "\u2581longer": 3105, "\u2581Moreover": 3106, "\u2581visit": 3107, "\u706b": 3108, "\u2581sir": 3109, "\u2581UNFPA": 3110, "\u2581sex": 3111, "United": 3112, "\u542c": 3113, "\u2581\u8fd9\u4e2a": 3114, "\u2581languages": 3115, "\u513f\u7ae5\u57fa\u91d1\u4f1a": 3116, "\u2581guys": 3117, "\u2581Police": 3118, "42": 3119, "\u771f": 3120, "\u5229\u76ca": 3121, "\u7406\u89e3": 3122, "\u2581El": 3123, "\u2581Weapons": 3124, "\u2581network": 3125, "\u5f00\u53d1\u7f72": 3126, "\u7684\u539f\u5219": 3127, "\u4fe1\u6258\u57fa\u91d1": 3128, "\u2581father": 3129, "\u2581aim": 3130, "\u2581phase": 3131, "\u2581stressed": 3132, "\u5440": 3133, "\u2581studies": 3134, "\u2581lot": 3135, "\u963f\u62c9\u4f2f": 3136, "\u2581broad": 3137, "\u5de5": 3138, "\u2581Kuwait": 3139, "\u2581independence": 3140, "\u2581wrong": 3141, "\u2581Further": 3142, "\u5668": 3143, "\u2581units": 3144, "\u5173\u5207": 3145, "\u2581Rules": 3146, "\u2581stage": 3147, "\u2581Association": 3148, "\u9080\u8bf7": 3149, "\u2581\u76ee\u524d": 3150, "\u2581construction": 3151, "\u4ec5": 3152, "\u672c\u8eab": 3153, "\u2581billion": 3154, "\u5e76\u5c06": 3155, "\u94b1": 3156, "\u4e13\u4e1a": 3157, "\u2581wanted": 3158, "\u6c11\u65cf": 3159, "\u7ea7": 3160, "\u2581Financial": 3161, "\u63a5\u89e6": 3162, "\u2581Members": 3163, "\u635f\u5bb3": 3164, "\u7ebd\u7ea6": 3165, "\u8ba1\u7b97": 3166, "\u89c4\u5b9a\u7684": 3167, "\u4e13\u9898": 3168, "\u258134.": 3169, "\u672a\u80fd": 3170, "\u6211\u4eec\u7684": 3171, "\u964d\u4f4e": 3172, "\u2581turn": 3173, "\u5efa\u8bbe": 3174, "\u52d2": 3175, "\u516c\u5f00": 3176, "\u2581\u6211\u77e5\u9053": 3177, "\u2581urgent": 3178, "\u5e93": 3179, "\u8d2b\u56f0": 3180, "\u653e": 3181, "\u7684\u6267\u884c\u60c5\u51b5": 3182, "\u2581border": 3183, "\u5c45\u6c11": 3184, "\u2581Palestine": 3185, "\u5b66\u751f": 3186, "\u2581conclusion": 3187, "\u4ee5\u4e0a": 3188, "\u2581movement": 3189, "\u2581formal": 3190, "\u5e76\u4e0d": 3191, "ic": 3192, "\u2581deployment": 3193, "\u571f\u8033\u5176": 3194, "\u5c0f\u7ec4\u59d4\u5458\u4f1a": 3195, "\u2581mass": 3196, "\u804c\u4f4d": 3197, "\u60a8": 3198, "\u2581\u5feb": 3199, "\u2581host": 3200, "\u2581involvement": 3201, "\u2022": 3202, "\u2581Authority": 3203, "\u7b54\u590d": 3204, "\u52a8": 3205, "\u2581approval": 3206, "\u2581cross": 3207, "\u2581enhancing": 3208, "\u2581success": 3209, "\u2581UNIDO": 3210, "\u5341\u5e74": 3211, "69": 3212, "\u519b": 3213, "\u5341\u5206": 3214, "\u2581Space": 3215, "\u7684\u5404\u9879": 3216, "\u2581Strategy": 3217, "\u2581\u91cd\u7533": 3218, "\u2581\u8fd9\u79cd": 3219, "\u539f": 3220, "\u2581intended": 3221, "\u67e5": 3222, "\u2581tools": 3223, "\u2581honour": 3224, "\u2581conclusions": 3225, "\u2581multi": 3226, "\u2581alternative": 3227, "\u66f4\u591a\u7684": 3228, "\u7f6a\u884c": 3229, "\u987b": 3230, "\u2581summary": 3231, "\u2581reflect": 3232, "\u4e0a\u7684": 3233, "\u2581takes": 3234, "il": 3235, "\u7c7b": 3236, "\u6b66\u88c5\u51b2\u7a81": 3237, "\u7684\u627f\u8bfa": 3238, "\u2581reach": 3239, "\u5ba4": 3240, "\u6216\u5176\u4ed6": 3241, "\u2581appeal": 3242, "\u2581freedoms": 3243, "\u5409": 3244, "\u258135.": 3245, "\u2581occupation": 3246, "\u4f3c\u4e4e": 3247, "\u7b7e\u7f72": 3248, "co": 3249, "\u610f\u5927\u5229": 3250, "\u5f00\u53d1\u8ba1\u5212\u7f72": 3251, "\u5c24\u5176": 3252, "\u5973\u5b69": 3253, "\u2581ask": 3254, "\u62ff": 3255, "\u63d0\u4f9b\u7684": 3256, "\u2581personal": 3257, "\u4ec0\u9ebc": 3258, "\u79d1\u5a01\u7279": 3259, "\u25812009,": 3260, "\u2581Chair": 3261, "\u2581\u6b22\u8fce": 3262, "is": 3263, "\u8f6c": 3264, "W": 3265, "\u7535\u5b50": 3266, "\u969c\u788d": 3267, "\u9ede": 3268, "\u2581electronic": 3269, "\u8bfe\u7a0b": 3270, "4.": 3271, "\u2581Technical": 3272, "\u2581encourages": 3273, "\u6bd4\u8f83": 3274, "\u8bed": 3275, "\u2581doesn": 3276, "\u2581commercial": 3277, "\u503c": 3278, "\u79d1\u7279\u8fea\u74e6": 3279, "\u2581Third": 3280, "\u57c3\u53ca": 3281, "\u2581growing": 3282, "\u7406\u7531": 3283, "\u2581assessments": 3284, "\u2581prepare": 3285, "\u5546\u5b9a": 3286, "\u2581English": 3287, "\u2581improvement": 3288, "\u4f30\u8ba1": 3289, "\u2581stay": 3290, "\u8d77\u8bc9": 3291, "\u6307\u5357": 3292, "\u9177\u5211": 3293, "\u2581racial": 3294, "\u2581occupied": 3295, "\u2581trial": 3296, "-2": 3297, "\u95ee": 3298, "\u9ad8\u7ea7": 3299, "\u5b9a": 3300, "\u2581export": 3301, "\u2581ago": 3302, "\u2581System": 3303, "\u2581closely": 3304, "\u2581known": 3305, "\u2581Peacekeeping": 3306, "\u585e": 3307, "\u80fd\u529b\u5efa\u8bbe": 3308, "\u2581Assistance": 3309, "\u2581After": 3310, "\u4e3e\u529e": 3311, "\u2581mine": 3312, "\u672a\u6765": 3313, "\u81ea\u613f": 3314, "\u91cd\u70b9": 3315, "\u5965": 3316, "\u2581absence": 3317, "\u6253\u7b97": 3318, "\u2581conventions": 3319, "\u2581elected": 3320, "\u7684\u5404\u79cd": 3321, "\u573a": 3322, "\u2581late": 3323, "\u6709\u4eba": 3324, "\u5baa\u7ae0": 3325, "\u5c0d": 3326, "\u4eba\u6743\u59d4\u5458\u4f1a": 3327, "\u2581alone": 3328, "\u897f\u73ed\u7259": 3329, "cH": 3330, "\u2581happened": 3331, "\u9020\u6210\u7684": 3332, "\u4ee4": 3333, "\u2581attacks": 3334, "\u804c\u4e1a": 3335, "\u2581\u79d8\u4e66\u957f": 3336, "\u4f9b\u5e94": 3337, "\u258177": 3338, "\u2581\u4e00\u4e2a": 3339, "\u4ea4": 3340, "\u5c06\u5176": 3341, "\u2581big": 3342, "\u4e2a\u56fd\u5bb6": 3343, "\u57fa\u7840": 3344, "\u2581combating": 3345, "\u2581expertise": 3346, "\u76f8\u4e92": 3347, "\u78cb\u5546": 3348, "\u2581Islands": 3349, "43": 3350, "\u2581beginning": 3351, "\u5883\u5185": 3352, "\u2581Officer": 3353, "\u2581makes": 3354, "\u2581launched": 3355, "\u2581minimum": 3356, "\u2581\u56fd\u9645": 3357, "\u2581fine": 3358, "2015": 3359, "\u2581useful": 3360, "weapon": 3361, "\u2581fucking": 3362, "\u2581NGOs": 3363, "\u258136.": 3364, "\u2581concrete": 3365, "\u5c06\u7ee7\u7eed": 3366, "\u2581Policy": 3367, "\u5927\u7ea6": 3368, "\u2581skills": 3369, "\u2581\u5bf9\u4e8e": 3370, "75": 3371, "\u2581operating": 3372, "\u660e": 3373, "\u2581US": 3374, "third": 3375, "@": 3376, "\u9700": 3377, "\u7b2c\u4e00\u6b21": 3378, "\u7ef4": 3379, "41": 3380, "\u2581\u6211\u7684": 3381, "\u2581al": 3382, "\u914c\u60c5": 3383, "\u4f18\u5148": 3384, "\u76f8\u4fe1": 3385, "\u2581went": 3386, "\u2581cooperate": 3387, "\u2581Cultural": 3388, "\u5e72\u4e8b": 3389, "\u2581cause": 3390, "\u4f53": 3391, "\u751a\u81f3": 3392, "\u62d8\u7559": 3393, "\u2581fair": 3394, "\u2581Fifth": 3395, "fn": 3396, "\u2581payment": 3397, "\u63d0\u53ca": 3398, "\u2581lower": 3399, "\u53ef\u80fd\u4f1a": 3400, "\u8bed\u8a00": 3401, "\u2581Financing": 3402, "\u2581respond": 3403, "\u2581car": 3404, "\u2581almost": 3405, "\u2581actively": 3406, "\u5e26\u6765": 3407, "\u2581agricultural": 3408, "\u4f5c\u4e86": 3409, "\u4e3b\u9898": 3410, "\u2581negative": 3411, "\u2581ready": 3412, "\u00f4": 3413, "\u2581Bureau": 3414, "\u2581recruitment": 3415, "\u4ee4\u4eba": 3416, "\u8fd9\u6837\u7684": 3417, "\u7684\u65b9\u6cd5": 3418, "\u2581Turkey": 3419, "\u2581workshops": 3420, "\u65e5\u671f": 3421, "\u7cbe\u795e": 3422, "\u6210\u7acb": 3423, "\u6240\u9700\u7684": 3424, "\u2581son": 3425, "\u2581University": 3426, "\u2581idea": 3427, "\u2581possibility": 3428, "\u6797": 3429, "\u6765\u6e90": 3430, "\u4f53\u7cfb": 3431, "\u8fb9\u754c": 3432, "\u2581\u55ef": 3433, "\u2581W": 3434, "\u2581Gender": 3435, "\u8bad\u7ec3": 3436, "\u653b\u51fb": 3437, "\u2581Experts": 3438, "\u2581enhanced": 3439, "\u4eba\u53e3\u57fa\u91d1": 3440, "\u4e89\u53d6": 3441, "\u7ec4\u6210": 3442, "\u2581U": 3443, "\u258137.": 3444, "\u516c\u5e73": 3445, "65": 3446, "\u2581democratic": 3447, "\u91d1\u878d": 3448, "\u2581lost": 3449, "\u906d\u5230": 3450, "\u2581refugee": 3451, "\u6709\u4e9b": 3452, "\u2581\u662f\u554a": 3453, "\u2581undertake": 3454, "\u2581Framework": 3455, "\u6848\u6587": 3456, "\u63d0\u6848": 3457, "\u6c14": 3458, "\u2581dead": 3459, "\u8d22\u653f": 3460, "\u90e8\u957f": 3461, "\u2581bad": 3462, "\u2581sound": 3463, "\u2581island": 3464, "\u2581contact": 3465, "\u2581companies": 3466, "\u2581definition": 3467, "\u65e5\u5185\u74e6": 3468, "\u5c06\u4e8e": 3469, "\u2581professional": 3470, "\u4ee3": 3471, "\u2581\u800c": 3472, "\u2581avoid": 3473, "\u4fee\u6b63": 3474, "\u5728\u8fd9\u91cc": 3475, "\u2581target": 3476, "\u2581migration": 3477, "\u2581run": 3478, "\u8fd9\u4e00\u70b9": 3479, "\u2581North": 3480, "\u2581internationally": 3481, "\u2581measure": 3482, "\u5168\u90e8": 3483, "\u2013": 3484, "\u4ecb\u7ecd\u4e86": 3485, "\u2581hard": 3486, "\u7279\u5b9a": 3487, "\u2581looking": 3488, "\u2581\u672c": 3489, "\u7684\u5730\u65b9": 3490, "ch": 3491, "\u2581confidence": 3492, "\u6700\u9ad8": 3493, "\u5f88\u591a": 3494, "\u2581caused": 3495, "\u4ee5\u671f": 3496, "\u2581Letter": 3497, "\u2581compared": 3498, "\u2581\u4e0d\u8981": 3499, "\u2581Indonesia": 3500, "ur": 3501, "\u2581dealing": 3502, "\u89c2\u5bdf\u5458": 3503, "\u2581forest": 3504, "\u2581committee": 3505, "\u2581efficient": 3506, "\u5206\u522b": 3507, "\u2581Our": 3508, "\u2581ability": 3509, "ment": 3510, "\u2581i": 3511, "\u5de5\u4eba": 3512, "\u8377\u5170": 3513, "\u884c\u52a8\u7eb2\u9886": 3514, "\u2581urges": 3515, "\u75c5": 3516, "\u578b": 3517, "fs": 3518, "\u25813,": 3519, "\u5566": 3520, "\u7684\u4e49\u52a1": 3521, "\u2581relief": 3522, "\u2581origin": 3523, "\u2581documentation": 3524, "\u2581markets": 3525, "\u5e94\u5728": 3526, "\u2581\u4f5c\u4e3a": 3527, "\u2581true": 3528, "\u2581Because": 3529, "\u258138.": 3530, "\u5e38": 3531, "\u6536": 3532, "\u5168\u7403\u5316": 3533, "\u2581immediate": 3534, "\u7684\u4e00\u4e9b": 3535, "\u5de5\u4f5c\u65b9\u6848": 3536, "\u7684\u57fa\u7840\u4e0a": 3537, "ealand": 3538, "\u2581\u5176\u4ed6": 3539, "\u2581road": 3540, "\u8f7d\u4e8e": 3541, "\u4e00\u81f4": 3542, "\u2581Ad": 3543, "\u8eab\u4efd": 3544, "\u2581leading": 3545, "\u975e\u6d32\u8054\u76df": 3546, ".1)": 3547, "\u2581difficulties": 3548, "\u2581followed": 3549, "\u2581coordinated": 3550, "\u8fc7\u6e21": 3551, "\u5f80\u5f80": 3552, "\u961f": 3553, "\u5e73\u6c11": 3554, "\u2581sea": 3555, "\u2581planned": 3556, "\u8fdb": 3557, "\u2581week": 3558, "\u258135": 3559, "\u2581Territories": 3560, "\u2581Training": 3561, "\u539f\u5b50\u80fd\u673a\u6784": 3562, "la": 3563, "\u533b\u7597": 3564, "\u2581extended": 3565, "\u9002\u5e94": 3566, "\u5e74\u4ee5\u6765": 3567, "\u2581Ambassador": 3568, "\u610f": 3569, "\u6765\u6587": 3570, "\u75be\u75c5": 3571, "\u6307\u5b9a": 3572, "\u4fbf": 3573, "\u2581kill": 3574, "\u82b1": 3575, "\u632a\u5a01": 3576, "\u4eab\u53d7": 3577, "\u90a3\u4e2a": 3578, "\u2581Asian": 3579, "\u2581advance": 3580, "\u2581rehabilitation": 3581, "\u5927\u4f7f": 3582, "\u2581workshop": 3583, "\u673a\u5173": 3584, "\u2581Egypt": 3585, "\u7ed9\u6211": 3586, "\u2581Liberia": 3587, "\u2581Rwanda": 3588, "\u53d1\u6325": 3589, "\u6570\u989d": 3590, "\u751f\u7269": 3591, "\u2581Netherlands": 3592, "\u2581prison": 3593, "\u4ee5\u53ca\u5728": 3594, "\u8d27\u7269": 3595, "\u7684\u652f\u6301": 3596, "\u2581Timor": 3597, "\u521a\u679c\u6c11\u4e3b\u5171\u548c\u56fd": 3598, "\u2581defined": 3599, "\u2581membership": 3600, "\u2581finance": 3601, "\u2581participated": 3602, "resolution": 3603, "\u5370\u5ea6\u5c3c\u897f\u4e9a": 3604, "\u2581model": 3605, "\u5904\u4e8e": 3606, "\u9996\u8111\u4f1a\u8bae": 3607, "\u2581offences": 3608, "\u2581damage": 3609, "\u2581parents": 3610, "\u258139": 3611, "\u2581generally": 3612, "\u2581shared": 3613, "\u258139.": 3614, "_": 3615, "\u2581\u4e0d\u662f": 3616, "\u2581described": 3617, "\u521b\u9020": 3618, "\u7236\u6bcd": 3619, "\u2581concept": 3620, "\u2581strengthened": 3621, "\u73a9": 3622, "\u7684\u4f1a\u8bae": 3623, "\u2581despite": 3624, "\u2581recognition": 3625, "\u52b3\u52a8": 3626, "ization": 3627, "\u534a": 3628, "\u63a5": 3629, "-1": 3630, "\u2581Western": 3631, "\u745e\u58eb": 3632, "ion": 3633, "\u2581design": 3634, "\u25811999,": 3635, "\u2581Italy": 3636, "\u6027\u8d28": 3637, "\u8bf8\u5982": 3638, "\u6570\u636e\u5e93": 3639, "\u2581\u7136\u540e": 3640, "\u2581senior": 3641, "#": 3642, "em": 3643, "z": 3644, "\u2581Decides": 3645, "1994": 3646, "\u2581\u597d\u7684": 3647, "\u7ade\u4e89": 3648, "\u66fc": 3649, "\u2581inclusion": 3650, "\u2581Vice": 3651, "\u7ecf\u9a8c": 3652, "\u63d0\u4ea4\u7684": 3653, "proliferation": 3654, "\u7684\u91cd\u8981": 3655, "\u25810": 3656, "\u968f\u540e": 3657, "\u2581trying": 3658, "\u2581urged": 3659, "\u2581\u5de5\u4f5c\u7ec4": 3660, "\u4f20\u7edf": 3661, "\u7535": 3662, "\u258140.": 3663, "58": 3664, "\u2581net": 3665, "\u2581saw": 3666, "\u2581\u8c22\u8c22": 3667, "\u2581donor": 3668, "\u2581accounts": 3669, "\u5236\u88c1": 3670, "\u2581emphasized": 3671, "\u2581\u800c\u4e14": 3672, "\u2581options": 3673, "\u2581causes": 3674, "\u7f8e\u5229\u575a\u5408\u4f17\u56fd": 3675, "\u5e72": 3676, "\u2581component": 3677, "\u2581Spain": 3678, "\u4f53\u5236": 3679, "\u5355": 3680, "\u4f9d\u636e": 3681, "57": 3682, "\u2581From": 3683, "\u2581students": 3684, "\u2581determine": 3685, "\u2581reviewed": 3686, "\u5408": 3687, "\u2581500": 3688, "\u6b65\u9aa4": 3689, "\u2581declaration": 3690, "\u2581engaged": 3691, "\u745e\u5178": 3692, "li": 3693, "\u2581risks": 3694, "\u2581punishment": 3695, "\u6d1b": 3696, "ra": 3697, "\u540d\u5355": 3698, "\u5b9a\u4e49": 3699, "\u2581collection": 3700, "\u2581owing": 3701, "\u2581\u5b89\u5168\u7406\u4e8b\u4f1a": 3702, "\u2581Research": 3703, "\u7684\u4e00\u9879": 3704, "\u6d77\u5730": 3705, "\u2581constitute": 3706, "\u2581\u4f60\u662f": 3707, "\u2581express": 3708, "\u2581Internet": 3709, "\u73b0\u6709\u7684": 3710, "\u5229\u6bd4\u91cc\u4e9a": 3711, "\u4e1c\u5e1d\u6c76": 3712, "\u2581200": 3713, "\u2581Cyprus": 3714, "\u5c71": 3715, "\u2581Technology": 3716, "\u2581cash": 3717, "\u2581seven": 3718, "\u8d77\u8349": 3719, "\u2581forced": 3720, "\u54e5\u4f26\u6bd4\u4e9a": 3721, "\u53ca\u5176\u4ed6": 3722, "\u7684\u5987\u5973": 3723, "\u5199": 3724, "\u2581outcomes": 3725, "\u4e13\u5bb6\u7ec4": 3726, "\u300b\u3001\u300a": 3727, "\u2581written": 3728, "\u2581reduced": 3729, "\u5de5\u53d1\u7ec4\u7ec7": 3730, "\u571f\u8457": 3731, "\u2581shit": 3732, "\u5e73\u8861": 3733, "\u25811994": 3734, "\u2581aircraft": 3735, "\u6389": 3736, "ng": 3737, "\u6982\u5ff5": 3738, "\u258141.": 3739, "\u2581fourth": 3740, "\u5207\u5b9e": 3741, "\u7684\u65f6\u95f4": 3742, "\u2581crucial": 3743, "\u62df\u5b9a": 3744, "\u2581targets": 3745, "\u2581types": 3746, "\u2581Switzerland": 3747, "\u2581Norway": 3748, "\u6350\u6b3e": 3749, "\u2581grounds": 3750, "\u611f\u5230": 3751, "\u6c11\u95f4\u793e\u4f1a": 3752, "\u2581perspective": 3753, "\u2581\u53e6\u5916": 3754, "\u2581threats": 3755, "\u2581territories": 3756, "\u258132": 3757, "\u2581corruption": 3758, "\u8482": 3759, "\u2581Chamber": 3760, "\u53ec\u5f00": 3761, "\u2581imposed": 3762, "\u53d6": 3763, "\u8d44\u52a9": 3764, "\u2581reducing": 3765, "\u2581\u8fd8\u6709": 3766, "\u542f\u52a8": 3767, "\u2581applications": 3768, "\u2581assess": 3769, "\u258145": 3770, "\u2581industry": 3771, "\u56fd\u9645\u5408\u4f5c": 3772, "\u2581democracy": 3773, "\u65e5\u76ca": 3774, "\u7406": 3775, "\u6211\u56fd": 3776, "\u2581Introduction": 3777, "\u2581function": 3778, "\u2581election": 3779, "\u2581medium": 3780, "\u2581else": 3781, "\u2581placed": 3782, "\u9001": 3783, "\u8bb2": 3784, "\u2581Bosnia": 3785, "\u5362\u65fa\u8fbe": 3786, "&": 3787, "\u2581likely": 3788, "64": 3789, "\u5357\u975e": 3790, "\u2581offer": 3791, "\u4ef6": 3792, "\u8fd4\u56de": 3793, "\u2581talking": 3794, "one": 3795, "\u7ed3\u8bba": 3796, "\u2581Northern": 3797, "\u2581representation": 3798, "\u79d1\u7d22\u6c83": 3799, "UN": 3800, "\u585e\u62c9\u5229\u6602": 3801, "2014": 3802, "\u2581site": 3803, "\u2581actually": 3804, "\u2581estimates": 3805, "\u7eed": 3806, "\u2581subsequent": 3807, "\u8bbe\u8ba1": 3808, "\u4e0d\u540c\u7684": 3809, "\u53cd\u6620": 3810, "\u7d22": 3811, "\u2581remaining": 3812, "\u4e3a\u6b64": 3813, "\u533b\u751f": 3814, "\u2581participating": 3815, "\u258142.": 3816, "\u9664": 3817, "\u5176\u5b83": 3818, "\u540c\u6837": 3819, "-5": 3820, "\u2581Many": 3821, "\u2581entire": 3822, "\u8fde": 3823, "\u2581solutions": 3824, "\u2581gave": 3825, "\u2581namely": 3826, "\u5e03\u9686\u8fea": 3827, "\u2581Hello": 3828, "\u258137": 3829, "\u9884\u8ba1": 3830, "\u51fa\u5e2d": 3831, "\u2581shown": 3832, "\u7a7a": 3833, "\u2581headquarters": 3834, "\u548c\u53d1\u5c55": 3835, "\u8c01": 3836, "\u5947": 3837, "\u79cd\u65cf\u6b67\u89c6": 3838, "\u2581determined": 3839, "\u8ba4\u8bc6": 3840, "\u6566\u4fc3": 3841, "\u2581inform": 3842, "\u2581\u4ed6\u5011": 3843, "\u2581eliminate": 3844, "\u963f\u6839\u5ef7": 3845, "56": 3846, "\u5217": 3847, "\u2581ratification": 3848, "\u56fd\u7c4d": 3849, "\u258133": 3850, "\u2581Staff": 3851, "\u2581specifically": 3852, "\u79c1\u4eba": 3853, "\u8d8b\u52bf": 3854, "\u5b89\u4fdd": 3855, "\u2581Darfur": 3856, "52": 3857, "\u901a\u8fc7\u7684": 3858, "53": 3859, "\u7279\u6b8a": 3860, "\u2581oil": 3861, "\u25812014": 3862, "\u7684\u6267\u884c": 3863, "\u2581Take": 3864, "\u6d3b\u52a8\u7684": 3865, "\u6240\u4f5c\u7684": 3866, "\u2581highest": 3867, "\u6307\u63a7": 3868, "\u6d41": 3869, "\u2581raise": 3870, "\u2581registration": 3871, "second": 3872, "\u62a5": 3873, "\u5211\u6cd5": 3874, "\u2581\u2014": 3875, "\u2581Chairperson": 3876, "\u2581complex": 3877, "\u4e1a": 3878, "\u4f18\u5148\u4e8b\u9879": 3879, "\u5f00\u653e": 3880, "\u9886\u57df\u7684": 3881, "\u589e\u52a0\u4e86": 3882, "\u5916\u90e8": 3883, "\u2581collective": 3884, "\u258143.": 3885, "\u8bfa": 3886, "\u771f\u4e3b": 3887, "\u80af\u5b9a": 3888, "\u2581wide": 3889, "\u2581represented": 3890, "59": 3891, "\u5de5\u4f5c\u961f": 3892, "\u2581month": 3893, "\u2581religion": 3894, "South": 3895, "art": 3896, "\u2581resulted": 3897, "\u2581wait": 3898, "98": 3899, "\u2581though": 3900, "\u2581try": 3901, "\u6218": 3902, "\u723e": 3903, "\u2581paras": 3904, "\u2581emerging": 3905, "\u7b2c\u4e00": 3906, "\u2581discuss": 3907, "\u4e4b\u4e2d": 3908, "\u7684\u56fd\u9645": 3909, "\u8ba9\u6211": 3910, "\u2581separate": 3911, "\u9996\u5148": 3912, "\u2581\u6211\u4f1a": 3913, "\u5236\u6b62": 3914, "\u258136": 3915, "\u2581Two": 3916, "\u258134": 3917, "\u2581holding": 3918, "\u2581scale": 3919, "67": 3920, "\u5012": 3921, "\u2581company": 3922, "\u2581f": 3923, "\u2581Ministers": 3924, "\u4f9b\u8d44": 3925, "\u2581actual": 3926, "\u521a\u679c": 3927, "\u2581Be": 3928, "\u2581series": 3929, "\u7684\u5177\u4f53": 3930, "\u2581hell": 3931, "\u2581ad": 3932, "of": 3933, "\u2581Herzegovina": 3934, "\u4e8b\u5b9e": 3935, "\u534f\u4f5c": 3936, "\u2581morning": 3937, "\u2581competition": 3938, "\u2581integrity": 3939, "\u4e0b\u964d": 3940, "\u2581accepted": 3941, "\u2581\u628a": 3942, "\u2581type": 3943, "00": 3944, "\u2581forty": 3945, "\u2581Argentina": 3946, "\u9a7b": 3947, "\u5206\u4eab": 3948, "\u66f4\u65b0": 3949, "\u258144.": 3950, "\u6240\u6709\u56fd\u5bb6": 3951, "\u2581\u5f53\u7136": 3952, "fourth": 3953, "\u8d21\u732e": 3954, "\u51e0": 3955, "\u5728\u4e00\u8d77": 3956, "\u25812010,": 3957, "\u2581getting": 3958, "\u8fd9\u4e48": 3959, "87": 3960, "\u2581mutual": 3961, "seventh": 3962, "\u2581nor": 3963, "\u8a00": 3964, "\u2581someone": 3965, "\u670b\u53cb": 3966, "de": 3967, "\u5f0f": 3968, "\u2581organizational": 3969, "\u2581Internal": 3970, "\u2581highlighted": 3971, "\u2581friend": 3972, "\u8fd9\u4e9b\u56fd\u5bb6": 3973, "\u2581immediately": 3974, "\u771f\u7684": 3975, "88": 3976, "\u4efb": 3977, "\u2581marriage": 3978, "78": 3979, "\u2581wife": 3980, "\u516b": 3981, "\u2581organs": 3982, "\u2581centre": 3983, "\u2581norms": 3984, "\u2581insurance": 3985, "\u516c\u4f17": 3986, "\u2581floor": 3987, "\u2581whom": 3988, "\u60c5": 3989, "\u2581Humanitarian": 3990, "\u6709\u5229\u4e8e": 3991, "\u2581\u4f60\u77e5\u9053": 3992, "\u4eba\u7684": 3993, "\u79bb": 3994, "68": 3995, "\u7403": 3996, "\u2581authorized": 3997, "\u7684\u51b3\u8bae\u8349\u6848": 3998, "iv": 3999, "\u82f1": 4000, "\u2581enjoyment": 4001, "www": 4002, "99": 4003, "\u2581contracts": 4004, "\u2581Status": 4005, ".\u201d": 4006, "\u2581Burundi": 4007, "\u5c55\u5f00": 4008, "\u2581Indigenous": 4009, "\u2581rest": 4010, "\u591a\u8fb9": 4011, "\u6210\u672c": 4012, "\u54a8\u8be2\u59d4\u5458\u4f1a": 4013, "\u2581category": 4014, "\u2581Adoption": 4015, "\u8fd0\u4f5c": 4016, "\u53d1\u751f\u7684": 4017, "\u98de\u673a": 4018, "\u54a8\u8be2": 4019, "\u2581\u6211\u4e0d\u77e5\u9053": 4020, "\u7684\u8d39\u7528": 4021, "\u2581favour": 4022, "\u53ef\u6301\u7eed": 4023, "\u2581consent": 4024, "\u2581advisory": 4025, "\u2581affairs": 4026, "\u2581\u6309\u7167": 4027, "\u540e\u679c": 4028, "66": 4029, "\u6c92": 4030, "\u2581appointed": 4031, "\u56fd\u6c11": 4032, "ie": 4033, "\u2581OHCHR": 4034, "\u2581contributed": 4035, "\u83b1": 4036, "\u2581Gaza": 4037, "\u258145.": 4038, "\u2581migrants": 4039, "\u2581emphasis": 4040, "\u2581draw": 4041, "\u2581\u5f53": 4042, "\u7684\u65b9\u6848": 4043, "\u901a\u62a5": 4044, "\u4e00\u500b": 4045, "\u9884\u671f": 4046, "ah": 4047, "79": 4048, "\u2581\u653f\u5e9c": 4049, "\u2581reintegration": 4050, "\u2581increasingly": 4051, "\u53c2\u52a0\u4e86": 4052, "\u73ed": 4053, "\u5546": 4054, "\u6211\u8981": 4055, "\u2581allowed": 4056, "\u7684\u529e\u6cd5": 4057, "\u7684\u7ecf\u6d4e": 4058, "ce": 4059, "\u89c4\u8303": 4060, "\u2581responses": 4061, "\u4e00\u7ea7": 4062, "\u5e73": 4063, "sixth": 4064, "\u96be\u6c11\u7f72": 4065, "\u258148": 4066, "\u58eb": 4067, "v": 4068, "fifth": 4069, "\u53f7\u6587\u4ef6": 4070, ".1,": 4071, "\u751f\u547d": 4072, "\u2581\u4f46\u6211": 4073, "\u5c06\u4f1a": 4074, "\u65b0\u897f\u5170": 4075, "\u8d5e\u540c": 4076, "\u2581started": 4077, "\u6838\u67e5": 4078, "\u6350\u52a9\u8005": 4079, "\u6bd4\u4f8b": 4080, "\u2581Colombia": 4081, "\u2581recognize": 4082, "\u2581mainly": 4083, "\u56e2": 4084, "\u90a3\u6837": 4085, "\u2581findings": 4086, "\u2581approximately": 4087, "\u660e\u663e": 4088, "\u2581extend": 4089, "\u258146.": 4090, "\u5c31\u4f1a": 4091, "\u2581guarantee": 4092, "\u2581Trust": 4093, "\u2581engage": 4094, "\u2581Sub": 4095, "\u2581word": 4096, "\u2581chapter": 4097, "\u589e\u8fdb": 4098, "\u2581\u9664\u4e86": 4099, "\u8d37\u6b3e": 4100, "\u2581records": 4101, "\u2581science": 4102, "\u53d1\u8868": 4103, "\u2581Rule": 4104, "\u5e94\u7528": 4105, "\u2581fulfil": 4106, "\u4f24\u5bb3": 4107, "eighth": 4108, "\u8f7d\u6709": 4109, "\u25811993": 4110, "\u2581secure": 4111, "\u5e74\u9f84": 4112, "\u4e00\u5e74": 4113, "\u7968": 4114, "\u8fa9\u8bba": 4115, "\u5b9e\u8d28\u6027": 4116, "\u8d5e\u626c": 4117, "\u53d1\u8fbe\u56fd\u5bb6": 4118, "62": 4119, "\u2581remember": 4120, "\u88ad\u51fb": 4121, "\u79cd\u65cf": 4122, "\u2581Sea": 4123, "\u2581Food": 4124, "\u7b79\u8d44": 4125, "\u8bc9": 4126, "\u2581candidates": 4127, "\u2581\u5927": 4128, "\u2581everyone": 4129, "\u7ae0": 4130, "\u5305": 4131, "ninth": 4132, "54": 4133, "\u8c03": 4134, "\u6cbb\u7406": 4135, "\u6240\u8ff0": 4136, "\u5ef6\u957f": 4137, "\u2581convention": 4138, "\u4fbf\u5229": 4139, "\u4eba\u6743\u7406\u4e8b\u4f1a": 4140, "im": 4141, "\u4eba\u529b\u8d44\u6e90": 4142, "\u2581base": 4143, "76": 4144, "\u7ecf\u8fc7": 4145, "\u6c92\u6709": 4146, "\u2581networks": 4147, "\u2581Maybe": 4148, "\u2581contains": 4149, "\u2581Governing": 4150, "\u4e86\u5417": 4151, "\u7537\u5b50": 4152, "\u2581respectively": 4153, "\u2581observers": 4154, "\u7684\u6570\u636e": 4155, "\u51fa\u53bb": 4156, "\u5f97\u5230\u4e86": 4157, "\u7684\u8ba4\u8bc6": 4158, "\u2581victim": 4159, "\u50a8\u5b58": 4160, "for": 4161, "\u5bf9\u6b64": 4162, "\u96be": 4163, "\u2581Ukraine": 4164, "\u7684\u5de5\u4f5c\u4eba\u5458": 4165, "\u5c3c\u65e5\u5229\u4e9a": 4166, "\u2581elimination": 4167, "\u98ce": 4168, "\u2581Deputy": 4169, "\u258147.": 4170, "\u2581unless": 4171, "\u7684\u5b89\u5168": 4172, "\u2581alleged": 4173, "\u2581\u4e3a\u6b64": 4174, "\u8d1d": 4175, "\u7269\u8d28": 4176, "\u5c9b": 4177, "\u62df\u8bae": 4178, "\u2581Sweden": 4179, "\u2581learned": 4180, "\u6761\u89c4\u5b9a": 4181, "\u8054\u5408\u738b\u56fd": 4182, "\u2581Have": 4183, "\u6ce2": 4184, "\u4e3e\u884c\u4e86": 4185, "\u60f3\u8981": 4186, "\u2581gross": 4187, "\u2581\u56db": 4188, "\u6bd2\u54c1": 4189, "\u2581published": 4190, "\u4ef7\u683c": 4191, "\u2581Any": 4192, "\u8f83": 4193, "\u2581fields": 4194, "\u00e1": 4195, "\u2581yourself": 4196, "\u975e\u6d32\u56fd\u5bb6": 4197, "\u767d": 4198, "\u8fdb\u53e3": 4199, "\u5305\u62ec\u5728": 4200, "\u66f4\u4e3a": 4201, "\u740c": 4202, "\u5206\u7c7b": 4203, "\u25814,": 4204, "\u526f": 4205, "\u5e0c": 4206, "\u2581interested": 4207, "\u2581drugs": 4208, "\u53e4": 4209, "\u5f53\u524d": 4210, "\u2581Control": 4211, "\u25812005.": 4212, "\u6bb5\u4e2d": 4213, "\u548c\u5e73\u4e0e\u5b89\u5168": 4214, "\u2581investigations": 4215, "\u2581sharing": 4216, "\u536b\u661f": 4217, "\u2581Prosecutor": 4218, "\u2581Noting": 4219, "\u2581statistical": 4220, "\u6b8b\u75be": 4221, "\u2581Parliament": 4222, "/2": 4223, "\u2581Haiti": 4224, "\u2581endorsed": 4225, "\u2581preventing": 4226, "\u4e00\u4f4d": 4227, "\u5927\u591a\u6570": 4228, "\u2581Wait": 4229, "\u4e00\u7cfb\u5217": 4230, "\u8239": 4231, "\u53d7\u5bb3\u4eba": 4232, "\u6267\u884c\u60c5\u51b5": 4233, "\u2581forum": 4234, "w": 4235, "\ue5ec": 4236, "ness": 4237, "\u5f97\u4ee5": 4238, "\u2581\u53c8": 4239, "\u2581Drugs": 4240, "\u2581territorial": 4241, "\u6b27\u76df": 4242, "\u5f85": 4243, "\u6ce2\u65af\u5c3c\u4e9a\u548c\u9ed1\u585e\u54e5\u7ef4\u90a3": 4244, "\u57fa\u91d1\u4f1a": 4245, "\u4fdd\u9669": 4246, "ma": 4247, "\u2581Lord": 4248, "\u2581publication": 4249, "\u533b\u9662": 4250, "\ue4c7": 4251, "\u2581thematic": 4252, "\u2581requirement": 4253, "\u53f0": 4254, "\u2581categories": 4255, "\u2581indicate": 4256, "89": 4257, "\u2581reconciliation": 4258, "\u4e0e\u4f1a\u8005": 4259, "\u5ba1\u7406": 4260, "\u2581appointment": 4261, "\u4e24\u6027\u5e73\u7b49": 4262, "\u2581marine": 4263, "95": 4264, "\u8fd9\u91cc": 4265, "\u5468": 4266, "\u5206\u53d1": 4267, "\u2581minorities": 4268, "\u70ba": 4269, "\u2581press": 4270, "Y": 4271, "\u2581Population": 4272, "\u2581round": 4273, "\u5730\u96f7": 4274, "\u773c": 4275, "\u2581Ethiopia": 4276, "\u2581offence": 4277, "\u2581fuck": 4278, "\u2581globalization": 4279, "\u56de\u6765": 4280, "\u2581Nigeria": 4281, "\u6cd5\u6cbb": 4282, "\u56e0\u800c": 4283, "\u258148.": 4284, "II": 4285, "\u2581waste": 4286, "ive": 4287, "\u6d3b": 4288, "\u4f26": 4289, "\u6469\u6d1b\u54e5": 4290, "\u2581Decade": 4291, "\u2581\u6240\u6709": 4292, "\u2581completion": 4293, "\u2581listed": 4294, "\u258142": 4295, "\u2581reforms": 4296, "\u2581competent": 4297, "\u2581expenditures": 4298, "\u2581St": 4299, "\u519c\u6751": 4300, "\u2581\u4f60\u7684": 4301, "\u258149.": 4302, "\u2581realization": 4303, "\u2581values": 4304, "\u2581saying": 4305, "\u2581reservations": 4306, "\u4e00\u5b9a": 4307, "\u9009": 4308, "\u8d27\u5e01": 4309, "\u7247": 4310, "\u5170": 4311, "\u2581defence": 4312, "by": 4313, "\u2581failure": 4314, "\u2581unit": 4315, "\u2581expression": 4316, "\u81ea\u7136": 4317, "\u2581populations": 4318, "\u4e0d\u77e5\u9053": 4319, "\u8fbe\u6210": 4320, "\u2581internally": 4321, "\u68ee": 4322, "\u2581functioning": 4323, "\u591a\u6570": 4324, "\u2581credit": 4325, "\u6295\u7968": 4326, "uestions": 4327, "\u2581affect": 4328, "\u653f\u5e9c\u95f4": 4329, "est": 4330, "\u2581eight": 4331, "\u2581\u597d\u4e86": 4332, "\u2581recorded": 4333, "\u2581Morocco": 4334, "\u4e0d\u53ef": 4335, "\u2581(1)": 4336, "\u2581structures": 4337, "\u2581trends": 4338, "$": 4339, "\u89e3": 4340, "\u2581]": 4341, "\u76ee\u7684\u662f": 4342, "\u2581creating": 4343, "\u53d6\u6d88": 4344, "\u2581isn": 4345, "na": 4346, "\u662f\u4e3a\u4e86": 4347, "x": 4348, "\u7684\u8d44\u6e90": 4349, "\u5224\u51b3": 4350, "\u6c99": 4351, "spoke": 4352, "\u2581campaign": 4353, "\u73af\u5883\u7f72": 4354, "\u2581considers": 4355, "\u901a\u4fe1": 4356, "\u5230\u4e86": 4357, "\u2581sovereignty": 4358, "\u2581subsidiary": 4359, "\u7684\u5185\u5bb9": 4360, "\u2581lessons": 4361, "nd": 4362, "\u4fc3\u4f7f": 4363, "\u25812011,": 4364, "\u2581AND": 4365, "\u6240\u9700": 4366, "\u2581places": 4367, "\u2581earlier": 4368, "\u2581agree": 4369, "\u4e2d\u592e": 4370, "\u258150.": 4371, "\u2581city": 4372, "\u25811998,": 4373, "\u2581m": 4374, "\u57c3\u585e\u4fc4\u6bd4\u4e9a": 4375, "\u795e": 4376, "\u547d": 4377, "\u258138": 4378, "\u2581\u5e94": 4379, "\u258143": 4380, "\u8fdc": 4381, "\u547d\u4ee4": 4382, "\u258154": 4383, "\u2581Co": 4384, "\u5e76\u786e\u4fdd": 4385, "\u2581speak": 4386, "\u2581granted": 4387, "\u68c0\u5bdf\u5b98": 4388, "\u2581rise": 4389, "\u2581Chile": 4390, "\u2581Yugoslavia": 4391, "\u2581tasks": 4392, "\u2581\u4eca\u5929": 4393, "\u6bd4\u5229\u65f6": 4394, "\u2581\u5efa\u8bae": 4395, "\u51b3\u7b56": 4396, "\u2581Field": 4397, "\u2581sense": 4398, "COP": 4399, "\u53d9\u5229\u4e9a": 4400, "\u2581\u540c\u6837": 4401, "\u4e16": 4402, "\u2581industrial": 4403, "\u2581substantial": 4404, "\u56e2\u7ed3": 4405, "\u2581Calls": 4406, "\u5047": 4407, "\u4ed8\u6b3e": 4408, "\u2581\u2022": 4409, "\u2581allegations": 4410, "\u516c\u6b63": 4411, "\u2581formulation": 4412, "\u2581Fifty": 4413, "\u2581outstanding": 4414, "HRC": 4415, "72": 4416, "\u53ea\u80fd": 4417, "\u2581delay": 4418, "\u2581sought": 4419, "ol": 4420, "\u6709\u4e00\u4e2a": 4421, "\u7684\u6587\u4ef6": 4422, "----": 4423, "\u2581\u6709\u4eba": 4424, "CONF": 4425, "\u2581availability": 4426, "\u96c7\u5458": 4427, "\u91cd\u89c6": 4428, "\u53d8": 4429, "\u62a5\u544a\u4e2d": 4430, "97": 4431, "os": 4432, "\u2581racism": 4433, "\u2581Another": 4434, "\u2581Forms": 4435, "\u2581dissemination": 4436, "\u6307": 4437, "\u2581arising": 4438, "\u7279\u522b\u59d4\u5458\u4f1a": 4439, "\u5c3d\u53ef\u80fd": 4440, "\u2581tool": 4441, "\u6838\u5fc3": 4442, "ent": 4443, "\u2581delivered": 4444, "\u8be6\u7ec6": 4445, "\u2581subprogramme": 4446, "\u2581Subcommittee": 4447, "\u53d1\u51fa": 4448, "\u6b7b\u4e86": 4449, "age": 4450, "\u4e4b\u4e0b": 4451, "\u2581\u56e0\u4e3a": 4452, "\u7136\u540e": 4453, "\u2581eradication": 4454, "ine": 4455, "ho": 4456, "\u2581Allah": 4457, "WG": 4458, "\u2581content": 4459, "\u2581inside": 4460, "\u798f\u5229": 4461, "\u2581aware": 4462, "1993": 4463, "\u662f\u4ec0\u4e48": 4464, "\u4e0d\u518d": 4465, "\u2581executive": 4466, "\u2581Developing": 4467, "\u600e\u4e48": 4468, "1991": 4469, "\u5bb6\u5ead\u66b4\u529b": 4470, "\u6cb3": 4471, "\u7cae\u98df": 4472, "\u2581Ma": 4473, "wide": 4474, "\u2581boys": 4475, "\u2581Add": 4476, "\u79cd": 4477, "\u2581constitutional": 4478, "\u2581visits": 4479, "\u2581survey": 4480, "\u535a": 4481, "ting": 4482, "\u2581l": 4483, "\u4f0a\u6717": 4484, "\u2581nationality": 4485, "\u79d8\u4e66\u957f\u5173\u4e8e": 4486, "\u2581speaking": 4487, "\u2581interpretation": 4488, "\u2581\u5011": 4489, "\u2581\u5230": 4490, "\u2581vital": 4491, "\u96be\u4ee5": 4492, "\u2581Following": 4493, "lo": 4494, "\u7684\u6218\u7565": 4495, "\u5c11": 4496, "\u7c7b\u4f3c": 4497, "\u5408\u6cd5": 4498, "\u2581Monitoring": 4499, "\u2581Refugees": 4500, "\u2581equitable": 4501, "85": 4502, "\u7f51\u7ad9": 4503, "\u2581nice": 4504, "\u2581\u4e0b\u5348": 4505, "\u76ae": 4506, "\u60c5\u62a5": 4507, "\u2581existence": 4508, "\u2581giving": 4509, "\u2581amended": 4510, "\u2581worked": 4511, "\u624b\u518c": 4512, "\u6d25\u8d34": 4513, "\u5e73\u5747": 4514, "\u6846\u67b6\u5185": 4515, "\u2581mainstreaming": 4516, "\u2581Their": 4517, "\u673a\u6784\u95f4": 4518, "\u7684\u7a0b\u5e8f": 4519, "\u585e\u6d66\u8def\u65af": 4520, "\u2581accounting": 4521, "\u258151.": 4522, "\u667a\u5229": 4523, "\u5efa\u7b51": 4524, "\u2581amendments": 4525, "\u548c\u5e73\u8fdb\u7a0b": 4526, "\u7684\u57fa\u672c": 4527, "\u8d28\u91cf": 4528, "\u5fc5\u8981": 4529, "\u7ef4\u6301\u548c\u5e73\u884c\u52a8": 4530, "\u4e1c": 4531, "\u7ecf\u6d4e\u548c\u793e\u4f1a": 4532, "\u2581Official": 4533, "\u4e0a\u8bc9": 4534, "\u2581fire": 4535, "\u2581considering": 4536, "61": 4537, "\u8d5e\u8d4f": 4538, "\u2581concluding": 4539, "\u9664\u5176\u4ed6\u5916": 4540, "\u2581weeks": 4541, "\u6709\u6548\u5730": 4542, "\u2581Summary": 4543, "\u56de\u987e": 4544, "\u963b\u6b62": 4545, "\u2581boy": 4546, "\u2581diplomatic": 4547, "\u53e6\u4e00": 4548, "\u2581ratified": 4549, "vi": 4550, "\u82ac\u5170": 4551, "\u2581reproductive": 4552, "\u2581Or": 4553, "\u258146": 4554, "\u4e1c\u897f": 4555, "\u7cfb": 4556, "\u2581comply": 4557, "\u2581produced": 4558, "\u2581identification": 4559, "\u6b63\u5e38": 4560, "\u2581emissions": 4561, "\u5916\u4ea4": 4562, "\u258141": 4563, "continued": 4564, "\u2581Prime": 4565, "\u2581agriculture": 4566, "\u2581deep": 4567, "\u2581faced": 4568, "\u4f1a\u8bae\u4e0a": 4569, "\u2581Me": 4570, "\u2581supports": 4571, "\u4f7f\u5176": 4572, "\u70ed": 4573, "\u8bbe\u7acb\u4e00\u4e2a": 4574, "\u2581Scientific": 4575, "\u7684\u8ba8\u8bba": 4576, "\u6267\u884c\u5c40": 4577, "\u5c4a": 4578, "determination": 4579, "\u4e4c\u5e72\u8fbe": 4580, "ad": 4581, "do": 4582, "\u258149": 4583, "X": 4584, "\u2581300": 4585, "\u2581Session": 4586, "\u902e\u6355": 4587, "\u258156": 4588, "\u2581Lebanese": 4589, "\u2581components": 4590, "\u2581observed": 4591, "\u51b3\u5fc3": 4592, "\u7684\u539f\u56e0": 4593, "\u5c3d\u5feb": 4594, "\u2581added": 4595, "\u5b89\u5168\u548c": 4596, "\u2581wanna": 4597, "\u2581experiences": 4598, "\u2581courses": 4599, "\u2581heart": 4600, "\u5de5\u7a0b": 4601, "ary": 4602, "\u2581otherwise": 4603, "\u2581Resolution": 4604, "51": 4605, "\u5316\u5b66\u54c1": 4606, "\u2581Principles": 4607, "\u2581thirty": 4608, "\u2581COP": 4609, "\u5370\u53d1": 4610, "\u2581near": 4611, "\u559c\u6b22": 4612, "\u7684\u9700\u6c42": 4613, "\u5173": 4614, "\u7684\u6210\u5458": 4615, "\u4fe1\u606f\u548c\u901a\u4fe1\u6280\u672f": 4616, "\u2581Open": 4617, "\u2581attack": 4618, "\u25812006.": 4619, "\u611f": 4620, "\u2581\u90a3\u662f": 4621, "\u2581institution": 4622, "\u2581presentation": 4623, "\u5728\u6267\u884c": 4624, "\u258152.": 4625, "\u4e2a\u6708": 4626, "\u7167\u987e": 4627, "\u5386\u53f2": 4628, "\u5f53\u65f6": 4629, "\u8bbe\u7acb\u4e86": 4630, "\u2581entered": 4631, "\u8f6c\u79fb": 4632, "\u5f62\u6210": 4633, "\u4ee5\u5f80": 4634, "\u2581behind": 4635, "\u6551": 4636, "\u7684\u53ef\u80fd\u6027": 4637, "\u73b0": 4638, "\u8ba1": 4639, "\u7b97": 4640, "\u2581zone": 4641, "\u529b\u91cf": 4642, "\u2581\u79d8\u4e66\u5904": 4643, "\u5e76\u4e3a": 4644, "ist": 4645, "\u7533\u8bc9": 4646, "\u2581oversight": 4647, "\u258147": 4648, "\u8bdd": 4649, "\u2581\u51b3\u8bae\u8349\u6848": 4650, "\u25811991": 4651, "\u5728\u7b2c": 4652, "\u9ed1": 4653, "\u2581\u52a0\u5f3a": 4654, "\u2581exist": 4655, "\u2581IAEA": 4656, "ended": 4657, "\u6570\u76ee": 4658, "\u7684\u8bf7\u6c42": 4659, "\u2581strongly": 4660, "\u786e\u5b9e": 4661, "\u2581Promotion": 4662, "\u4e03": 4663, "\u2581hands": 4664, "\u2581assessed": 4665, "\u2581significantly": 4666, "\u5f04": 4667, "\u4e00\u70b9": 4668, "\u5987\u5973\u5728": 4669, "\u2581commissions": 4670, "\u2581minutes": 4671, "\u2581\u540c\u65f6": 4672, "et": 4673, "\u2581knew": 4674, "\u7537\u4eba": 4675, "\u67d0\u4e00": 4676, "\u2581selected": 4677, "ate": 4678, "\u2581Thus": 4679, "\u5728\u8054\u5408\u56fd": 4680, "\u51e0\u4e4e": 4681, "\u2581targeted": 4682, "\u2581\u62a5\u544a": 4683, "\u2581\u4e3a\u4ec0\u4e48": 4684, "\u8bc1\u4eba": 4685, "86": 4686, "\u7ec8\u6b62": 4687, "\u91c7\u53d6\u4e86": 4688, "\u2581\u622a\u81f3": 4689, "\u2581yeah": 4690, "\u2581theme": 4691, "\u8dd1": 4692, "\u65e9": 4693, "\u62c5\u5fc3": 4694, "\u5404\u4e2a": 4695, "\u6295\u5165": 4696, "0.": 4697, "\u2581VI": 4698, "\u2581Kenya": 4699, "\u51fa\u6765": 4700, "economic": 4701, "\u2581Finland": 4702, "\u258153.": 4703, "\u2581\u5982\u679c\u4f60": 4704, "\u6280\u672f\u548c": 4705, "\u2581setting": 4706, "\u2581Initiative": 4707, "\u2581sustained": 4708, "\u771f\u6b63": 4709, "\u7533\u8bc9\u4eba": 4710, "\u516c\u5e03": 4711, "\u2581More": 4712, "\u4e0d\u53d7": 4713, "\u7684\u5173\u7cfb": 4714, "\u2581history": 4715, "\u521d\u6b65": 4716, "\u6c61\u67d3": 4717, "\u2581Day": 4718, "\u2581price": 4719, "\u2581wishes": 4720, "\u7528\u9014": 4721, "\u2581direction": 4722, "\u2581Britain": 4723, "\u8840": 4724, "\u79cd\u65cf\u4e3b\u4e49": 4725, "\u2581ex": 4726, "\u2581Myanmar": 4727, "\u6cb9": 4728, "\u9274\u4e8e": 4729, "\u25812004.": 4730, "\u65e2": 4731, "\u2581inclusive": 4732, "\u2581engagement": 4733, "\u2581\u53bb": 4734, "\u5236\u9020": 4735, "\u5efa\u7acb\u4e86": 4736, "\u6d41\u52a8": 4737, "\u53cd\u5e94": 4738, "\u3002\u201d": 4739, "iii": 4740, "\u2581asylum": 4741, "\u6781": 4742, "\u5965\u5730\u5229": 4743, "\u4e0b\u5348": 4744, "\u91cd\u5efa": 4745, "\u5b50\u5973": 4746, "\u519b\u961f": 4747, "ry": 4748, "\u83f2\u5f8b\u5bbe": 4749, "\u2581forth": 4750, "\u7528\u6237": 4751, "\u2581\u59d4\u5458\u4f1a\u8fd8": 4752, "\u5408\u5e76": 4753, "\u2581socio": 4754, "\u25811992": 4755, "\u2581Most": 4756, "\u5f9e": 4757, "time": 4758, "\u5c0f\u65f6": 4759, "\u258155": 4760, "\u4e0e\u5176\u4ed6": 4761, "\u2581\u770b": 4762, "\u2581disasters": 4763, "\u8d4b\u4e88": 4764, "96": 4765, "\u2581highly": 4766, "\u6bcd\u4eb2": 4767, "\u2581complainant": 4768, "\u2581Stop": 4769, "73": 4770, "\u2581\u4f60\u5728": 4771, "\u2581electoral": 4772, "\u2581\u79d8\u4e66\u957f\u5173\u4e8e": 4773, "\u804c\u8d23": 4774, "74": 4775, "\u2581failed": 4776, "\u65f6\u671f": 4777, "\u2581enabling": 4778, "\u89e3\u51b3\u529e\u6cd5": 4779, "\u2581frameworks": 4780, "\u25812012,": 4781, "\u25812008.": 4782, "\u2581release": 4783, "\u2581gotta": 4784, "83": 4785, "\u25815,": 4786, "\u5546\u54c1": 4787, "\u4e4c\u514b\u5170": 4788, "\u51fa\u7248\u7269": 4789, "\u8c34\u8d23": 4790, "\u2581consumption": 4791, "\u4fe1\u606f\u6280\u672f": 4792, "\u2581enterprises": 4793, "\u4e5f\u6ca1\u6709": 4794, "\u2581Thailand": 4795, "\u7f72": 4796, "\u2581speakers": 4797, "\u5e76\u5411": 4798, "\u2581\u4f60\u5011": 4799, "\u7684\u8d44\u91d1": 4800, "\u65e5\u671f\u95f4": 4801, "\u5979\u7684": 4802, "\u5019\u9009\u4eba": 4803, "\u2581complaints": 4804, "\u2581spirit": 4805, "\u2581secondary": 4806, "\u2581Her": 4807, "\u4f24": 4808, "\u500b": 4809, "\u2581Partnership": 4810, "\u4eba\u58eb": 4811, "\u2581\u56de\u987e": 4812, "free": 4813, "\u63d0\u4f9b\u63f4\u52a9": 4814, "\u6cd5\u89c4": 4815, "\u2581restrictions": 4816, "\u2581Austria": 4817, "\u2581Base": 4818, "\u559d": 4819, "\u82cf": 4820, "\u2581\u5f3a\u8c03": 4821, "\u5f88\u597d": 4822, "\u2581played": 4823, "\u4f5c\u51fa\u4e86": 4824, "\u2581troop": 4825, "\u8c03\u52a8": 4826, "\u2581die": 4827, "\u56fd\u5bb6\u7684": 4828, "\u8150\u8d25": 4829, "\u2581Out": 4830, "Secretary": 4831, "\u2581conformity": 4832, "\u9010\u6b65": 4833, "\u2581updated": 4834, "\u2581obtain": 4835, "\u2581(2)": 4836, "\u975e\u6b63\u5f0f": 4837, "\u5305\u542b": 4838, "\u7c7b\u522b": 4839, "\u2581offered": 4840, "\u505a\u4e86": 4841, "\u5404\u7ea7": 4842, "\u2581Dr": 4843, "\u2581website": 4844, "\u63a2\u8ba8": 4845, "\u5ba1\u8bae\u4e86": 4846, "\u2581gone": 4847, "\u2581wasn": 4848, "\u2581\u5c31\u662f": 4849, "\u25812007.": 4850, "\u95ee\u9898\u4e0a": 4851, "\u6f84\u6e05": 4852, "\u7684\u57fa\u7840": 4853, "\u2581Its": 4854, "\u58f0": 4855, "use": 4856, "\u2581sentence": 4857, "\u5360\u9886": 4858, "\u6709\u9650": 4859, "\u2581diversity": 4860, "\u2581amounts": 4861, "\u5207": 4862, "\u2581Spanish": 4863, "\u2581facilitating": 4864, "\u2581Saudi": 4865, "\u2581encouraging": 4866, "\u8bd5\u56fe": 4867, "\u2581reservation": 4868, "\u2581De": 4869, "\u5e76\u6ca1\u6709": 4870, "\u2581amendment": 4871, "\u590d\u6742": 4872, "\u2581pointed": 4873, "\u2581tax": 4874, "\u258154.": 4875, ".15": 4876, "\u5bc6\u5207\u5408\u4f5c": 4877, "\u2581Several": 4878, "\u2581coverage": 4879, "\u2581Supreme": 4880, "\u2581Georgia": 4881, "\u2581transit": 4882, "\u2581decide": 4883, "\u8fb9": 4884, "\u2581topic": 4885, "\u4e00\u9053": 4886, "\u7167": 4887, "\u2581\u963f": 4888, "\u2581\u7f14\u7ea6\u56fd": 4889, "\u2581Uganda": 4890, "\u2581except": 4891, "\u25812003.": 4892, "\u258144": 4893, "1\\": 4894, "CRP": 4895, "\u2581considerable": 4896, "\u83ab": 4897, "\u2581Finally": 4898, "\u54c1": 4899, "\u00ed": 4900, "\u67aa": 4901, "\u2581Universal": 4902, "\u2581payments": 4903, "\u2581budgetary": 4904, "\u2581identity": 4905, "\u51e0\u4e2a": 4906, "\u2581charge": 4907, "\u76f8\u6bd4": 4908, "\u6280\u672f\u5408\u4f5c": 4909, "\u4e0d\u53ef\u80fd": 4910, "\u5236\u5b9a\u4e86": 4911, "\u7684\u9700\u8981": 4912, "\u2581arrest": 4913, "son": 4914, "\u2581containing": 4915, "\u6240\u5217": 4916, "\u5e7f\u6cdb\u7684": 4917, "63": 4918, "\u4ee5\u5916": 4919, "\u5408\u4f5c\u4f19\u4f34": 4920, "\u7684\u653f\u6cbb": 4921, "\u53cc\u8fb9": 4922, "\u2581teams": 4923, "\u5e74\u81f3": 4924, "\u7684\u6210\u679c": 4925, "\u76ee\u524d\u7684": 4926, "\u8272": 4927, "\u2581Resources": 4928, "\u2581outer": 4929, "\u548c\u8054\u5408\u56fd": 4930, "\u2581losses": 4931, "\u2581\u7279\u522b\u62a5\u544a\u5458": 4932, "\u88c5": 4933, "\u5e76\u5bf9": 4934, "\u2581previously": 4935, "\u4ea7": 4936, "\u2581Azerbaijan": 4937, "\u2581drafting": 4938, "\u5176\u4ed6\u56fd\u5bb6": 4939, "\u2581\u60a8": 4940, "\u8fd8\u5c06": 4941, "\u2581determination": 4942, "\u2581registered": 4943, "\u258155.": 4944, "\ue4ce": 4945, "\u7684\u7406\u7531": 4946, "\u2581linked": 4947, "\u2581\u672c\u62a5\u544a": 4948, "\u63a8\u8fdb": 4949, "\u9879\u4e0b": 4950, "\u4fdd": 4951, "\u2581Fourth": 4952, "\u2581governing": 4953, "\u2581friends": 4954, "\u7537\u6027": 4955, "\u2581Peru": 4956, "\u4e0d\u6703": 4957, "\u7684\u6807\u51c6": 4958, "\u6cf0\u56fd": 4959, "ta": 4960, "\u7684\u7ecf\u9a8c": 4961, "\ue707": 4962, "\u754c": 4963, "\u2581ownership": 4964, "\u2581\u7406\u4e8b\u4f1a": 4965, "\u2581\u53ef": 4966, "\u4e39\u9ea6": 4967, "\u2581heads": 4968, "\u8fd9\u4e00\u95ee\u9898": 4969, "\u521b\u65b0": 4970, "\u5168\u4e16\u754c": 4971, "\u7ed9\u4f60": 4972, "\u4e70": 4973, "\u2581Project": 4974, "\u2581Philippines": 4975, "\u2581g": 4976, "\u8389": 4977, "\u8f66\u8f86": 4978, "\u2581stand": 4979, "\u2581expenses": 4980, "\u2581facing": 4981, "\u2581satisfaction": 4982, "\u2581\u771f": 4983, "\u7684\u5229\u76ca": 4984, "\u2581Thanks": 4985, "\u2581carrying": 4986, "\u529e": 4987, "\u79d8\u9c81": 4988, "\u2581Chapter": 4989, "\u5408\u7406": 4990, "\u6ce2\u5170": 4991, "\u662f\u8c01": 4992, "\u6570\u5b57": 4993, "\u2581Algeria": 4994, "\u2581Family": 4995, "\u4f0a\u65af\u5170": 4996, "\u2581Assistant": 4997, "\u2581begin": 4998, "\u4ef7": 4999, "\u7684\u5173\u952e": 5000, "\u25812002.": 5001, "82": 5002, "71": 5003, "\u5efa\u8bbe\u548c\u5e73": 5004, "\u52a9\u7406": 5005, "\u2581systematic": 5006, "\u623f": 5007, "\u5f81\u8058": 5008, "\u4e66\u9762": 5009, "\u2581Croatia": 5010, "\u2581limit": 5011, "\u2581disability": 5012, "\u7684\u6848\u4ef6": 5013, "))": 5014, "\u8ba8\u8bba\u4e86": 5015, "\u258153": 5016, "id": 5017, "200": 5018, "\u79fb\u5f99": 5019, "\u2581intention": 5020, "\u513f\u7ae5\u6743\u5229\u516c\u7ea6": 5021, "\u2581Notes": 5022, "\u9a6c\u91cc": 5023, "\u7559": 5024, "\u6765\u4e86": 5025, "\u2581Over": 5026, "\u6c14\u5019": 5027, "\u2581mortality": 5028, "\u2581transparent": 5029, "\u2581flows": 5030, "\u2581fall": 5031, "\u4e9a\u6d32": 5032, "\u8fd9\u4e2a\u95ee\u9898": 5033, "day": 5034, "\u2581diseases": 5035, "\u2581Hoc": 5036, "05": 5037, "\u5916\u5730": 5038, "\u7b2c\u4e09": 5039, "\u2581maintained": 5040, "\u9500\u552e": 5041, "\u2581Sorry": 5042, "shad": 5043, "\u2581bank": 5044, "\u5355\u72ec": 5045, "\u2581prices": 5046, "\u4f9d\u7136": 5047, "\u2581sites": 5048, "\u2581fuel": 5049, "\u2581Statute": 5050, "\u76f8\u540c": 5051, "1992": 5052, "\u5730\u533a\u7684": 5053, "\u5371\u5730\u9a6c\u62c9": 5054, "\u2581database": 5055, "\u8d26\u6237": 5056, "\u2581seeking": 5057, "out": 5058, "\u91cd\u8981\u7684": 5059, "\u4e3b\u4efb": 5060, ".4/": 5061, "\u8c61": 5062, "\u5a5a\u59fb": 5063, "\u2581proper": 5064, "\u2581resolve": 5065, "\u258156.": 5066, "\u2581governments": 5067, "\u2581Despite": 5068, "\u56db\u4e2a": 5069, "ton": 5070, "\u7684\u8303\u56f4": 5071, "\u2581Therefore": 5072, "\u6240\u8f7d": 5073, "\u2581pursue": 5074, "\u8ba8\u8bba\u4f1a": 5075, "\u6df1": 5076, "\u2581preparatory": 5077, "\u2581\u9f13\u52b1": 5078, "ism": 5079, "\u4f0a\u6717\u4f0a\u65af\u5170\u5171\u548c\u56fd": 5080, "\u6c47\u7f16": 5081, "\u2581Czech": 5082, "\u2581race": 5083, "\u2581Regulations": 5084, "\u2581brother": 5085, "\u2581ICT": 5086, "\u2581nations": 5087, "\u2581\u4f60\u8981": 5088, "\u2581Small": 5089, "\u9996": 5090, "\u51cf\u8f7b": 5091, "\u2581regulatory": 5092, "\u7a7f": 5093, "\u2581Jerusalem": 5094, "\u4ebf": 5095, "\u5384\u7acb\u7279\u91cc\u4e9a": 5096, "ia": 5097, "\u2581says": 5098, "\u2581original": 5099, "\u2581Recognizing": 5100, "\u2581preliminary": 5101, "\u2581minority": 5102, "\u2581initiated": 5103, "\u2581obstacles": 5104, "ian": 5105, "\u258157": 5106, "\u5373\u5c06": 5107, "\u2581\u51b3\u5b9a": 5108, "\u526f\u4e3b\u5e2d": 5109, "\u7684\u76ee\u7684": 5110, "no": 5111, "\u8bc4\u8bba": 5112, "\u2581baby": 5113, "\u2581Energy": 5114, "\u2581Sir": 5115, "\u2581Network": 5116, "\u2581introduction": 5117, "\u2581funded": 5118, "\u2581maintaining": 5119, "di": 5120, "\u2581truth": 5121, "\u91ca\u653e": 5122, "\u2581\u7f8e\u56fd": 5123, "DP": 5124, "\u2581works": 5125, "\u5b57": 5126, "\u2581interim": 5127, "\u8fd9\u65b9\u9762\u7684": 5128, "\u4e5f\u4e0d": 5129, "\u8d29\u8fd0": 5130, "\u2581prosecution": 5131, "\u2581reconstruction": 5132, "\u53ef\u5728": 5133, "\u53d1\u5c55\u4e2d\u56fd\u5bb6\u7684": 5134, "ka": 5135, "\u836f": 5136, "\u2581commission": 5137, "\u2581\u6211\u5728": 5138, "ak": 5139, "\u2581aims": 5140, "\u258151": 5141, "ha": 5142, "\u2581departments": 5143, "\u2581preparing": 5144, "\u6ca1\u6709\u4efb\u4f55": 5145, "\u54ea\u4e9b": 5146, "\u5927\u97e9\u6c11\u56fd": 5147, "\u2581numbers": 5148, "\u8650\u5f85": 5149, "\u2581expansion": 5150, "\u4e0e\u8054\u5408\u56fd": 5151, "\u2581thereby": 5152, "\u72af": 5153, "\u2581empowerment": 5154, "\u66ff\u4ee3": 5155, "\u7b79\u5907": 5156, "\u8bae\u9898": 5157, "\u4e8b\u60c5": 5158, "WP": 5159, "\u9884\u6d4b": 5160, "\u5e76\u975e": 5161, "\u9664\u975e": 5162, "\u9019\u500b": 5163, "\u4f2f": 5164, "\u4f7f\u5f97": 5165, "\u2581anyone": 5166, "\u2581transactions": 5167, "\u9152": 5168, "\u9500\u6bc1": 5169, "\u6db5\u76d6": 5170, "\u2581Total": 5171, "\u258157.": 5172, "\u8bc9\u8bbc": 5173, "\u2581percentage": 5174, "item": 5175, "\u2581Power": 5176, "\u4e3a\u4ec0\u4e48": 5177, "\u5211\u4e8b": 5178, "izing": 5179, "\u2581contributing": 5180, "\u8054\u7edc": 5181, "\u2581opening": 5182, "\u2581Iraqi": 5183, "\u4e0d\u6269\u6563\u6761\u7ea6": 5184, "\u4e0d\u5230": 5185, "reparatory": 5186, "\u6280\u80fd": 5187, "\u2581AIDS": 5188, "\u2581entity": 5189, "\u2581allocation": 5190, "\u503c\u5f97": 5191, "\u5927\u90e8\u5206": 5192, "\u9752\u5c11\u5e74": 5193, "\u2581element": 5194, "\u2581accused": 5195, "\u2581Guatemala": 5196, "/56/": 5197, "\u6587\u672c": 5198, "\u81ea\u7136\u8d44\u6e90": 5199, "\u6392": 5200, "\u2581Bangladesh": 5201, "\u672c\u62a5\u544a": 5202, "\u2581Task": 5203, "\u89c9\u5f97": 5204, "\u2581Movement": 5205, "\u2581supplies": 5206, "\u622a\u81f3": 5207, "\u2581protected": 5208, "\u95ee\u9898\u7279\u522b\u62a5\u544a\u5458": 5209, "\u8054\u5408\u4f1a": 5210, "\u2581Congress": 5211, "\u2581latter": 5212, "\u513f\u7ae5\u6743\u5229": 5213, "\u963f\u5c14\u53ca\u5229\u4e9a": 5214, "\u515a": 5215, "\u5927\u5bb6": 5216, "\u6280\u672f\u63f4\u52a9": 5217, "\u7684\u5b9a\u4e49": 5218, "\u2581chemical": 5219, "\u6838\u88c1\u519b": 5220, "\u2581\u5b83\u4eec": 5221, "\u513f": 5222, "\u00f3": 5223, "para": 5224, "\u8868\u793a\u5173\u5207": 5225, "\u57c3": 5226, "\u2581sustainability": 5227, "\u2581primarily": 5228, "\u2581bit": 5229, "\u2581Use": 5230, "\u7279\u522b\u4f1a\u8bae": 5231, "\u2581names": 5232, "\u6240\u4ee5": 5233, "\u2581message": 5234, "ling": 5235, "\u7684\u4eba\u5458": 5236, "Corr": 5237, "\u2581grave": 5238, "\u9664\u4e86": 5239, "\u2581\u53ef\u4ee5": 5240, "\u6e05\u695a": 5241, "\u2581identifying": 5242, "\u2581enter": 5243, "\u53e6\u5916": 5244, "\u514b\u7f57\u5730\u4e9a": 5245, "\u2581Like": 5246, "\u2581unable": 5247, "se": 5248, "93": 5249, "\u2581worldwide": 5250, "\u96c6\u4f53": 5251, "\u2581Comprehensive": 5252, "\u2581geographical": 5253, "\u5723": 5254, "\u96f6": 5255, "\u5c5e": 5256, "\u57ce": 5257, "\u2581\u4f60\u60f3": 5258, "\u5f85\u9047": 5259, "\u2581Taking": 5260, "\u4e3b\u5e2d\u56e2": 5261, "\u2581recalled": 5262, "\u2581produce": 5263, "\u6559\u5e08": 5264, "\u300d": 5265, "\u65c5\u884c": 5266, "\u2581attended": 5267, "\u2581instance": 5268, "\u5f15\u6e21": 5269, "\u2581factor": 5270, "\u4eba\u6743\u95ee\u9898": 5271, "\u2581join": 5272, "81": 5273, "\u662f\u4e2a": 5274, "\u2581myself": 5275, "\u4e00\u5957": 5276, "\u2581legitimate": 5277, "\u2581protecting": 5278, "\u2581remedies": 5279, "\u2581penalty": 5280, "\u5f00\u5c55\u4e86": 5281, "\u9014\u5f84": 5282, "\u2581cycle": 5283, "terrorism": 5284, "\u2581impacts": 5285, "\u7684\u5ba1\u8bae": 5286, "\u800c\u662f": 5287, "\u5a1c": 5288, "\u25812001.": 5289, "\u2581attend": 5290, "\u2581\ue707": 5291, "\u2581adaptation": 5292, "\u5f00\u5c55\u5de5\u4f5c": 5293, "\u66f4\u597d\u5730": 5294, "\u2581UNODC": 5295, "\u2581\u8fd9\u6837": 5296, "\u9a6c\u6765\u897f\u4e9a": 5297, "\u6cd5\u6848": 5298, "\u89c6": 5299, "\u2581wouldn": 5300, "94": 5301, "\u4fee\u6b63\u6848": 5302, "\u2581learning": 5303, "\u4e13\u4e1a\u4eba\u5458": 5304, "\u258158.": 5305, "\u52a0\u5feb": 5306, "\u2581La": 5307, "\u2581Budgetary": 5308, "\u514b\u670d": 5309, "\u8bbe\u6cd5": 5310, "\u2581Poland": 5311, "\u73b0\u884c": 5312, "\u2581Belarus": 5313, "\u540e\u7eed\u884c\u52a8": 5314, "\u4e9b": 5315, "ou": 5316, "\u2581Informal": 5317, "\u7f16": 5318, "\u7684\u8d21\u732e": 5319, "\u7684\u7acb\u573a": 5320, "\u9ad8\u5ea6": 5321, "\u770b\u770b": 5322, "\u2581duties": 5323, "\u2581OIOS": 5324, "\u2581reiterated": 5325, "\u63d0\u51fa\u62a5\u544a": 5326, "\u88c1\u519b\u8c08\u5224\u4f1a\u8bae": 5327, "\u2581confirmed": 5328, "\u5c3d": 5329, "\u2581liability": 5330, "\u2581employees": 5331, "\u2581enjoy": 5332, "\u2581designated": 5333, "\u2581perpetrators": 5334, "\u8001\u5e74\u4eba": 5335, "\u2581etc": 5336, "\u2581fifth": 5337, "\u7761": 5338, "\u2581allocated": 5339, "\u2581Red": 5340, "\u4eba\u9053\u4e3b\u4e49\u63f4\u52a9": 5341, "\u2581regulation": 5342, "rd": 5343, "\u8ba4\u53ef": 5344, "\u2581acting": 5345, "\u5dee": 5346, "\u63d0\u540d": 5347, "\u6559\u80b2\u548c": 5348, "\u2581\u6b63\u5982": 5349, "\u7684\u6311\u6218": 5350, "\u5df4\u52d2\u65af\u5766\u4eba\u6c11": 5351, "\u7684\u4e00\u5207": 5352, "\u2581Part": 5353, "\u4e5d": 5354, "\u63d0\u8bf7": 5355, "\u4e48": 5356, "\u963b\u788d": 5357, "\u4ea7\u51fa": 5358, "\u2581\u4f60\u597d": 5359, "\u7684\u53d1\u8a00": 5360, "\u2581ill": 5361, "\u603b\u989d": 5362, "\u88c1\u51b3": 5363, "84": 5364, "\u5f80": 5365, "\u25812000.": 5366, "all": 5367, "\u2581productive": 5368, "\u80af\u5c3c\u4e9a": 5369, "\u5468\u671f": 5370, "\u5404\u81ea": 5371, "\u2581EU": 5372, ".10": 5373, "conflict": 5374, "\u2581sign": 5375, "\u963f\u585e\u62dc\u7586": 5376, "\u7ef4\u6301\u548c\u5e73": 5377, "\u548c\u6280\u672f": 5378, "\u6307\u793a": 5379, "\u4e3b\u6743": 5380, "\u2581examine": 5381, "\u258159.": 5382, "\u5973\u4eba": 5383, "\u2581Nepal": 5384, "\u8d44\u672c": 5385, "\u2581Professional": 5386, "\u2581accept": 5387, "\u258158": 5388, "\u2581details": 5389, "\u2581partner": 5390, "\u8be2\u95ee": 5391, "\u7ee7\u7eed\u52aa\u529b": 5392, "ay": 5393, "\u6761\u8349\u6848": 5394, "\u624e": 5395, "\u72d7": 5396, "\u683c\u9c81\u5409\u4e9a": 5397, "\u2581Peoples": 5398, "\u2581Malaysia": 5399, "\u67ec\u57d4\u5be8": 5400, "\u5341": 5401, "\u2581noting": 5402, "\u4ecd\u7136\u662f": 5403, "\u804c\u52a1": 5404, "\u2581LDCs": 5405, "\u5e0c\u814a": 5406, "\u5e9f\u7269": 5407, "\u65b0\u95fb\u90e8": 5408, "\u524d\u5f80": 5409, "\u2581Follow": 5410, "\u2581impunity": 5411, "\u56fd\u9645\u6cd5\u9662": 5412, "\u8d44\u683c": 5413, "\u2581Year": 5414, "\u2581believes": 5415, "\u2581safeguards": 5416, "\u793e\u4f1a\u53d1\u5c55": 5417, "\u6839\u636e\u7b2c": 5418, "\u7ea6\u65e6": 5419, "\u2581Nairobi": 5420, "\u2581\u5c0f": 5421, "\u2581vehicles": 5422, "\u2581Paragraph": 5423, "\u2581shows": 5424, "\u2581older": 5425, "\u2581ahead": 5426, "\u2581Jordan": 5427, "\u7684\u6761\u4ef6": 5428, "\u53d1\u653e": 5429, "ti": 5430, "\u59d4\u5458\u4f1a\u6210\u5458": 5431, "\u60e9\u7f5a": 5432, "\u90fd\u6709": 5433, "\u62df": 5434, "\u53d1\u8a00\u8005": 5435, "\u2581numerous": 5436, "\u7b7e\u540d": 5437, "\u2581Even": 5438, "\u2581(212)": 5439, "\u5f00\u652f": 5440, "\u8d85": 5441, "\u7acb": 5442, "\u7f05\u7538": 5443, "agency": 5444, "\u2581consultative": 5445, "\u2581\u5fc5\u987b": 5446, "\u9c81": 5447, "\u6839": 5448, "\u5de5\u8d44": 5449, "\u2581\u5662": 5450, "\u5de9\u56fa": 5451, "\u2581circulated": 5452, "\u2581decrease": 5453, "\u7269\u54c1": 5454, "\u2581bringing": 5455, "ne": 5456, "\u2581chap": 5457, "\u2581\u8003\u8651\u5230": 5458, "\u258160.": 5459, "\u2581\u5c0d": 5460, "\u575a\u6301": 5461, "\u58f0\u79f0": 5462, "\u8fbe\u5c14\u5bcc\u5c14": 5463, "\u2581haven": 5464, "\u8bed\u6587": 5465, "\u2581settlements": 5466, "\u7684\u4eba\u6743": 5467, "\u2581verification": 5468, "\u5c42\u9762": 5469, "\u6709\u673a\u4f1a": 5470, "\u8bc1\u5b9e": 5471, "\u7edd\u5bf9": 5472, "\u2581sanitation": 5473, "\u653f\u7b56\u548c": 5474, "\u2581gas": 5475, "\u2581400": 5476, "\u76ee\u524d\u6b63\u5728": 5477, "\u2581Coordinator": 5478, "\u8be5\u533a\u57df": 5479, "\u51fa\u7248": 5480, "\u7684\u7b54\u590d": 5481, "\u51cf": 5482, "\u6539": 5483, "\u2581Forces": 5484, "\u2581leaving": 5485, "\u2581specified": 5486, "\u5750": 5487, "\u2581grateful": 5488, "\u2581Hi": 5489, "\u2581\u4e94": 5490, "\u76f8\u5f53": 5491, "\u2581cut": 5492, "\u73b0\u5b9e": 5493, "\u4eba\u6743\u9ad8\u4e13\u529e": 5494, "\u2581binding": 5495, "\u2581comes": 5496, "\u96c7\u4e3b": 5497, "\u2581maximum": 5498, "\u2581Expert": 5499, "\u5f3a\u5978": 5500, "\u8fd9\u6b21": 5501, "\u585e\u5185\u52a0\u5c14": 5502, "\u88ab\u544a": 5503, "\u7684\u793e\u4f1a": 5504, "\u2581husband": 5505, "ty": 5506, "\u2581Strategic": 5507, "\u4e94\u4e2a": 5508, "\u2581birth": 5509, "\u6709\u6240": 5510, "\u2581guide": 5511, "\u2581reviews": 5512, "\u4e24\u540d": 5513, "\u2581widely": 5514, "\u6211\u60f3": 5515, "\u2581Welcomes": 5516, "\u2581principal": 5517, "\u6362": 5518, "\u6b21\u7ea7\u65b9\u6848": 5519, "\u4e13": 5520, "\u2581publications": 5521, "\u4e0e\u5176": 5522, "\u5df2\u7d93": 5523, "\u2581coordinate": 5524, "\u4fc4": 5525, "\u7684\u53c2\u4e0e": 5526, "\u2581dignity": 5527, "\u2581uh": 5528, "\u6b66\u88c5\u90e8\u961f": 5529, "(1)": 5530, "\u963f\u62c9\u4f2f\u53d9\u5229\u4e9a\u5171\u548c\u56fd": 5531, "\u6c42": 5532, "\u2581daily": 5533, "\u5973\u7ae5": 5534, "\u2581thinking": 5535, "\u707e\u5bb3": 5536, "da": 5537, "\u2581\u4e00\u4e9b": 5538, "\u2581Eritrea": 5539, "\u8fd9\u4e9b\u95ee\u9898": 5540, "\u53d1\u5c55\u548c": 5541, "\u9662": 5542, "\u7acb\u573a": 5543, "\u5b9e\u73b0\u5343\u5e74\u53d1\u5c55\u76ee\u6807": 5544, "\u2581Ministerial": 5545, "\u77f3\u6cb9": 5546, "\u2581Uh": 5547, "\u2581pilot": 5548, "\u6c11": 5549, "\u5404\u4f1a\u5458\u56fd": 5550, "\u2581substances": 5551, "\u9762\u5bf9": 5552, "\u2581X": 5553, "\u82e5": 5554, "\u675c": 5555, "\u2581incidents": 5556, "\u7b2c\u4e8c\u6b21": 5557, "\u2581refer": 5558, "\u2581figure": 5559, "\u2581affecting": 5560, "\u5e94\u4ed8": 5561, "\u2581judge": 5562, "\u2581constructive": 5563, "\u7684\u51b3\u8bae": 5564, "\u7d22\u8d54\u4eba": 5565, "\u2581advocacy": 5566, "\u7684\u76ee\u7684\u662f": 5567, "\u7a81\u5c3c\u65af": 5568, "\u5e08": 5569, "\u8d27": 5570, "\u5728\u56fd\u5bb6\u4e00\u7ea7": 5571, "\u767e": 5572, "\u2581occurred": 5573, "\u641e": 5574, "\u8d6b": 5575, "\u6642": 5576, "\u878d\u8d44": 5577, "\u6d77\u5173": 5578, "\u9519\u8bef": 5579, "\u2581web": 5580, "\u53f7\u51b3\u8bae\u4e2d": 5581, "\u2581Serbia": 5582, "\u2581hoc": 5583, "\u665a": 5584, "\u2581uses": 5585, "\u2581\u4fc3\u8fdb": 5586, "\u2581dispute": 5587, "\u6559\u79d1\u6587\u7ec4\u7ec7": 5588, "\u9881\u5e03": 5589, "\u2581Accordingly": 5590, "\u2581looks": 5591, "q": 5592, "\u2581Supplement": 5593, "\u2581pending": 5594, "\u2581represent": 5595, "\u4e3b\u8981\u662f": 5596, "\u72b6\u6001": 5597, "\u8fd0": 5598, "\u6700\u9ad8\u6cd5\u9662": 5599, "\u258162": 5600, "\u2581reaffirmed": 5601, "\u2581\u6211\u4e0d": 5602, "\u2581assisting": 5603, "\u7ba1\u7406\u548c": 5604, "\u610f\u5473\u7740": 5605, "ov": 5606, "\u2581ILO": 5607, "\u7b79\u5907\u59d4\u5458\u4f1a": 5608, "\u2581hoped": 5609, "\u6e14\u4e1a": 5610, "\u53d6\u51b3\u4e8e": 5611, "\u603b\u4f53": 5612, "\u83b7": 5613, "\u5175": 5614, "\u5e72\u9884": 5615, "\u7684\u5168\u9762": 5616, "\u53ea\u8981": 5617, "\u5931": 5618, "\u258161.": 5619, "\u5dee\u5f02": 5620, "raising": 5621, "\u653e\u5f03": 5622, "\u2581examination": 5623, "\u2581news": 5624, "92": 5625, "\u63d0\u4f9b\u652f\u52a9": 5626, "\u6551\u6d4e": 5627, "\u2581top": 5628, "\u9053\u5fb7": 5629, "\u73b0\u91d1": 5630, "\u8c08": 5631, "\u5b66\u9662": 5632, "\u4e00\u76f4\u5728": 5633, "\u258164": 5634, "\u5185\u7684": 5635, "\u2581reasonable": 5636, "\u76ee": 5637, "\u7f57\u9a6c\u5c3c\u4e9a": 5638, "\u7ecf\u6d4e\u53d1\u5c55": 5639, "ance": 5640, "\u77e5": 5641, "\u2581judiciary": 5642, "\u2581investments": 5643, "\u258152": 5644, "\u2581\u4f1a": 5645, "\u7684\u8bf4\u660e": 5646, "\u2581troops": 5647, "\u8861\u91cf": 5648, "\u8865\u8d34": 5649, "\u8d2d\u4e70": 5650, "\u2581Belgium": 5651, "\u4e89\u7aef": 5652, "\u2581nine": 5653, "\u2581chemicals": 5654, "\u5f88\u5927": 5655, "\u2581focal": 5656, "\u2581happy": 5657, "\u2581drawn": 5658, "\u2581began": 5659, "\u2581con": 5660, "\u2581suffering": 5661, "\u2581innovative": 5662, "\u81ea\u7136\u707e\u5bb3": 5663, "\u2581Torture": 5664, "\u836f\u7269": 5665, "\u2581observer": 5666, "\u5f15\u8d77": 5667, "\u2581calling": 5668, "+": 5669, "\u2581obtained": 5670, "\u5b98": 5671, "\u2581Reaffirming": 5672, "\u2581stations": 5673, "\u4efb\u4f55\u4eba": 5674, "\u71c3\u6599": 5675, "\u63a8\u5e7f": 5676, "\u2581choice": 5677, "\u2581\u5bf9\u4e0d\u8d77": 5678, "\u6301": 5679, "\u7ed3": 5680, "\u5171\u6709": 5681, "\u5e73\u53f0": 5682, "\u2581committees": 5683, "\u6c99\u7279\u963f\u62c9\u4f2f": 5684, "\u2581improvements": 5685, "\u2581indeed": 5686, "\u7f8e\u6d32": 5687, "\u2581Ecuador": 5688, "\u63d0\u9192": 5689, "\u2581Denmark": 5690, "\u8fc7\u6765": 5691, "\u4e0a\u6587\u7b2c": 5692, "\u517b\u6064\u91d1": 5693, "\u5f3a": 5694, "\u2581Budget": 5695, "\u2581controls": 5696, "\u89c4\u5b9a\u4e86": 5697, "\u65b9\u5411": 5698, "\u2581prisoners": 5699, "\u7684\u751f\u6d3b": 5700, "\u8c03\u89e3": 5701, "\u958b": 5702, "\u2581vulnerability": 5703, "off": 5704, "\u5b9e\u9645\u4e0a": 5705, "\u2581grant": 5706, "\u6700\u521d": 5707, "\u4f9d": 5708, "\u25812009.": 5709, "\u2581achievements": 5710, "\u2581constraints": 5711, "\u611b": 5712, "\u6740": 5713, "\u2581Romania": 5714, "\u8fd8\u5728": 5715, "\u79ef\u6781\u53c2\u4e0e": 5716, "\u987f": 5717, "\u2581Tell": 5718, "\u2581Sri": 5719, "\u9996\u6b21": 5720, "\u2581pretty": 5721, "\u2581receiving": 5722, "\u2581Kyoto": 5723, "\u771f\u6b63\u7684": 5724, "\u2581Mrs": 5725, "\u62a4\u7406": 5726, "\u5f39\u836f": 5727, "\u2581maybe": 5728, "\u5e2e": 5729, "\u2581easy": 5730, "mail": 5731, "\u2581burden": 5732, "\u2581Costa": 5733, "\u258162.": 5734, "\u5143": 5735, "\u8461\u8404\u7259": 5736, "ter": 5737, "\u2581unilateral": 5738, "\u2581panel": 5739, "\u2581moment": 5740, "\u548c\u6267\u884c": 5741, "\u603b\u7406": 5742, "\u5ea7": 5743, "\u89c2\u70b9": 5744, "\u2581wants": 5745, "\u9a71\u9010": 5746, "\u8d8a\u6765\u8d8a": 5747, "\u745e": 5748, "\u5e76\u672a": 5749, "\u6c11\u4f17": 5750, "\u2581tried": 5751, "\u548c\u5efa\u8bae": 5752, "\u534f\u8c03\u5458": 5753, "\u2581modalities": 5754, "\u2581agency": 5755, "\u7684\u6838\u5fc3": 5756, "\u2581fear": 5757, "\u65cf": 5758, "\u2581UNESCO": 5759, "\u663e\u7136": 5760, "\u4f20": 5761, "\u2581differences": 5762, "\u2581migrant": 5763, "\u2581\u53ea\u6709": 5764, "\u2581jointly": 5765, "\u9ad8\u7ea7\u522b": 5766, "\u2581gap": 5767, "\u2581became": 5768, "\u4f5c\u51fa\u51b3\u5b9a": 5769, "\u7684\u5b9e\u9645": 5770, "\u57fa\u7840\u4e0a": 5771, "\u2581link": 5772, "\u7684\u4e2a\u4eba": 5773, "\u5384\u74dc\u591a\u5c14": 5774, "\u8bbe\u7acb\u7684": 5775, "\u2581Model": 5776, "\u2581proliferation": 5777, "\u4ea4\u4ed8": 5778, "\u6700\u597d": 5779, "\u8425\u517b": 5780, "\u2581Eastern": 5781, "\u2581Mo": 5782, "\u8d70\u4e86": 5783, "://": 5784, "\u6548\u7387": 5785, "\u4ed8": 5786, "\u662f\u56e0\u4e3a": 5787, "\u2581located": 5788, "\u89c6\u4e3a": 5789, "\u5728\u90a3\u91cc": 5790, "ant": 5791, "\u4ea7\u751f\u7684": 5792, "\u2581proportion": 5793, "\u2581subsequently": 5794, "\u5b9e\u5730": 5795, "\u2581guarantees": 5796, "\u2581option": 5797, "\u548c\u52a0\u5f3a": 5798, "\u2581Peacebuilding": 5799, "\u2581\u8bb8\u591a": 5800, "\u5730\u7403": 5801, "\u59a8\u788d": 5802, "\u5148\u524d": 5803, "\u2581Man": 5804, "rs": 5805, "\u793e": 5806, "\u98df\u54c1": 5807, "\u2581Lanka": 5808, "\u2581guess": 5809, "\u2581humanity": 5810, "\u2581rapid": 5811, "/1": 5812, "\u2581Beijing": 5813, "\u2581campaigns": 5814, "\u2581Venezuela": 5815, "\u884c\u4e1a": 5816, "\u4e0b\u6765": 5817, "\u53d6\u5f97\u4e86": 5818, "\u2581Rica": 5819, "\u2581Counter": 5820, "\u2581deliberations": 5821, "\u5317": 5822, "\u6bcf\u4e00": 5823, "\u2581regularly": 5824, "\u2581scheduled": 5825, "\u7ba1\u8f96": 5826, "\u6e05": 5827, "\u5931\u4e1a": 5828, "\u2581changed": 5829, "\u65cf\u88d4": 5830, "\u2581capabilities": 5831, "\u2581OK": 5832, "\u4efb\u671f": 5833, "\u4f4e\u4e8e": 5834, "\u2581\u4e0a\u5348": 5835, "\u2581Excellency": 5836, "\u5e76\u9f13\u52b1": 5837, "\u5de5\u4f1a": 5838, "\u7ecf\u5e38\u9884\u7b97": 5839, "\u258163.": 5840, "\u2581closed": 5841, "\u9075\u5faa": 5842, "\u6700\u4f4e": 5843, "\u2581felt": 5844, "\u2581degree": 5845, "\u4e24\u5e74": 5846, "\u5f71\u54cd\u5230": 5847, "\u6027\u522b\u5e73\u7b49": 5848, "\u2581Military": 5849, "\u2581\u59d4\u5458\u4f1a\u6ce8\u610f\u5230": 5850, "\u7b2c\u4e94": 5851, "\u6bcf\u5929": 5852, "\u4e3b\u5f20": 5853, "\u2581governmental": 5854, "\u2581prostitution": 5855, "\u4e0e\u53d1\u5c55": 5856, "\u2581send": 5857, "\u9762\u4e34\u7684": 5858, "\u2581seems": 5859, "\u7684\u72b6\u51b5": 5860, "\u591a\u5c11": 5861, "\u2581Statistics": 5862, "\u2581incorporated": 5863, "\u2581Dad": 5864, "\u517c": 5865, "\u2581preventive": 5866, "\u8865\u507f": 5867, "\u8d5b": 5868, "ized": 5869, "\u4eac\u90fd\u8bae\u5b9a\u4e66": 5870, "\u2581mandated": 5871, "INF": 5872, "\u5236\u4f5c": 5873, "\u65af\u6d1b\u6587\u5c3c\u4e9a": 5874, "\u76d1\u7981": 5875, "\u8868\u73b0": 5876, "\u2581Having": 5877, "\u6682\u505c": 5878, "\u2581radio": 5879, "\u662f\u7531": 5880, "be": 5881, "\u5168\u4f53\u4f1a\u8bae": 5882, "\u767c": 5883, "\u6ee5\u7528": 5884, "\u4ee5\u4fc3\u8fdb": 5885, "\u2581quite": 5886, "\u2581\u9019\u662f": 5887, "\u2581\u8c01": 5888, "\u2581Angola": 5889, "\u2581\u5df2": 5890, "\u2581disputes": 5891, "\u6ce8\u91cd": 5892, "\u6765\u7684": 5893, "\u25812013,": 5894, "\u5dee\u8ddd": 5895, "\u2581test": 5896, "\u6267\u6cd5": 5897, "\u2581outlined": 5898, "\u5bfb\u627e": 5899, "\u2581declared": 5900, "\u2581Change": 5901, "\u2581users": 5902, "\u2581\u5bfc\u8a00": 5903, "\u592b\u4eba": 5904, "\u901a\u8baf": 5905, "\u2581extreme": 5906, "\u9322": 5907, "UNEP": 5908, "ow": 5909, "\u2581Activities": 5910, "\u2581contain": 5911, "\u4e86\u4e00\u4e2a": 5912, "\u53d6\u4ee3": 5913, "\u2581transmitted": 5914, "\u2581resumed": 5915, "\u96c7\u7528": 5916, "(2)": 5917, "\u2581letters": 5918, "\u2581600": 5919, "\u2581h": 5920, "\u5179": 5921, "\u5b5f\u52a0\u62c9\u56fd": 5922, "\u7a0e": 5923, "\u2581Only": 5924, "\u2581search": 5925, "\u52b3\u5de5": 5926, "\u2581Paris": 5927, "\u300b;": 5928, "\u2581Arabia": 5929, "\u52a0\u901f": 5930, "\u2581violated": 5931, "\u6d88\u9664\u8d2b\u7a77": 5932, "\u7684\u540c\u65f6": 5933, "\u2581Strengthening": 5934, "\u661f": 5935, "\u8868\u51b3": 5936, "\u5b89\u5168\u7406\u4e8b\u4f1a\u7b2c": 5937, "led": 5938, "\u9519": 5939, "\u2581recognizes": 5940, "\u548c\u7ba1\u7406": 5941, "\u9762\u524d": 5942, "\u88ab\u89c6\u4e3a": 5943, "CO": 5944, "\u2581powers": 5945, "\u2581\u5176\u4e2d": 5946, "\u2581extensive": 5947, "\u25811997,": 5948, "\u2581size": 5949, "\u2581Encourages": 5950, "\u2581\u4ee5\u8272\u5217": 5951, "\u4e94\u5e74": 5952, "\u66fe\u7ecf": 5953, "\u82f1\u56fd": 5954, "me": 5955, "\u5c1a": 5956, "\u4f9d\u8d56": 5957, "\u2581happen": 5958, "\u653e\u5728": 5959, "\u540c\u4e00": 5960, "\u2581probably": 5961, "\u2581\u6211\u4eec\u8ba4\u4e3a": 5962, "\u2581briefing": 5963, "\u7684\u673a\u6784": 5964, "\u5927\u89c4\u6a21\u6bc1\u706d\u6027\u6b66\u5668": 5965, "\u5377": 5966, "\u5efa\u9020": 5967, "\u2581Oversight": 5968, "\u2581seminars": 5969, "\u4e5f\u6709": 5970, "\u2581arrested": 5971, "\u258164.": 5972, "\u2581\u786e\u4fdd": 5973, "\u5efa": 5974, "\u2581permit": 5975, "\u666e\u901a": 5976, "\u5343": 5977, "\u5916\u4ea4\u90e8\u957f": 5978, "\u2581pro": 5979, "\u2581writing": 5980, "\u6279\u51c6\u4e86": 5981, "her": 5982, "\u90a3\u91cc": 5983, "\u6e90": 5984, "\u2581background": 5985, "\u6b7b\u5211": 5986, "\u89e3\u9664\u6b66\u88c5": 5987, "\u4eb2": 5988, "\u8bc1": 5989, "\u8bb8\u53ef": 5990, "\u63a8": 5991, "\u7ef4\u4e5f\u7eb3": 5992, "\u7684\u770b\u6cd5": 5993, "\u2581Given": 5994, "\u8be5\u59d4\u5458\u4f1a": 5995, "\u2581Urges": 5996, "\u2581pressure": 5997, "\u2581Safety": 5998, "\u2581imprisonment": 5999, "\u2581assigned": 6000, "\u7684\u6709\u5173": 6001, "\u5c0f\u59d0": 6002, "\u7684\u4e1c\u897f": 6003, "\u2581covering": 6004, "\u2581door": 6005, "\u2581staffing": 6006, "\u5371\u5bb3": 6007, "\u600e\u4e48\u6837": 6008, "\u2581announced": 6009, "\u2581Give": 6010, "91": 6011, ".12": 6012, "\u2581vision": 6013, "\u2581expanded": 6014, "\u6885": 6015, "\u6208": 6016, "\u56de\u53bb": 6017, "\u7684\u4e16\u754c": 6018, "\u2581Chinese": 6019, "\u2581Work": 6020, "\u52a1": 6021, "\u6267\u884c\u4e3b\u4efb": 6022, "op": 6023, "\u6c47\u62a5": 6024, "\u4e1c\u9053\u56fd": 6025, "our": 6026, "\u2581break": 6027, "\u2581Portugal": 6028, "\u5c11\u6570\u6c11\u65cf": 6029, "\u5bc6\u5207": 6030, "Commission": 6031, "\u258165": 6032, "\u2581unemployment": 6033, "\u2581Violence": 6034, "\u2581Le": 6035, "\u2581century": 6036, "\u2581Equality": 6037, "\u2581Independent": 6038, "\u5ba1\u8ba1\u59d4\u5458\u4f1a": 6039, "\u2581joined": 6040, "\u4e0d\u5e73\u7b49": 6041, "\u5927\u4e0d\u5217\u98a0\u53ca\u5317\u7231\u5c14\u5170\u8054\u5408\u738b\u56fd": 6042, "\u56da\u72af": 6043, "\u4e2d\u4e1c": 6044, "\u4e0d\u4e86": 6045, "\u2581examined": 6046, "\u5f00\u5c55\u7684": 6047, "\u2581convened": 6048, "\u2581mines": 6049, "\u2581charges": 6050, "\u2581technological": 6051, ".11": 6052, "\u4e25\u683c": 6053, "\u5c3c\u6cca\u5c14": 6054, "\u2581Records": 6055, "\u2581ones": 6056, "\u63d0\u4ea4\u7ed9": 6057, "\u4e2d\u6709": 6058, "\u6536\u76ca": 6059, "\u2581invitation": 6060, "\u2581dangerous": 6061, "\u2581\u6309": 6062, "sh": 6063, "\u258165.": 6064, "\u7740\u624b": 6065, "\u2581solidarity": 6066, "\u2581Platform": 6067, "\u2581sale": 6068, "\u5b58": 6069, "\u54e5": 6070, "\u8ba2\u6b63": 6071, "\u5f7b\u5e95": 6072, "\u7684\u6280\u672f": 6073, "\u517b": 6074, "\u653f\u515a": 6075, "\u2581sometimes": 6076, "\u5f53\u7136": 6077, "\u5fc3\u7406": 6078, "per": 6079, "\u5ba2\u6237": 6080, "\u2581coherence": 6081, "\u2581coordinating": 6082, "atar": 6083, "\u2581mental": 6084, "\u2581tomorrow": 6085, "go": 6086, "\u4f9b\u5e94\u5546": 6087, "\u56de\u5bb6": 6088, "\u5b9e": 6089, "\u96c6\u4e2d": 6090, "\u561b": 6091, "\u843d": 6092, "\u6709\u70b9": 6093, "\u2581\u518d": 6094, "\u258180": 6095, "\u5385": 6096, "\u76f4": 6097, "\u2581product": 6098, "\u2581rape": 6099, "\u2581tonight": 6100, "\u2581clean": 6101, "\u4ef2\u88c1": 6102, "\u662f\u4e00\u79cd": 6103, "ard": 6104, "\u2581attached": 6105, "\u63d0\u51fa\u5efa\u8bae": 6106, "\u6839\u672c": 6107, "\u2581nationals": 6108, "\u2581eat": 6109, "\u6000\u7591": 6110, "\u5c42": 6111, "\u2581listen": 6112, "\u62c5\u4fdd": 6113, "\u65af\u7279": 6114, "**": 6115, "\u2581helping": 6116, "\u7a0b": 6117, "\u51fa\u751f": 6118, "\u2581\u54a8\u8be2\u59d4\u5458\u4f1a": 6119, "\u4e0a\u5347": 6120, "\u8865\u7f16\u7b2c": 6121, "\u2581eyes": 6122, "\u6027\u7684": 6123, "\u2581Additional": 6124, "\u7684\u5168\u7403": 6125, "\u2581hit": 6126, "\u258170": 6127, "\u7684\u98ce\u9669": 6128, "um": 6129, "\u89c4\u6a21": 6130, "/3": 6131, "\u63d0\u4ea4\u62a5\u544a": 6132, "\u2581expand": 6133, "\u4e3b\u6301": 6134, "\u2581\u7b49\u7b49": 6135, "\u2581foster": 6136, "\u81f4": 6137, "\u4f30\u8ba1\u6570": 6138, "\u98de": 6139, "\u602a": 6140, "\u2581Each": 6141, "\u7ba1\u7406\u5c40": 6142, "\u2581condition": 6143, "\u2581Climate": 6144, "\u6539\u4e3a": 6145, "\u8868\u8fbe": 6146, "\u2581mobilization": 6147, "\u7576": 6148, "\u53e3\u5934": 6149, "\u7684\u57f9\u8bad": 6150, "\u7231\u5c14\u5170": 6151, "\u6240\u89c4\u5b9a\u7684": 6152, "7%": 6153, "\u2581knows": 6154, "\u9644\u4ef6\u4e00": 6155, "\u5bc6": 6156, "\u7981": 6157, "\u2581extension": 6158, "\u2581soldiers": 6159, "\u91c7\u53d6\u7684\u884c\u52a8": 6160, "\u8bbe": 6161, "\u2581selection": 6162, "\u4ee5\u53ca\u5bf9": 6163, "\u8be5\u62a5\u544a": 6164, "\u2581Cambodia": 6165, "\u7206\u70b8": 6166, "\u5f88\u96be": 6167, "\u6377\u514b\u5171\u548c\u56fd": 6168, "\u258161": 6169, "\u51c6\u786e": 6170, "\u2581perform": 6171, "\u2581intolerance": 6172, "\u6709\u4e49\u52a1": 6173, "\u751f\u6d3b\u5728": 6174, "\u5df2\u6709": 6175, "\u258166.": 6176, "\u597d\u4e86": 6177, "\u8d1f\u62c5": 6178, "\u2581file": 6179, "\u53cd\u6050": 6180, "\u5ba1\u67e5\u4e86": 6181, "\u2581acceptance": 6182, "\u2581witnesses": 6183, "\u6240\u6709\u4eba": 6184, "\u2581links": 6185, "\u2581\u6211\u4e5f": 6186, "\u2581Foundation": 6187, "\u2581gaps": 6188, "\u2581\u771f\u7684": 6189, "\u2581Corr": 6190, "\u2581NPT": 6191, "\u8fdb\u6b65": 6192, "\u2581advantage": 6193, "\u56fd\u9645\u4f1a\u8bae": 6194, "\u2581roles": 6195, "4%": 6196, "\u2581helped": 6197, "\u8bb0\u8005": 6198, "\u7684\u540e\u7eed\u884c\u52a8": 6199, "\u83b7\u6089": 6200, "\u96c6": 6201, "\u900f\u660e": 6202, "\u2581San": 6203, "\u2581\u5b89\u7406\u4f1a": 6204, "\u767d\u4fc4\u7f57\u65af": 6205, ".9/": 6206, "\u4e16\u8d38\u7ec4\u7ec7": 6207, "\u5e36": 6208, "\u2581examples": 6209, "\u5242": 6210, "\u2581died": 6211, "\u2581pension": 6212, "\u7684\u4eba\u6570": 6213, "\u6b21\u533a\u57df": 6214, "ang": 6215, "\u2581\u6700\u8fd1": 6216, "\u7ecf\u8425": 6217, "\u6c5e": 6218, "\u8d8a": 6219, "\u4e25\u91cd\u7684": 6220, "\u751f\u6001\u7cfb\u7edf": 6221, "\u2581relevance": 6222, "\u7684\u7814\u7a76": 6223, "\u2581comment": 6224, "\u5e74\u4ee3": 6225, "\u2581yes": 6226, "\u7684\u76f8\u5173": 6227, "\u89c2\u5bdf": 6228, "old": 6229, "\u56fd\u9645\u8d38\u6613": 6230, "\u52a0\u7eb3": 6231, "\u6350\u52a9": 6232, "\u2581Sixth": 6233, "\u5728\u4e8e": 6234, "specific": 6235, "\u2581broader": 6236, "\u2581Afghan": 6237, "\u2581Measures": 6238, "\u62a5\u544a\u8bf4": 6239, "\u754c\u5b9a": 6240, "\u2581papers": 6241, "\u9760": 6242, "\u2581trend": 6243, "\u52b3\u5de5\u7ec4\u7ec7": 6244, "\u2581check": 6245, "\u8c41\u514d": 6246, "\u53cd\u6620\u4e86": 6247, "\u30fb": 6248, "\u2581location": 6249, "500": 6250, "\u2581processing": 6251, "\u258190": 6252, "\u4e0d\u60f3": 6253, "\u2581Integrated": 6254, "\u4f5c\u51fa\u7684": 6255, "\u5ba1\u8bc4": 6256, "/4": 6257, "\u2581Planning": 6258, "\u2581societies": 6259, "\u2581\u89c1": 6260, "\u6027\u66b4\u529b": 6261, "\u6076\u5316": 6262, "\u6b66\u88c5": 6263, "\u5580\u9ea6\u9686": 6264, "\u2581seminar": 6265, "\u2581town": 6266, "Habitat": 6267, "\u2581segment": 6268, "\u53f7\u548c\u7b2c": 6269, "\u2581fighting": 6270, "\u2581manage": 6271, "\u2581Greece": 6272, "\u2581methodology": 6273, "\u2581teachers": 6274, "\u7684\u7f14\u7ea6\u56fd": 6275, "\u2581exports": 6276, "\u6709\u65f6": 6277, "\u8428\u5c14\u74e6\u591a": 6278, "\u56de\u5230": 6279, "\u56fd\u9645\u4eba\u9053\u4e3b\u4e49\u6cd5": 6280, "\u2581arbitrary": 6281, "\u638c\u63e1": 6282, "\u65b0\u52a0\u5761": 6283, "\u4f69": 6284, "\u2581\u62b1\u6b49": 6285, "\u2581jobs": 6286, "\u2581associations": 6287, "\u65af\u91cc\u5170\u5361": 6288, "\u2581officer": 6289, "\u7684\u533a\u57df": 6290, "\u7684\u8fdb\u5c55": 6291, "\ue6c8": 6292, "\u4e3a\u57fa\u7840": 6293, "\u4e3a\u671f": 6294, "3%": 6295, "\u2581goes": 6296, "\u5b9a\u4e8e": 6297, "\u2581thanks": 6298, "\u2581Occupied": 6299, "we": 6300, "\u8036": 6301, "\u4e16\u754c\u94f6\u884c": 6302, "\u793e\u4f1a\u4fdd\u969c": 6303, "\u2581\u5582": 6304, "\u671d\u9c9c\u6c11\u4e3b\u4e3b\u4e49\u4eba\u6c11\u5171\u548c\u56fd": 6305, "\u5c11\u6570\u7fa4\u4f53": 6306, "\u8fdd\u53cd\u4e86": 6307, "\u5728\u6b64": 6308, "Leste": 6309, "\u2581update": 6310, "\u2581subjected": 6311, "\u8ba4\u771f": 6312, "\u2581appear": 6313, "\u2581seriously": 6314, "\u798f": 6315, "\u6700\u5927\u7684": 6316, "\u2581front": 6317, "\u8df3": 6318, "\u8bcd": 6319, "\u2581Palestinians": 6320, "\u2581\u636e": 6321, "\u2581Agriculture": 6322, "\u2581\u53ea\u662f": 6323, "\u5347": 6324, "\u56de\u7b54": 6325, "\u514d\u8d39": 6326, "\u2581Friday": 6327, "\u2581TO": 6328, "\u2581phone": 6329, "\u5c65\u884c\u5176": 6330, "\u5c24\u5176\u662f\u5728": 6331, "\u8be5\u7ec4\u7ec7": 6332, "\u2581belief": 6333, "\u7684\u73af\u5883": 6334, "\u6d88\u8d39": 6335, "\u2581chance": 6336, "\u90bb\u56fd": 6337, "\u5927\u89c4\u6a21": 6338, "\u2581\u786e\u8ba4": 6339, "\u2581competence": 6340, "\u600e\u6837": 6341, "\u53e6\u4e00\u4e2a": 6342, "\u2581VII": 6343, "\u6211\u662f": 6344, "\u544a": 6345, "\u542c\u5230": 6346, "\u4f1a\u8ba1": 6347, "\u6708\u81f3": 6348, "\u5308\u7259\u5229": 6349, "\u2581\u90a3\u4e48": 6350, "\u2581keeping": 6351, "\u2581contrary": 6352, "\u2581deliver": 6353, "\u53d6\u5f97\u8fdb\u5c55": 6354, "\u2581dealt": 6355, "\u8b66": 6356, "\u98df": 6357, "\u7eaa\u5ff5": 6358, "\u5b89\u54e5\u62c9": 6359, "\u2581Rome": 6360, "\u6027\u522b\u95ee\u9898": 6361, "\u59d4\u5458": 6362, "\u2581\u4e8b\u5b9e\u4e0a": 6363, "\u2581Issues": 6364, "\u4fc4\u7f57\u65af": 6365, "\u2581enterprise": 6366, "\u54ea": 6367, "\u2581Y": 6368, "\u2581opened": 6369, "\u2581banks": 6370, "\u2581Racial": 6371, "\u5ba1": 6372, "\u2581constitutes": 6373, "\u2581kept": 6374, "\u5e76\u901a\u8fc7": 6375, "\u591a\u79cd": 6376, "\u2581raising": 6377, "\u2581instead": 6378, "\u4e34\u65f6\u8bae\u7a0b": 6379, "\u53cc": 6380, "\u767b": 6381, "\u2581Really": 6382, "\u59cb\u7ec8": 6383, "\u2581investigate": 6384, "\u9c7c": 6385, "\u7f6a\u72af": 6386, "\u258159": 6387, "\u6700\u5927": 6388, "\u6392\u653e": 6389, "\u6b65": 6390, "\u5931\u53bb": 6391, "\u2581Number": 6392, "\u2581Southern": 6393, "ies": 6394, "\u7ba1\u8f96\u6743": 6395, "\u4e00\u5bb6": 6396, "\u66f4\u597d\u7684": 6397, "less": 6398, "\u2581involve": 6399, "\u258167.": 6400, "\u8ddf\u4f60": 6401, "\u2581believed": 6402, "\u2581envisaged": 6403, "\u63d0\u51fa\u7684\u5efa\u8bae": 6404, "\\3": 6405, "\u2581latest": 6406, "\u2581regards": 6407, "\u6458\u8981": 6408, "\u5c45\u4f4f": 6409, "\u2581spread": 6410, "\u2581la": 6411, "\u2581Listen": 6412, "\u751f\u7269\u591a\u6837\u6027": 6413, "\u2581focusing": 6414, "\u2581Senegal": 6415, "\u7535\u89c6": 6416, "\u8fd9\u4e24\u4e2a": 6417, "\u5df2\u5728": 6418, "\u8f6e": 6419, "\u2581Tanzania": 6420, "\u4e3e\u529e\u4e86": 6421, "\u4ee5\u53ca\u5176\u4ed6": 6422, "\u2581\u55e8": 6423, "\u6350\u52a9\u56fd": 6424, "\u2581lines": 6425, "\u2581Representatives": 6426, "\u2581\u9664": 6427, "\u5171\u8ba1": 6428, "\u66b4\u529b\u884c\u4e3a": 6429, "\u2581Society": 6430, "\u54e5\u65af\u8fbe\u9ece\u52a0": 6431, "\u59d4\u5458\u4f1a\u4e3b\u5e2d": 6432, "\u603b\u662f": 6433, "\u2581residence": 6434, "\u2581embargo": 6435, "\u2581answer": 6436, "\u2581harm": 6437, "\u6297": 6438, "\u2581War": 6439, "\u5fc5\u987b\u5728": 6440, "\u2581demonstrated": 6441, "\u2581budgets": 6442, "\u4e0b\u7684": 6443, "\u8bbe\u5728": 6444, "\u2581story": 6445, "\u804c": 6446, "\u7f14\u7ea6\u56fd\u4f1a\u8bae": 6447, "\u98df\u7269": 6448, "\u2581Nothing": 6449, "\u6709\u5173\u56fd\u5bb6": 6450, "mo": 6451, "\u4e8b\u5148": 6452, "\u2581couldn": 6453, "\u5904\u7f5a": 6454, "\u53d1\u5e03": 6455, "\u4e3b\u4e49": 6456, "\u548c\u793e\u4f1a": 6457, "\u2581blood": 6458, "\u9b3c": 6459, "\u2581moving": 6460, "\u4e9a\u7f8e\u5c3c\u4e9a": 6461, "wa": 6462, "\u5217\u51fa": 6463, "\u2581save": 6464, "\u533a\u57df\u7ec4\u7ec7": 6465, "\u2581transferred": 6466, "\u2581posed": 6467, "\u2581customs": 6468, "\u76d1\u7ba1": 6469, "\u548c\u534f\u8c03": 6470, "\u6350\u52a9\u65b9": 6471, "\u5b8c": 6472, "\u2581\u5ba1\u67e5": 6473, "\u6050\u6016": 6474, "\u2581married": 6475, "\u6cd5\u4ee4": 6476, "\u6e29": 6477, "\u2581combined": 6478, "\u2581ended": 6479, "\u2581Takes": 6480, "\u7684\u7ba1\u7406": 6481, "\u7684\u63d0\u8bae": 6482, "\u2581figures": 6483, "\u2581code": 6484, "\u6001\u5ea6": 6485, "\u2581launch": 6486, "\u2581traffic": 6487, "\u2581withdrawal": 6488, "\u5e15": 6489, "\u2581worry": 6490, "\u2581corporate": 6491, "\u6bd2": 6492, "\u03a4": 6493, "\u258168.": 6494, "\u2581managers": 6495, "\u2581Will": 6496, "\u25812006-2007": 6497, "\u91cd\u590d": 6498, "\u2581Monday": 6499, "\u2581serving": 6500, "\u5357\u5357\u5408\u4f5c": 6501, "\u7834": 6502, "\u2581Ivoire": 6503, "\u2581disease": 6504, "\u5229\u76ca\u6538\u5173\u65b9": 6505, "\u2581Hungary": 6506, "\u2581\u5f88\u597d": 6507, "\u7684\u4fdd\u62a4": 6508, "\u2581pleased": 6509, "\u2581Operation": 6510, "\u2581character": 6511, "\u8bb8\u53ef\u8bc1": 6512, "\u2581Auditors": 6513, "ko": 6514, "\u548c\u56fd\u9645": 6515, "\u2581Indeed": 6516, "\u4e16\u7eaa": 6517, "\u8bb0": 6518, "\u4ea4\u6362": 6519, "\u2581represents": 6520, "\u6536\u5230\u4e86": 6521, "\u8ba9\u4f60": 6522, "\u53c2\u8003": 6523, "\u8ddf\u6211": 6524, "\u77ed\u671f": 6525, "\u2581800": 6526, "\u5ba2": 6527, "\u2581peacebuilding": 6528, "\u2581interventions": 6529, "\u2581overcome": 6530, "\u2581Finance": 6531, "\u2581Mechanism": 6532, "\u5de5\u4f5c\u8ba1\u5212": 6533, "\u2581transportation": 6534, "\u5e38\u9a7b\u8054\u5408\u56fd\u4ee3\u8868": 6535, "\u2581association": 6536, "\u4e00\u6761": 6537, "\u89c1\u7b2c": 6538, "\u7ea2": 6539, "\u8499": 6540, "\u2581!": 6541, "\u6df1\u5165": 6542, "\u56fd\u9645\u516c\u7ea6": 6543, "\u8d5e\u6210": 6544, "\u4ee5\u52a0\u5f3a": 6545, "\u2581Process": 6546, "\u2581limits": 6547, "\u7ec4\u6210\u7684": 6548, "\u2581Armenia": 6549, "\u2581Turkish": 6550, "\u6d88\u9664\u5bf9\u5987\u5973\u4e00\u5207\u5f62\u5f0f\u6b67\u89c6\u516c\u7ea6": 6551, "\u4e2d\u975e\u5171\u548c\u56fd": 6552, "\u7528\u6765": 6553, "\u2581station": 6554, "/59/": 6555, "\u2581valuable": 6556, "\u4e00\u56fd": 6557, "\u6821": 6558, "\u2581notice": 6559, "\u7ef4\u6301\u548c\u5e73\u884c\u52a8\u90e8": 6560, "\u2581asset": 6561, "\u7684\u4e8b\u60c5": 6562, "1%": 6563, "\u507f\u8fd8": 6564, "\u2581Reduction": 6565, "\u2581periods": 6566, "\u2581faith": 6567, "6%": 6568, "\u53ec\u5f00\u7684": 6569, "\u2581legally": 6570, "\u8bbe\u60f3": 6571, "\u786e\u7acb": 6572, "\u7684\u6b67\u89c6": 6573, "\u2581released": 6574, "\u2581directed": 6575, "\u7684\u6761\u6b3e": 6576, "\u544a\u8bc9": 6577, "\u538b\u529b": 6578, "\u2581recommend": 6579, "\u585e\u5c14\u7ef4\u4e9a": 6580, "\u2581ideas": 6581, "\u2581invite": 6582, "\u7279\u522b\u4ee3\u8868": 6583, "\u2581\u4ed6\u8bf4": 6584, "\u2581airspace": 6585, "\u5c0f\u5c9b\u5c7f\u53d1\u5c55\u4e2d\u56fd\u5bb6": 6586, "\u4e0d\u5f97\u4e0d": 6587, "\u2581becoming": 6588, "\u6548\u529b": 6589, "\u2581\u7528": 6590, "\u2581\u540c": 6591, "\u9000": 6592, "\u2581suffered": 6593, "\u2581integrate": 6594, "\u2581sections": 6595, "\u4e24\u6b21": 6596, "\u6700\u4f73\u505a\u6cd5": 6597, "\u2581welfare": 6598, "\u8be5\u51b3\u8bae": 6599, "\u76d1\u7763\u5385": 6600, "\u613f": 6601, "\u529f\u80fd": 6602, "\u258169.": 6603, "including": 6604, "\u2581Kazakhstan": 6605, "\u2581reflects": 6606, "\u2581beautiful": 6607, "\u83f2": 6608, "\u540e\u8005": 6609, "ke": 6610, "\u2581prohibited": 6611, "\u2581object": 6612, "\u2581Nam": 6613, "\u6279": 6614, "\u5c4a\u4f1a\u8bae": 6615, "\u2581Mali": 6616, "/2000/": 6617, "\u2581FAO": 6618, "Signed": 6619, "\u4e4c": 6620, "\u8eca": 6621, "\u5177\u5907": 6622, "\u2581seem": 6623, "ating": 6624, "\u2581expresses": 6625, "\u2581trained": 6626, "\u2581complaint": 6627, "\u2581attempt": 6628, "\u826f\u597d": 6629, "\u7ed3\u5a5a": 6630, "\u2581detained": 6631, "\u6709\u4ec0\u4e48": 6632, "\u521a": 6633, "bo": 6634, "\u7a46": 6635, "\u2581Team": 6636, "\u2581anniversary": 6637, "\u2581topics": 6638, "\u2581distributed": 6639, "\u2581voting": 6640, "\u2581\u6211\u4eec\u8fd8": 6641, "land": 6642, "\u5f3a\u5316": 6643, "\u7ec4\u7ec7\u7684": 6644, "\u5bb3": 6645, "\u2581ten": 6646, "\u2581Mar": 6647, "\u57fa\u51c6": 6648, "\u7684\u6bd4\u4f8b": 6649, "\u2581WTO": 6650, "\u6709\u80fd\u529b": 6651, "\u4ee5\u4fbf\u5728": 6652, "\u5c31\u6b64": 6653, "\u7b49\u5f85": 6654, "he": 6655, "\u544a\u8bc9\u6211": 6656, "\u2581firm": 6657, "\u548c\u4fc3\u8fdb": 6658, "\u591a\u4e2a": 6659, "\u5f3a\u8c03\u6307\u51fa": 6660, "\u6b64\u9879": 6661, "\u2581\u8aaa": 6662, "\u2581acquisition": 6663, "\u524a\u51cf": 6664, "\u2581\u8ba4\u8bc6\u5230": 6665, "\u4e5f\u95e8": 6666, "\u66f4\u5927\u7684": 6667, "\u2581biological": 6668, "\u72ec\u7acb\u7684": 6669, "ence": 6670, "\u2581facts": 6671, "\u2581normal": 6672, "\u8d22\u52a1\u62a5\u8868": 6673, "\u4e00\u5929": 6674, "\u5404\u7c7b": 6675, "ni": 6676, "\u2581Tunisia": 6677, "\u670d": 6678, "\u2581kid": 6679, "\u770b\u6cd5": 6680, "ut": 6681, "scale": 6682, "\u2581modern": 6683, "ba": 6684, "\u5f3a\u8feb": 6685, "\u76fe": 6686, "\u4ec0": 6687, "\u526f\u79d8\u4e66\u957f": 6688, "\u2581camps": 6689, "\u6b63\u4e49": 6690, "\u63d0\u4ea4\u4e86": 6691, "\u88e1": 6692, "\u7ed3\u5408": 6693, "discrimination": 6694, "\u2581Earth": 6695, "\u4f55": 6696, "\u2581whatever": 6697, "\u8bbe\u7f6e": 6698, "\u4e09\u5e74": 6699, "\u5c45": 6700, "No": 6701, "\u2581undertaking": 6702, "\u2581neither": 6703, "State": 6704, "\u7b2c\u4e94\u59d4\u5458\u4f1a": 6705, "\u67d0\u79cd": 6706, "\u4e1a\u7ee9": 6707, "\u5b98\u65b9\u53d1\u5c55\u63f4\u52a9": 6708, "\u7684\u5f62\u5f0f": 6709, "\u8b66\u65b9": 6710, "\u548c\u652f\u6301": 6711, "\u6807": 6712, "\u7684\u5b9e\u65bd": 6713, "\u6751": 6714, "?\"": 6715, "\u8be5\u9879\u76ee": 6716, "\u2581Consideration": 6717, "\u2581Recommendation": 6718, "\u2581k": 6719, "\u2581explained": 6720, "\u4e8b\u6545": 6721, "\u2581unique": 6722, "\u2581Observer": 6723, "ursuant": 6724, "\u2581returned": 6725, "\u2581\u80fd": 6726, "\u2581Slovenia": 6727, "\u7684\u5730\u4f4d": 6728, "\u571f": 6729, "\u672c\u5c4a\u4f1a\u8bae": 6730, "\u7684\u7acb\u6cd5": 6731, "\u2581appeals": 6732, "\u4fe1\u8d37": 6733, "\u5957": 6734, "\u8981\u7d20": 6735, "\u2581programming": 6736, "\u4e0d\u7b26\u5408": 6737, "\u2581UNOPS": 6738, "\u4e00\u4e2a\u4eba": 6739, "(2004": 6740, "\u4eca\u5e74": 6741, "\u5317\u90e8": 6742, "\u7cae\u519c\u7ec4\u7ec7": 6743, "\u2581WHO": 6744, "\u5f17": 6745, "\u5728\u6240\u6709": 6746, "\u91c7\u53d6\u7684": 6747, "\u2581influence": 6748, "\u8425": 6749, "\u2581changing": 6750, "\u65af\u6d1b\u4f10\u514b": 6751, "\u5173\u5fc3": 6752, "\u8005\u7684": 6753, "\u2581trading": 6754, "\u2581map": 6755, "\u4e16\u754c\u4e0a": 6756, "being": 6757, "\u4f53\u80b2": 6758, "\u25812010.": 6759, "You": 6760, "(2005": 6761, "\u2581transnational": 6762, "EC": 6763, "\u2581version": 6764, "\u2581indicates": 6765, "ca": 6766, "\u2581Armed": 6767, "\u2581bearing": 6768, "\u7684\u6982\u5ff5": 6769, "\u8fd8\u8981": 6770, "\u2581served": 6771, "\u8bd5\u9a8c": 6772, "\u7b11": 6773, "\u6027\u548c": 6774, "\u258170.": 6775, "\u671f\u671b": 6776, "\u25817,": 6777, "\u7a77\u4eba": 6778, "\u56de\u5e94": 6779, "\u5355\u4e00": 6780, "\u2581authors": 6781, "\u2581insufficient": 6782, "\u2581waiting": 6783, "\u2581increases": 6784, "\u544a\u8bc9\u4f60": 6785, "ga": 6786, "\u2581stuff": 6787, "ST": 6788, "ous": 6789, "\u62dc": 6790, "\u5728\u56fd\u5bb6": 6791, "\u8054\u5408\u56fd\u5f00\u53d1\u8ba1\u5212\u7f72": 6792, "\u53d1\u5c04": 6793, "\u827e": 6794, "300": 6795, "/60/": 6796, "\u6700\u4f73": 6797, "\u5148\u751f\u9601\u4e0b": 6798, "\u2581Communications": 6799, "\u89c4\u7ea6": 6800, "\u6050\u6016\u5206\u5b50": 6801, "\u2581advancement": 6802, "In": 6803, "\u2581cities": 6804, "\u663e\u8457": 6805, "\u5361\u5854\u5c14": 6806, "\u2581preparations": 6807, "\u2581wished": 6808, "\u9884": 6809, "\u535a\u58eb": 6810, "\u2581Ha": 6811, "\u2581forums": 6812, "\u2581kids": 6813, "\u807d": 6814, "\u7684\u7ed3\u8bba": 6815, "\u2581Conventions": 6816, "\u2581\u5728\u7b2c": 6817, "\u6240\u6709\u7684": 6818, "\u5f3a\u70c8": 6819, "\u5bf9\u4ed8": 6820, ".18": 6821, "\u2581bear": 6822, "\u5c07": 6823, "\u2581\u6211\u5c31": 6824, "\u5e38\u5e38": 6825, "\u5173\u95ed": 6826, "\u2581explain": 6827, "\u258171.": 6828, "\u6bb5\u6240\u8ff0": 6829, "com": 6830, "\u2581largest": 6831, "\u2581fishing": 6832, "\u8be5\u9879": 6833, "/2006/": 6834, "\u2581Invites": 6835, "\u2581tourism": 6836, "ge": 6837, "\u5546\u5b9a\u7684": 6838, "\u982d": 6839, "\u989d\u5916": 6840, "\u5e76\u8bf7": 6841, "\u7f14\u7ea6\u65b9\u5927\u4f1a": 6842, "\u5fd9": 6843, "\u6253\u51fb\u6050\u6016\u4e3b\u4e49": 6844, "\u76f8\u5bf9": 6845, "\u589e": 6846, "(1": 6847, "\u2581Provisional": 6848, "\u6ca1\u6536": 6849, "/2005/": 6850, "\u2581Science": 6851, "\u5bf9\u5f85": 6852, "\u5171\u8bc6": 6853, "\u2581Salvador": 6854, "\u2581Bulgaria": 6855, "\u2581counsel": 6856, "/62/": 6857, "\u2581minute": 6858, "\u2581lasting": 6859, "\u8be5\u51b3\u8bae\u8349\u6848": 6860, "\u5f3a\u8c03\u4e86": 6861, "\u6210\u5c31": 6862, "\u67b6": 6863, "\u7537": 6864, "\u2581deployed": 6865, "\u2581inventory": 6866, "ES": 6867, "\u662f\u6307": 6868, "\u25816,": 6869, "\u2581structural": 6870, "\u77f3": 6871, "\u5987\u5973\u548c\u513f\u7ae5": 6872, "=": 6873, "\u80cc\u666f": 6874, "\u2581intellectual": 6875, "\u5e94\u7531": 6876, "\u6211\u56fd\u4ee3\u8868\u56e2": 6877, "\u63d0\u4f9b\u5173\u4e8e": 6878, "\u2581multiple": 6879, "\u7684\u673a\u5236": 6880, "\u2581satellite": 6881, "\u6e20\u9053": 6882, "\u8ba1\u7b97\u673a": 6883, "\u2581UNCITRAL": 6884, "\u8f6c\u9012": 6885, "\u505c": 6886, "\u2581requesting": 6887, "\u4ea6": 6888, "\u7684\u7ec4\u7ec7": 6889, "\u2581Trafficking": 6890, "\u2581adopting": 6891, "\u2581demands": 6892, "Terrorism": 6893, "\u2581demobilization": 6894, "\u4e24\u56fd": 6895, "\u7f3a\u5c11": 6896, "\u7ecf\u6d4e\u589e\u957f": 6897, "\u2581supposed": 6898, "\u4e3e\u884c\u4f1a\u8bae": 6899, "\u8fd8\u5e94": 6900, "\u7a81\u51fa": 6901, "\u2581severe": 6902, "\u51c0": 6903, "\u2581north": 6904, "\u7279\u5f81": 6905, "\u2581transmit": 6906, "\u4f01\u56fe": 6907, "\u8db3\u591f": 6908, "gu": 6909, "\u2581\u5b83\u8fd8": 6910, "\u2581board": 6911, "\u6708\u4efd": 6912, "\u2581reiterates": 6913, "\u2581Main": 6914, "\u2581accession": 6915, "\u6d41\u79bb\u5931\u6240": 6916, "\u9003": 6917, "\u8f6c\u4ea4": 6918, "\u4fc3\u8fdb\u53d1\u5c55": 6919, "\u2581Guidelines": 6920, "\u2581federal": 6921, "\u9047\u5230": 6922, "\u5fae": 6923, "\u2581British": 6924, "\u58eb\u5175": 6925, "\u4e01": 6926, "\u8349": 6927, "\u2581nation": 6928, "\u2581largely": 6929, "\u2581book": 6930, "\u5de5\u4f5c\u5730\u70b9": 6931, "\u7684\u63f4\u52a9": 6932, "\u62cd": 6933, "\u90e8\u961f\u6d3e\u9063\u56fd": 6934, "\u4e27\u5931": 6935, "GC": 6936, "cHFFFFFF": 6937, "\u6536\u5230\u7684": 6938, "\u2581(3)": 6939, "\u51b3\u5b9a\u8349\u6848": 6940, "\u4e4b\u95f4\u7684\u5173\u7cfb": 6941, "\u2581crazy": 6942, "\u8857": 6943, "\u63d0\u9ad8\u5987\u5973\u5730\u4f4d": 6944, ".13": 6945, "\u4e4d\u5f97": 6946, "\u7537\u5b69": 6947, "\u2581Defence": 6948, "\u2581locations": 6949, "\u7167\u6599": 6950, "\u8be5\u56fd\u653f\u5e9c": 6951, "\u2581premises": 6952, "\u6982\u8ff0": 6953, "\u2581liberty": 6954, "\u2581middle": 6955, "\u5757": 6956, "\u5c3c\u52a0\u62c9\u74dc": 6957, "\u2581belonging": 6958, "\u2581master": 6959, "\u9f50": 6960, "\u2581borders": 6961, "\u5c4a\u4f1a": 6962, "\u82f1\u6587": 6963, "\u2581built": 6964, "\u2581Page": 6965, "\u2581urge": 6966, "\u5987\u5973\u7684": 6967, "\u653f\u5e9c\u95f4\u7ec4\u7ec7": 6968, "\u7136": 6969, "\u2581700": 6970, "\u63d0\u4f9b\u8d44\u91d1": 6971, "\u2581\u6211\u53ea\u662f": 6972, "care": 6973, "ated": 6974, "\u2581himself": 6975, "\u8bfb": 6976, "\u88c1\u8c08\u4f1a": 6977, "\u2581signature": 6978, "\u5eb7\u590d": 6979, "Sub": 6980, "\u2581conclude": 6981, "\u4e2a\u522b": 6982, "\u2581maternal": 6983, "\u7684\u5371\u9669": 6984, "\u2581sixth": 6985, "\u2581disposal": 6986, "\u897f\u975e": 6987, "\u2581Macedonia": 6988, "\u505a\u7684": 6989, "\u2581orders": 6990, "\u2581representing": 6991, "\u5356\u6deb": 6992, "\u2581John": 6993, "\u2581widespread": 6994, "\u80e1": 6995, "Bissau": 6996, "\u4e1d": 6997, "/63/": 6998, "\u258166": 6999, "\u62e8\u6b3e": 7000, "\u9a6c\u8033\u4ed6": 7001, "\u4f4d\u4e8e": 7002, "\u5e76\u4e0e": 7003, "\u4e5f\u53ef\u4ee5": 7004, "\u2581\u90a3\u4f60": 7005, "\u2581introduce": 7006, "\u2581\u4f60\u53ef\u4ee5": 7007, "\u2581crises": 7008, "\u9019\u6a23": 7009, "\u2581\u6587\u4ef6": 7010, "\u2581Bolivia": 7011, "\u4f7f\u7528\u7684": 7012, "\u8fd9\u79cd\u60c5\u51b5": 7013, "\u5373\u4f7f": 7014, "\u6559\u6388": 7015, "\u5f53\u4e8b\u65b9": 7016, "\u2581Acting": 7017, "\u2581decides": 7018, "\u2581copy": 7019, "\u6761\u7ea6\u673a\u6784": 7020, "\u670d\u52a1\u7684": 7021, "\u2581substance": 7022, "\u5a01": 7023, "\u59b3": 7024, "\u2581NGO": 7025, "\u628a\u5b83": 7026, "\u2581conducting": 7027, "\u6548\u679c": 7028, "\u51e0\u5185\u4e9a": 7029, "if": 7030, "\u2581male": 7031, "\u2581terrorists": 7032, "\u2581extradition": 7033, "\u6838\u53ef": 7034, "\u662f\u4e00\u9879": 7035, "\u8bae\u5458": 7036, "\u7c7b\u578b": 7037, "\u2581Developed": 7038, "\u2581managed": 7039, "\u2581sponsors": 7040, "\u2581ministerial": 7041, "\u4f5c\u51fa\u8d21\u732e": 7042, "\u2581Heads": 7043, "\u5feb\u901f": 7044, "\u2581extremely": 7045, "\u2581missing": 7046, "\u51e0\u5185\u4e9a\u6bd4\u7ecd": 7047, "\u4f8b\u5916": 7048, "\u2581Chad": 7049, "\u2581dis": 7050, "\u2581secured": 7051, "\u56fd\u96c6\u56e2": 7052, "\u8054\u5408\u56fd\u673a\u6784": 7053, "\u73b0\u4ee3": 7054, "\u2581aggression": 7055, "\u2581(1": 7056, "\u2581\u4e5f\u8bb8": 7057, "\u65bc": 7058, "\u2581tenth": 7059, "\u6613": 7060, "\u2581accessible": 7061, "\u2581consolidated": 7062, "\u8f6f\u4ef6": 7063, "\u79fb\u4ea4": 7064, "\u2581learn": 7065, "\u25811999.": 7066, "\u6bcf\u6708": 7067, "\u5e95": 7068, "\u611f\u89c9": 7069, "ek": 7070, "\u653f": 7071, "\u2581Mom": 7072, "\u2581hurt": 7073, "\u2581outreach": 7074, "mentioned": 7075, "\u52a0\u4e0a": 7076, "\u258172.": 7077, "\u2581homes": 7078, "\u2581Assessment": 7079, "\u2581devoted": 7080, "\u8d38\u6613\u6cd5\u59d4\u5458\u4f1a": 7081, "\u2581degradation": 7082, "\u7684\u5171\u540c": 7083, "\u8fc4\u4eca": 7084, "\u51c0\u989d": 7085, "\u2581drink": 7086, "ong": 7087, "\u4e2a\u5458\u989d": 7088, "\u2581Sixty": 7089, "\u6267\u884c\u59d4\u5458\u4f1a": 7090, "\u2581Guide": 7091, "za": 7092, "\u2581simply": 7093, "\u53c2\u7167": 7094, "\u884c\u653f\u5f53\u5c40": 7095, "\u5907": 7096, "\u7537\u5973\u5e73\u7b49": 7097, "\u2581\u6b27\u6d32\u8054\u76df": 7098, "\u2581utilization": 7099, "/57/": 7100, "\u2581format": 7101, "\u2581difference": 7102, "\u4ea7\u751f\u4e86": 7103, "\u5177": 7104, "\u4fdd\u52a0\u5229\u4e9a": 7105, "\u2581considerations": 7106, "\u2581variety": 7107, "\u2581decade": 7108, "\u6574": 7109, "\u7684\u8fdb\u7a0b": 7110, "\u7684\u8c08\u5224": 7111, "CEDAW": 7112, "\u6295": 7113, "\u4f8b": 7114, "\u2581Statement": 7115, "\u8ddf\u8e2a": 7116, "\u4e13\u5bb6\u4f1a\u8bae": 7117, "2%": 7118, "bord": 7119, "\u4e0d\u9519": 7120, "\u65c5\u6e38": 7121, "\u2581employed": 7122, "\u7684\u5a01\u80c1": 7123, "-20": 7124, "\u4e0d\u9700\u8981": 7125, "\u5f7c\u6b64": 7126, "\u2581Document": 7127, "\u7528\u54c1": 7128, "\u8499\u53e4": 7129, "\u7684\u4e00\u79cd": 7130, "\u2581acknowledged": 7131, "\u671f\u9650": 7132, "\u7684\u6570\u91cf": 7133, "\u2581remote": 7134, "\u2581sleep": 7135, "\u2581barriers": 7136, "\u2581wider": 7137, "\u662f\u5bf9": 7138, "\u77ed": 7139, "\u906d": 7140, "\u2581commit": 7141, "\u804c\u7b49": 7142, "\u644a\u6b3e": 7143, "\u2581ch": 7144, ".17": 7145, "\u2581Roma": 7146, "\u2581looked": 7147, "\u2581huh": 7148, "\u60ef\u4f8b": 7149, "ja": 7150, "\u2581hospital": 7151, "\u5438\u5f15": 7152, "\u9644\u5c5e\u673a\u6784": 7153, "\u2581prohibition": 7154, "\u4fe1\u4efb": 7155, "\u6269\u6563": 7156, "\u2581UNRWA": 7157, "\u2581showed": 7158, "line": 7159, "\u258173.": 7160, "\u2581savings": 7161, "\u4e0d\u8bba": 7162, "\u2581xenophobia": 7163, "\u4e00\u4e9b\u56fd\u5bb6": 7164, "\u811a": 7165, "\u2581Procedure": 7166, "cHFF": 7167, "\u2581League": 7168, "/64/": 7169, "\u4e3a\u6267\u884c": 7170, "\u6240\u8f7d\u7684": 7171, "\u258167": 7172, "\u4e00\u4f53\u5316": 7173, "-6": 7174, "\u2581army": 7175, "CRC": 7176, "\u2581afraid": 7177, "\u6ee1": 7178, "\u2581discriminatory": 7179, ":1": 7180, "\u2581recognizing": 7181, "\u2581List": 7182, "\u5206\u949f": 7183, "\u5370": 7184, "\u2581promoted": 7185, "\u2581born": 7186, "\u7684\u6307\u63a7": 7187, "\u738b": 7188, "\u786e\u5b9a\u4e86": 7189, "\u2581\u4ed6\u662f": 7190, "\u2581Faso": 7191, "\u2581starting": 7192, "\u51fb": 7193, "\u81ea\u52a8": 7194, "\u660e\u767d": 7195, "\u884c\u4e8b": 7196, "\u2581experienced": 7197, "\u2581\u7b2c\u4e8c": 7198, "\u5e03\u57fa\u7eb3\u6cd5\u7d22": 7199, "\u2581advanced": 7200, "\u6000\u5b55": 7201, "\u2581charged": 7202, "\u5316\u5b66": 7203, "\u7684\u4f7f\u7528": 7204, "\u5df4\u52d2\u65af\u5766\u4eba": 7205, "\u63a8\u884c": 7206, "\u2581appears": 7207, "\u6c11\u4e8b": 7208, "\u4fdd\u5b58": 7209, "\u898b": 7210, "\u8ba4\u5b9a": 7211, "\u2581hearing": 7212, "\u2581\u6211\u53ef\u4ee5": 7213, "ex": 7214, "\u2581warning": 7215, "\u5176\u4f59": 7216, "1988": 7217, "\u2581game": 7218, "\u5931\u8e2a": 7219, "\u2581Montenegro": 7220, "\u2581Island": 7221, "\u2581inadequate": 7222, "\u2581strength": 7223, "\u9886\u53d6": 7224, "\u63a8\u8fdf": 7225, "\u7b49\u7b49": 7226, "\u2581Adviser": 7227, "\u2581reality": 7228, "\u2581adjustment": 7229, "\u62a5\u544a\u7684": 7230, "\u2581Uruguay": 7231, "\u2581fisheries": 7232, "\u5f53\u9009": 7233, "\u8bf4\u8bdd": 7234, "\u2581relatively": 7235, "\u2581shot": 7236, "\u73bb\u5229\u7ef4\u4e9a": 7237, "\u2581Environmental": 7238, "8%": 7239, "\u5f39": 7240, "\u75db\u82e6": 7241, "\u76d6": 7242, "\u2581Head": 7243, "\u2581dad": 7244, "\u2581\u4e2d\u56fd": 7245, "\u7acb\u9676\u5b9b": 7246, "\u5c04": 7247, "\u2581passed": 7248, "\u2581adverse": 7249, "\u2581\u9996\u5148": 7250, "\u6559\u5b66": 7251, "\u6301\u6709": 7252, "\u7279\u8bbe\u59d4\u5458\u4f1a": 7253, "\u2581proceed": 7254, "\u5916\u4ea4\u90e8": 7255, "\u2581Doha": 7256, "\u4e3a\u5176": 7257, "\u2581integral": 7258, "\u5bf9\u8fd9\u4e9b": 7259, "\u2581outputs": 7260, "\u2581Libyan": 7261, "\u66f4\u5927": 7262, "\u8863": 7263, "\u2581remedy": 7264, "\u5728\u8fd9": 7265, "sharing": 7266, "\u2581Treatment": 7267, "\u2581gives": 7268, "ish": 7269, "\u5956": 7270, "\u8865\u6551": 7271, "\u8be5\u65b9\u6848": 7272, "\u739b": 7273, "\u2581daughter": 7274, "\u2581\u59d4\u5458\u4f1a\u5efa\u8bae\u7f14\u7ea6\u56fd": 7275, "\u6863\u6848": 7276, "\u548c\u89e3": 7277, "\u2581watch": 7278, "\u5b98\u65b9": 7279, "\u534f\u8c03\u548c": 7280, "\u5c06\u662f": 7281, "\u2581conservation": 7282, "\u724c": 7283, "\u652f": 7284, "\u4e5f\u8bb8": 7285, "\u5401\u8bf7": 7286, "\u7fa4": 7287, "\u2581Transitional": 7288, "\u2581lose": 7289, "\u9084": 7290, "\u4e3e\u529e\u7684": 7291, "\u2581stable": 7292, "\u6cd5\u5f8b\u89c4\u5b9a": 7293, "\u2581add": 7294, "\u7ec4\u7ec7\u548c": 7295, "\u9020": 7296, "\u2581Cross": 7297, "\u2581Mauritius": 7298, "\u4e34": 7299, "\u2581Fuck": 7300, "\u2581Employment": 7301, "\u2581sit": 7302, "\u258163": 7303, "\u9648\u8ff0": 7304, "\u2581ministries": 7305, "ham": 7306, "Proliferation": 7307, "\u2581Cameroon": 7308, "\u2581disabled": 7309, "\u2581usually": 7310, "\u7684\u624b\u6bb5": 7311, "\u2581sets": 7312, "\u4fb5\u7565": 7313, "\u65b9\u6848\u548c": 7314, "\u2581explanation": 7315, "\u2581explore": 7316, "\u8fd8\u6ca1\u6709": 7317, "\u2581Both": 7318, ":\u201c": 7319, "\u6c83": 7320, "\u57f9\u8bad\u65b9\u6848": 7321, "\u76f4\u5230": 7322, "contributing": 7323, "\u4e13\u5bb6\u5c0f\u7ec4": 7324, "\u56fd\u5185\u6cd5": 7325, "\u2581mid": 7326, "\u5f62\u52bf": 7327, "\u7d27\u5f20": 7328, "\u59d4\u5458\u4f1a\u7684": 7329, "\u5e74\u5ea6\u62a5\u544a": 7330, "\u2581allowance": 7331, "\u2581balanced": 7332, "\u2581insolvency": 7333, "\u610f\u4e49": 7334, "\u7cae\u98df\u5b89\u5168": 7335, "\u540e\u6765": 7336, "\u2581functional": 7337, "\u4ed6\u4eba": 7338, "(2003": 7339, "\u914d": 7340, "\u5171\u540c\u4f53": 7341, "\u2581formed": 7342, "\u697c": 7343, "\u2581Excuse": 7344, "\u56fd\u5bb6\u673a\u6784": 7345, "\u2581organize": 7346, "\u8d22\u653f\u8d44\u6e90": 7347, "\u4fee": 7348, "\u96be\u6c11\u4e13\u5458\u529e\u4e8b\u5904": 7349, "\u2581biennial": 7350, "\u8be5\u5730\u533a": 7351, "/66/": 7352, "\u2581#": 7353, "\u2581Three": 7354, "\u603b\u6570": 7355, "\u2581fixed": 7356, "\u2581standing": 7357, "\u519c": 7358, "\u2581schedule": 7359, "\u7ec4\u6210\u90e8\u5206": 7360, "ass": 7361, "lu": 7362, "\u2581Lithuania": 7363, "\u2581danger": 7364, "\u73b0\u5df2": 7365, "\u63d0\u4f9b\u670d\u52a1": 7366, "9%": 7367, "IV": 7368, "ncreased": 7369, "\u5144\u5f1f": 7370, "\u5357\u90e8": 7371, "\u2581\u4ec0\u9ebc": 7372, "\u6728": 7373, "\u59d4\u5185\u745e\u62c9": 7374, "\u7a7a\u7f3a": 7375, "\u5e72\u561b": 7376, "\u5b58\u5728\u7740": 7377, "\u2581salary": 7378, "\u65bd": 7379, "\u2581cluster": 7380, "\u522b\u4eba": 7381, "\u2581Decision": 7382, "\u7b2c\u4e00\u4e2a": 7383, "\u2581Poverty": 7384, "ambia": 7385, "\u5265\u524a": 7386, "\u2581resident": 7387, "\u2581online": 7388, "\u89c1\u9644\u4ef6": 7389, "\ue5e6": 7390, "\u7b80\u5316": 7391, "\u9632": 7392, "\u51cf\u8d2b": 7393, "\u2581Thursday": 7394, "\u6761\u6587": 7395, "\u7740\u91cd": 7396, "\u53f7\u548c": 7397, "\u2581Ghana": 7398, "\u7684\u9884\u7b97": 7399, "\u5b83\u7684": 7400, "\u6743\u5229\u7684": 7401, "\u5904\u7f6e": 7402, "\u62d6\u5ef6": 7403, "\u5176\u4ed6\u4eba": 7404, "\u2581Singapore": 7405, "\u672c\u516c\u7ea6": 7406, "\u2581art": 7407, "\u2581protocol": 7408, "\u2581ain": 7409, "\u662f\u6211": 7410, "\u2581south": 7411, "\u56e0\u4e3a\u5b83": 7412, "\u64cd\u4f5c": 7413, "\u2581Reports": 7414, "\u2581Anti": 7415, "\u2581\u6709\u4e9b": 7416, "\u53ef\u80fd\u662f": 7417, "\u25811373": 7418, "\u8bf7\u79d8\u4e66\u957f": 7419, "\u53d1\u751f\u4e86": 7420, "\u2581exactly": 7421, "\u8fd9\u4e9b\u4eba": 7422, "\u671d": 7423, "\u570b": 7424, "\u53d8\u9769": 7425, "\u7684\u89c2\u70b9": 7426, "\u4e0b\u53bb": 7427, "\u7269\u8d44": 7428, "\u56fd\u9645\u5211\u4e8b\u6cd5\u9662": 7429, "\u548c\u56fd\u5bb6": 7430, "\u2581worth": 7431, "\u7684\u8054\u5408\u56fd": 7432, "\u6839\u636e\u5176": 7433, "\u2581exception": 7434, "\u7238\u7238": 7435, "\u5e38\u9a7b\u4ee3\u8868\u56e2": 7436, "\u2581Nevertheless": 7437, "\u2581gun": 7438, "\u2581running": 7439, "\u2581\u554a": 7440, "\u5728\u54ea\u91cc": 7441, "120": 7442, "\u2581composition": 7443, "\u6ce8\u518c": 7444, "ina": 7445, "\u65e0\u8bba": 7446, "\u2581finding": 7447, "\u25812008-2009": 7448, "\u2581equity": 7449, "pe": 7450, "\u2581command": 7451, "\u51b7": 7452, "/65/": 7453, "\u514b\u65af": 7454, "income": 7455, "\u2581Organized": 7456, "\u258174.": 7457, "\u2581CD": 7458, "\u51fa\u73b0\u4e86": 7459, "\u2581displacement": 7460, "\u673a\u573a": 7461, "\u2581Water": 7462, "\u7684\u534f\u8c03": 7463, "\u8054\u521a\u7279\u6d3e\u56e2": 7464, "\u6740\u5bb3": 7465, "\u548c\u6709\u5173": 7466, "\u6d4b\u8bd5": 7467, "\u2581Arms": 7468, "\u5f02": 7469, "\u2581Least": 7470, "\u2581southern": 7471, "\u2581administering": 7472, "SP": 7473, "\u2581duration": 7474, "\u88c5\u5907": 7475, "\u2581rose": 7476, "\u2581reply": 7477, "\u4fdd\u62a4\u548c": 7478, "\u2581dedicated": 7479, "\u6d17": 7480, "\u505a\u4ec0\u4e48": 7481, "\u8d1f": 7482, "\u987a\u5229": 7483, "min": 7484, "\u7231\u6c99\u5c3c\u4e9a": 7485, "\u8fdb\u6765": 7486, "\u2581occupying": 7487, "\u6851": 7488, "\u6c47\u7387": 7489, "\u2581replace": 7490, "\u2581seeks": 7491, "\u548c\u6211": 7492, "\u8fdb\u884c\u5408\u4f5c": 7493, "\u95ee\u8d23\u5236": 7494, "\u673a\u6784\u548c": 7495, "\u5987\u5973\u548c\u5973\u5b69": 7496, "\u2581IN": 7497, "\u5f88\u5c11": 7498, "/5": 7499, "\u5362": 7500, "om": 7501, "\u2581procedural": 7502, "\u2581\u63d0\u4ea4\u4eba": 7503, "\u6700\u65b0": 7504, "\u591c": 7505, "\u7f14\u7ed3": 7506, "06": 7507, "\u8a72": 7508, "\u4e8b\u4e1a": 7509, "\u2581killing": 7510, "\u56fe\u4e66\u9986": 7511, "\u2581fish": 7512, "\u2581zones": 7513, "\u2581claimed": 7514, "\u2581fun": 7515, "\u2581mitigation": 7516, "\u2581doubt": 7517, "\u8fd9\u9879\u5de5\u4f5c": 7518, "\u5168\u4f53": 7519, "\u6b27\u5143": 7520, "000": 7521, "\u793e\u4f1a\u548c\u6587\u5316\u6743\u5229": 7522, "\u2581adequately": 7523, "\u25819,": 7524, "\u5916\u56fd\u76f4\u63a5\u6295\u8d44": 7525, "\u79c1\u8425": 7526, "\u652f\u63f4": 7527, "\u603b\u5e72\u4e8b": 7528, "\u95ee\u8d23": 7529, "\u6c38\u8fdc": 7530, "\u878d\u5165": 7531, "\u258176.": 7532, "\u7121": 7533, "\u7684\u4eba\u53e3": 7534, "\u2581\u60f3": 7535, "\u521a\u521a": 7536, "\u4e16\u754c\u4eba\u6743\u5ba3\u8a00": 7537, "\u2581operate": 7538, "\u2581decline": 7539, "\u2581intervention": 7540, "\u8fdb\u4e00\u6b65\u52a0\u5f3a": 7541, "qui": 7542, "\u2581thousands": 7543, "\u2581sides": 7544, "\u7684\u6709\u6548": 7545, "\u2581performed": 7546, "\u2581\u53ea\u8981": 7547, "\u63a5\u8fd1": 7548, "\u2581rejected": 7549, "\u2581Bar": 7550, "\ue145": 7551, "150": 7552, "\u597d\u7684": 7553, "\u6cbb": 7554, "\u5e2d": 7555, "\u2581\u7238\u7238": 7556, "\u2581\u5f88": 7557, "(2006": 7558, "\u2581\u8fd9\u91cc": 7559, "\u2581Today": 7560, "\u2581w": 7561, "\u5de5\u7a0b\u5904": 7562, "\u2581Ro": 7563, "\u5c31\u80fd": 7564, "\u25811996,": 7565, "\u2581Annual": 7566, "dy": 7567, "\u5362\u68ee\u5821": 7568, "\u6770": 7569, "\u5e74\u524d": 7570, "\u51fa\u4e8e": 7571, "\u2581\u5225": 7572, "\u2581\u79d8\u4e66\u957f\u7684\u62a5\u544a": 7573, "\u258175.": 7574, "\u2581Terrorism": 7575, "\u89c4\u7ae0": 7576, "\u98de\u884c": 7577, "\u6682\u65f6": 7578, "\u2581Burkina": 7579, "\u2581Yugoslav": 7580, "\u597d\u5417": 7581, "\u2581Local": 7582, "\u2581$1": 7583, "\u4e71": 7584, "\u2581reviewing": 7585, "\u7cfb\u7edf\u7684": 7586, "\u2581voice": 7587, "\u2581custody": 7588, "\u6709\u5173\u7684\u95ee\u9898": 7589, "\u7684\u58f0\u660e": 7590, "\u94bb\u77f3": 7591, "\u4e86\u55ce": 7592, ".14": 7593, "\u2581promise": 7594, "\u62c9\u8131\u7ef4\u4e9a": 7595, "\u97f3": 7596, "\u2581\u4e0e\u6b64\u540c\u65f6": 7597, "\u2581continuous": 7598, "/54/": 7599, "\u6d77\u4e0a": 7600, "\u5c31\u53ef\u4ee5": 7601, "\u2581nearly": 7602, "\u2581Through": 7603, "\u2581\u592a": 7604, "\u2581Saint": 7605, "\u258114,": 7606, "\u56e0\u7279\u7f51": 7607, "\u2581facility": 7608, "\u2581requiring": 7609, "\u2581heavy": 7610, "\u4e8b\u5b9e\u4e0a": 7611, "\u8d1f\u503a": 7612, "\u2581Protocols": 7613, "\u62c9\u4e01\u7f8e\u6d32": 7614, "aH": 7615, "\u6218\u7565\u8ba1\u5212": 7616, "\u79d1\u6280": 7617, "\u636e\u79f0": 7618, "\u65b9\u9762\u7684\u4f5c\u7528": 7619, "\u7684\u552f\u4e00": 7620, "\u2581n": 7621, "\u4eba\u5c45\u7f72": 7622, "\u8fdb\u5c55\u60c5\u51b5": 7623, "\u2581monthly": 7624, "men": 7625, "\u2581accountable": 7626, "\u5f20": 7627, "\u79d8\u4e66\u957f\u7684\u62a5\u544a": 7628, "\u2581\u8d38\u53d1\u4f1a\u8bae": 7629, "\u65b9\u6848\u7684": 7630, "\u671f\u5f85": 7631, "\u8eab\u4f53": 7632, "\u2581\u975e\u6d32": 7633, "\u770b\u6765": 7634, "ani": 7635, "\u2581occasion": 7636, "\u4efb\u804c": 7637, "\u77e5\u8bc6\u4ea7\u6743": 7638, "\u7f13\u89e3": 7639, "\u534e": 7640, "\u6b21\u5168\u4f53\u4f1a\u8bae": 7641, "\u6d17\u94b1": 7642, "III": 7643, "\u513f\u7ae5\u7684": 7644, "\u2581adjustments": 7645, "\u5b83\u4eec\u7684": 7646, "\u89e3\u9664": 7647, "\u88c1\u5b9a": 7648, "\u2581Contents": 7649, "\u759f\u75be": 7650, "\u2581\u8bf7\u79d8\u4e66\u957f": 7651, "\u2581Viet": 7652, "\u5916\u5c42\u7a7a\u95f4": 7653, "\u2581\u6211\u4e0d\u60f3": 7654, "\u753b": 7655, "\u611f\u67d3": 7656, "\u6bdb": 7657, "\u7684\u7a0b\u5ea6": 7658, "\u2581treated": 7659, "\u65b9\u9488": 7660, "ner": 7661, "\u7ed1\u67b6": 7662, "\u2581meant": 7663, "\u2581negotiation": 7664, "\u2581execution": 7665, "\u2581visited": 7666, "\u2581\u65e5\u672c": 7667, "\u56fd\u9645\u52b3\u5de5\u7ec4\u7ec7": 7668, "\u2581determining": 7669, "\u7ecf\u8d39\u7684\u7b79\u63aa": 7670, "\u2581Constitutional": 7671, "\u8d28": 7672, "end": 7673, "\u4e3d": 7674, "\u8106\u5f31": 7675, "\u4ed6\u5728": 7676, "\u52a8\u5458": 7677, "\u767b\u8bb0\u518c": 7678, "......": 7679, "\u2581greatest": 7680, "\u6f14": 7681, "\u5305\u62ec\u901a\u8fc7": 7682, "\u2581financed": 7683, "\u2581exclusion": 7684, "\u7684\u5fc5\u8981\u6027": 7685, "\u2581vocational": 7686, "\u7248": 7687, "\u9063\u8fd4": 7688, "\u4fe1\u4ef0": 7689, "\u57fa\u5730": 7690, "\u4e08\u592b": 7691, "\u968f": 7692, "\u2581Moldova": 7693, "\u521b\u5efa": 7694, "\u2581Welcoming": 7695, "\u90e8\u957f\u7ea7\u4f1a\u8bae": 7696, "\u2581reaching": 7697, "\u5bfc\u5f39": 7698, "\u793a\u8303\u6cd5": 7699, "\u9644\u8fd1": 7700, "\u516c\u6c11\u6743\u5229\u548c\u653f\u6cbb\u6743\u5229\u56fd\u9645\u516c\u7ea6": 7701, "\u2581computer": 7702, "\u2581opposition": 7703, "\u53f7\u51b3\u8bae\u548c": 7704, "\u2581\u4eba\u4eec": 7705, "\u6cf0": 7706, "\u2581Delegations": 7707, "\u6cd5\u5b9a": 7708, "\u603b\u7ed3": 7709, "Self": 7710, "\u2581Youth": 7711, "\u533a\u5206": 7712, "/61/": 7713, "\u574f": 7714, "\u2581pertaining": 7715, "\u8c28": 7716, "\u2581Jamaica": 7717, "\u2581transfers": 7718, "\u2581Land": 7719, "\u4e3a\u4f55": 7720, "\u2581\u65b0": 7721, "\u9053\u8def": 7722, "\u5e76\u4e0d\u662f": 7723, "\u8d29\u8fd0\u4eba\u53e3": 7724, "\u2581covers": 7725, "\u5987\u5973\u6743\u5229": 7726, "\u2581Un": 7727, "\u7684\u67d0\u4e9b": 7728, "\u59d4\u5458\u4f1a\u5728": 7729, "\u6bdb\u91cc\u6c42\u65af": 7730, "\u6c38\u4e45": 7731, "\u2581import": 7732, "\u2581flow": 7733, "\u4e1a\u52a1\u6d3b\u52a8": 7734, "\u4fa7\u91cd\u4e8e": 7735, "\u86cb": 7736, "\u2581formulated": 7737, "ya": 7738, "\u5355\u65b9\u9762": 7739, "\u2581(2001)": 7740, "/2004/": 7741, "\u2581commended": 7742, "\u57f9\u8bad\u73ed": 7743, "\u4e00\u65e6": 7744, "\u2581equally": 7745, "ev": 7746, "\u2581page": 7747, "\u2581Election": 7748, "\u516c\u52a1\u5458": 7749, "\u548c\u975e": 7750, "Governing": 7751, "\u5f00\u4f1a": 7752, "\u63d0\u4f9b\u652f\u6301": 7753, "\u7684\u9650\u5236": 7754, "\u2581ammunition": 7755, "\u51b0\u5c9b": 7756, "\u5e76\u5c31": 7757, "\u56fd\u5bb6\u548c\u56fd\u9645": 7758, "\u7684\u8bb8\u591a": 7759, "\u2581Tuesday": 7760, "\u4e0b\u8ff0": 7761, "\u2581choose": 7762, "\u9020\u6210\u4e86": 7763, "\u2581Reaffirms": 7764, "\u6240\u505a\u7684": 7765, "\u2581stress": 7766, "\u2581consolidation": 7767, "/53/": 7768, "\u2581finds": 7769, "\u4fe1\u901a\u6280\u672f": 7770, "\u2581award": 7771, "\u2581deaths": 7772, "\u914d\u5408": 7773, "\u7684\u804c\u8d23": 7774, "\u2581generation": 7775, "\u2581Wednesday": 7776, "\u8fd0\u884c": 7777, "\u8207": 7778, "\u2581walk": 7779, "\u53d8\u6210": 7780, "\u2581hate": 7781, "\u5987\u5973\u548c\u5973\u7ae5": 7782, "\u5c06\u7531": 7783, "AL": 7784, "\u6240\u9700\u7ecf\u8d39": 7785, "\u4e00\u6a23": 7786, "\u548c\u4fdd\u62a4": 7787, "\u2581detainees": 7788, "\u2581decades": 7789, "\u2581objection": 7790, "\u8054\u5408\u56fd\u79d8\u4e66\u957f": 7791, "\u8fb9\u5883": 7792, "\u2581demonstrate": 7793, "\u7b7e\u7f72\u4e86": 7794, "\u4ea4\u901a": 7795, "\u2581picture": 7796, "\u25812004-2005": 7797, "\u65b9\u4fbf": 7798, "\u5bb6\u4eba": 7799, "\u2581Statements": 7800, "\u90fd\u5728": 7801, "\u2581\u6211\u6709": 7802, "\u7b49\u95ee\u9898": 7803, "\u56fd\u9645\u6587\u4e66": 7804, "/2003/": 7805, "\u6b3e\u9879": 7806, "\u2581revision": 7807, "\u5f88\u9ad8\u5174": 7808, "\u2581movements": 7809, "\u5220\u9664": 7810, "\u62df\u8bae\u7684": 7811, "ci": 7812, "\u63a2": 7813, "\u8bc1\u4e66": 7814, "\u8bf4\u4ec0\u4e48": 7815, "\u25812011.": 7816, "\u5f71\u54cd\u7684": 7817, "\u6240\u9700\u8d44\u6e90": 7818, "\u8bb8\u591a\u56fd\u5bb6": 7819, "\u5916\u56fd\u4eba": 7820, "(2001": 7821, "\u5225": 7822, "\u79fb\u5f99\u8005": 7823, "\u751f\u5b58": 7824, "\u653f\u5e9c\u548c": 7825, "\u2581projected": 7826, "\u662f\u6839\u636e": 7827, "\u2581conjunction": 7828, "\u5bb9\u6613": 7829, "\u2581properly": 7830, "\u4e24\u9879": 7831, "/55/": 7832, "\u75db": 7833, "\u2581contingent": 7834, "\u2581realize": 7835, "\u4e92\u8054\u7f51": 7836, "\u7684\u804c\u80fd": 7837, "\u2581overview": 7838, "\u6e38": 7839, "\u5c3d\u65e9": 7840, "\u83b7\u5f97\u901a\u8fc7": 7841, "\u258177.": 7842, "\u9879\u76ee\u5385": 7843, "\u9577": 7844, "\u2581subparagraph": 7845, "\u5df4\u62ff\u9a6c": 7846, "\u65f6\u95f4\u8868": 7847, "\u2581village": 7848, "\u90a6": 7849, "\u97e6": 7850, "\u677f": 7851, "\u900f\u660e\u5ea6": 7852, "\u548c\u4f60": 7853, "\u7d27": 7854, "ph": 7855, "\u2581Drug": 7856, "\u533a\u57df\u5408\u4f5c": 7857, "\u5f8c": 7858, "\u00e0": 7859, "\u8be5\u516c\u7ea6": 7860, ":\u300a": 7861, "\u2581vehicle": 7862, "\u52a0\u6c99": 7863, "\u5f52": 7864, "\u7406\u4e8b\u4f1a\u7b2c": 7865, "ING": 7866, "\u2581\u90a3\u4e9b": 7867, "\u6838\u6b66\u5668\u56fd\u5bb6": 7868, "\u7b2c\u4e09\u6b21": 7869, "\u2581simple": 7870, "\u75c5\u6bd2": 7871, "\u2581\u516d": 7872, "ally": 7873, ".1),": 7874, "\u51e1": 7875, ".19": 7876, "\u2581guaranteed": 7877, "\u8b66\u544a": 7878, "\u300c": 7879, "\u2581Inspection": 7880, "\u5b58\u5728\u7684": 7881, "\u2581submissions": 7882, "\u2581drew": 7883, "ot": 7884, "04": 7885, "\u2581successfully": 7886, "\u2581Malta": 7887, "1373(2001)": 7888, "\u2581Yemen": 7889, "\u2581biodiversity": 7890, "\u4f1a\u8bae\u7684": 7891, "..": 7892, "\u2581acceptable": 7893, "\u6c11\u5175": 7894, "\u52d5": 7895, "\u519c\u6c11": 7896, "\u2581900": 7897, "\u2581\u8fd9\u9879": 7898, "\u5e74\u5e95": 7899, "\u2581fiscal": 7900, "\u6574\u4f53": 7901, "\u65b9\u6848\u9884\u7b97": 7902, "\u2581Appeals": 7903, "\u2581City": 7904, "\u7ade\u4e89\u529b": 7905, "\u2581understood": 7906, "\u540c\u6837\u7684": 7907, "\u591a\u54c8": 7908, "\u2581Procurement": 7909, "\u2581Among": 7910, "\u4e9a\u592a\u7ecf\u793e\u4f1a": 7911, "\u5206\u644a": 7912, "\u7684\u8ba1\u5212": 7913, "nterim": 7914, "\u6015": 7915, "\u7ffb\u8bd1": 7916, "\u2581\u201c(": 7917, "\u65ad": 7918, "\u2581stages": 7919, "\u2581assisted": 7920, "\u56fd\u5bb6\u529e\u4e8b\u5904": 7921, "\u2581commodity": 7922, "\u4eba\u6743\u548c\u57fa\u672c\u81ea\u7531": 7923, "so": 7924, "\u7d27\u6025\u60c5\u51b5": 7925, "\u4f9d\u9760": 7926, "\u5f15": 7927, "\u7f16\u5199\u7684": 7928, "\u8fd0\u7528": 7929, ">>yue_Hant<<": 7930, "\u5b9a\u5c45\u70b9": 7931, "\u2581path": 7932, "\u793a\u8303": 7933, "\u4e00\u573a": 7934, "\u2581playing": 7935, "\u2581Miss": 7936, "\u5728\u54ea": 7937, "\u6027\u5265\u524a": 7938, "\u2581Educational": 7939, "\u4ee5\u652f\u6301": 7940, "\u53d1\u8d77": 7941, "\u9884\u9632\u548c": 7942, "\u5404\u7ec4\u7ec7": 7943, "\u7ef4\u6301\u548c\u5e73\u7279\u6d3e\u56e2": 7944, "\u544a\u77e5": 7945, "\u4e0d\u8fc7": 7946, "\u4e0d\u591f": 7947, "\u2581allowing": 7948, "\u6781\u4e3a": 7949, "\u610f\u8bc6\u5230": 7950, "\u6761\u6b3e\u8349\u6848": 7951, "\u9ad8\u7ea7\u522b\u4f1a\u8bae": 7952, "\u7d66": 7953, "\u53d8\u52a8": 7954, "\u2581professionals": 7955, "\u62a5\u544a\u5458": 7956, "\u2581track": 7957, "\u884c\u4e3a\u8005": 7958, "\u5766\u6851\u5c3c\u4e9a\u8054\u5408\u5171\u548c\u56fd": 7959, "\u7684\u53d7\u5bb3\u8005": 7960, "\u2581hunger": 7961, "\u2581detail": 7962, "\u4e0a\u5348": 7963, "\u53ef\u9760": 7964, "\u91ce": 7965, "\u2581write": 7966, "\u2581teaching": 7967, "\u5e38\u8bbe": 7968, "\u5c06\u6765": 7969, "\u2581Say": 7970, "\u81ea\u6cbb": 7971, ".2/": 7972, "\u2581\u4f60\u4f1a": 7973, "con": 7974, "\u57f9\u8bad\u548c": 7975, "\u2581equivalent": 7976, "\u2581meaning": 7977, "\u5206\u533a\u57df": 7978, "02": 7979, "\u2581Standing": 7980, "\u52a8\u7269": 7981, "\u5706\u684c\u4f1a\u8bae": 7982, "\u7684\u8054\u7cfb": 7983, "\u2581\u7ecf\u6d4e\u53ca\u793e\u4f1a\u7406\u4e8b\u4f1a": 7984, "\u2581\u5c31\u50cf": 7985, "\u9610\u8ff0": 7986, "\u2581denied": 7987, "\u548c\u7a0b\u5e8f": 7988, "\u2581recalls": 7989, "ted": 7990, "\u672a\u7ecf": 7991, "\u2581stock": 7992, "\u2581\u90a3\u4e2a": 7993, "\u7684\u4f1a\u5458\u56fd": 7994, "\u2581notification": 7995, "\u8ffd": 7996, "\u8868\u793a\u5173\u6ce8": 7997, "\u7684\u5730\u533a": 7998, "\u2581\u54c8": 7999, "oriented": 8000, "\u2581vol": 8001, "\u63a2\u7d22": 8002, "\u2581mercury": 8003, "\u4e4c\u62c9\u572d": 8004, "\u2581lists": 8005, "\u2581reliable": 8006, "\u2581Con": 8007, "\u5011": 8008, "\u8d1d\u5b81": 8009, "\u2581Resource": 8010, "\u7236\u4eb2": 8011, "\u2581refers": 8012, "\u2581Settlements": 8013, "\u2581claimant": 8014, "\u2581customary": 8015, "\u8bae\u4e8b\u89c4\u5219": 8016, "\u8463\u4e8b\u4f1a": 8017, "\u2581Ra": 8018, "\u56fd\u9645\u6807\u51c6": 8019, "\u2581lawyers": 8020, "\u2581signing": 8021, "\u2581Transport": 8022, "\u4fb5\u72af\u4eba\u6743": 8023, "\u6293": 8024, "\u2581invites": 8025, "\u5931\u8d25": 8026, "\u6709\u4e86": 8027, "\u2581destroyed": 8028, "\u2581neighbouring": 8029, "\u96c5": 8030, "\u2581abroad": 8031, "\u79d8\u5bc6": 8032, "\u53bb\u4e86": 8033, "\u2581harassment": 8034, "/7": 8035, "\u5927\u5927": 8036, "\u52a0\u5f3a\u8054\u5408\u56fd": 8037, "/2002/": 8038, "\u7684\u9002\u5f53": 8039, "\u2581newly": 8040, "\u2581flexibility": 8041, "\u79d1\u7d22\u6c83\u7279\u6d3e\u56e2": 8042, "\u80fd\u5426": 8043, "\u2581coherent": 8044, "\u2581fast": 8045, "\u4fc3\u8bf7": 8046, "\u2581spent": 8047, "\u2581murder": 8048, "\u7535\u5f71": 8049, "\u2581completely": 8050, "\u6709\u7740": 8051, "\u2581defenders": 8052, "\u2581thereto": 8053, "\u2581behaviour": 8054, "\u8d3e": 8055, "\u2581agents": 8056, "\u2581relative": 8057, "\u538b": 8058, "08": 8059, "\u5f62": 8060, "\u5b88": 8061, "\u4e0d\u7a33\u5b9a": 8062, "\u5229\u6bd4\u4e9a": 8063, "\u6b27": 8064, "\u5bf9\u8054\u5408\u56fd": 8065, "\u5404\u673a\u6784": 8066, "/2007/": 8067, "\u2581wall": 8068, "\u2581tolerance": 8069, "\u610f\u5916": 8070, "2008-2009": 8071, "ize": 8072, "\u2581\u524d": 8073, "\u7ea0\u6b63": 8074, "\u2581Country": 8075, "\u5206\u6bb5": 8076, "\u2581Evaluation": 8077, "\u5df4\u6797": 8078, "\u7684\u63d0\u6848": 8079, "\u2581corresponding": 8080, "\u2581offers": 8081, "\u2581Slovakia": 8082, "\u6bcf\u4e00\u4e2a": 8083, "\u2581suggestions": 8084, "\u6d3e\u9063": 8085, "\u683c\u5f0f": 8086, "\u2581\u81f3\u4e8e": 8087, "\u4e3a\u57fa\u7840\u7684": 8088, "\u5e72\u4ec0\u4e48": 8089, "\u2581larger": 8090, "\u5e9f\u9664": 8091, "\u9001\u4ea4": 8092, "\u2581copies": 8093, "\u6392\u9664": 8094, "\u8fd8\u9700\u8981": 8095, "\u533a\u522b": 8096, "\u5728\u4e00\u4e2a": 8097, "\u2581\u4f60\u6709": 8098, "\u2581Penal": 8099, "\u2581Sure": 8100, "\u548c\u673a\u6784": 8101, "\u5b9e\u65bd\u7684": 8102, "\u2581academic": 8103, "\u665a\u4e0a": 8104, "\u258178.": 8105, "\u2581transmitting": 8106, "\u8c22": 8107, "\u7259\u4e70\u52a0": 8108, "\u2581\u52a0\u62ff\u5927": 8109, "\u2581households": 8110, "\u2581closer": 8111, "\u2581interaction": 8112, "\u52b3": 8113, "\u6307\u79f0": 8114, "\u4e3e": 8115, "\u2581stresses": 8116, "\u5341\u4e8c": 8117, "\u8868\u793a\u6b22\u8fce": 8118, "\u7f16\u8f91": 8119, "\u2581drawing": 8120, "\u2581scheme": 8121, "\u88ab\u8feb": 8122, "\u679c": 8123, "\u8f7d": 8124, "\u2581sick": 8125, "/2001/": 8126, "\u2581stocks": 8127, "\u4ee5\u6b64": 8128, "\u9610\u660e": 8129, "\u4e89\u8bae": 8130, "\u5021\u5bfc": 8131, ".16": 8132, "\u53ef\u4ee5\u5728": 8133, "\u540e\u7eed": 8134, "\u25811989": 8135, "\u54c8\u8428\u514b\u65af\u5766": 8136, "\u2581\u6ca1\u9519": 8137, "\u65e5\u8d77": 8138, "\u2581Recommendations": 8139, "\u52a0\u5f3a\u4e86": 8140, "\u2581none": 8141, "1980": 8142, "\u4fdd\u5bc6": 8143, "\u516c\u62a5": 8144, "\u2581qualified": 8145, "\u7c7b\u4f3c\u7684": 8146, "\u7d66\u6211": 8147, "\u5bf9\u8c61": 8148, "\u2581constituted": 8149, "\u2581prejudice": 8150, "http": 8151, "ities": 8152, "\u2581Indian": 8153, "\u2581Before": 8154, "\u90fd\u4f1a": 8155, "\u628a\u6211": 8156, "\u4f5c\u4e3a\u4e00\u4e2a": 8157, "\u6307\u6570": 8158, "\u2581Jesus": 8159, "\u2581\u5404\u56fd": 8160, "\u2581invasion": 8161, "\u2581\u6765\u5427": 8162, "\u5206\u914d\u7ed9": 8163, "\u258168": 8164, "\u2581enemy": 8165, "\u2581sovereign": 8166, "\u7684\u7ecf\u8d39": 8167, "\u2581ship": 8168, "coming": 8169, "\u6b63\u5982": 8170, "\u2581Rio": 8171, "\u7a46\u65af\u6797": 8172, "\u771f\u662f": 8173, "\u2581coastal": 8174, "\u7b2c\u56db": 8175, "\u5171\u548c\u56fd\u603b\u7edf": 8176, "\u2581\u4f60\u80fd": 8177, "\u5e74\u8f7b\u4eba": 8178, "\u2581extrabudgetary": 8179, "\u5341\u5206\u91cd\u8981": 8180, "ster": 8181, "\u975e\u5e38\u91cd\u8981": 8182, "\u5f3a\u5236": 8183, "\u2581Similarly": 8184, "\u2581sister": 8185, "\u5f00\u5c55\u5408\u4f5c": 8186, "\u2581linkages": 8187, "\u77ff": 8188, "\u2581bill": 8189, "03": 8190, "\u963f\u5c14\u5df4\u5c3c\u4e9a": 8191, "\u8ff7": 8192, "\u2581breach": 8193, "\u2581Albania": 8194, "\u8f7b": 8195, "\u62ab\u9732": 8196, "\u258179.": 8197, "\u5bb3\u6015": 8198, "\u2581repatriation": 8199, "\u95dc": 8200, "\u4e5f\u4f1a": 8201, "\u4ec5\u4ec5": 8202, "\u2581secret": 8203, "\u2581finally": 8204, "\u5f62\u5f0f\u7684": 8205, "\u5347\u7ea7": 8206, "\u6210\u529f\u5730": 8207, "\u2581accomplishments": 8208, "\u5bf9\u5987\u5973": 8209, "\u2581household": 8210, "\u540c\u7b49": 8211, "\u51b3": 8212, "\u2581distinction": 8213, "\u2581German": 8214, "\u2581buy": 8215, "\u822a\u7a7a": 8216, "\u5c06\u6709\u52a9\u4e8e": 8217, "\u4eba\u7c7b\u4f4f\u533a": 8218, "\u4e0a\u5e1d": 8219, "\u8fdb\u884c\u5ba1\u67e5": 8220, "\u591a\u6b21": 8221, "\u2581oral": 8222, "\u2581\u5168\u7403": 8223, "\u5f55": 8224, "\u2581productivity": 8225, "\u2581\u6211\u80fd": 8226, "\u81ea\u8eab": 8227, "\u62a5\u9053": 8228, "\u5f53\u4e8b\u4eba": 8229, "\u2581witness": 8230, "\u2581sect": 8231, "\u7684\u957f\u671f": 8232, "\u2581\u5404": 8233, "\u548c\u975e\u653f\u5e9c\u7ec4\u7ec7": 8234, "\u6267\u884c\u60c5\u51b5\u7684": 8235, "\u4fc3\u6210": 8236, "\u4f46\u5728": 8237, "\u2581arbitration": 8238, "\u2581Pre": 8239, "\u80cc": 8240, "\u2581conventional": 8241, "/6": 8242, "\u2581volume": 8243, "\u7cbe": 8244, "\u9547": 8245, "\u6392\u653e\u91cf": 8246, "\u2581undermine": 8247, "\u548c\u76f8\u5173": 8248, "\u2581objects": 8249, "\u9002\u5408": 8250, "\u6cd5\u5f8b\u548c": 8251, "\u63d0\u6848\u56fd": 8252, "\u2581Help": 8253, "\u2581black": 8254, "\u53ec\u96c6": 8255, "\u2581camp": 8256, "\u2581\u6c92\u6709": 8257, "\u6211\u4f1a": 8258, "\u5217\u652f\u6566\u58eb\u767b": 8259, "\u2581Transnational": 8260, "\u7ba1\u7406\u56fd": 8261, "\u7684\u6700\u65b0": 8262, "\u6211\u4eec\u5fc5\u987b": 8263, "\u592a\u5e73\u6d0b": 8264, "\u8db3": 8265, "\u7684\u6539\u9769": 8266, ".1/": 8267, "\u2581inputs": 8268, "\u2581hazardous": 8269, "ji": 8270, "2006-2007": 8271, "\u4e0d\u59a8": 8272, "\u2581forget": 8273, "\u5e76\u52a0\u5f3a": 8274, "\u6cd5\u5f8b\u63f4\u52a9": 8275, "\u2581quickly": 8276, "\u2581assessing": 8277, "\u6f5c\u529b": 8278, "\u968f\u7740": 8279, "\u5ba2\u89c2": 8280, "\u2581pregnant": 8281, "\u8feb\u5207\u9700\u8981": 8282, "\u2581incurred": 8283, "\u2581presidential": 8284, "\u5e97": 8285, "\u2581votes": 8286, "\u2581anymore": 8287, "\u2581convinced": 8288, "\u2581composed": 8289, "\u5de8\u5927": 8290, "\u7f3a\u9677": 8291, "\u2581GEF": 8292, "\u2581strict": 8293, "\u2581evaluate": 8294, "\u8eab\u4e0a": 8295, "\u4f5c\u4e1a": 8296, "\u548c\u5b89\u5168": 8297, "\u67d0": 8298, "uk": 8299, "ap": 8300, "\u2581Against": 8301, "mar": 8302, "\u2581\u76ee\u5f55": 8303, "\u2581facilitation": 8304, "\u2581landlocked": 8305, "\u2581Durban": 8306, "\u4e5f\u5728": 8307, "\u2581convening": 8308, "\u2581thereon": 8309, "\u4e0d\u5b58\u5728": 8310, "\u53d6\u5f97\u7684\u8fdb\u5c55": 8311, "50%": 8312, "\u2581\u5c0f\u7ec4": 8313, "\u7b2c\u4e00\u7ae0": 8314, "\u2015\u2015": 8315, "\u2581explosive": 8316, "\u4fdd\u5065\u670d\u52a1": 8317, "\u8b66\u5b98": 8318, "\u7075\u6d3b": 8319, "\u2581grants": 8320, "\u2581\u968f\u7740": 8321, "\u89c4\u5212\u548c": 8322, "\u7684\u5b58\u5728": 8323, "\u5927\u4f1a\u4e3b\u5e2d": 8324, "\u4e00\u90e8\u5206": 8325, "\u8868\u683c": 8326, "\u2581instances": 8327, "\u662f\u500b": 8328, "\u586b\u8865": 8329, "\u65f6\u4ee3": 8330, "\u2581forests": 8331, "\u2581issuance": 8332, "\u770b\u89c1": 8333, "\u4e00\u8d2f": 8334, "\u5b9e\u8df5": 8335, "\u8fd9\u4e9b\u5efa\u8bae": 8336, "\u2581Luxembourg": 8337, "\u4e16\u754c\u536b\u751f\u7ec4\u7ec7": 8338, "\u4e3a\u5b9e\u73b0": 8339, "\u2581alive": 8340, "\u559c\u6b61": 8341, "\u63f4\u5f15": 8342, "\u662f\u6211\u7684": 8343, "\u2581phenomenon": 8344, "\u2581relate": 8345, "\u2581\u8ba9\u6211": 8346, "\u7ecf\u5408\u7ec4\u7ec7": 8347, "\u2581renewed": 8348, "\u2581input": 8349, "\u6578": 8350, "\u5404\u7f14\u7ea6\u56fd": 8351, "\u5382": 8352, "09": 8353, "\u5e74\u4e3a": 8354, "\u2581enforced": 8355, "\u2581declarations": 8356, "\u88c5\u7f6e": 8357, "\u2581district": 8358, "\u5e87\u62a4": 8359, "\u2581Latvia": 8360, "\u5177\u4f53\u7684": 8361, "\u9644\u4ef6\u4e8c": 8362, "22\\": 8363, "\u2581method": 8364, "\u7a31": 8365, "\u8054\u5408\u56fd\u5728": 8366, "\u2581package": 8367, "\u7684\u6027\u8d28": 8368, "imbabwe": 8369, "\u4f11": 8370, "\u2581trouble": 8371, "\u2581sensitive": 8372, "\u7684\u8bc1\u636e": 8373, "\u6ce8": 8374, "\u2581Progress": 8375, "\u6587\u5316\u548c": 8376, "ach": 8377, "\u7eb3\u7c73\u6bd4\u4e9a": 8378, "\u2581Investment": 8379, "\u4e50": 8380, "\u2581bed": 8381, "PC": 8382, "\u2581psychological": 8383, "\u2581\u6216\u8005": 8384, "(2007": 8385, "\u7684\u672a\u6765": 8386, "\u2581Could": 8387, "\u2581ON": 8388, "les": 8389, "\u8089": 8390, "\u5efa\u8bbe\u548c\u5e73\u59d4\u5458\u4f1a": 8391, "\u6c49": 8392, "\u4e92\u52a8": 8393, "treatment": 8394, "FCCC": 8395, "\u2581train": 8396, "\u6234": 8397, "\u2581\u5e94\u8be5": 8398, "\u9965\u997f": 8399, "\u2581\u82e5": 8400, "\u51ef": 8401, "\u2581Which": 8402, "\u2581facilitated": 8403, "\u2581Jamahiriya": 8404, "\u2581Every": 8405, "\u519c\u6751\u5987\u5973": 8406, "\u2581transitional": 8407, "\u85cf": 8408, "\u2581evaluations": 8409, "\u7684\u53d8\u5316": 8410, "ki": 8411, "\u8bba": 8412, "af": 8413, "AP": 8414, "\u4efb\u610f": 8415, "\u2581comprising": 8416, "\u4fe1\u606f\u7cfb\u7edf": 8417, "\u7e41\u8363": 8418, "\u2581reaffirm": 8419, "\u2581Emergency": 8420, "\u2581proceeds": 8421, "\u2581\u600e\u4e48\u4e86": 8422, "\u6301\u4e45": 8423, "Al": 8424, "\u5730\u7406": 8425, "\u2581Arabic": 8426, "\u2581applies": 8427, "\u573a\u6240": 8428, "\u2581laid": 8429, "\u548c\u5b9e\u65bd": 8430, "\u8054\u5408\u56fd\u4eba\u6743\u4e8b\u52a1\u9ad8\u7ea7\u4e13\u5458\u529e\u4e8b\u5904": 8431, "\u2581Advancement": 8432, "\u2581fulfilment": 8433, "\u672c\u4eba": 8434, "\u2581MONUC": 8435, "\u73af": 8436, "\u6211\u5c31": 8437, "\u4ecd\u5728": 8438, "\u2581mom": 8439, "\u7684\u5bb6\u5ead": 8440, "\u6761\u7684\u89c4\u5b9a": 8441, "\u2581\u6211\u4e0d\u662f": 8442, "\u6469": 8443, "\u662f\u4e0d\u662f": 8444, "\u660e\u5929": 8445, "\u7f6e": 8446, "\u5152": 8447, "\u2581Migration": 8448, "\u2581responded": 8449, "\u5728\u6574\u4e2a": 8450, "\u501f": 8451, "\u672c\u533a\u57df": 8452, "\u2581filed": 8453, "\u7ea7\u522b": 8454, "\u258175": 8455, "\u2581seized": 8456, "PRST": 8457, "hi": 8458, "\u53d7\u7406": 8459, "lan": 8460, "\u589e\u52a0\u5230": 8461, "\u2581\u59d4\u5458\u4f1a\u5728": 8462, "\u6700\u591a": 8463, "\u2581Sam": 8464, "\u2581fill": 8465, "\u2581therein": 8466, "\u5e94\u6025": 8467, "\u25812012.": 8468, "\u2581gains": 8469, "\u2581allegedly": 8470, "\u6c11\u95f4\u793e\u4f1a\u7ec4\u7ec7": 8471, "\u5c11\u6570": 8472, "\u542c\u53d6": 8473, "\u5bcc": 8474, "\u9019\u4e9b": 8475, "\u53ef\u6301\u7eed\u7684": 8476, "\u2581\u4e34\u65f6\u8bae\u7a0b": 8477, "\u51b2": 8478, "\u2581harmonization": 8479, "\u8d8a\u5357": 8480, "01": 8481, "\u4e07\u4eba": 8482, "\u2581inspection": 8483, "\u9ad8\u4e8e": 8484, "\u66f4\u6b63": 8485, "\u2581analytical": 8486, "\u63cf\u8ff0": 8487, "\u503a\u6743\u4eba": 8488, "\u2581Equal": 8489, "\u838e": 8490, "\u64a4\u9500": 8491, "\u2581Within": 8492, "\u2581techniques": 8493, "\u6709\u8d23\u4efb": 8494, "\u6761\u548c\u7b2c": 8495, "\u6b27\u6d32\u59d4\u5458\u4f1a": 8496, "\u2581amounted": 8497, "\u2581purchase": 8498, "\u628a\u4f60": 8499, "\u4fb5\u5bb3": 8500, "\u7b2c\u4e8c\u4e2a": 8501, "\u601d": 8502, "\u2581\u6211\u4eec\u5fc5\u987b": 8503, "\u63d0\u4ea4\u7684\u62a5\u544a": 8504, "\u2581Mongolia": 8505, "\u2581wage": 8506, "\u2581slow": 8507, "\u2581ma": 8508, "\u672a\u6210\u5e74\u4eba": 8509, "ley": 8510, "\u2581Nicaragua": 8511, "\u2581annually": 8512, "\u5047\u8bbe": 8513, "\u73fe\u5728": 8514, "\u89c2\u5bdf\u56e2": 8515, "\u2581\u4ed6\u8fd8": 8516, "\u707e\u96be": 8517, "\u8981\u53bb": 8518, "\u8fd9\u4e9b\u63aa\u65bd": 8519, "RE": 8520, "\u96be\u6c11\u8425": 8521, "\u2581et": 8522, "\u2581continent": 8523, "\u2581\u4f86": 8524, "\u7684\u73b0\u6709": 8525, "\u5e93\u5b58": 8526, "\u7684\u8d8b\u52bf": 8527, "\u2581\u591a": 8528, "\u4f4d\u7f6e": 8529, "\u5169": 8530, "\u258180.": 8531, "\u62c5\u4fdd\u6743": 8532, "\u5165\u5883": 8533, "\u6811": 8534, "\u6df7": 8535, "\u8131": 8536, "1989": 8537, "\u54e6": 8538, "\u51b2\u7a81\u540e": 8539, "\u2581Basel": 8540, "\u2581collect": 8541, "\u2581Regarding": 8542, "ig": 8543, "\u4e16\u754c\u8d38\u6613\u7ec4\u7ec7": 8544, "\u00f6": 8545, "\u79e9\u5e8f": 8546, "owned": 8547, "\u8c05\u89e3\u5907\u5fd8\u5f55": 8548, "\u4e4b\u95f4\u7684\u5408\u4f5c": 8549, "/52/": 8550, "\u7684\u5c40\u52bf": 8551, "\u56fd\u5bb6\u5b89\u5168": 8552, "\u2581Sahara": 8553, "\u968f\u65f6": 8554, "\u5c01\u9501": 8555, "\u2581violent": 8556, "\u2581instructions": 8557, "\u2581seventh": 8558, "ana": 8559, "ez": 8560, "\u2581mention": 8561, "\u2581ratify": 8562, "\u76d1\u6d4b\u548c": 8563, "laundering": 8564, "\u2581\u73fe\u5728": 8565, "\u6240\u4f5c": 8566, "\u2581testing": 8567, "\u7814\u7a76\u62a5\u544a": 8568, "\u2581disseminate": 8569, "\u4e0d\u884c": 8570, "\u2581Uzbekistan": 8571, "\u2581vacancy": 8572, "\u610f\u8bc6": 8573, "\u91d1\u878d\u673a\u6784": 8574, "\u2581judgement": 8575, "\u4e00\u9ede": 8576, "ung": 8577, "\u2581balances": 8578, "\u2581platform": 8579, "\u2581Decree": 8580, "\u2581attributable": 8581, "\u6e2f": 8582, "\u2581alternatives": 8583, "\u6d89\u53ca\u5230": 8584, "\u2581doctor": 8585, "\u7b2c\u516d\u6761": 8586, "\u3113": 8587, "\u2581farmers": 8588, "\u2581reflecting": 8589, "\u2581\u4f60\u8bf4": 8590, "\u2581\u6211\u89c9\u5f97": 8591, "\u7279\u522b\u7a0b\u5e8f": 8592, "au": 8593, "\u2581talks": 8594, "\u2581Hold": 8595, "\u83ab\u6851\u6bd4\u514b": 8596, "\u2581hot": 8597, "\u4ee3\u7406": 8598, "\u516c\u8def": 8599, "\u2581\u7ecf": 8600, "\u6b63\u786e": 8601, "gi": 8602, "\u2581double": 8603, "\u771f\u76f8": 8604, "ED": 8605, "\u2581couple": 8606, "\u7684\u603b\u4f53": 8607, "\u2581\u5ba1\u8bae": 8608, "\u2581incorporate": 8609, "\u6563\u53d1": 8610, "\u4ee5\u53ca\u4e0e": 8611, "\u2581innovation": 8612, "\u6709\u4e2a": 8613, "\u5728\u975e\u6d32": 8614, "\u5e76\u4e8e": 8615, "\u2581maritime": 8616, "ler": 8617, "\u2581begun": 8618, "\u2581occur": 8619, "\u2581Combat": 8620, "\u2581expect": 8621, "\u5b89\u5168\u7406\u4e8b\u4f1a\u4e3b\u5e2d": 8622, "\u6216\u5728": 8623, "\u2581certainly": 8624, "\u5988\u5988": 8625, "\u5bb9\u5fcd": 8626, "\u4ee5\u5916\u7684": 8627, "\u2581mobilize": 8628, "\u2581texts": 8629, "\u2581Bill": 8630, "\u800c\u5728": 8631, "\u8ba2\u7acb": 8632, "\u25811995,": 8633, "\u2581bound": 8634, "\u2581drive": 8635, "\u7559\u4e0b": 8636, "\u53ea\u6709\u5728": 8637, "\u2581regardless": 8638, "\u4e0d\u5728": 8639, "\u4e39": 8640, "\u2581Once": 8641, "\u7684\u6846\u67b6\u5185": 8642, "\u884c\u653f\u548c": 8643, "\u67d0\u4e2a": 8644, "\u94c1": 8645, "\u836f\u54c1": 8646, "\u2581storage": 8647, "\u2581impossible": 8648, "\u2581Building": 8649, "\u2581genuine": 8650, "\u5de5\u4f5c\u4eba\u5458\u7684": 8651, "\u6c23": 8652, "\u516c\u5171\u90e8\u95e8": 8653, "\u2581incident": 8654, "fa": 8655, "\u5e7f\u64ad": 8656, "\u7279\u70b9": 8657, "\u9ad8\u7ea7\u4e13\u5458": 8658, "\u2581reportedly": 8659, "\u62a5\u544a\u7b2c": 8660, "\u2581surveys": 8661, "\u63d0\u4f9b\u6709\u5173": 8662, "\u2581Audit": 8663, "\u2581contractual": 8664, "\u2581fell": 8665, "\u2581\u8ba9": 8666, "\u5927\u578b": 8667, "\u2581schemes": 8668, "\u7684\u8eab\u4efd": 8669, "\u7565": 8670, "\u2581propose": 8671, "\u63a5\u6536": 8672, "\u2581Would": 8673, "\u59ae": 8674, "\u51b0": 8675, "\u2581gets": 8676, "\u5f3a\u5236\u6027": 8677, "RC": 8678, "\u2581software": 8679, "\u2581responding": 8680, "\u2581seat": 8681, "\u6218\u6597": 8682, "\u4e0d\u6269\u6563": 8683, "\u2581Panama": 8684, "\u90fd\u80fd": 8685, "\u800c\u5df2": 8686, "\u2581separation": 8687, "\u2581introducing": 8688, "\u7684\u89c4\u5219": 8689, "\u5c0f\u578b": 8690, ".2)": 8691, "\u4e2d\u4e9a": 8692, "\u4e86\u4e00\u4e9b": 8693, "\u2581dimensions": 8694, "\u2581machinery": 8695, "\u2581title": 8696, "\u2581moved": 8697, "\u7684\u4e8b\u4ef6": 8698, "\u2581drop": 8699, "\u4e0d\u597d": 8700, "\u5b89\u5168\u90e8\u961f": 8701, "\u2581Industrial": 8702, "\u53d8\u5f97": 8703, "\u2581cold": 8704, "\u7684\u7f6a\u884c": 8705, "\u8fd9\u4e9b\u6d3b\u52a8": 8706, "\u66b4": 8707, "\u8054\u5408\u56fd\u73af\u5883\u89c4\u5212\u7f72": 8708, "\u2581negotiating": 8709, "\u53bb\u5e74": 8710, "\u53f7\u6cd5\u4ee4": 8711, "\u25818,": 8712, "\u76f8\u5f53\u4e8e": 8713, "\u7aef": 8714, "way": 8715, "\u505c\u706b": 8716, "\u2581arrangement": 8717, "\u5728\u8be5": 8718, "\u6837": 8719, "\u59d4": 8720, "\u7684\u6210\u529f": 8721, "\u5404\u533a\u57df": 8722, "\u2581currency": 8723, "07": 8724, "\u5b78": 8725, "\u5f97\u4e0d\u5230": 8726, "\u7528\u4ee5": 8727, "\u2581accordingly": 8728, "\u2581resolved": 8729, "\u524d\u5357\u65af\u62c9\u592b\u7684\u9a6c\u5176\u987f\u5171\u548c\u56fd": 8730, "\u7684\u652f\u52a9": 8731, "\u7684\u6700\u540e": 8732, "\u6d2a\u90fd\u62c9\u65af": 8733, "\u7684\u4f18\u5148\u4e8b\u9879": 8734, "ud": 8735, "\u6d88\u606f": 8736, "\u258181.": 8737, "\u8fdd\u80cc": 8738, "\u2581Former": 8739, "\u2581reserve": 8740, "\u5305\u5bb9\u6027": 8741, "\u2581controlled": 8742, "\u2581Iceland": 8743, "\u2581Put": 8744, "\u6f5c\u5728": 8745, "ven": 8746, "\u61c2": 8747, "\u2581consultants": 8748, "\u5f15\u8d77\u7684": 8749, "\u2581pollution": 8750, ".20": 8751, "\u56fa\u5b9a": 8752, "\u6548\u76ca": 8753, "\u514d": 8754, "\u2581injured": 8755, "\u2581organizing": 8756, "\u2581removal": 8757, "\u2581\u5c0f\u7ec4\u59d4\u5458\u4f1a": 8758, "\u7684\u5021\u8bae": 8759, "\u529e\u516c": 8760, "\u5b8c\u6210\u4e86": 8761, "\u5c31\u8981": 8762, "\u2581\u4e0e\u4f1a\u8005": 8763, "\u2581possession": 8764, "\u6d41\u79bb\u5931\u6240\u8005": 8765, "ber": 8766, "\u5b89\u7f6e": 8767, "\u2581\u56de\u987e\u5176": 8768, "\u7d27\u8feb": 8769, "\u591a\u6837\u5316": 8770, "\u4ed6\u4eec\u5728": 8771, "\u8fdb\u53bb": 8772, "\u5dee\u522b": 8773, "\u9650": 8774, "Part": 8775, "\u2581applying": 8776, "\u2581lawyer": 8777, "\u2581define": 8778, "\u2581delays": 8779, "\u2581\u5feb\u70b9": 8780, "\u2581ending": 8781, "\u2581flexible": 8782, "\u2581notably": 8783, "\u2581continuation": 8784, "\u2581Keep": 8785, "\u51cf\u5c11\u4e86": 8786, "CD": 8787, "\u6700\u8fd1\u7684": 8788, "\u2581\u5e0c\u671b": 8789, "\u52a9": 8790, "\u7684\u4e1a\u52a1": 8791, "\u2581pursued": 8792, "\u74b6": 8793, "\u2581UNMIK": 8794, "\u2581northern": 8795, "\u5404\u4f4d": 8796, "\u56fd\u5bb6\u4eba\u6743\u673a\u6784": 8797, "\u4f5b": 8798, "\u7535\u4fe1": 8799, "\u6210\u7ee9": 8800, "\u590d": 8801, "\u5356": 8802, "\u2581patterns": 8803, "\u9ebb\u70e6": 8804, "\u4eba\u5458\u7684": 8805, "\u9f99": 8806, "\u5265\u593a": 8807, "\u52a0\u5267": 8808, "\u2581rich": 8809, "\u75c7": 8810, "\u660e\u786e\u7684": 8811, "\u2581\u6c92": 8812, "\u65e5\u5173\u4e8e": 8813, "\u7684\u6743\u529b": 8814, "\u827a\u672f": 8815, "\u6563": 8816, "\u8fc7\u5883": 8817, "\u4e00\u822c\u6027\u8fa9\u8bba": 8818, "\u5e76\u4fc3\u8fdb": 8819, "pa": 8820, "\u4f59\u989d": 8821, "\u57f9\u517b": 8822, "int": 8823, "\u2581Montreal": 8824, "\u2581\u4e16\u754c": 8825, "\u2581mutually": 8826, "\u7f57\u9a6c": 8827, "\u4ece\u672a": 8828, "\u2581wastes": 8829, "\u5c06\u4e3a": 8830, "\u2581cooperative": 8831, "\u2581deeply": 8832, "\u5428": 8833, "\u575a\u5b9a": 8834, "2004-2005": 8835, "\"?": 8836, "\u53f2": 8837, "\u6237": 8838, "\u7684\u6295\u8d44": 8839, ")]": 8840, "\u2581transaction": 8841, "\u2581limitations": 8842, "\u4e4c\u5179\u522b\u514b\u65af\u5766": 8843, "io": 8844, "\u2581Ah": 8845, "\u2581turned": 8846, "\u4f60\u662f": 8847, "\u800c\u4e14\u8fd8": 8848, "\u91d1\u989d": 8849, "\u2581summit": 8850, "\u2581hour": 8851, "\u653f\u7b56\u548c\u65b9\u6848": 8852, "\u2581genocide": 8853, "\u2581ban": 8854, "\u2581greatly": 8855, "\u2581exists": 8856, "\u7684\u90a3\u6837": 8857, "\u8fd9\u4e00\u8fdb\u7a0b": 8858, "\u54cd\u5e94": 8859, "\u5de8\u5927\u7684": 8860, "\u51b3\u7b56\u8005": 8861, "\u2581class": 8862, "RES": 8863, "\u672a\u6765\u7684": 8864, "vis": 8865, "\u65b9\u9762\u53d6\u5f97\u7684\u8fdb\u5c55": 8866, "ik": 8867, "po": 8868, "\u2581struggle": 8869, "\u500d": 8870, "\u2581Car": 8871, "\u7684\u7cbe\u795e": 8872, "\u2581percent": 8873, "\u548c\u76d1\u6d4b": 8874, "American": 8875, "\u2581receipt": 8876, "\u5b89\u7406\u4f1a\u6210\u5458": 8877, "\u2581Relations": 8878, "\u2581quarter": 8879, "\u2581\u513f\u7ae5\u57fa\u91d1\u4f1a": 8880, "\u2581sixtieth": 8881, "\u2581appreciate": 8882, "\u2581presents": 8883, "\u51c6": 8884, "\u6267\u884c\u79d8\u4e66": 8885, "\u4e0a\u9762": 8886, "\u6279\u6b3e": 8887, "\u4fe1\u606f\u548c": 8888, "\u2581municipal": 8889, "\u548c\u6587\u5316": 8890, "\u2581Sa": 8891, "\u2581CEDAW": 8892, "\u6e2f\u53e3": 8893, "der": 8894, "\u8be5\u7f14\u7ea6\u56fd": 8895, "\u2581Estonia": 8896, "\u8054\u9ece\u90e8\u961f": 8897, "\u4f7f\u4ed6\u4eec": 8898, "\u590d\u6742\u7684": 8899, "1,": 8900, "\u2581Atomic": 8901, "\u4eca\u665a": 8902, "\u4f5c\u51fa\u52aa\u529b": 8903, "\u2581respected": 8904, "\u717d\u52a8": 8905, "\u963f\u62c9\u4f2f\u5229\u6bd4\u4e9a\u6c11\u4f17\u56fd": 8906, "\u90e8\u95e8\u7684": 8907, "\u7684\u6548\u529b": 8908, "\u2581journalists": 8909, "\u25812015": 8910, "\u5200": 8911, "\u2581allows": 8912, "\u7edd": 8913, "\u5e74\u521d": 8914, "8000}": 8915, "\u2581program": 8916, "\u2581telling": 8917, "\u662f\u4f60": 8918, "\u2581inhuman": 8919, "\u7b2c\u4e03": 8920, "\u2581earth": 8921, "\u56fd\u5bb6\u65b9\u6848": 8922, "\u5bf9\u6240\u6709": 8923, "\u2581Emirates": 8924, "\u914d\u5076": 8925, "\u2581cruel": 8926, "\u2581Benin": 8927, "va": 8928, "\u2581Expresse": 8929, "\u2581Capacity": 8930, "\u65e7": 8931, "\u6838\u5b9e": 8932, "\u8f85\u52a9": 8933, "\u5bf9\u7b56": 8934, "What": 8935, "\u2581managing": 8936, "\u2581eligible": 8937, "\u2581yours": 8938, "\u51fa\u552e": 8939, "\u2581\u5370\u5ea6": 8940, "\u7684\u4e0d\u540c": 8941, "\u9996\u5e2d": 8942, "\u5426\u5219": 8943, "\u2581Facility": 8944, "\u7684\u8fc7\u7a0b\u4e2d": 8945, "\u6211\u5728": 8946, "\u2581\u827e": 8947, "250": 8948, "\u2581formulate": 8949, ",700": 8950, "\u8be5\u95ee\u9898": 8951, "\u4e0d\u5fc5": 8952,
[...]
